<unk>	0
<s>	0
</s>	0
ال	-0
▁ال	-1
▁و	-2
▁أ	-3
▁م	-4
▁ل	-5
▁ب	-6
▁ف	-7
▁ع	-8
▁ي	-9
▁ق	-10
له	-11
لا	-12
ما	-13
نه	-14
▁في	-15
▁ك	-16
▁إ	-17
▁عل	-18
▁الم	-19
▁من	-20
▁ت	-21
▁ح	-22
ها	-23
ان	-24
ين	-25
▁أو	-26
يه	-27
ير	-28
وله	-29
▁أن	-30
لك	-31
ذا	-32
▁على	-33
ار	-34
▁ا	-35
نا	-36
▁ر	-37
لم	-38
ول	-39
▁عن	-40
إن	-41
▁ن	-42
▁قوله	-43
▁لا	-44
▁وال	-45
▁ه	-46
▁أي	-47
را	-48
▁س	-49
ته	-50
▁لأ	-51
▁الأ	-52
▁ش	-53
▁لم	-54
▁ص	-55
▁ذ	-56
▁عليه	-57
ية	-58
▁ما	-59
▁قال	-60
▁ول	-61
▁ث	-62
غير	-63
وا	-64
▁له	-65
▁بال	-66
▁وق	-67
بي	-68
▁ج	-69
▁بن	-70
▁كان	-71
ست	-72
▁إل	-73
عد	-74
ون	-75
▁الح	-76
▁الع	-77
من	-78
▁وه	-79
اب	-80
▁الله	-81
ده	-82
▁د	-83
▁وإن	-84
▁خ	-85
▁ذلك	-86
عل	-87
مر	-88
▁الق	-89
▁به	-90
▁وأ	-91
▁إن	-92
ري	-93
▁أنه	-94
▁مع	-95
وج	-96
▁ولا	-97
كر	-98
مه	-99
قد	-100
با	-101
عت	-102
▁لل	-103
▁منه	-104
▁وي	-105
▁غير	-106
مل	-107
بل	-108
مة	-109
اء	-110
حد	-111
رج	-112
▁الت	-113
بر	-114
يد	-115
▁ثم	-116
▁لأنه	-117
سلم	-118
▁فإن	-119
هر	-120
بد	-121
يل	-122
لف	-123
بن	-124
▁لو	-125
به	-126
طل	-127
عة	-128
▁لأن	-129
▁ولو	-130
▁يق	-131
▁بعد	-132
ور	-133
▁الإ	-134
صل	-135
هم	-136
▁بأ	-137
شر	-138
يا	-139
فر	-140
▁فيه	-141
▁وهو	-142
دة	-143
▁الن	-144
▁إذا	-145
▁فلا	-146
▁ز	-147
▁وك	-148
رب	-149
وم	-150
▁يك	-151
▁وا	-152
▁وج	-153
ائ	-154
▁كما	-155
▁الج	-156
صح	-157
كم	-158
في	-159
قا	-160
▁إلى	-161
فع	-162
▁ابن	-163
فس	-164
رض	-165
▁يج	-166
خر	-167
ذلك	-168
يس	-169
عا	-170
▁حد	-171
جر	-172
▁بي	-173
مد	-174
رف	-175
▁الس	-176
شت	-177
بة	-178
لى	-179
▁بع	-180
▁هذا	-181
▁الو	-182
▁مح	-183
▁يح	-184
▁يت	-185
ني	-186
يم	-187
▁أخ	-188
كا	-189
▁فق	-190
ذه	-191
▁وإ	-192
▁الش	-193
فا	-194
رك	-195
ود	-196
▁الخ	-197
▁مال	-198
▁وم	-199
▁قبل	-200
▁يع	-201
قي	-202
قر	-203
مي	-204
▁عنه	-205
▁غ	-206
عه	-207
لة	-208
▁شي	-209
▁فل	-210
▁قد	-211
▁فإ	-212
▁هو	-213
▁ط	-214
قة	-215
▁وت	-216
▁الث	-217
▁صلى	-218
ضا	-219
▁إلا	-220
بت	-221
ضي	-222
▁أح	-223
قه	-224
قت	-225
▁الد	-226
▁كل	-227
▁الص	-228
▁فأ	-229
لاف	-230
تى	-231
▁وسلم	-232
▁ين	-233
كل	-234
▁حدث	-235
يث	-236
سم	-237
▁إلخ	-238
▁رج	-239
▁أب	-240
▁الر	-241
▁وع	-242
▁بين	-243
مس	-244
▁بل	-245
▁عبد	-246
كن	-247
▁عند	-248
خت	-249
▁فه	-250
▁الذ	-251
▁الب	-252
▁ولم	-253
▁است	-254
يت	-255
رم	-256
قل	-257
لام	-258
▁تع	-259
وض	-260
دا	-261
▁الك	-262
وب	-263
لت	-264
▁ض	-265
▁أبي	-266
▁ذكر	-267
▁مث	-268
وز	-269
▁الز	-270
آخر	-271
▁بأن	-272
▁نص	-273
▁بم	-274
▁بد	-275
▁أم	-276
نها	-277
▁شر	-278
مان	-279
ام	-280
▁ون	-281
▁الف	-282
▁يد	-283
▁يكون	-284
▁حدثنا	-285
▁كال	-286
قط	-287
▁مس	-288
▁واحد	-289
فة	-290
▁وقد	-291
▁علي	-292
▁ظ	-293
اد	-294
▁بعض	-295
حو	-296
ثر	-297
حت	-298
وع	-299
▁حتى	-300
لاث	-301
ارة	-302
سب	-303
▁وب	-304
▁الغ	-305
خل	-306
صد	-307
عي	-308
▁عد	-309
هد	-310
اهر	-311
▁للم	-312
تي	-313
بيع	-314
▁غيره	-315
▁مت	-316
هل	-317
حا	-318
لها	-319
ذر	-320
▁بق	-321
▁قول	-322
لز	-323
▁وقال	-324
▁مر	-325
وي	-326
▁ان	-327
▁بخ	-328
خذ	-329
▁الأول	-330
▁فت	-331
نى	-332
وت	-333
▁ليس	-334
وف	-335
▁فال	-336
عم	-337
▁ومن	-338
▁عمر	-339
▁والم	-340
نة	-341
مام	-342
حق	-343
ظر	-344
▁الذي	-345
▁وفي	-346
فسه	-347
وق	-348
▁شيء	-349
نف	-350
▁فقال	-351
راء	-352
راد	-353
▁با	-354
▁إليه	-355
سل	-356
يب	-357
▁لما	-358
▁قب	-359
رد	-360
▁فإنه	-361
صر	-362
ضر	-363
تها	-364
▁يم	-365
▁بها	-366
قدم	-367
▁وح	-368
▁بح	-369
▁المت	-370
مع	-371
▁أبو	-372
▁الا	-373
▁وإلا	-374
قص	-375
▁صح	-376
▁يأ	-377
▁كانت	-378
▁ملك	-379
▁المس	-380
وى	-381
دهما	-382
فه	-383
كون	-384
تب	-385
اج	-386
وس	-387
▁بخلاف	-388
▁يكن	-389
▁أحد	-390
▁بما	-391
غيره	-392
از	-393
▁فهو	-394
▁الط	-395
▁إذ	-396
▁أيضا	-397
▁لي	-398
تق	-399
شتر	-400
▁فا	-401
▁محمد	-402
خرج	-403
▁فك	-404
▁مالك	-405
لث	-406
سول	-407
كثر	-408
▁فعل	-409
عتق	-410
▁وما	-411
▁لها	-412
▁يس	-413
▁وس	-414
▁ثلاث	-415
▁يست	-416
جب	-417
صب	-418
▁أع	-419
▁المال	-420
ره	-421
اح	-422
اني	-423
▁وقوله	-424
مت	-425
▁يوم	-426
تل	-427
رأ	-428
جل	-429
ذكر	-430
▁أش	-431
لاة	-432
يح	-433
▁القا	-434
جز	-435
▁وكذا	-436
▁وأما	-437
▁رسول	-438
الة	-439
زوج	-440
▁هذه	-441
شتري	-442
▁العبد	-443
دي	-444
طع	-445
▁عشر	-446
رة	-447
جد	-448
▁سب	-449
حل	-450
▁وعل	-451
▁رجل	-452
وجه	-453
تاب	-454
ولد	-455
▁حق	-456
سن	-457
ينة	-458
وه	-459
▁المد	-460
▁بينه	-461
شي	-462
▁فر	-463
وة	-464
الى	-465
بس	-466
فت	-467
ونه	-468
▁يجوز	-469
▁طل	-470
▁فيها	-471
ألة	-472
راه	-473
▁منها	-474
▁والأ	-475
▁وهذا	-476
▁هنا	-477
ماء	-478
▁يلز	-479
▁رأ	-480
سر	-481
▁حيث	-482
▁فيما	-483
▁وص	-484
▁بإ	-485
وص	-486
▁آخر	-487
▁ور	-488
▁مما	-489
▁قلت	-490
▁تعالى	-491
وط	-492
هما	-493
لاق	-494
▁البا	-495
▁عليها	-496
▁أهل	-497
▁نفسه	-498
▁أحدهما	-499
قول	-500
أن	-501
بع	-502
▁فإذا	-503
حر	-504
اره	-505
▁زوج	-506
يمة	-507
▁بذلك	-508
▁الإمام	-509
ظهر	-510
▁وهي	-511
فق	-512
▁المص	-513
▁لك	-514
▁عدم	-515
اص	-516
▁لت	-517
▁أخذ	-518
▁حكم	-519
▁وجه	-520
ئة	-521
▁يصح	-522
ورة	-523
ذن	-524
▁يؤ	-525
حة	-526
ضاء	-527
▁لز	-528
▁بت	-529
▁تن	-530
نث	-531
واء	-532
▁شرط	-533
▁يجب	-534
عين	-535
جه	-536
ناء	-537
▁منهما	-538
مرأ	-539
ذهب	-540
▁مات	-541
نس	-542
▁أص	-543
ئا	-544
▁وإنما	-545
ضم	-546
كره	-547
▁قل	-548
ولى	-549
▁ولد	-550
▁الرج	-551
▁ظاهر	-552
تين	-553
خص	-554
فظ	-555
▁بلا	-556
شرط	-557
▁مست	-558
▁النبي	-559
▁فس	-560
قب	-561
ولا	-562
▁مثل	-563
▁ونحو	-564
بير	-565
ثبت	-566
▁بغير	-567
▁البيع	-568
▁كذلك	-569
صرف	-570
▁ترك	-571
▁المست	-572
علق	-573
▁كذا	-574
جن	-575
▁مطل	-576
▁وليس	-577
▁صاح	-578
يف	-579
▁وإذا	-580
ظاهر	-581
▁فلو	-582
▁الزوج	-583
كاح	-584
▁نا	-585
▁حر	-586
▁روا	-587
▁يقول	-588
▁خمس	-589
▁وغيره	-590
نع	-591
ضل	-592
اع	-593
▁أرب	-594
▁تقدم	-595
▁دين	-596
▁الوا	-597
▁المصنف	-598
ارث	-599
جرة	-600
▁وط	-601
▁يب	-602
▁رضي	-603
رجع	-604
▁أما	-605
▁الل	-606
▁لكن	-607
▁تح	-608
اله	-609
▁ير	-610
▁اعت	-611
▁يف	-612
ئع	-613
طر	-614
▁بيع	-615
ضى	-616
▁فقد	-617
سا	-618
▁بقوله	-619
▁المع	-620
▁آ	-621
▁أمر	-622
▁شيئا	-623
بار	-624
بغ	-625
▁علم	-626
▁أخبر	-627
كة	-628
▁وف	-629
حه	-630
زل	-631
▁نحو	-632
▁وقيل	-633
ميع	-634
▁إنما	-635
صف	-636
▁الفر	-637
▁الحكم	-638
▁اخت	-639
يته	-640
▁حين	-641
▁المح	-642
يار	-643
▁الدين	-644
▁نصف	-645
▁رح	-646
▁بك	-647
▁وعن	-648
▁الحد	-649
ضمن	-650
عى	-651
▁أكثر	-652
داء	-653
عدم	-654
▁ثلاثة	-655
▁يعلم	-656
▁يش	-657
ينه	-658
▁وله	-659
اه	-660
▁تأ	-661
عله	-662
▁العقد	-663
▁فلم	-664
واز	-665
▁دون	-666
▁عنده	-667
سلام	-668
لامه	-669
▁الحا	-670
▁وأن	-671
▁يخ	-672
وال	-673
▁المشتري	-674
▁قيم	-675
ضع	-676
لي	-677
سه	-678
▁نعم	-679
صدق	-680
طلق	-681
▁الآخر	-682
▁عا	-683
▁وكان	-684
صحاب	-685
▁لأنها	-686
▁الاست	-687
▁بينهما	-688
▁أنها	-689
▁فله	-690
▁الأصل	-691
▁حال	-692
▁المسلم	-693
▁بالم	-694
ابن	-695
▁جاز	-696
▁معه	-697
▁الآ	-698
شترط	-699
وك	-700
▁رب	-701
وته	-702
▁ذكره	-703
▁كلام	-704
رهم	-705
▁امرأ	-706
زم	-707
ضه	-708
فل	-709
واب	-710
▁واحدة	-711
▁عرف	-712
ريق	-713
▁الصلاة	-714
▁حلف	-715
ات	-716
▁سم	-717
ثل	-718
▁لق	-719
▁سواء	-720
▁أس	-721
▁نس	-722
قف	-723
أنه	-724
ثة	-725
▁الولد	-726
▁العد	-727
يرة	-728
▁أقر	-729
مرة	-730
▁يقال	-731
▁للأ	-732
▁النا	-733
▁رد	-734
▁إس	-735
بغي	-736
▁أر	-737
▁المن	-738
▁التي	-739
▁أد	-740
ناه	-741
▁خرج	-742
ملة	-743
▁مسلم	-744
▁لن	-745
▁بعده	-746
ينا	-747
▁تب	-748
ئذ	-749
▁عب	-750
جارة	-751
▁صد	-752
▁هل	-753
▁أق	-754
ذي	-755
▁رحمه	-756
▁وقت	-757
اف	-758
▁بالأ	-759
▁الحر	-760
▁يلزمه	-761
رام	-762
▁سي	-763
يرا	-764
▁قاله	-765
▁قدر	-766
▁هي	-767
▁وث	-768
ضة	-769
قدر	-770
▁منهم	-771
▁الأرض	-772
▁أف	-773
▁لع	-774
▁ماله	-775
▁كله	-776
▁لهم	-777
▁بقي	-778
▁يده	-779
▁الثمن	-780
▁وكذلك	-781
راج	-782
ليل	-783
▁ولك	-784
▁وجد	-785
▁مطلقا	-786
شه	-787
▁مسألة	-788
رح	-789
نت	-790
▁بأنه	-791
منع	-792
▁فقط	-793
▁تق	-794
▁حج	-795
▁يز	-796
▁البائع	-797
▁ملكه	-798
▁وخ	-799
▁رك	-800
▁الأم	-801
▁يعني	-802
▁الوص	-803
كت	-804
فسخ	-805
▁الملك	-806
▁سنة	-807
▁يحت	-808
▁الشي	-809
▁يجز	-810
▁ست	-811
▁أج	-812
▁وذلك	-813
هن	-814
▁مثله	-815
▁زيد	-816
رق	-817
▁لمن	-818
▁أحمد	-819
قرار	-820
ذك	-821
وضع	-822
يادة	-823
مله	-824
ماع	-825
ولي	-826
▁دفع	-827
▁خلاف	-828
▁قبله	-829
فقة	-830
▁طال	-831
▁لح	-832
▁شاء	-833
▁والله	-834
▁الأب	-835
تهم	-836
▁يرجع	-837
صحيح	-838
▁سلم	-839
▁ألف	-840
▁نظر	-841
▁الشر	-842
▁قت	-843
▁العا	-844
غني	-845
وجب	-846
▁حل	-847
در	-848
عيد	-849
بيه	-850
▁حص	-851
▁حديث	-852
▁وعلى	-853
▁بعضهم	-854
▁بط	-855
لان	-856
رى	-857
سان	-858
قام	-859
عتبر	-860
▁الما	-861
كه	-862
▁ثلث	-863
▁قيمته	-864
افع	-865
▁القاضي	-866
▁يصل	-867
▁الحج	-868
يها	-869
▁عتق	-870
▁ونحوه	-871
هب	-872
▁صاحب	-873
▁أراد	-874
▁شع	-875
▁شرح	-876
▁درهم	-877
▁الرجل	-878
ذب	-879
▁بكر	-880
▁جه	-881
▁قتل	-882
▁معا	-883
▁رجع	-884
▁مؤ	-885
▁مد	-886
ئه	-887
بض	-888
▁حقه	-889
▁الكف	-890
وء	-891
▁بمن	-892
▁مج	-893
▁يثبت	-894
رأة	-895
أجر	-896
▁عط	-897
هادة	-898
▁قطع	-899
▁والت	-900
نين	-901
▁بر	-902
▁المر	-903
▁اله	-904
▁أعلم	-905
▁يأتي	-906
▁حني	-907
علم	-908
▁حا	-909
▁حك	-910
مال	-911
▁القاسم	-912
جوز	-913
فرق	-914
▁تت	-915
▁حنيفة	-916
انية	-917
▁وبين	-918
▁كف	-919
▁يخرج	-920
▁كلامه	-921
▁وعليه	-922
كان	-923
ناية	-924
ونة	-925
خرى	-926
▁يلزم	-927
▁بالت	-928
غل	-929
▁عقد	-930
خير	-931
صير	-932
لاء	-933
صار	-934
▁وز	-935
▁يرد	-936
▁نق	-937
▁تس	-938
▁وقع	-939
▁أت	-940
▁عمرو	-941
▁قيمة	-942
وان	-943
▁المج	-944
يق	-945
هاد	-946
▁فرض	-947
▁قيل	-948
▁الثاني	-949
▁القول	-950
▁الميت	-951
▁وجب	-952
▁فما	-953
يض	-954
▁ود	-955
▁فكان	-956
▁فصل	-957
▁ات	-958
▁ممن	-959
▁والع	-960
▁اد	-961
▁المؤ	-962
▁كا	-963
▁وش	-964
▁أولا	-965
ضرب	-966
▁مق	-967
▁صحيح	-968
▁يضمن	-969
▁اشت	-970
▁أخبرنا	-971
ارح	-972
معة	-973
وقف	-974
▁قر	-975
▁بالإ	-976
▁المذك	-977
▁ضر	-978
عها	-979
ماعة	-980
▁مثلا	-981
طأ	-982
الف	-983
▁سعيد	-984
شترى	-985
▁امرأة	-986
▁عليهم	-987
▁يقت	-988
باس	-989
▁بينة	-990
▁أولى	-991
▁جميع	-992
▁لعدم	-993
▁عشرة	-994
▁بج	-995
▁باب	-996
▁كونه	-997
▁الكتاب	-998
▁خمسة	-999
▁المرأة	-1000
▁أرض	-1001
جاب	-1002
▁أبيه	-1003
قى	-1004
يز	-1005
▁يملك	-1006
▁المراد	-1007
وما	-1008
▁جز	-1009
▁مش	-1010
جنبي	-1011
حدث	-1012
كاتب	-1013
▁كتاب	-1014
▁جعل	-1015
▁فليس	-1016
ريد	-1017
مته	-1018
▁المسألة	-1019
▁أصل	-1020
طلب	-1021
▁شا	-1022
▁كث	-1023
▁احت	-1024
ارت	-1025
يلة	-1026
▁أربعة	-1027
▁وين	-1028
عنى	-1029
▁الثلث	-1030
▁بش	-1031
▁أول	-1032
▁بالع	-1033
▁المعت	-1034
فعة	-1035
قيق	-1036
▁بث	-1037
▁الرح	-1038
▁الوك	-1039
خبر	-1040
▁عين	-1041
▁الناس	-1042
ذف	-1043
حب	-1044
▁ثبت	-1045
طال	-1046
زلة	-1047
▁العتق	-1048
▁كأن	-1049
▁نفس	-1050
▁تم	-1051
▁عق	-1052
▁صلا	-1053
▁واست	-1054
أم	-1055
▁تكون	-1056
▁يمكن	-1057
ائز	-1058
▁فح	-1059
لط	-1060
ارية	-1061
▁أنت	-1062
▁الإسلام	-1063
▁إنه	-1064
▁أسلم	-1065
وجد	-1066
▁والح	-1067
▁الأولى	-1068
ضح	-1069
قطع	-1070
▁يغ	-1071
▁وغير	-1072
▁العين	-1073
ريم	-1074
يام	-1075
▁محل	-1076
▁الماء	-1077
▁فيكون	-1078
▁عم	-1079
▁يوس	-1080
▁وابن	-1081
ائل	-1082
▁قا	-1083
يمين	-1084
▁وبه	-1085
وكل	-1086
▁شيخ	-1087
فيه	-1088
▁نقص	-1089
أتي	-1090
▁يشترط	-1091
راءة	-1092
قها	-1093
▁عنها	-1094
كاة	-1095
▁معنى	-1096
ابت	-1097
جا	-1098
طي	-1099
▁تف	-1100
▁ويت	-1101
بلغ	-1102
خول	-1103
راب	-1104
▁دخل	-1105
▁قبض	-1106
ابة	-1107
▁الي	-1108
▁يوسف	-1109
دم	-1110
▁لإ	-1111
▁قدم	-1112
▁صلاة	-1113
عام	-1114
وية	-1115
▁دار	-1116
▁الوقف	-1117
تهن	-1118
▁الحاكم	-1119
▁ظهر	-1120
▁وذكر	-1121
طه	-1122
▁يمنع	-1123
▁بطل	-1124
▁والإ	-1125
▁المتن	-1126
ثه	-1127
▁تلك	-1128
▁أوص	-1129
ومه	-1130
▁ولكن	-1131
▁يدخل	-1132
▁بس	-1133
يره	-1134
▁دع	-1135
▁شري	-1136
▁أخذه	-1137
سمة	-1138
▁رواه	-1139
▁أه	-1140
▁البل	-1141
▁فلان	-1142
▁الأمر	-1143
▁النكاح	-1144
شة	-1145
صاص	-1146
فتح	-1147
▁لقوله	-1148
▁خلا	-1149
ئل	-1150
شيء	-1151
▁فج	-1152
▁مخ	-1153
▁الض	-1154
▁قصد	-1155
▁الطلاق	-1156
▁المذهب	-1157
▁يأخذ	-1158
ختلف	-1159
▁يعتق	-1160
واه	-1161
▁حينئذ	-1162
انت	-1163
طلاق	-1164
▁السيد	-1165
▁قط	-1166
▁لزمه	-1167
▁ينبغي	-1168
لق	-1169
رع	-1170
رجل	-1171
▁الحق	-1172
ؤه	-1173
غر	-1174
▁رواية	-1175
وات	-1176
▁بالح	-1177
باع	-1178
▁الوصية	-1179
شد	-1180
غة	-1181
▁إب	-1182
ومة	-1183
▁يقبل	-1184
اق	-1185
ياس	-1186
▁اث	-1187
▁عما	-1188
▁الأصح	-1189
طب	-1190
حاق	-1191
▁حمل	-1192
▁أقل	-1193
▁لكل	-1194
▁يا	-1195
▁شهد	-1196
▁وفيه	-1197
▁مدة	-1198
راهم	-1199
▁وكل	-1200
▁بالن	-1201
▁طالق	-1202
سبب	-1203
وضة	-1204
فى	-1205
بهة	-1206
▁المسجد	-1207
▁يقع	-1208
▁معت	-1209
▁يحي	-1210
لفظ	-1211
▁أبا	-1212
▁القر	-1213
يبه	-1214
▁فع	-1215
▁بنت	-1216
▁أشهر	-1217
▁اقت	-1218
▁ستة	-1219
▁اشترى	-1220
الح	-1221
نان	-1222
▁لفظ	-1223
▁العمل	-1224
فعل	-1225
مينه	-1226
▁جائز	-1227
▁يحرم	-1228
جرد	-1229
▁رجلا	-1230
شرة	-1231
ورثة	-1232
▁زاد	-1233
▁الكل	-1234
▁الرحمن	-1235
▁الشارح	-1236
ائر	-1237
▁تحت	-1238
▁فمن	-1239
طة	-1240
مكن	-1241
▁فهل	-1242
▁فعليه	-1243
▁معل	-1244
▁بشرط	-1245
▁أجر	-1246
ارج	-1247
▁البي	-1248
تهى	-1249
صة	-1250
▁جاء	-1251
وبة	-1252
صور	-1253
دل	-1254
▁نكاح	-1255
قيقة	-1256
▁وهب	-1257
▁تزوج	-1258
▁اليمين	-1259
▁صار	-1260
اصب	-1261
▁الوقت	-1262
كف	-1263
▁رم	-1264
لاثة	-1265
▁فهي	-1266
▁أخرج	-1267
▁يحيى	-1268
▁أمة	-1269
▁المثل	-1270
▁المولى	-1271
▁عز	-1272
▁جنس	-1273
▁ضمن	-1274
▁للت	-1275
▁المالك	-1276
▁المذكور	-1277
جس	-1278
ظم	-1279
▁لهما	-1280
ضان	-1281
▁كس	-1282
▁صحة	-1283
سي	-1284
سمى	-1285
▁انت	-1286
▁غيرها	-1287
برة	-1288
▁المبيع	-1289
▁وير	-1290
▁والث	-1291
▁تلف	-1292
▁يسقط	-1293
▁الصحيح	-1294
▁بمنزلة	-1295
قض	-1296
▁ولل	-1297
ركة	-1298
▁بص	-1299
▁يل	-1300
▁جمع	-1301
نهاية	-1302
طا	-1303
▁فب	-1304
قبل	-1305
▁وجوب	-1306
▁قري	-1307
▁لذلك	-1308
حن	-1309
مائة	-1310
▁بنفسه	-1311
▁الجمعة	-1312
▁عباس	-1313
▁العلم	-1314
▁الشيخ	-1315
افعي	-1316
▁ابت	-1317
▁الوكيل	-1318
▁أك	-1319
لزمه	-1320
▁أوصى	-1321
▁قلنا	-1322
ائه	-1323
وبا	-1324
▁يظهر	-1325
أل	-1326
▁أعتق	-1327
دب	-1328
سد	-1329
ربع	-1330
شهد	-1331
دفع	-1332
يمم	-1333
▁الوجه	-1334
زة	-1335
▁عبارة	-1336
▁وقف	-1337
▁ولي	-1338
قراره	-1339
▁صاحبه	-1340
▁سمعت	-1341
▁جهة	-1342
▁خلافا	-1343
▁لنفسه	-1344
حرم	-1345
▁ضمان	-1346
▁الحسن	-1347
رث	-1348
▁إما	-1349
▁ولأن	-1350
وعه	-1351
▁وض	-1352
▁الأمة	-1353
كي	-1354
حرام	-1355
▁أخرى	-1356
▁شيخنا	-1357
▁صرح	-1358
▁منع	-1359
▁بيعه	-1360
▁هر	-1361
▁جواز	-1362
▁فعله	-1363
▁فن	-1364
وح	-1365
وجود	-1366
▁الكا	-1367
راض	-1368
▁بلغ	-1369
▁عائ	-1370
دهم	-1371
▁ذا	-1372
▁مرة	-1373
▁القيمة	-1374
▁المدونة	-1375
جة	-1376
برأ	-1377
بين	-1378
▁تصح	-1379
▁وظاهر	-1380
أمل	-1381
دين	-1382
▁فم	-1383
▁أصحاب	-1384
▁البينة	-1385
الم	-1386
حقق	-1387
ضار	-1388
كين	-1389
▁سن	-1390
▁عرفة	-1391
▁دا	-1392
متنع	-1393
▁كون	-1394
▁نذر	-1395
▁القضاء	-1396
▁عت	-1397
▁فرق	-1398
▁يحل	-1399
▁يحنث	-1400
▁يذكر	-1401
▁تك	-1402
▁مرض	-1403
▁النس	-1404
▁بني	-1405
▁حيا	-1406
ئت	-1407
بح	-1408
▁مهر	-1409
خذه	-1410
وجوب	-1411
▁الموت	-1412
▁المقر	-1413
▁حصل	-1414
▁يريد	-1415
▁الحديث	-1416
▁البد	-1417
ثله	-1418
▁بيت	-1419
▁يعت	-1420
عر	-1421
حقا	-1422
سمع	-1423
وبه	-1424
▁باع	-1425
▁خص	-1426
▁شهر	-1427
ريح	-1428
▁حي	-1429
▁عبي	-1430
بو	-1431
▁أيام	-1432
▁انتهى	-1433
ونها	-1434
▁فرع	-1435
▁قالت	-1436
▁نه	-1437
▁بشيء	-1438
يله	-1439
▁إسحاق	-1440
اجة	-1441
الث	-1442
▁جع	-1443
▁إذن	-1444
▁حم	-1445
▁للع	-1446
▁السب	-1447
▁أبى	-1448
▁رفع	-1449
▁بب	-1450
▁رأس	-1451
طء	-1452
▁سقط	-1453
كس	-1454
▁نف	-1455
▁لب	-1456
▁ها	-1457
كنه	-1458
▁ففي	-1459
▁هريرة	-1460
▁ماء	-1461
▁فلما	-1462
صحة	-1463
▁الدية	-1464
لفه	-1465
▁جل	-1466
▁للإ	-1467
▁المغ	-1468
سة	-1469
وده	-1470
▁الفا	-1471
▁الشرط	-1472
قصود	-1473
▁يزيد	-1474
▁شه	-1475
حتمل	-1476
▁الوطء	-1477
بيل	-1478
▁الخط	-1479
▁مائة	-1480
▁موضع	-1481
▁ينت	-1482
▁عمل	-1483
▁ادعى	-1484
▁يكره	-1485
▁تنبيه	-1486
▁لغيره	-1487
ئها	-1488
فسد	-1489
وهم	-1490
▁تقد	-1491
▁أجرة	-1492
▁القبض	-1493
دية	-1494
▁الرهن	-1495
تم	-1496
▁دم	-1497
▁لغير	-1498
قرب	-1499
▁صلاته	-1500
▁الخلاف	-1501
▁يضر	-1502
زع	-1503
رفة	-1504
فاء	-1505
عب	-1506
عط	-1507
▁خال	-1508
▁ولده	-1509
لزم	-1510
▁الخيار	-1511
باح	-1512
قين	-1513
▁قتله	-1514
▁يعرف	-1515
▁بدل	-1516
▁عاد	-1517
▁وضع	-1518
▁كأ	-1519
▁المسلمين	-1520
▁خر	-1521
▁دينه	-1522
▁كالم	-1523
▁والخ	-1524
▁عائشة	-1525
تك	-1526
▁تعل	-1527
▁نقل	-1528
▁أث	-1529
▁للح	-1530
▁الكلام	-1531
▁أل	-1532
▁أذن	-1533
▁فسخ	-1534
▁موته	-1535
▁يحصل	-1536
يلا	-1537
ائدة	-1538
▁بيان	-1539
▁المق	-1540
▁الإجارة	-1541
▁مرا	-1542
▁يقتضي	-1543
▁اليد	-1544
▁المشه	-1545
ورا	-1546
▁خل	-1547
▁بأس	-1548
▁ميت	-1549
▁رده	-1550
▁أصاب	-1551
بعض	-1552
▁الرا	-1553
شا	-1554
▁ورد	-1555
▁بسبب	-1556
▁عبدا	-1557
▁قضاء	-1558
▁وارث	-1559
▁الأخ	-1560
▁بناء	-1561
▁سيده	-1562
▁وأنه	-1563
ارا	-1564
مدا	-1565
▁سا	-1566
▁عبده	-1567
▁حدثني	-1568
يط	-1569
واف	-1570
▁إخ	-1571
▁حرم	-1572
▁خبر	-1573
▁ضرب	-1574
▁غسل	-1575
▁الورثة	-1576
▁لف	-1577
▁يدل	-1578
ظن	-1579
▁بعضه	-1580
▁كت	-1581
عتقه	-1582
▁زوجها	-1583
ارق	-1584
بني	-1585
▁بقدر	-1586
▁المدة	-1587
▁لص	-1588
▁إحد	-1589
▁سبب	-1590
حديث	-1591
▁لج	-1592
رأيت	-1593
▁يحلف	-1594
▁إليها	-1595
▁الكتابة	-1596
زا	-1597
▁فين	-1598
▁المعتمد	-1599
▁وجود	-1600
▁المكاتب	-1601
وصى	-1602
▁الإن	-1603
▁اختلف	-1604
عض	-1605
جلس	-1606
▁فعلى	-1607
▁الثانية	-1608
▁أنا	-1609
▁سبق	-1610
▁الرد	-1611
▁الدار	-1612
▁يحتمل	-1613
▁مكة	-1614
▁معين	-1615
▁نظ	-1616
▁أربع	-1617
▁الأن	-1618
▁قبضه	-1619
وث	-1620
ذرعي	-1621
فهوم	-1622
▁والج	-1623
▁النصف	-1624
لب	-1625
مسة	-1626
▁ضم	-1627
▁طلب	-1628
▁زوجته	-1629
جت	-1630
▁أكل	-1631
▁أشار	-1632
▁يؤخذ	-1633
▁يوما	-1634
▁قام	-1635
▁ويق	-1636
▁بمعنى	-1637
فرد	-1638
▁محت	-1639
▁ويست	-1640
▁فيهما	-1641
فو	-1642
▁يص	-1643
▁تجب	-1644
▁سلمة	-1645
▁يوجد	-1646
صيل	-1647
ملي	-1648
▁ألا	-1649
▁نوى	-1650
▁القد	-1651
▁شهاد	-1652
بات	-1653
بوت	-1654
سليم	-1655
▁الشافعي	-1656
▁بيد	-1657
▁الدم	-1658
الب	-1659
▁يط	-1660
▁شخص	-1661
▁نية	-1662
▁الإقرار	-1663
ثمان	-1664
▁أجز	-1665
▁ومنه	-1666
رش	-1667
خروج	-1668
▁بيده	-1669
▁تد	-1670
▁دخ	-1671
▁ليست	-1672
▁العدة	-1673
▁نصيبه	-1674
رس	-1675
جار	-1676
▁شك	-1677
فيان	-1678
▁وهل	-1679
▁وتع	-1680
▁أفضل	-1681
▁ثابت	-1682
▁تكن	-1683
▁وعشر	-1684
▁ولأنه	-1685
قبة	-1686
▁خير	-1687
▁عطف	-1688
▁ويؤ	-1689
▁جماعة	-1690
قات	-1691
قتل	-1692
▁لله	-1693
▁يعتبر	-1694
قاء	-1695
▁بهذا	-1696
▁طريق	-1697
▁الأذرعي	-1698
▁جمي	-1699
ضية	-1700
▁الجز	-1701
▁انظر	-1702
▁السلام	-1703
▁الغاصب	-1704
▁سل	-1705
▁البر	-1706
▁الثوب	-1707
▁المحل	-1708
▁المنف	-1709
▁اليوم	-1710
▁والن	-1711
حمد	-1712
فاق	-1713
▁أمه	-1714
▁الساب	-1715
▁زيادة	-1716
عدد	-1717
وفي	-1718
▁الحمل	-1719
▁المرتهن	-1720
▁قائ	-1721
▁تقبل	-1722
يع	-1723
ائب	-1724
رضا	-1725
▁حنث	-1726
▁مكا	-1727
▁تصرف	-1728
▁يقطع	-1729
▁عليهما	-1730
▁وغ	-1731
▁بحيث	-1732
▁وعند	-1733
اري	-1734
▁جعفر	-1735
▁الولي	-1736
▁بز	-1737
▁جزء	-1738
▁ووجه	-1739
▁الحال	-1740
▁الفرق	-1741
هان	-1742
▁البحر	-1743
لاح	-1744
▁يجد	-1745
▁الرك	-1746
▁يبطل	-1747
▁رمضان	-1748
وغ	-1749
كذا	-1750
▁كم	-1751
▁وعنه	-1752
▁أرأيت	-1753
▁الضمان	-1754
▁الظاهر	-1755
بيب	-1756
▁اسم	-1757
▁روي	-1758
هاب	-1759
▁الرجوع	-1760
▁سئل	-1761
▁حكمه	-1762
▁تر	-1763
▁تقر	-1764
▁فالأ	-1765
▁سفيان	-1766
▁ويكون	-1767
وعا	-1768
▁لغ	-1769
راهة	-1770
▁بألف	-1771
رز	-1772
▁فوق	-1773
▁فيمن	-1774
▁محرم	-1775
▁جر	-1776
▁ينا	-1777
سله	-1778
ضرر	-1779
▁موت	-1780
▁يمين	-1781
▁السنة	-1782
▁الغير	-1783
▁زمن	-1784
صاب	-1785
ياد	-1786
▁الفت	-1787
▁وحده	-1788
▁الفرض	-1789
▁المنا	-1790
الك	-1791
ربعة	-1792
▁سيد	-1793
▁الغسل	-1794
هدي	-1795
▁حجر	-1796
▁الحل	-1797
▁صغير	-1798
تهما	-1799
▁ثمان	-1800
▁رأيت	-1801
حم	-1802
بسه	-1803
ونس	-1804
▁عجز	-1805
▁نفقة	-1806
▁الغر	-1807
▁رأسه	-1808
▁يجعل	-1809
▁عي	-1810
▁هش	-1811
▁الوارث	-1812
جود	-1813
▁فلي	-1814
▁فيت	-1815
عود	-1816
▁أعط	-1817
▁روى	-1818
▁فالم	-1819
فذ	-1820
يهما	-1821
▁قيد	-1822
▁وخرج	-1823
▁يفعل	-1824
جاز	-1825
▁اب	-1826
نب	-1827
▁عر	-1828
وكيل	-1829
▁ثمن	-1830
عتبار	-1831
▁يسلم	-1832
غت	-1833
▁موس	-1834
راهيم	-1835
دى	-1836
ختار	-1837
▁يقل	-1838
▁ويحتمل	-1839
▁خاص	-1840
▁شعبة	-1841
يات	-1842
ياه	-1843
جماع	-1844
▁قسم	-1845
▁ولهذا	-1846
آن	-1847
▁أثر	-1848
▁بالش	-1849
▁الفسخ	-1850
يده	-1851
▁لأجل	-1852
▁يونس	-1853
انة	-1854
▁بائ	-1855
▁صفة	-1856
▁والش	-1857
▁الموكل	-1858
عقد	-1859
كام	-1860
▁مأ	-1861
▁الوض	-1862
▁والب	-1863
▁تحل	-1864
▁حجة	-1865
▁ذهب	-1866
عدة	-1867
قامة	-1868
▁نقله	-1869
▁يدفع	-1870
▁الأجرة	-1871
▁المحرم	-1872
ابل	-1873
بره	-1874
صلح	-1875
ياء	-1876
▁الأح	-1877
▁عبيد	-1878
فعله	-1879
▁ويح	-1880
▁الوضوء	-1881
ند	-1882
▁تز	-1883
▁لش	-1884
▁أتى	-1885
▁دية	-1886
▁التح	-1887
▁تخ	-1888
▁وجل	-1889
▁أمره	-1890
▁القطع	-1891
▁يمينه	-1892
رائ	-1893
▁لئ	-1894
▁مك	-1895
▁بضم	-1896
▁يصلي	-1897
▁دراهم	-1898
▁متعلق	-1899
▁بفتح	-1900
▁الهبة	-1901
ضاه	-1902
عيب	-1903
راهن	-1904
▁المأ	-1905
▁أصب	-1906
▁فتح	-1907
▁التع	-1908
▁فإنها	-1909
▁المدعي	-1910
ضت	-1911
ألت	-1912
موع	-1913
▁محله	-1914
▁إلي	-1915
▁ارت	-1916
▁مقت	-1917
▁الخص	-1918
▁فهذا	-1919
▁ثلاثا	-1920
▁سمع	-1921
▁أصلا	-1922
▁أصله	-1923
▁النه	-1924
▁تعلق	-1925
▁طلاق	-1926
▁عص	-1927
▁مقد	-1928
▁العل	-1929
▁بالث	-1930
▁فأما	-1931
▁يتعلق	-1932
▁القسمة	-1933
ائد	-1934
داق	-1935
▁عذر	-1936
▁وان	-1937
▁المنع	-1938
▁الواحد	-1939
▁المستأجر	-1940
▁ومع	-1941
▁الحرب	-1942
▁حقيقة	-1943
▁فكذلك	-1944
▁سه	-1945
▁التصرف	-1946
هور	-1947
▁راج	-1948
▁كثير	-1949
▁نصيب	-1950
▁الباقي	-1951
ثنى	-1952
▁بهما	-1953
▁الفعل	-1954
مره	-1955
نثى	-1956
▁حن	-1957
▁الابن	-1958
▁الإحرام	-1959
▁خيار	-1960
شرب	-1961
وصي	-1962
▁إح	-1963
▁ضا	-1964
وقوف	-1965
▁للا	-1966
▁والق	-1967
▁يشهد	-1968
▁الثلاثة	-1969
ريض	-1970
نية	-1971
▁فضل	-1972
▁ثمنه	-1973
▁الألف	-1974
▁ابتداء	-1975
▁إبراهيم	-1976
اهد	-1977
بنت	-1978
▁وبعد	-1979
▁الأجل	-1980
▁النظر	-1981
▁شهادة	-1982
است	-1983
▁سعد	-1984
▁وصح	-1985
▁وطء	-1986
▁صالح	-1987
▁يقتل	-1988
▁يحتاج	-1989
امع	-1990
▁فاس	-1991
▁وصل	-1992
▁يعد	-1993
▁كلها	-1994
▁والس	-1995
ادة	-1996
عاد	-1997
▁مص	-1998
▁صوم	-1999
▁الأس	-2000
▁بينهم	-2001
▁الزوجة	-2002
شار	-2003
ونا	-2004
▁فص	-2005
▁قرب	-2006
▁كنت	-2007
▁الجد	-2008
▁القتل	-2009
▁الشهادة	-2010
جي	-2011
▁غر	-2012
▁تست	-2013
▁رشد	-2014
▁المز	-2015
▁الأصحاب	-2016
دع	-2017
عيف	-2018
براء	-2019
عادة	-2020
▁ترى	-2021
▁الأش	-2022
▁داود	-2023
▁يصير	-2024
وذ	-2025
تان	-2026
▁بالك	-2027
▁بعينه	-2028
ينئذ	-2029
▁بالق	-2030
▁الواجب	-2031
أخذ	-2032
قية	-2033
▁مكر	-2034
▁هلك	-2035
▁أقول	-2036
▁فذكر	-2037
▁وقول	-2038
▁بالنس	-2039
▁عندنا	-2040
▁والمراد	-2041
زال	-2042
▁قص	-2043
▁أنس	-2044
▁أطلق	-2045
▁فصار	-2046
جع	-2047
دس	-2048
صوب	-2049
هار	-2050
▁كتب	-2051
▁سبعة	-2052
▁كفارة	-2053
▁ويجوز	-2054
حقه	-2055
هنا	-2056
بارة	-2057
▁باعه	-2058
▁الحجر	-2059
واحد	-2060
▁أجنبي	-2061
▁ومنها	-2062
▁المشهور	-2063
نم	-2064
▁كق	-2065
▁أهله	-2066
▁لئلا	-2067
▁القصاص	-2068
اة	-2069
لما	-2070
ميز	-2071
▁صدق	-2072
لع	-2073
يص	-2074
▁تط	-2075
ركشي	-2076
▁ثوب	-2077
▁كيف	-2078
▁اعتبار	-2079
▁تبين	-2080
▁فليت	-2081
▁هشام	-2082
▁الروض	-2083
ربح	-2084
▁حس	-2085
حتمال	-2086
▁بالس	-2087
▁يقدر	-2088
▁يكفي	-2089
▁العامل	-2090
▁الشيء	-2091
كسه	-2092
▁تركه	-2093
بها	-2094
فرض	-2095
لكه	-2096
▁وبي	-2097
حدهما	-2098
▁بدون	-2099
▁وأخذ	-2100
▁امرأته	-2101
▁لس	-2102
▁كلا	-2103
▁وأم	-2104
▁المخ	-2105
▁لكنه	-2106
▁البيت	-2107
▁النسب	-2108
▁ومثله	-2109
قع	-2110
تبة	-2111
عير	-2112
▁يتم	-2113
▁اشترا	-2114
▁ظاهره	-2115
▁عثمان	-2116
▁الجواب	-2117
▁عدة	-2118
▁ذمته	-2119
▁عادة	-2120
▁والص	-2121
▁الصوم	-2122
▁يستحق	-2123
▁إقراره	-2124
ودة	-2125
ورث	-2126
ويل	-2127
حقاق	-2128
▁عمدا	-2129
▁نصفه	-2130
ئر	-2131
أخر	-2132
دخل	-2133
روف	-2134
مار	-2135
▁خطأ	-2136
▁لكونه	-2137
▁الراهن	-2138
▁الروضة	-2139
ركه	-2140
عمل	-2141
فضل	-2142
ماد	-2143
▁صرف	-2144
▁بالغ	-2145
▁البناء	-2146
بطل	-2147
شية	-2148
يدا	-2149
▁محر	-2150
▁واجب	-2151
▁وبال	-2152
▁يأكل	-2153
▁يبقى	-2154
▁استأجر	-2155
انا	-2156
▁تغ	-2157
جاسة	-2158
▁يصدق	-2159
▁الصغير	-2160
▁المنفعة	-2161
▁يعط	-2162
▁الصد	-2163
▁صدقة	-2164
دمي	-2165
شبه	-2166
▁بغ	-2167
بائع	-2168
▁عدل	-2169
▁أحرم	-2170
▁يوجب	-2171
▁الجناية	-2172
وضأ	-2173
▁جنا	-2174
▁أمكن	-2175
▁بدين	-2176
▁يحكم	-2177
▁سيأتي	-2178
ثم	-2179
ديعة	-2180
مانه	-2181
▁فرا	-2182
▁بالج	-2183
▁كافر	-2184
▁يبلغ	-2185
▁ينظر	-2186
ختص	-2187
مسك	-2188
عتين	-2189
▁بعدها	-2190
▁شريكه	-2191
▁والذي	-2192
ودع	-2193
مرأة	-2194
▁للس	-2195
▁مسا	-2196
▁وهم	-2197
زوجها	-2198
▁يديه	-2199
▁معناه	-2200
ارض	-2201
▁دل	-2202
▁بطلت	-2203
▁إقرار	-2204
▁جميعا	-2205
▁وينبغي	-2206
▁تج	-2207
عمال	-2208
▁الأع	-2209
▁وأبو	-2210
▁الزكاة	-2211
دت	-2212
جور	-2213
▁تمام	-2214
▁المهر	-2215
امت	-2216
▁جد	-2217
صلحة	-2218
▁أحق	-2219
▁شرع	-2220
▁وعد	-2221
▁حاجة	-2222
▁علمه	-2223
▁والد	-2224
▁قيمتها	-2225
▁بالنسبة	-2226
قاط	-2227
لاك	-2228
يبة	-2229
شارة	-2230
▁غصب	-2231
▁قوم	-2232
▁كره	-2233
▁كمن	-2234
▁أشهب	-2235
▁طلقت	-2236
▁لرجل	-2237
▁نحوه	-2238
▁الحيض	-2239
▁الصبي	-2240
▁المعنى	-2241
طن	-2242
ابر	-2243
اية	-2244
▁نز	-2245
▁الظ	-2246
▁يضم	-2247
▁هناك	-2248
▁يقصد	-2249
ؤها	-2250
طلا	-2251
▁ورث	-2252
▁أشبه	-2253
▁باطل	-2254
▁ولدت	-2255
▁تعذر	-2256
▁يعمل	-2257
▁حيض	-2258
▁زال	-2259
▁الحارث	-2260
▁للمشتري	-2261
قلة	-2262
وفا	-2263
▁عيب	-2264
▁تبعا	-2265
▁حصته	-2266
▁يحمل	-2267
▁فأجاب	-2268
▁فائدة	-2269
▁النفقة	-2270
فعه	-2271
▁ظن	-2272
▁فان	-2273
▁لكان	-2274
فاع	-2275
▁بالب	-2276
▁فمات	-2277
▁بمجرد	-2278
▁واحدا	-2279
كح	-2280
▁جن	-2281
▁سلي	-2282
▁سهم	-2283
▁الجمع	-2284
▁الشرع	-2285
▁الشري	-2286
▁بدليل	-2287
▁مثلها	-2288
فلس	-2289
يهم	-2290
▁صف	-2291
يراث	-2292
▁أجل	-2293
▁زياد	-2294
▁العيب	-2295
▁ونحوها	-2296
▁الزركشي	-2297
بدا	-2298
ذنه	-2299
▁بكل	-2300
▁الحي	-2301
▁فاست	-2302
على	-2303
▁بهم	-2304
▁لزم	-2305
▁ابنه	-2306
▁وثلث	-2307
باء	-2308
وافق	-2309
▁حالة	-2310
▁الحرم	-2311
▁وتقدم	-2312
▁القرآن	-2313
ابه	-2314
انع	-2315
قوط	-2316
▁للش	-2317
▁حرام	-2318
▁يقوم	-2319
▁الأخذ	-2320
▁الكافر	-2321
▁دره	-2322
▁يخل	-2323
▁التعل	-2324
يدة	-2325
▁صل	-2326
بادة	-2327
ولاه	-2328
▁حرا	-2329
▁صبي	-2330
▁كفر	-2331
▁بعدم	-2332
▁المأم	-2333
فن	-2334
بان	-2335
يين	-2336
▁إذنه	-2337
▁بإذن	-2338
▁فأنت	-2339
▁وعدم	-2340
▁المسا	-2341
▁أرش	-2342
▁ونص	-2343
▁بالخ	-2344
▁عينه	-2345
▁ويجب	-2346
▁بذ	-2347
▁حسن	-2348
▁لأب	-2349
▁أقرب	-2350
▁التأ	-2351
▁خلافه	-2352
▁ثمانية	-2353
بته	-2354
ناع	-2355
وها	-2356
حاصل	-2357
ولها	-2358
▁فات	-2359
▁نوع	-2360
▁بمال	-2361
▁دعوى	-2362
▁ركعة	-2363
▁المضار	-2364
▁مف	-2365
▁ضرر	-2366
▁كثر	-2367
▁نفي	-2368
▁شبهة	-2369
▁وروى	-2370
▁الذمة	-2371
▁بعضها	-2372
رجح	-2373
▁مل	-2374
▁لنا	-2375
▁مذهب	-2376
▁نفسها	-2377
▁مغ	-2378
فساد	-2379
▁رضا	-2380
▁عوض	-2381
▁ممل	-2382
▁دليل	-2383
ضاف	-2384
▁أقام	-2385
▁لصاح	-2386
▁والك	-2387
▁الكفارة	-2388
▁المستحق	-2389
تد	-2390
دخ	-2391
بيت	-2392
صله	-2393
صول	-2394
▁بان	-2395
▁عندي	-2396
▁الدخول	-2397
مين	-2398
▁تعين	-2399
▁عتقه	-2400
▁وترك	-2401
▁يخفى	-2402
▁الروا	-2403
▁المطل	-2404
▁نهاية	-2405
شاء	-2406
▁نائ	-2407
▁يقدم	-2408
▁جارية	-2409
▁معلوم	-2410
▁الأكثر	-2411
▁الخطاب	-2412
▁السابق	-2413
سمه	-2414
▁خط	-2415
جنون	-2416
▁استح	-2417
▁تقرر	-2418
▁صورة	-2419
▁علمت	-2420
▁السلم	-2421
▁المشر	-2422
▁منفعة	-2423
▁باعتبار	-2424
داد	-2425
▁كن	-2426
بيرة	-2427
▁تعد	-2428
▁أجزأ	-2429
▁طلقة	-2430
▁كلامهم	-2431
▁سر	-2432
شترك	-2433
▁حضر	-2434
▁ويس	-2435
▁الحس	-2436
▁عليك	-2437
▁عنهم	-2438
▁ليلة	-2439
اك	-2440
ثى	-2441
ريب	-2442
ضور	-2443
▁فيح	-2444
▁تبطل	-2445
▁حبيب	-2446
▁يجبر	-2447
▁المقصود	-2448
ؤية	-2449
دمة	-2450
▁بلد	-2451
▁الفق	-2452
▁قبلها	-2453
أس	-2454
وفة	-2455
▁معها	-2456
▁ونقل	-2457
▁البعض	-2458
▁الخارج	-2459
بتد	-2460
قبض	-2461
▁المك	-2462
▁المقت	-2463
▁الواقف	-2464
وري	-2465
ولة	-2466
▁تنا	-2467
▁عرض	-2468
▁سنين	-2469
▁مالا	-2470
▁وقبل	-2471
▁يصلح	-2472
▁السبب	-2473
▁الفجر	-2474
▁بغيره	-2475
▁اشتراه	-2476
ذون	-2477
▁ربع	-2478
▁أنهم	-2479
▁الإخ	-2480
▁جملة	-2481
▁زكاة	-2482
▁الحدث	-2483
▁العادة	-2484
▁المدعى	-2485
▁كر	-2486
▁اجت	-2487
ضرورة	-2488
▁الخمر	-2489
▁عنهما	-2490
برع	-2491
عذر	-2492
▁حبس	-2493
▁ثبوت	-2494
▁الجنا	-2495
▁دينار	-2496
صلي	-2497
لمه	-2498
وطء	-2499
حنون	-2500
▁أحب	-2501
▁للن	-2502
ختلاف	-2503
▁قولهم	-2504
▁لأنهم	-2505
▁تؤ	-2506
▁غال	-2507
▁فيجب	-2508
▁وهذه	-2509
▁شهادته	-2510
بط	-2511
▁طلق	-2512
▁متى	-2513
▁سائر	-2514
▁ضعيف	-2515
▁يحدث	-2516
▁الاعت	-2517
▁اللفظ	-2518
▁امتنع	-2519
جم	-2520
طف	-2521
وصية	-2522
▁منك	-2523
▁الان	-2524
▁وسواء	-2525
▁الزيادة	-2526
منا	-2527
▁بف	-2528
مكان	-2529
▁تجز	-2530
▁حرة	-2531
▁رأى	-2532
▁أمته	-2533
▁خرجت	-2534
▁كالأ	-2535
▁هكذا	-2536
▁البلد	-2537
▁الوصي	-2538
▁المعين	-2539
قسم	-2540
▁لر	-2541
تلاف	-2542
عتاق	-2543
قيني	-2544
▁نسب	-2545
▁سليمان	-2546
▁الأجنبي	-2547
سته	-2548
صرح	-2549
يمه	-2550
هارة	-2551
▁الشهر	-2552
▁الوجوب	-2553
▁ذك	-2554
باحة	-2555
▁عقب	-2556
▁علة	-2557
▁فرج	-2558
▁وشر	-2559
▁حرمة	-2560
▁زوجة	-2561
▁فقلت	-2562
▁إنسان	-2563
▁الصحة	-2564
▁الشراء	-2565
▁وحينئذ	-2566
▁والسلام	-2567
قود	-2568
ثبات	-2569
سمية	-2570
▁بلفظ	-2571
▁شرعا	-2572
زر	-2573
لامة	-2574
▁للج	-2575
▁للص	-2576
▁يمت	-2577
▁وبقي	-2578
▁القدر	-2579
▁النية	-2580
▁وغيرها	-2581
▁الجماعة	-2582
▁الغرماء	-2583
صية	-2584
فاد	-2585
▁تص	-2586
▁صحت	-2587
▁صور	-2588
▁واج	-2589
▁البغ	-2590
▁الظهر	-2591
▁القبل	-2592
▁الثلاث	-2593
برا	-2594
ردد	-2595
▁فى	-2596
▁هم	-2597
زوجة	-2598
يمته	-2599
▁خلف	-2600
▁سفر	-2601
▁نقد	-2602
▁واعت	-2603
▁ومحمد	-2604
صلة	-2605
▁والغ	-2606
▁التيمم	-2607
▁الجميع	-2608
▁فليتأمل	-2609
ائط	-2610
ذبه	-2611
▁سبع	-2612
▁طهر	-2613
▁كأنه	-2614
▁قتادة	-2615
▁لحديث	-2616
راك	-2617
▁تل	-2618
▁ذي	-2619
▁عف	-2620
قدير	-2621
▁موض	-2622
▁الدع	-2623
▁عمله	-2624
▁أعتقه	-2625
▁استحق	-2626
▁الانت	-2627
▁الثالث	-2628
كرر	-2629
▁إع	-2630
▁أدى	-2631
▁بنا	-2632
▁حفظ	-2633
▁لبس	-2634
▁شاهد	-2635
▁عامر	-2636
▁السفر	-2637
أله	-2638
يفاء	-2639
▁منا	-2640
▁إحدا	-2641
▁بقاء	-2642
▁بكسر	-2643
▁لابن	-2644
▁درهما	-2645
ئمة	-2646
ثير	-2647
ذين	-2648
مهم	-2649
وائ	-2650
الثة	-2651
▁جهل	-2652
▁قضى	-2653
▁مني	-2654
▁ولأ	-2655
▁الإي	-2656
▁الخبر	-2657
قار	-2658
▁ربه	-2659
▁شاة	-2660
▁يرث	-2661
▁بقية	-2662
▁تصدق	-2663
▁نافع	-2664
▁يفيد	-2665
▁مسلما	-2666
بول	-2667
وفى	-2668
بيعه	-2669
▁رضى	-2670
▁شراء	-2671
▁قبول	-2672
▁ونصف	-2673
▁المحت	-2674
▁المرض	-2675
▁المدينة	-2676
وام	-2677
▁أخر	-2678
▁مضم	-2679
▁الجل	-2680
▁بنحو	-2681
▁ثوبا	-2682
▁مغني	-2683
▁اثنين	-2684
▁العوض	-2685
▁طلقها	-2686
▁غالبا	-2687
▁الجارية	-2688
▁المجموع	-2689
لمة	-2690
ابلة	-2691
ثناء	-2692
▁باق	-2693
▁السر	-2694
▁ولما	-2695
▁الأجر	-2696
▁النهاية	-2697
داية	-2698
▁سرق	-2699
▁عام	-2700
▁التف	-2701
▁الإذن	-2702
▁النفس	-2703
▁الخروج	-2704
▁والفرق	-2705
سنا	-2706
قبته	-2707
▁تاب	-2708
▁حصة	-2709
▁علق	-2710
▁وأج	-2711
▁المف	-2712
▁سبيل	-2713
▁قطعا	-2714
▁وقعت	-2715
▁ذكرنا	-2716
▁فيجوز	-2717
▁البلقيني	-2718
ريج	-2719
عاه	-2720
▁فض	-2721
▁بقر	-2722
▁ومثل	-2723
بدل	-2724
ضرة	-2725
متع	-2726
▁مط	-2727
جهول	-2728
خاري	-2729
▁وسي	-2730
▁بالص	-2731
▁حكما	-2732
▁ففيه	-2733
▁المواز	-2734
سط	-2735
سع	-2736
باد	-2737
ذبح	-2738
راز	-2739
وار	-2740
▁نكل	-2741
▁أخذا	-2742
▁قولا	-2743
▁العدل	-2744
خي	-2745
ؤلاء	-2746
▁بحر	-2747
▁قضي	-2748
▁هبة	-2749
▁وخمس	-2750
▁وصية	-2751
▁الخمس	-2752
▁الذين	-2753
▁سحنون	-2754
▁مفهوم	-2755
▁العمرة	-2756
▁المعتق	-2757
▁النساء	-2758
▁فالقول	-2759
▁والظاهر	-2760
ذان	-2761
▁إي	-2762
فقته	-2763
▁شرب	-2764
▁كعب	-2765
▁منعه	-2766
▁بالله	-2767
▁كانوا	-2768
▁مسعود	-2769
▁الطعام	-2770
▁المادة	-2771
▁الأربعة	-2772
بية	-2773
خمي	-2774
لطان	-2775
▁مقا	-2776
▁وصف	-2777
▁لأحد	-2778
▁وعبد	-2779
▁يفرق	-2780
▁أخذها	-2781
▁ويكره	-2782
عار	-2783
▁رهن	-2784
▁وجهه	-2785
▁فأكثر	-2786
ارع	-2787
راق	-2788
ياب	-2789
▁تش	-2790
▁تفس	-2791
▁نسخ	-2792
▁نصر	-2793
▁وفا	-2794
▁يقر	-2795
▁جابر	-2796
▁راجع	-2797
▁وعلم	-2798
▁جم	-2799
مانة	-2800
▁فلل	-2801
▁فقوله	-2802
▁يتعين	-2803
▁يشتري	-2804
نز	-2805
كاف	-2806
سنوي	-2807
▁المش	-2808
▁تأمل	-2809
▁دينا	-2810
▁فاسد	-2811
▁الزرع	-2812
▁الضرر	-2813
▁الهدي	-2814
▁ضرورة	-2815
▁كقوله	-2816
▁الصدقة	-2817
▁وعشرين	-2818
رضه	-2819
عته	-2820
وردي	-2821
▁ثان	-2822
▁لحا	-2823
▁دخول	-2824
▁مطلق	-2825
▁وشرط	-2826
▁ولعل	-2827
▁ورواه	-2828
باب	-2829
ويا	-2830
رضاع	-2831
▁عدد	-2832
▁مضى	-2833
▁وطئ	-2834
▁الوق	-2835
▁خارج	-2836
بضه	-2837
ناس	-2838
ريضة	-2839
▁وسب	-2840
▁يحد	-2841
▁اثنان	-2842
▁مختلف	-2843
▁وجهان	-2844
▁وغيرهم	-2845
▁وغيرهما	-2846
هود	-2847
بيعة	-2848
ضحية	-2849
▁بشر	-2850
▁مسح	-2851
▁تسعة	-2852
▁جعله	-2853
▁والف	-2854
▁الأخرى	-2855
▁المدبر	-2856
ريف	-2857
قضاء	-2858
▁يدع	-2859
نانير	-2860
▁أنثى	-2861
▁فكيف	-2862
▁الآتي	-2863
▁الربح	-2864
▁العرب	-2865
▁معاوية	-2866
ضو	-2867
الا	-2868
قله	-2869
▁لحق	-2870
▁ويج	-2871
▁بينا	-2872
▁خروج	-2873
▁ويصح	-2874
▁إليهم	-2875
جيل	-2876
صدر	-2877
فعي	-2878
▁مشر	-2879
▁طعام	-2880
▁الجنة	-2881
▁الصيد	-2882
▁الطريق	-2883
▁والآخر	-2884
▁لاحتمال	-2885
▁المذكورة	-2886
كار	-2887
هري	-2888
ويج	-2889
▁كإ	-2890
عامل	-2891
قتها	-2892
وارث	-2893
▁اليس	-2894
▁للبائع	-2895
▁حمله	-2896
▁لاست	-2897
▁الحاج	-2898
▁جناية	-2899
طان	-2900
غلب	-2901
فهم	-2902
فاية	-2903
▁نصا	-2904
▁أكره	-2905
▁الباب	-2906
▁القياس	-2907
▁والثاني	-2908
رهن	-2909
مهر	-2910
مول	-2911
▁أط	-2912
▁عج	-2913
جتها	-2914
سامة	-2915
▁جان	-2916
▁شئت	-2917
▁للغ	-2918
▁أبدا	-2919
▁وطئها	-2920
ؤال	-2921
▁مز	-2922
باقي	-2923
وهوب	-2924
▁النص	-2925
▁خاصة	-2926
▁الولاء	-2927
مات	-2928
منه	-2929
جازة	-2930
▁وأبي	-2931
▁يدعي	-2932
▁الجنس	-2933
▁الفصل	-2934
▁المنه	-2935
▁تلزمه	-2936
اده	-2937
حلل	-2938
خلف	-2939
▁ذبح	-2940
▁سمي	-2941
▁مخت	-2942
▁ألفا	-2943
▁العز	-2944
▁بحكم	-2945
▁مسجد	-2946
▁وروي	-2947
▁الذكر	-2948
▁تصحيح	-2949
▁ولاية	-2950
▁فينبغي	-2951
▁لأنهما	-2952
▁الإسنوي	-2953
طلع	-2954
كلم	-2955
ولاد	-2956
▁أعم	-2957
▁الخف	-2958
▁مكان	-2959
▁موسى	-2960
▁نصاب	-2961
▁أولاد	-2962
▁الفتح	-2963
▁قالوا	-2964
▁التركة	-2965
▁بخلافه	-2966
بهم	-2967
تهد	-2968
وعة	-2969
وقع	-2970
▁نزل	-2971
▁أحسن	-2972
▁إياه	-2973
▁يبيع	-2974
▁يبين	-2975
▁الحول	-2976
لحق	-2977
▁خي	-2978
▁رش	-2979
▁ذمة	-2980
▁بقول	-2981
▁حماد	-2982
▁شروط	-2983
▁والز	-2984
▁وجبت	-2985
▁يترك	-2986
▁إجارة	-2987
▁الفضل	-2988
▁المحر	-2989
▁يملكه	-2990
▁ركعتين	-2991
▁قيس	-2992
▁لعل	-2993
▁للك	-2994
▁رجوع	-2995
▁عطاء	-2996
▁عمرة	-2997
▁يطلق	-2998
▁ينفذ	-2999
▁اللهم	-3000
▁المسح	-3001
▁تأخير	-3002
▁الجاني	-3003
▁غيرهما	-3004
▁للمسلم	-3005
قيمة	-3006
▁خوف	-3007
▁بنصف	-3008
▁دفعه	-3009
▁مشتر	-3010
▁فكأنه	-3011
▁يأخذه	-3012
▁يمكنه	-3013
▁الموصى	-3014
بأ	-3015
صره	-3016
لهم	-3017
▁زر	-3018
فعول	-3019
▁سوى	-3020
▁نقض	-3021
▁نسبه	-3022
▁والر	-3023
▁الصلح	-3024
▁لفلان	-3025
▁وجهين	-3026
ارك	-3027
ماه	-3028
مسح	-3029
▁ضع	-3030
▁ومر	-3031
▁عكسه	-3032
▁يقسم	-3033
▁البدل	-3034
▁الموا	-3035
▁الماوردي	-3036
راع	-3037
راف	-3038
ملك	-3039
وقه	-3040
▁نجس	-3041
▁لآخر	-3042
▁مولى	-3043
▁العشر	-3044
▁العلة	-3045
▁ومغني	-3046
▁الحاجة	-3047
عن	-3048
وخ	-3049
▁لخ	-3050
طالب	-3051
▁يبق	-3052
▁أكله	-3053
▁أنكر	-3054
▁بفعل	-3055
▁حاله	-3056
▁مقام	-3057
▁بيمينه	-3058
▁البخاري	-3059
دات	-3060
نهم	-3061
يحا	-3062
رابة	-3063
قييد	-3064
▁سجد	-3065
▁أدرك	-3066
▁اتفا	-3067
▁شرطه	-3068
▁فذلك	-3069
▁لازم	-3070
▁مجرد	-3071
▁ومحل	-3072
▁يجزئ	-3073
▁الصفة	-3074
▁الولا	-3075
▁عدتها	-3076
▁فإنما	-3077
▁إحداهما	-3078
▁الهداية	-3079
بدأ	-3080
بقى	-3081
خوذ	-3082
وقت	-3083
▁نع	-3084
دبير	-3085
مليك	-3086
▁عال	-3087
▁حاكم	-3088
▁أخرجه	-3089
▁إخراج	-3090
▁الفطر	-3091
▁بإذنه	-3092
▁غيرهم	-3093
▁اللخمي	-3094
▁وعبارة	-3095
▁حذف	-3096
▁ومس	-3097
▁وهما	-3098
▁مولاه	-3099
▁وثلاث	-3100
▁اختيار	-3101
▁المريض	-3102
فيع	-3103
نيا	-3104
▁جزم	-3105
▁مأم	-3106
▁العص	-3107
▁تطلق	-3108
▁يرفع	-3109
▁الرأس	-3110
▁ببينة	-3111
▁يمتنع	-3112
▁الأظهر	-3113
كى	-3114
لس	-3115
كراه	-3116
▁ذمي	-3117
▁ليت	-3118
▁تخرج	-3119
▁دابة	-3120
▁أحدكم	-3121
▁للزوج	-3122
▁وأراد	-3123
▁الغائب	-3124
اوز	-3125
ضطر	-3126
مامه	-3127
يتين	-3128
▁إني	-3129
▁يرض	-3130
▁يرى	-3131
▁بالمع	-3132
▁كونها	-3133
▁معرفة	-3134
▁العلماء	-3135
جير	-3136
▁شعر	-3137
▁الحن	-3138
▁الكر	-3139
▁لزوم	-3140
▁الأداء	-3141
▁القبلة	-3142
▁الكفيل	-3143
اهرا	-3144
جزاء	-3145
▁بحق	-3146
▁عدا	-3147
▁قذف	-3148
▁قرأ	-3149
▁كاف	-3150
▁الآن	-3151
▁المه	-3152
▁دونه	-3153
▁طاهر	-3154
▁لقول	-3155
▁وللم	-3156
▁يطلب	-3157
▁الآية	-3158
▁بطريق	-3159
▁وكانت	-3160
▁المسمى	-3161
▁الرافعي	-3162
شك	-3163
عات	-3164
فات	-3165
وين	-3166
حانه	-3167
▁فيق	-3168
▁لأم	-3169
▁يعق	-3170
▁خالد	-3171
▁زوال	-3172
▁اشترط	-3173
▁الشمس	-3174
▁الشركة	-3175
▁بالثمن	-3176
لائ	-3177
▁أحدا	-3178
▁التن	-3179
▁المث	-3180
▁تجوز	-3181
▁تسقط	-3182
▁وأنا	-3183
▁اعتبر	-3184
▁مقصود	-3185
▁ينتفع	-3186
▁الإنسان	-3187
فص	-3188
تبع	-3189
زمه	-3190
رمذي	-3191
يتها	-3192
▁للق	-3193
▁ورب	-3194
▁يتأ	-3195
ماعيل	-3196
▁ردها	-3197
▁شريك	-3198
▁فقيل	-3199
▁متفق	-3200
▁المقد	-3201
▁حياته	-3202
▁يستحب	-3203
▁الحرمة	-3204
▁الوديعة	-3205
▁الوكالة	-3206
ضب	-3207
تيب	-3208
عبة	-3209
قاد	-3210
زالة	-3211
▁صاد	-3212
▁طرف	-3213
▁أداء	-3214
▁تعلم	-3215
▁الغصب	-3216
▁ولدها	-3217
▁الشاهد	-3218
▁القاتل	-3219
▁القيام	-3220
▁المؤمن	-3221
▁أصحابنا	-3222
تا	-3223
▁لد	-3224
عيين	-3225
▁قيا	-3226
▁ليل	-3227
▁مرت	-3228
▁بنية	-3229
▁نقول	-3230
▁ويرجع	-3231
▁السلطان	-3232
بال	-3233
تيق	-3234
الها	-3235
حاكم	-3236
قاضي	-3237
▁مفر	-3238
▁موج	-3239
▁صريح	-3240
▁يسمع	-3241
▁ينقص	-3242
▁فتأمل	-3243
▁لوجود	-3244
▁والمن	-3245
▁ينافي	-3246
▁العشرة	-3247
▁سبحانه	-3248
ضمير	-3249
فاوت	-3250
▁مرف	-3251
▁الول	-3252
▁بكذا	-3253
▁تأخر	-3254
▁شرحه	-3255
▁صدقه	-3256
▁فجعل	-3257
▁معهم	-3258
▁أنهما	-3259
▁إطلاق	-3260
▁الحرة	-3261
▁دعواه	-3262
▁الجملة	-3263
▁الجواز	-3264
▁لأحدهما	-3265
ائم	-3266
زام	-3267
▁كع	-3268
عهما	-3269
مامة	-3270
▁لرب	-3271
▁موا	-3272
▁نسي	-3273
▁ويع	-3274
▁أتلف	-3275
▁أسقط	-3276
▁الخل	-3277
▁وحكم	-3278
▁وولد	-3279
▁الإبل	-3280
▁بجميع	-3281
▁صحيحة	-3282
▁وجوبا	-3283
▁اشتراط	-3284
▁الرقيق	-3285
▁الصداق	-3286
بق	-3287
▁خا	-3288
املا	-3289
غتسل	-3290
▁طري	-3291
▁يتع	-3292
▁باست	-3293
▁بموت	-3294
▁كانا	-3295
▁الحلف	-3296
▁المشي	-3297
▁يتوقف	-3298
▁وسيأتي	-3299
▁إسماعيل	-3300
▁الإطلاق	-3301
بيح	-3302
▁رق	-3303
▁نج	-3304
طلان	-3305
مانع	-3306
▁بعث	-3307
▁تثبت	-3308
▁صارت	-3309
▁طالب	-3310
▁عدمه	-3311
▁غسله	-3312
▁فجاء	-3313
▁فخرج	-3314
▁وعمر	-3315
▁هؤلاء	-3316
▁يضمنه	-3317
▁اتفاقا	-3318
▁بالبيع	-3319
سبه	-3320
طالبة	-3321
▁العم	-3322
▁ثلثه	-3323
▁عروة	-3324
▁فيهم	-3325
▁قصاص	-3326
▁مانع	-3327
▁يضرب	-3328
▁يقضي	-3329
▁مقتضى	-3330
▁وأخبر	-3331
▁ويحرم	-3332
▁القبول	-3333
▁المغني	-3334
تر	-3335
يخ	-3336
الفة	-3337
بتدأ	-3338
عاية	-3339
▁يمن	-3340
▁يؤثر	-3341
▁القرب	-3342
▁تقديم	-3343
▁ويقال	-3344
▁الأئمة	-3345
▁المطلق	-3346
▁المغصوب	-3347
ذوف	-3348
وابه	-3349
▁قصر	-3350
▁مخرج	-3351
▁وجعل	-3352
▁يقبض	-3353
▁يكفر	-3354
▁القسم	-3355
▁فلانا	-3356
▁الزبير	-3357
▁وظاهره	-3358
شم	-3359
هرا	-3360
▁واد	-3361
▁وست	-3362
صحابة	-3363
▁الأص	-3364
▁ضمنه	-3365
▁يجمع	-3366
▁يسمى	-3367
▁كثيرا	-3368
▁وجوده	-3369
▁الحرية	-3370
▁القراءة	-3371
حش	-3372
ذور	-3373
وسط	-3374
▁لث	-3375
ضافة	-3376
فاده	-3377
نيمة	-3378
▁أرد	-3379
▁امت	-3380
▁غرم	-3381
▁لان	-3382
▁لكم	-3383
▁وحد	-3384
▁واحت	-3385
▁العدد	-3386
▁فقالت	-3387
▁والمس	-3388
▁عندهما	-3389
▁المأذون	-3390
▁والحاصل	-3391
شف	-3392
▁اكت	-3393
▁صيد	-3394
▁مضي	-3395
▁هدي	-3396
▁وأخ	-3397
▁أفتى	-3398
▁أيوب	-3399
▁إحدى	-3400
▁التر	-3401
▁جواب	-3402
▁قالا	-3403
▁الحنث	-3404
▁المعا	-3405
▁منصور	-3406
▁تزوجها	-3407
زن	-3408
طئ	-3409
فض	-3410
رجيح	-3411
▁رقي	-3412
▁سأل	-3413
▁الإح	-3414
▁قريب	-3415
▁وحدث	-3416
▁ومات	-3417
▁الدفع	-3418
▁السدس	-3419
▁بعدما	-3420
▁كراهة	-3421
▁والأصل	-3422
بز	-3423
سبق	-3424
فعته	-3425
▁عبر	-3426
▁كسر	-3427
▁رقيق	-3428
▁غاية	-3429
▁للأب	-3430
▁منهن	-3431
▁الأرش	-3432
▁وأخرج	-3433
▁الدابة	-3434
▁الزهري	-3435
طوع	-3436
فرا	-3437
بتها	-3438
يامة	-3439
▁شبه	-3440
▁فكل	-3441
▁مبا	-3442
▁أنبأ	-3443
▁حضور	-3444
▁صحته	-3445
▁لزيد	-3446
▁يعود	-3447
▁الزنا	-3448
▁العدو	-3449
▁عندهم	-3450
▁يتحقق	-3451
حث	-3452
صن	-3453
سام	-3454
سقط	-3455
طوف	-3456
مها	-3457
▁ند	-3458
▁أنفق	-3459
▁أوله	-3460
▁بيته	-3461
▁لهذا	-3462
▁يفهم	-3463
▁إمامه	-3464
▁النحر	-3465
▁فلهذا	-3466
▁فيقول	-3467
▁الأنصار	-3468
▁القيامة	-3469
▁المتقدم	-3470
▁الموقوف	-3471
يء	-3472
جمة	-3473
راح	-3474
ضعف	-3475
عان	-3476
ويه	-3477
▁افت	-3478
▁عمن	-3479
▁يلت	-3480
▁أقوى	-3481
▁عرفا	-3482
▁قبيل	-3483
▁يبرأ	-3484
▁يقرأ	-3485
▁أحدهم	-3486
▁العرف	-3487
▁ولذلك	-3488
▁ويؤخذ	-3489
▁المؤلف	-3490
▁المجلس	-3491
▁وعشرون	-3492
ائع	-3493
زيد	-3494
فار	-3495
يسر	-3496
▁ذو	-3497
▁غل	-3498
▁كح	-3499
▁طعا	-3500
▁يخص	-3501
▁بمثل	-3502
▁بمكة	-3503
▁لأنا	-3504
▁وهنا	-3505
▁الليل	-3506
▁النذر	-3507
▁قراءة	-3508
▁يتصور	-3509
▁فيلزمه	-3510
▁الكراهة	-3511
▁حظ	-3512
قتضى	-3513
▁غاب	-3514
▁أبرأ	-3515
▁بنفس	-3516
▁دخلت	-3517
▁وبعض	-3518
▁يتبع	-3519
▁يلحق	-3520
▁العصر	-3521
▁مكروه	-3522
▁مملوك	-3523
▁الحربي	-3524
▁الرقبة	-3525
▁الرواية	-3526
خا	-3527
قلا	-3528
عتها	-3529
كفول	-3530
▁فهم	-3531
▁نفع	-3532
▁يحج	-3533
▁يفت	-3534
▁يفي	-3535
▁القت	-3536
▁تحقق	-3537
▁سالم	-3538
▁عقيل	-3539
▁لخبر	-3540
▁مبني	-3541
▁يؤدي	-3542
▁يختلف	-3543
▁اختلاف	-3544
▁الانتفاع	-3545
ياة	-3546
▁تبع	-3547
▁جرح	-3548
▁للز	-3549
▁وبن	-3550
▁بملك	-3551
▁كسبه	-3552
▁نظير	-3553
▁ولذا	-3554
▁أجزأه	-3555
▁الأقل	-3556
▁الصور	-3557
▁القوم	-3558
▁للأول	-3559
▁محرما	-3560
▁احتمال	-3561
▁الأقرب	-3562
▁والاست	-3563
ادر	-3564
ارب	-3565
اهل	-3566
كول	-3567
يغة	-3568
ريمه	-3569
وكله	-3570
▁الجه	-3571
▁الرف	-3572
▁فأخذ	-3573
▁فوجب	-3574
▁قياس	-3575
▁لبعض	-3576
▁ملكا	-3577
▁الأعم	-3578
▁الذمي	-3579
▁بأكثر	-3580
▁حيوان	-3581
▁مقدار	-3582
▁يعقوب	-3583
▁أصحابه	-3584
▁للإمام	-3585
ذى	-3586
ائي	-3587
هات	-3588
تابة	-3589
نتين	-3590
▁الإع	-3591
▁جنسه	-3592
▁فيصح	-3593
▁كالإ	-3594
▁مجلس	-3595
▁تقدير	-3596
▁صحيحا	-3597
▁والمر	-3598
▁الصحابة	-3599
كد	-3600
بلد	-3601
كمه	-3602
▁ذم	-3603
▁شد	-3604
▁فد	-3605
رامه	-3606
كمال	-3607
▁ساب	-3608
▁كسب	-3609
▁لغة	-3610
▁مشت	-3611
▁أمية	-3612
▁بثلث	-3613
▁بهذه	-3614
▁تفري	-3615
▁وقوع	-3616
▁الأكل	-3617
▁ضمانه	-3618
▁عشرين	-3619
▁مستحق	-3620
▁أخبرني	-3621
▁البغوي	-3622
▁وتعالى	-3623
▁الدراهم	-3624
تف	-3625
بري	-3626
فلة	-3627
▁فط	-3628
بتاع	-3629
يانه	-3630
▁جده	-3631
▁للخ	-3632
▁يسن	-3633
جنبية	-3634
▁آخره	-3635
▁سقوط	-3636
▁فيست	-3637
▁قسمة	-3638
▁وقته	-3639
▁يباع	-3640
▁اشتري	-3641
▁الجرح	-3642
▁القود	-3643
▁تفسير	-3644
▁مخالف	-3645
▁نفقته	-3646
▁السبكي	-3647
▁العزيز	-3648
صوص	-3649
نائ	-3650
▁أجاز	-3651
▁فكذا	-3652
▁لأبي	-3653
▁ماتت	-3654
▁القصر	-3655
▁تسليم	-3656
▁خروجه	-3657
▁سيدها	-3658
▁العباس	-3659
▁زيادته	-3660
▁معلومة	-3661
▁الكفالة	-3662
اصم	-3663
كنى	-3664
▁سج	-3665
▁فغ	-3666
▁تخل	-3667
▁فار	-3668
▁فقت	-3669
▁قاض	-3670
▁وحا	-3671
▁ويك	-3672
▁أشهد	-3673
▁أوجه	-3674
▁الخا	-3675
▁الوج	-3676
▁بعقد	-3677
▁حربي	-3678
▁وأقر	-3679
▁يشمل	-3680
▁الكفر	-3681
▁بموته	-3682
▁دخوله	-3683
▁عليكم	-3684
▁إسلامه	-3685
▁الموصي	-3686
▁بالدين	-3687
▁الثالثة	-3688
▁المطلوب	-3689
▁الموهوب	-3690
فصل	-3691
ابله	-3692
نفقة	-3693
▁برأ	-3694
▁حفر	-3695
▁قوة	-3696
▁مصر	-3697
▁معد	-3698
▁وفر	-3699
▁بدله	-3700
▁بوجه	-3701
▁ثوبه	-3702
▁جبير	-3703
▁قضية	-3704
▁يختص	-3705
▁ومعنى	-3706
▁السجود	-3707
▁المحيط	-3708
▁تصحيحه	-3709
▁المأموم	-3710
ظة	-3711
دعي	-3712
صحف	-3713
مييز	-3714
يهقي	-3715
▁ظنه	-3716
▁لقد	-3717
▁وأح	-3718
▁يسم	-3719
▁عينا	-3720
▁يسجد	-3721
▁الاحت	-3722
▁مالكا	-3723
▁يتزوج	-3724
▁البيهقي	-3725
▁المضارب	-3726
بده	-3727
تفع	-3728
هبة	-3729
يبا	-3730
▁عظ	-3731
▁ذات	-3732
▁عمد	-3733
▁أظهر	-3734
▁ببيع	-3735
▁رقبة	-3736
▁عفان	-3737
▁وكيل	-3738
▁ولها	-3739
▁انتقل	-3740
▁بمثله	-3741
▁تحريم	-3742
▁رجلين	-3743
▁قولان	-3744
▁للعبد	-3745
▁معينا	-3746
▁ويمكن	-3747
حي	-3748
اعة	-3749
كله	-3750
واله	-3751
▁برئ	-3752
▁جرى	-3753
▁حسب	-3754
▁للث	-3755
▁ناس	-3756
▁يسا	-3757
زوجته	-3758
▁الرق	-3759
▁شهرا	-3760
▁طلبه	-3761
▁فأمر	-3762
▁قيام	-3763
▁كبير	-3764
▁واضح	-3765
▁وليه	-3766
▁يعين	-3767
▁يفسد	-3768
▁القرض	-3769
▁النقص	-3770
▁بيعها	-3771
▁الغالب	-3772
▁والأصح	-3773
▁والأول	-3774
▁ويشترط	-3775
ركب	-3776
يقه	-3777
▁إج	-3778
▁فخ	-3779
صدقة	-3780
غيرة	-3781
▁بحث	-3782
▁حاج	-3783
▁عدي	-3784
▁فضة	-3785
▁يطأ	-3786
▁أرضه	-3787
▁الأق	-3788
▁تذكر	-3789
▁داره	-3790
▁ذكرا	-3791
▁لأهل	-3792
▁ليلا	-3793
▁منكم	-3794
▁وجزم	-3795
▁إثبات	-3796
▁اختار	-3797
▁العمد	-3798
▁لصاحب	-3799
▁مسائل	-3800
▁ولكنه	-3801
▁الرملي	-3802
▁المنهج	-3803
▁الموضع	-3804
سق	-3805
شى	-3806
بعث	-3807
حية	-3808
شمل	-3809
عتك	-3810
قطة	-3811
صدقه	-3812
ولده	-3813
▁ثنا	-3814
▁زنا	-3815
▁أخذت	-3816
▁إمام	-3817
▁حنطة	-3818
▁صومه	-3819
▁فولد	-3820
▁نظرا	-3821
▁وسئل	-3822
▁يخلو	-3823
▁أحكام	-3824
▁إقامة	-3825
▁البذر	-3826
▁بمائة	-3827
▁وجوبه	-3828
▁الجزية	-3829
▁الحافظ	-3830
▁الوليد	-3831
▁الأحكام	-3832
باه	-3833
ضيه	-3834
عطاء	-3835
▁أمن	-3836
▁فأن	-3837
▁بحسب	-3838
▁حصول	-3839
▁خليل	-3840
▁فلأن	-3841
▁قريش	-3842
▁وجاز	-3843
▁وضوء	-3844
▁يسأل	-3845
▁رجوعه	-3846
▁الحاجب	-3847
▁الحسين	-3848
▁الكعبة	-3849
جره	-3850
حله	-3851
▁أصح	-3852
▁حرب	-3853
▁حقا	-3854
▁زفر	-3855
▁غلب	-3856
▁الحم	-3857
▁الست	-3858
▁وإما	-3859
▁والا	-3860
▁ويرد	-3861
▁بأنها	-3862
▁بعشرة	-3863
▁قبوله	-3864
▁وبهذا	-3865
▁وهكذا	-3866
▁بالفعل	-3867
▁التجارة	-3868
قيم	-3869
ياض	-3870
▁ره	-3871
يلعي	-3872
▁أشر	-3873
▁زرع	-3874
▁لير	-3875
▁يأت	-3876
▁ينو	-3877
▁بأمر	-3878
▁طلحة	-3879
▁عملا	-3880
▁قبلت	-3881
▁العفو	-3882
▁الملت	-3883
▁وقضية	-3884
▁الصورة	-3885
▁القدرة	-3886
▁المغرب	-3887
▁المكره	-3888
بعه	-3889
بيد	-3890
رفه	-3891
هدة	-3892
▁ذب	-3893
طعام	-3894
▁سكت	-3895
▁بالز	-3896
▁فهذه	-3897
▁للأم	-3898
▁وجدت	-3899
▁الغلة	-3900
▁صغيرة	-3901
▁لجواز	-3902
▁الحرام	-3903
▁المطلب	-3904
▁بالاست	-3905
▁خمسمائة	-3906
▁وعندهما	-3907
وكة	-3908
▁خش	-3909
الته	-3910
شهور	-3911
▁موق	-3912
▁تعدد	-3913
▁لانت	-3914
▁متجه	-3915
▁مرضه	-3916
▁ميتة	-3917
▁النار	-3918
▁للمست	-3919
▁وأقام	-3920
▁ورثته	-3921
قلب	-3922
▁وآ	-3923
بسوط	-3924
ناول	-3925
▁آدم	-3926
▁بسب	-3927
▁حلق	-3928
▁رأي	-3929
▁عوف	-3930
▁فاد	-3931
▁نبي	-3932
▁أوجب	-3933
▁الظن	-3934
▁شهاب	-3935
▁ضامن	-3936
▁فوجد	-3937
▁ينقض	-3938
▁أخبره	-3939
▁أفاده	-3940
▁اليمن	-3941
▁معينة	-3942
▁ملكها	-3943
▁والمت	-3944
▁الأوجه	-3945
▁الشفعة	-3946
▁مرفوعا	-3947
▁التسليم	-3948
رت	-3949
يش	-3950
تقض	-3951
خله	-3952
نات	-3953
بادر	-3954
شهاد	-3955
▁برد	-3956
▁وتح	-3957
▁ورج	-3958
▁البن	-3959
▁العر	-3960
▁بثمن	-3961
▁مكات	-3962
▁يأذن	-3963
▁اقتصر	-3964
▁الذبح	-3965
▁عبادة	-3966
▁كسائر	-3967
▁مقامه	-3968
▁وعدمه	-3969
▁ومنهم	-3970
▁الحالف	-3971
صا	-3972
تمع	-3973
وضا	-3974
▁يه	-3975
▁سما	-3976
▁ببعض	-3977
▁تسمع	-3978
▁ثالث	-3979
▁شرطا	-3980
▁ربيعة	-3981
▁أربعين	-3982
▁الأسود	-3983
▁الكفار	-3984
▁المانع	-3985
▁واختلف	-3986
▁الحيوان	-3987
رتب	-3988
ضمان	-3989
▁ذاك	-3990
▁شرا	-3991
▁كذب	-3992
▁مقص	-3993
▁أرضا	-3994
▁بالد	-3995
▁توقف	-3996
▁وإلى	-3997
▁ينوي	-3998
▁اجتمع	-3999
▁الاخت	-4000
▁الخلع	-4001
▁الفرع	-4002
▁النهي	-4003
▁ثانيا	-4004
▁مكانه	-4005
▁وأجيب	-4006
▁للمولى	-4007
▁بالأولى	-4008
زله	-4009
صرة	-4010
قوم	-4011
وزن	-4012
فعال	-4013
▁صنع	-4014
▁أحدث	-4015
▁تعمد	-4016
▁قدمه	-4017
▁كمال	-4018
▁مكلف	-4019
▁البقر	-4020
▁الفرج	-4021
▁معروف	-4022
▁نجاسة	-4023
▁الحياة	-4024
▁دنانير	-4025
▁للمسلمين	-4026
ضيق	-4027
وير	-4028
باعه	-4029
فراد	-4030
واجب	-4031
▁يدي	-4032
▁أرسل	-4033
▁أصبغ	-4034
▁الخر	-4035
▁بصفة	-4036
▁بلوغ	-4037
▁توضأ	-4038
▁حالا	-4039
▁خالف	-4040
▁وجده	-4041
▁وفرق	-4042
▁يرده	-4043
▁يفسخ	-4044
▁الأخت	-4045
▁القذف	-4046
▁علينا	-4047
▁قريبا	-4048
▁مسلمة	-4049
▁يتصدق	-4050
▁الحالة	-4051
هو	-4052
اتم	-4053
يعة	-4054
يون	-4055
سناد	-4056
قهما	-4057
▁فيج	-4058
▁قار	-4059
▁بالر	-4060
▁ففعل	-4061
▁كلهم	-4062
▁لعمر	-4063
▁نيته	-4064
▁ولدا	-4065
▁الاقت	-4066
▁العقل	-4067
▁اللبن	-4068
▁الثمرة	-4069
▁الغريم	-4070
▁المفلس	-4071
▁بقيمته	-4072
▁المشترك	-4073
▁بإقراره	-4074
الت	-4075
▁سك	-4076
ناها	-4077
ينها	-4078
▁ثقة	-4079
▁ربح	-4080
▁عهد	-4081
▁مشا	-4082
▁نهى	-4083
▁تغير	-4084
▁تملك	-4085
▁قامت	-4086
▁قصده	-4087
▁هذين	-4088
▁أهلها	-4089
▁رقبته	-4090
▁قولها	-4091
▁يبيعه	-4092
▁التعليق	-4093
▁المعتبر	-4094
وش	-4095
اعه	-4096
قيت	-4097
يقن	-4098
قطاع	-4099
▁ترد	-4100
▁تقع	-4101
▁ثمر	-4102
▁خلق	-4103
▁دام	-4104
▁طلا	-4105
بارته	-4106
جتهاد	-4107
▁أخيه	-4108
▁التس	-4109
▁شركة	-4110
▁ظهور	-4111
▁لنحو	-4112
▁وصار	-4113
▁يؤكل	-4114
▁يبعد	-4115
▁الراج	-4116
▁الضرب	-4117
▁ويأتي	-4118
▁الشريك	-4119
▁الشهود	-4120
▁والمعنى	-4121
اوى	-4122
حاد	-4123
دهن	-4124
يدي	-4125
▁أغ	-4126
تيان	-4127
عيان	-4128
▁مول	-4129
▁السل	-4130
▁بعيب	-4131
▁فللم	-4132
▁والط	-4133
▁وكيع	-4134
▁يغسل	-4135
▁أموال	-4136
▁الإرث	-4137
▁الشخص	-4138
▁النسخ	-4139
▁بالحج	-4140
▁فيصير	-4141
▁الطواف	-4142
▁المعلق	-4143
▁المودع	-4144
▁المكفول	-4145
ذة	-4146
وءة	-4147
▁ته	-4148
▁هد	-4149
نزير	-4150
▁بمع	-4151
▁وأي	-4152
ربعين	-4153
▁بذكر	-4154
▁خيرا	-4155
▁فلها	-4156
▁لكون	-4157
▁الحلق	-4158
▁للآخر	-4159
▁الحنطة	-4160
▁المسيب	-4161
▁المختار	-4162
▁ونحوهما	-4163
أة	-4164
رات	-4165
▁غص	-4166
قتله	-4167
▁حول	-4168
▁ندب	-4169
▁وقل	-4170
▁استئ	-4171
▁الرز	-4172
▁بدار	-4173
▁توفي	-4174
▁رهنا	-4175
▁قليل	-4176
▁وأنت	-4177
▁وكتب	-4178
▁يصرف	-4179
▁إسقاط	-4180
▁الحبس	-4181
▁المره	-4182
▁فظاهر	-4183
▁إحرامه	-4184
▁الفروع	-4185
▁بالعقد	-4186
▁والمست	-4187
ءوس	-4188
عتد	-4189
قضت	-4190
ووي	-4191
▁طر	-4192
ائفة	-4193
بيان	-4194
راجه	-4195
يتان	-4196
▁بنى	-4197
▁حاص	-4198
▁لحم	-4199
▁لست	-4200
▁مند	-4201
▁الهم	-4202
▁طواف	-4203
▁موجب	-4204
▁ينزل	-4205
▁ينكر	-4206
▁تصرفه	-4207
▁فقتله	-4208
▁مبتدأ	-4209
▁الآدمي	-4210
▁المدين	-4211
▁المكان	-4212
▁استحقاق	-4213
نج	-4214
عدا	-4215
▁جدا	-4216
▁خاف	-4217
▁فرد	-4218
▁نفذ	-4219
▁يلي	-4220
▁السن	-4221
▁بالف	-4222
▁جمعة	-4223
▁فعلم	-4224
▁قائم	-4225
▁وكره	-4226
▁وكله	-4227
▁ومتى	-4228
▁الخصم	-4229
▁النهر	-4230
▁ظاهرا	-4231
▁عالما	-4232
▁منافع	-4233
▁وارثه	-4234
▁وكلام	-4235
▁البيان	-4236
▁مقابلة	-4237
▁ويستحب	-4238
▁المتأخر	-4239
▁بالخيار	-4240
ائف	-4241
ثلة	-4242
ذفه	-4243
كما	-4244
مده	-4245
هير	-4246
▁غز	-4247
▁كص	-4248
▁مض	-4249
▁يث	-4250
ارعة	-4251
تمام	-4252
ورته	-4253
يقات	-4254
▁أرى	-4255
▁تسل	-4256
▁جلد	-4257
▁كبر	-4258
▁مائ	-4259
▁منذ	-4260
▁يتح	-4261
▁بحال	-4262
▁لعذر	-4263
▁مباح	-4264
▁منكر	-4265
▁وقطع	-4266
▁وكسر	-4267
▁الآمر	-4268
▁الذهب	-4269
▁موجود	-4270
▁وأولى	-4271
▁والمد	-4272
▁يجزئه	-4273
▁يفعله	-4274
▁ينعقد	-4275
▁الخمسة	-4276
▁والعبد	-4277
▁التدبير	-4278
▁الوجهين	-4279
زه	-4280
شرع	-4281
واد	-4282
ائها	-4283
ثنين	-4284
خصيص	-4285
قديم	-4286
▁بمس	-4287
▁خمر	-4288
▁ستر	-4289
▁فرغ	-4290
▁يرج	-4291
▁يظن	-4292
▁الأك	-4293
▁الأي	-4294
▁بالا	-4295
▁بدنه	-4296
▁بعتق	-4297
▁حبسه	-4298
▁حميد	-4299
▁فعلت	-4300
▁قدره	-4301
▁متعد	-4302
▁واخت	-4303
▁وحيث	-4304
▁أسلمت	-4305
▁الطلب	-4306
▁تعليق	-4307
▁كثيرة	-4308
▁مراده	-4309
▁ولعله	-4310
▁الركوع	-4311
▁الوقوف	-4312
▁للورثة	-4313
▁المشهود	-4314
▁بالإجماع	-4315
جش	-4316
ساب	-4317
لفة	-4318
ميت	-4319
سيده	-4320
علوم	-4321
فرقة	-4322
كرار	-4323
ورثه	-4324
▁أشد	-4325
▁بإس	-4326
رابحة	-4327
▁تلفت	-4328
▁جاءت	-4329
▁وآخر	-4330
▁يحضر	-4331
▁إشارة	-4332
▁الخطأ	-4333
▁بطلان	-4334
▁قرينة	-4335
▁للاست	-4336
▁للسيد	-4337
▁الأخير	-4338
▁بالعيب	-4339
▁الترمذي	-4340
▁التعليل	-4341
رر	-4342
ادث	-4343
دام	-4344
فاس	-4345
فسق	-4346
▁تو	-4347
▁مه	-4348
عتقت	-4349
▁تجد	-4350
▁حائ	-4351
▁فأت	-4352
▁مقب	-4353
▁جانب	-4354
▁ميتا	-4355
▁ويسن	-4356
▁العذر	-4357
▁حملها	-4358
▁مرتين	-4359
▁ممنوع	-4360
▁وانظر	-4361
▁وقتها	-4362
▁يخالف	-4363
▁يومئذ	-4364
▁للقاضي	-4365
▁بالبينة	-4366
قرض	-4367
وحة	-4368
وهر	-4369
بوته	-4370
لاصة	-4371
▁تقل	-4372
▁لين	-4373
▁مؤج	-4374
▁التش	-4375
▁حنبل	-4376
▁شعيب	-4377
▁إعادة	-4378
▁الرضا	-4379
▁فلذلك	-4380
▁مالكه	-4381
▁ميراث	-4382
▁وأشار	-4383
▁وقوعه	-4384
▁الأربع	-4385
▁الدعوى	-4386
▁الرضاع	-4387
▁المحرر	-4388
راس	-4389
قاه	-4390
يسى	-4391
▁ذر	-4392
دراك	-4393
عتمد	-4394
يبته	-4395
▁بقد	-4396
▁طول	-4397
▁متع	-4398
▁موص	-4399
▁وأب	-4400
▁وصي	-4401
واحدة	-4402
▁بحثه	-4403
▁تحمل	-4404
▁جريج	-4405
▁سببه	-4406
▁وضعه	-4407
▁الوصف	-4408
▁بأجرة	-4409
▁معصية	-4410
▁نصفها	-4411
▁يمنعه	-4412
▁الخطبة	-4413
▁الرجال	-4414
▁الرفعة	-4415
▁انقضاء	-4416
▁بالمال	-4417
▁الأمرين	-4418
ريك	-4419
صبغ	-4420
فها	-4421
ياط	-4422
بوين	-4423
حرمة	-4424
خصوص	-4425
صديق	-4426
ضانة	-4427
▁دبر	-4428
▁عني	-4429
▁فوت	-4430
▁كنا	-4431
كاتبة	-4432
▁أفطر	-4433
▁ربها	-4434
▁شرعي	-4435
▁عاصم	-4436
▁فراغ	-4437
▁معاذ	-4438
▁وقضي	-4439
▁يشبه	-4440
▁ذكرها	-4441
▁وادعى	-4442
▁الشفيع	-4443
▁الكبير	-4444
▁الكمال	-4445
▁النووي	-4446
▁المسائل	-4447
▁بالقيمة	-4448
طق	-4449
احب	-4450
جزأ	-4451
زمة	-4452
لاه	-4453
تهمة	-4454
▁بئر	-4455
▁حرف	-4456
▁صاع	-4457
▁صدا	-4458
▁يخت	-4459
▁الشك	-4460
▁بعين	-4461
▁كالح	-4462
▁يخاف	-4463
▁القبر	-4464
▁بقيمة	-4465
▁جائزة	-4466
▁خمسين	-4467
▁فأراد	-4468
▁فاسدا	-4469
▁معتبر	-4470
▁وأنكر	-4471
▁وفيها	-4472
▁وكيله	-4473
▁القائل	-4474
أمن	-4475
داه	-4476
وسي	-4477
بارك	-4478
▁سهل	-4479
▁فسد	-4480
▁مقر	-4481
▁الإس	-4482
▁بترك	-4483
▁تحرم	-4484
▁شيبة	-4485
▁صداق	-4486
▁فلير	-4487
▁كالع	-4488
▁مراد	-4489
▁ندبا	-4490
▁وكما	-4491
▁إتلاف	-4492
▁فولدت	-4493
▁وديعة	-4494
▁ويتجه	-4495
▁ينتقل	-4496
▁العباب	-4497
▁القراض	-4498
▁المجني	-4499
▁بزيادة	-4500
▁العبارة	-4501
▁القولين	-4502
▁النجاسة	-4503
ذرا	-4504
سرا	-4505
فظه	-4506
▁مو	-4507
راده	-4508
شكال	-4509
صلها	-4510
كرمة	-4511
مهور	-4512
▁أني	-4513
▁درج	-4514
▁طرأ	-4515
▁آدمي	-4516
▁استه	-4517
▁القن	-4518
▁بأقل	-4519
▁بعوض	-4520
▁تيمم	-4521
▁قاضي	-4522
▁لأقل	-4523
▁والل	-4524
▁البنت	-4525
▁الربع	-4526
▁العود	-4527
▁فيحرم	-4528
▁كغيره	-4529
▁للميت	-4530
▁محتمل	-4531
▁محجور	-4532
▁وكأنه	-4533
▁ويأخذ	-4534
▁قولهما	-4535
▁الجنابة	-4536
▁الفقراء	-4537
▁والمغني	-4538
الي	-4539
غسل	-4540
▁وظ	-4541
ثلها	-4542
جشون	-4543
ديون	-4544
صريح	-4545
▁شمس	-4546
▁أثبت	-4547
▁أجمع	-4548
▁المل	-4549
▁وعتق	-4550
▁يدرك	-4551
▁يقضى	-4552
▁أحدها	-4553
▁الصرف	-4554
▁رجليه	-4555
▁قائما	-4556
▁يتبين	-4557
▁يومين	-4558
▁الأذان	-4559
▁الفاسد	-4560
▁الفساد	-4561
▁الواحدة	-4562
▁الماجشون	-4563
صط	-4564
ادم	-4565
الد	-4566
انه	-4567
قضي	-4568
كسر	-4569
▁مظ	-4570
شياء	-4571
قهاء	-4572
مارة	-4573
والة	-4574
وبته	-4575
ولاء	-4576
▁برك	-4577
▁تسا	-4578
▁زنى	-4579
▁عضو	-4580
▁عكس	-4581
▁وإل	-4582
▁يغت	-4583
▁الأد	-4584
▁جامع	-4585
▁رؤية	-4586
▁شأنه	-4587
▁عصبة	-4588
▁فقول	-4589
▁نفلا	-4590
▁ولاء	-4591
امتناع	-4592
▁ادعاه	-4593
▁القصد	-4594
▁تعيين	-4595
▁فأخبر	-4596
▁فتكون	-4597
▁مجهول	-4598
▁مقابل	-4599
▁يتغير	-4600
▁يتمكن	-4601
▁اختلفا	-4602
▁الفقهاء	-4603
▁الاستحقاق	-4604
صه	-4605
ابي	-4606
حسن	-4607
طرة	-4608
▁أز	-4609
▁نك	-4610
صلاح	-4611
قصير	-4612
▁تبر	-4613
▁محض	-4614
▁أباه	-4615
▁تقول	-4616
▁حقها	-4617
▁سماع	-4618
▁عالم	-4619
▁غائب	-4620
▁فساد	-4621
▁وزاد	-4622
▁يخير	-4623
▁يغرم	-4624
▁يموت	-4625
▁البدن	-4626
▁الوضع	-4627
▁تركها	-4628
▁ثمنها	-4629
▁نصفين	-4630
▁ويضمن	-4631
▁المقتول	-4632
▁المؤمنين	-4633
▁الاستبراء	-4634
خلة	-4635
شيخ	-4636
فاه	-4637
▁را	-4638
يلاد	-4639
▁رمى	-4640
▁صدر	-4641
▁وتأ	-4642
▁وتس	-4643
▁يكت	-4644
▁تبلغ	-4645
▁عيبا	-4646
▁فكسر	-4647
▁مؤنة	-4648
▁مقدم	-4649
▁ودفع	-4650
▁ورجع	-4651
▁يتجه	-4652
▁يسار	-4653
▁أربعا	-4654
▁التلف	-4655
▁الحرز	-4656
▁الطهر	-4657
▁بكونه	-4658
▁تركته	-4659
▁جميعه	-4660
▁فأشبه	-4661
▁فيرجع	-4662
▁لتعذر	-4663
▁مكاتب	-4664
▁الخراج	-4665
▁المؤجر	-4666
▁بالملك	-4667
▁نكاحها	-4668
▁التحريم	-4669
▁الغنيمة	-4670
▁المحلوف	-4671
▁المرهون	-4672
▁الميراث	-4673
شأ	-4674
غفر	-4675
يير	-4676
▁حب	-4677
▁رو	-4678
▁وذ	-4679
رجوع	-4680
كاته	-4681
كافر	-4682
يتيم	-4683
▁جار	-4684
▁رخص	-4685
▁نحن	-4686
▁نصه	-4687
▁وزن	-4688
▁الإق	-4689
▁بخمس	-4690
▁بولد	-4691
▁حدثه	-4692
▁عتقت	-4693
▁وبيع	-4694
▁يأمر	-4695
▁السلف	-4696
▁اللحم	-4697
▁النفي	-4698
▁باعها	-4699
▁بالمد	-4700
▁رقيقا	-4701
▁لسيده	-4702
▁الحاضر	-4703
▁ويلزمه	-4704
▁الحقيقة	-4705
▁الزوجين	-4706
▁المأمور	-4707
▁المبسوط	-4708
▁المضاربة	-4709
دبر	-4710
شكل	-4711
فعت	-4712
ماس	-4713
نفل	-4714
وره	-4715
سوله	-4716
وضوء	-4717
▁أمي	-4718
▁غنم	-4719
▁للآ	-4720
▁يضع	-4721
بالغة	-4722
▁الفض	-4723
▁بعيد	-4724
▁تحته	-4725
▁ذبحه	-4726
▁سلعة	-4727
▁صرفه	-4728
▁قربة	-4729
▁مشكل	-4730
▁وحلف	-4731
▁وراء	-4732
▁وقبض	-4733
▁أمانة	-4734
▁إحرام	-4735
▁الرمي	-4736
▁الشعر	-4737
▁العام	-4738
▁العيد	-4739
▁فيضمن	-4740
▁فيلزم	-4741
▁لحاجة	-4742
▁وخمسة	-4743
▁ويقول	-4744
▁الأجير	-4745
▁الحائط	-4746
▁المرتد	-4747
▁المنكر	-4748
▁بالعتق	-4749
▁لانتفاء	-4750
اجع	-4751
واع	-4752
▁فز	-4753
تقال	-4754
شترا	-4755
فسهم	-4756
ماعا	-4757
▁أخت	-4758
▁أست	-4759
▁تسع	-4760
▁تقي	-4761
▁جوز	-4762
▁عفا	-4763
▁مذه	-4764
▁يبر	-4765
فهومه	-4766
▁أعطى	-4767
▁اسمه	-4768
▁بقبض	-4769
▁تكلم	-4770
▁تمنع	-4771
▁حلال	-4772
▁خلفه	-4773
▁رفعه	-4774
▁منفر	-4775
▁وسقط	-4776
▁يجاب	-4777
▁يراد	-4778
▁يزوج	-4779
▁الكلب	-4780
▁بطلاق	-4781
▁دلالة	-4782
▁عمران	-4783
▁لمالك	-4784
▁واعلم	-4785
▁الأعمش	-4786
▁المكلف	-4787
▁ومفهوم	-4788
▁الإقامة	-4789
▁المتولي	-4790
مك	-4791
ذاب	-4792
عدي	-4793
وصل	-4794
وني	-4795
▁سف	-4796
▁أمس	-4797
▁بقل	-4798
▁صال	-4799
▁مخا	-4800
▁يفر	-4801
ألتين	-4802
▁أريد	-4803
▁الحب	-4804
▁سافر	-4805
▁سهما	-4806
▁وعلي	-4807
▁يجري	-4808
▁أثناء	-4809
▁أشياء	-4810
▁أصابه	-4811
▁الفات	-4812
▁الميم	-4813
▁قضيته	-4814
▁كتابة	-4815
▁لمسلم	-4816
▁معطوف	-4817
▁الزائد	-4818
▁السلعة	-4819
▁التسمية	-4820
▁بالطلاق	-4821
▁والأولى	-4822
▁والباقي	-4823
سخ	-4824
أنف	-4825
صوم	-4826
مرا	-4827
نفذ	-4828
ورد	-4829
▁كش	-4830
سانه	-4831
ضمنه	-4832
▁إيا	-4833
▁غلة	-4834
▁فتأ	-4835
▁فلك	-4836
▁فيؤ	-4837
▁وأع	-4838
طلاقه	-4839
▁أبوه	-4840
▁أدخل	-4841
▁سألت	-4842
▁عيسى	-4843
▁فرضه	-4844
▁لعله	-4845
▁نسخة	-4846
▁يورث	-4847
▁الجزء	-4848
▁الغرض	-4849
▁النقل	-4850
▁كافرا	-4851
▁مطلقة	-4852
▁يتصرف	-4853
▁الصواب	-4854
▁القتال	-4855
بله	-4856
فقه	-4857
فيف	-4858
لات	-4859
▁عس	-4860
راية	-4861
ريكه	-4862
عموم	-4863
وائد	-4864
ياره	-4865
▁بات	-4866
▁بنص	-4867
▁غلط	-4868
▁قود	-4869
▁وبا	-4870
تقاني	-4871
صحابه	-4872
▁استخ	-4873
▁حاصل	-4874
▁شهدت	-4875
▁كاتب	-4876
▁لحقه	-4877
▁مرات	-4878
▁هاشم	-4879
▁ورثة	-4880
▁وقيد	-4881
▁ووقع	-4882
▁يفطر	-4883
▁الفرا	-4884
▁بدرهم	-4885
▁كفاية	-4886
▁السؤال	-4887
▁الغلام	-4888
▁صاحبها	-4889
▁استيفاء	-4890
▁الإجماع	-4891
▁الفاتحة	-4892
زي	-4893
مح	-4894
ابض	-4895
طاب	-4896
▁رآ	-4897
▁كخ	-4898
الفه	-4899
رادة	-4900
زالي	-4901
ظهار	-4902
▁إرث	-4903
▁بدر	-4904
▁تمر	-4905
▁جنى	-4906
▁خطر	-4907
▁سلف	-4908
▁كلب	-4909
▁لهن	-4910
▁أعظم	-4911
▁إنها	-4912
▁الجن	-4913
▁بماء	-4914
▁تبرع	-4915
▁تركة	-4916
▁جزءا	-4917
▁كذبه	-4918
▁للحا	-4919
▁وأخت	-4920
▁وللأ	-4921
▁يعتد	-4922
▁أقوال	-4923
▁إسلام	-4924
▁الفرس	-4925
▁المضم	-4926
▁الموض	-4927
▁بائعه	-4928
▁بشبهة	-4929
▁تزويج	-4930
▁حاصله	-4931
▁صغيرا	-4932
▁وصيته	-4933
▁يعتقد	-4934
▁الرزاق	-4935
▁ثلاثين	-4936
▁التعيين	-4937
▁التفصيل	-4938
▁المغيرة	-4939
▁فالظاهر	-4940
▁المسلمون	-4941
بث	-4942
بائ	-4943
دري	-4944
عزل	-4945
ملت	-4946
▁خف	-4947
▁رز	-4948
ذيفة	-4949
زويج	-4950
▁زعم	-4951
▁فسر	-4952
▁قضا	-4953
▁ويأ	-4954
▁آلاف	-4955
▁أردت	-4956
▁بمحل	-4957
▁تقوم	-4958
▁سببا	-4959
▁سفره	-4960
▁سقطت	-4961
▁عمير	-4962
▁للمر	-4963
▁متعل	-4964
▁واقت	-4965
▁وشبه	-4966
▁يكتب	-4967
▁البئر	-4968
▁الكسب	-4969
▁الممل	-4970
▁انقطع	-4971
▁بفعله	-4972
▁تفصيل	-4973
▁عكرمة	-4974
▁فكانت	-4975
▁لزمته	-4976
▁لوجوب	-4977
▁منزلة	-4978
▁وفيما	-4979
▁ونقله	-4980
▁ويلزم	-4981
▁يتوهم	-4982
▁الأفضل	-4983
▁الجاهل	-4984
▁الأشياء	-4985
▁التأخير	-4986
▁المناسب	-4987
ريا	-4988
صان	-4989
صته	-4990
مرض	-4991
وفه	-4992
▁صن	-4993
▁كب	-4994
رائض	-4995
مساك	-4996
يانة	-4997
▁أطل	-4998
▁بطن	-4999
▁سدس	-5000
▁شاس	-5001
▁صام	-5002
▁صري	-5003
▁نصب	-5004
▁إليك	-5005
▁الأز	-5006
▁الحص	-5007
▁السا	-5008
▁بلغت	-5009
▁تردد	-5010
▁فدخل	-5011
▁لدفع	-5012
▁نساء	-5013
▁وقفه	-5014
▁يعطى	-5015
▁الخوف	-5016
▁النقد	-5017
▁الواو	-5018
▁لواحد	-5019
▁وبينه	-5020
▁إجماعا	-5021
▁الراجح	-5022
▁الشرعي	-5023
▁الفدية	-5024
▁المتاع	-5025
▁الميتة	-5026
▁النصاب	-5027
▁بالموت	-5028
▁والحكم	-5029
▁اشتراها	-5030
▁الأولاد	-5031
▁الإجازة	-5032
▁للضرورة	-5033
▁والمرأة	-5034
عث	-5035
ائن	-5036
طهر	-5037
سباب	-5038
▁حكا	-5039
▁ريح	-5040
▁لبن	-5041
▁ورأ	-5042
▁ومق	-5043
حقاقه	-5044
▁البز	-5045
▁بأحد	-5046
▁بقيد	-5047
▁تصور	-5048
▁ديته	-5049
▁سجود	-5050
▁فصلى	-5051
▁معتق	-5052
▁وبنت	-5053
▁يشرب	-5054
▁إمكان	-5055
▁العجز	-5056
▁الغنم	-5057
▁تزوجت	-5058
▁طهارة	-5059
▁عبيدة	-5060
▁مسافة	-5061
▁موسرا	-5062
▁ناسيا	-5063
▁وبعده	-5064
▁أنبأنا	-5065
▁الدنيا	-5066
▁الرابع	-5067
▁بشهادة	-5068
▁للصلاة	-5069
▁الإخراج	-5070
▁المعقود	-5071
▁المطالبة	-5072
▁الاستثناء	-5073
عده	-5074
نته	-5075
هام	-5076
▁ذه	-5077
قطني	-5078
▁عقل	-5079
▁كات	-5080
▁نزع	-5081
▁هما	-5082
▁وحق	-5083
▁ومد	-5084
▁يقف	-5085
ضاربة	-5086
▁اعلم	-5087
▁تشهد	-5088
▁رافع	-5089
▁ربما	-5090
▁سلام	-5091
▁غالب	-5092
▁ناقص	-5093
▁استحب	-5094
▁الكذب	-5095
▁النوع	-5096
▁طعاما	-5097
▁قبضها	-5098
▁لبقاء	-5099
▁وأجاب	-5100
▁يطالب	-5101
▁أولاده	-5102
▁الحاصل	-5103
▁الزيلعي	-5104
▁وأخبرنا	-5105
ذل	-5106
عطى	-5107
ظهور	-5108
كانه	-5109
كثرة	-5110
ليفة	-5111
▁ببد	-5112
▁ربا	-5113
▁غرض	-5114
▁قرر	-5115
▁مضت	-5116
▁وتن	-5117
▁ورك	-5118
▁وسط	-5119
▁أعني	-5120
▁التك	-5121
▁بكير	-5122
▁ترجع	-5123
▁جازت	-5124
▁فالت	-5125
▁فراج	-5126
▁فكما	-5127
▁للمت	-5128
▁معمر	-5129
▁مقدر	-5130
▁يجلس	-5131
▁ينفق	-5132
▁إزالة	-5133
▁براءة	-5134
▁محمول	-5135
▁هاهنا	-5136
▁واجبا	-5137
▁والنس	-5138
▁وليلة	-5139
▁يمينا	-5140
▁الكراء	-5141
▁الهلاك	-5142
▁لصاحبه	-5143
▁معاوضة	-5144
شق	-5145
صي	-5146
▁بسر	-5147
▁بمح	-5148
▁شاه	-5149
▁يقا	-5150
▁أجيب	-5151
▁أمين	-5152
▁ثواب	-5153
▁حملت	-5154
▁خصوص	-5155
▁ذراع	-5156
▁رءوس	-5157
▁رجله	-5158
▁زمان	-5159
▁ساعة	-5160
▁فاته	-5161
▁فرضا	-5162
▁وأمر	-5163
▁وأهل	-5164
▁وفاء	-5165
▁يذهب	-5166
▁يصرح	-5167
▁العرض	-5168
▁المقا	-5169
▁بينته	-5170
▁تدبير	-5171
▁كاملة	-5172
▁مصلحة	-5173
▁وصححه	-5174
▁وطؤها	-5175
▁وعكسه	-5176
▁الأمور	-5177
▁الضمير	-5178
▁الواهب	-5179
▁قدمناه	-5180
▁للمرأة	-5181
▁والقول	-5182
▁استعمال	-5183
▁المعجمة	-5184
صلا	-5185
فقا	-5186
▁اج	-5187
▁قن	-5188
▁كي	-5189
باشر	-5190
دخال	-5191
▁بري	-5192
▁ضعف	-5193
▁مسج	-5194
▁التو	-5195
▁تصير	-5196
▁دارا	-5197
▁شعره	-5198
▁شهود	-5199
▁صادق	-5200
▁فأقر	-5201
▁فالج	-5202
▁يؤمر	-5203
▁يبني	-5204
▁يحتج	-5205
▁يقيم	-5206
▁حاملا	-5207
▁للرجل	-5208
▁ينقطع	-5209
▁الجماع	-5210
▁بإقرار	-5211
▁الحوالة	-5212
▁فليراجع	-5213
▁المكاتبة	-5214
كب	-5215
جاج	-5216
جهة	-5217
حكم	-5218
ذات	-5219
ربة	-5220
طار	-5221
طمة	-5222
▁تا	-5223
▁نب	-5224
رسال	-5225
والي	-5226
▁جاه	-5227
▁جرت	-5228
▁جلس	-5229
▁رحم	-5230
▁سوا	-5231
▁سير	-5232
▁مفت	-5233
▁ملت	-5234
▁يشت	-5235
لائكة	-5236
▁استر	-5237
▁الشا	-5238
▁الصف	-5239
▁بحجة	-5240
▁حسين	-5241
▁ذميا	-5242
▁علما	-5243
▁كامل	-5244
▁مثال	-5245
▁ودخل	-5246
▁ولكل	-5247
▁ولنا	-5248
▁يلبس	-5249
▁أجزاء	-5250
▁أمكنه	-5251
▁النفل	-5252
▁ترجيح	-5253
▁عشرون	-5254
▁فاسدة	-5255
▁لعبده	-5256
▁الشبهة	-5257
▁الطالب	-5258
▁بالقبض	-5259
▁العاقلة	-5260
▁المحجور	-5261
▁بأحدهما	-5262
▁المستعير	-5263
طح	-5264
لغ	-5265
جزء	-5266
خوة	-5267
دها	-5268
دود	-5269
ذار	-5270
صبع	-5271
عدل	-5272
غنى	-5273
ناة	-5274
وصف	-5275
▁يض	-5276
بهما	-5277
حريم	-5278
ريان	-5279
▁أنك	-5280
▁تحر	-5281
▁دما	-5282
▁راك	-5283
▁أسود	-5284
▁بقصد	-5285
▁فأكل	-5286
▁فسدت	-5287
▁قلبه	-5288
▁كالخ	-5289
▁مشقة	-5290
▁مقيد	-5291
▁وطلب	-5292
▁ويدل	-5293
▁يسير	-5294
▁يقيد	-5295
▁أتلفه	-5296
▁أعطاه	-5297
▁أيهما	-5298
▁الرحم	-5299
▁القلب	-5300
▁بحضرة	-5301
▁فإنهم	-5302
▁وأحمد	-5303
▁وأكثر	-5304
▁وفارق	-5305
▁التصدق	-5306
▁الركعة	-5307
▁ولايته	-5308
▁الطهارة	-5309
▁المطلقة	-5310
▁الولاية	-5311
ائت	-5312
افر	-5313
ثني	-5314
زول	-5315
زوم	-5316
لاع	-5317
نهي	-5318
▁كج	-5319
حسان	-5320
لازم	-5321
▁سبي	-5322
▁فوج	-5323
▁واب	-5324
مانية	-5325
▁أكبر	-5326
▁بقتل	-5327
▁بيوم	-5328
▁تجزئ	-5329
▁جهته	-5330
▁حامل	-5331
▁داخل	-5332
▁فقتل	-5333
▁فليح	-5334
▁فوقه	-5335
▁مضاف	-5336
▁وتصح	-5337
▁وثبت	-5338
▁يؤمن	-5339
▁يبدأ	-5340
▁اعتقد	-5341
▁الجعل	-5342
▁الخير	-5343
▁الردة	-5344
▁النخل	-5345
▁انعقد	-5346
▁بيانه	-5347
▁تمليك	-5348
▁حذيفة	-5349
▁فذكره	-5350
▁قياسا	-5351
▁مجانا	-5352
▁موكله	-5353
▁وإليه	-5354
▁يقبضه	-5355
▁الناظر	-5356
▁عبارته	-5357
▁الفريضة	-5358
▁المأخوذ	-5359
▁المصلحة	-5360
ثا	-5361
ذيب	-5362
عاة	-5363
فره	-5364
ناف	-5365
يفه	-5366
▁بآ	-5367
▁خز	-5368
قوله	-5369
نفية	-5370
ولية	-5371
▁أسر	-5372
▁تقت	-5373
▁زين	-5374
▁فيك	-5375
▁قرض	-5376
▁أعاد	-5377
▁الحك	-5378
▁تميم	-5379
▁فارق	-5380
▁قرية	-5381
▁لورث	-5382
▁وشهد	-5383
▁وصلى	-5384
▁وفتح	-5385
▁وكال	-5386
▁يستح	-5387
▁يغلب	-5388
▁الجهة	-5389
▁المصر	-5390
▁بالمس	-5391
▁بدونه	-5392
▁بماله	-5393
▁بينها	-5394
▁لأبيه	-5395
▁ويظهر	-5396
▁يتعرض	-5397
▁يعطيه	-5398
▁الجامع	-5399
▁الحامل	-5400
▁العشاء	-5401
▁الفرقة	-5402
▁معلوما	-5403
▁استحسان	-5404
▁الأضحية	-5405
▁الإعادة	-5406
▁الإكراه	-5407
▁المتأخرين	-5408
قته	-5409
قعة	-5410
واج	-5411
▁طب	-5412
▁نت	-5413
صابع	-5414
متاع	-5415
▁إنك	-5416
▁بدع	-5417
▁طاف	-5418
▁وبر	-5419
▁وسن	-5420
وطئها	-5421
▁صيدا	-5422
▁عاقل	-5423
▁لعبد	-5424
▁للذي	-5425
▁مؤمن	-5426
▁ماجه	-5427
▁هلال	-5428
▁وقدر	-5429
▁يشعر	-5430
▁يشكل	-5431
▁يعيد	-5432
▁إبطال	-5433
▁الجهل	-5434
▁الحجة	-5435
▁الطرف	-5436
▁اللام	-5437
▁تعتبر	-5438
▁تنعقد	-5439
▁عاقلة	-5440
▁مشترك	-5441
▁وأربع	-5442
▁واجبة	-5443
▁وليست	-5444
▁السماء	-5445
▁فراجعه	-5446
▁وقضيته	-5447
▁الترتيب	-5448
▁التوكيل	-5449
▁المعروف	-5450
▁الولادة	-5451
طبة	-5452
هله	-5453
يفة	-5454
▁خد	-5455
▁لط	-5456
ازية	-5457
حاضة	-5458
لتها	-5459
ملها	-5460
▁بدأ	-5461
▁خطب	-5462
▁خلط	-5463
▁شجر	-5464
▁منى	-5465
▁نهر	-5466
راءته	-5467
عماله	-5468
▁بصحة	-5469
▁تدخل	-5470
▁حقوق	-5471
▁حياة	-5472
▁فبان	-5473
▁قابل	-5474
▁كالت	-5475
▁مستح	-5476
▁وإنه	-5477
▁وحرم	-5478
ابتداء	-5479
▁الحمد	-5480
▁المقب	-5481
▁المني	-5482
▁بالكل	-5483
▁شهرين	-5484
▁فعلها	-5485
▁فيأخذ	-5486
▁مضمون	-5487
▁وأطلق	-5488
▁والفر	-5489
▁وقالا	-5490
▁يجتمع	-5491
▁القليل	-5492
▁المنذر	-5493
▁الواقع	-5494
▁رحمهما	-5495
▁لكونها	-5496
▁للموكل	-5497
▁والحال	-5498
▁الإعتاق	-5499
ارم	-5500
الس	-5501
رون	-5502
زير	-5503
▁رض	-5504
خيرة	-5505
ضائه	-5506
ضربه	-5507
▁جبل	-5508
▁فطر	-5509
▁فمع	-5510
▁نكح	-5511
▁يمس	-5512
▁أخطأ	-5513
▁حلفه	-5514
▁رجال	-5515
▁سهوا	-5516
▁عدلا	-5517
▁كلما	-5518
▁لبسه	-5519
▁معرف	-5520
▁وصرح	-5521
▁يحبس	-5522
▁يراه	-5523
▁يكلف	-5524
▁أبويه	-5525
▁أعتقت	-5526
▁احتاج	-5527
▁الشرح	-5528
▁المشا	-5529
▁كبيرة	-5530
▁ليكون	-5531
▁ويبقى	-5532
▁الشروط	-5533
▁المتعة	-5534
▁فتأمله	-5535
▁للعامل	-5536
▁نفقتها	-5537
▁البراءة	-5538
▁المبتاع	-5539
ئم	-5540
زو	-5541
جيء	-5542
سوة	-5543
صنف	-5544
طية	-5545
طيع	-5546
فاة	-5547
وفق	-5548
▁سد	-5549
▁عض	-5550
باره	-5551
جابة	-5552
ذكره	-5553
ريته	-5554
فقود	-5555
▁راب	-5556
▁أبعد	-5557
▁أسهم	-5558
▁ألحق	-5559
▁حبان	-5560
▁رهنه	-5561
▁عبرة	-5562
▁فالإ	-5563
▁فدية	-5564
▁قطعه	-5565
▁يباح	-5566
▁يوكل	-5567
▁التزم	-5568
▁الفقه	-5569
▁انقضت	-5570
▁بثمنه	-5571
▁سهمان	-5572
▁فأصاب	-5573
▁فتاوى	-5574
▁للخبر	-5575
▁محتاج	-5576
▁وأيضا	-5577
▁والأم	-5578
▁البلوغ	-5579
▁التحلل	-5580
▁الرجعة	-5581
▁العاقد	-5582
▁بالعين	-5583
▁بعينها	-5584
▁لزوجته	-5585
▁الإبراء	-5586
تني	-5587
ثال	-5588
جيز	-5589
حدة	-5590
ضيح	-5591
غار	-5592
فوع	-5593
كاء	-5594
ضامن	-5595
يهود	-5596
▁ركن	-5597
▁عزل	-5598
▁عمه	-5599
▁مكت	-5600
▁أمير	-5601
▁ارتد	-5602
▁بنقص	-5603
▁تطوع	-5604
▁تظهر	-5605
▁ثياب	-5606
▁حاضر	-5607
▁زائد	-5608
▁غيبة	-5609
▁فظهر	-5610
▁كراء	-5611
▁لفظه	-5612
▁مجمع	-5613
▁وبطل	-5614
▁يحسن	-5615
▁استمر	-5616
▁الجوز	-5617
▁قاعدة	-5618
▁لأكثر	-5619
▁معسرا	-5620
▁ولدته	-5621
▁ويسقط	-5622
▁الجنين	-5623
▁الشارع	-5624
▁بالماء	-5625
▁بثلاثة	-5626
▁فحينئذ	-5627
▁العبادة	-5628
▁المسافر	-5629
▁المسألتين	-5630
تهي	-5631
جزئ	-5632
حات	-5633
ديه	-5634
قاع	-5635
هدى	-5636
ويت	-5637
يسة	-5638
▁فث	-5639
قدمة	-5640
كليف	-5641
مائه	-5642
▁انع	-5643
▁تطل	-5644
▁خفي	-5645
▁وحل	-5646
▁ورض	-5647
▁يزل	-5648
▁ادعت	-5649
▁التل	-5650
▁باخت	-5651
▁شجرة	-5652
▁قاتل	-5653
▁قدرا	-5654
▁لولا	-5655
▁مطرف	-5656
▁مناف	-5657
▁يؤخر	-5658
▁ينقل	-5659
▁الاسم	-5660
▁الحفظ	-5661
▁الكاف	-5662
▁المكت	-5663
▁باطلة	-5664
▁نائبه	-5665
▁نصابا	-5666
▁نكاحه	-5667
▁يذكره	-5668
▁ينفسخ	-5669
▁اقتضاه	-5670
▁الجزاء	-5671
▁الفاعل	-5672
▁المحال	-5673
▁المصلي	-5674
▁الوفاء	-5675
▁اليسرى	-5676
▁بالشرط	-5677
▁استأجره	-5678
▁الخانية	-5679
▁والمذهب	-5680
▁المستقبل	-5681
سك	-5682
غا	-5683
أذن	-5684
ؤجر	-5685
قرة	-5686
لفت	-5687
هاء	-5688
▁مب	-5689
تابع	-5690
▁سرا	-5691
▁للب	-5692
رابعة	-5693
▁الصل	-5694
▁تحصل	-5695
▁تعرض	-5696
▁عطية	-5697
▁فذهب	-5698
▁لصحة	-5699
▁محدث	-5700
▁مدبر	-5701
▁مصدر	-5702
▁ومنع	-5703
▁يصوم	-5704
▁العطف	-5705
▁الليث	-5706
▁الموط	-5707
▁بشرطه	-5708
▁حاجته	-5709
▁حكومة	-5710
▁قليلا	-5711
▁مذهبه	-5712
▁مشايخ	-5713
▁نهارا	-5714
▁ومحله	-5715
▁ووجهه	-5716
▁التطوع	-5717
▁جنايته	-5718
▁ويعتبر	-5719
▁والأوجه	-5720
غب	-5721
اخذ	-5722
ذمي	-5723
زعه	-5724
عتا	-5725
واو	-5726
▁جس	-5727
أخير	-5728
تهلك	-5729
لتين	-5730
نائه	-5731
▁بحج	-5732
▁روح	-5733
▁سمى	-5734
▁قلع	-5735
▁مفس	-5736
▁وإس	-5737
▁وات	-5738
▁وصى	-5739
وياني	-5740
▁أدنى	-5741
▁أعطي	-5742
▁البه	-5743
▁الهر	-5744
▁بوطء	-5745
▁جرير	-5746
▁خبره	-5747
▁خنثى	-5748
▁فقبل	-5749
▁مجاز	-5750
▁وقسم	-5751
▁يعطي	-5752
▁يندب	-5753
▁احتيا	-5754
▁تعبير	-5755
▁حكمها	-5756
▁عتقها	-5757
▁كناية	-5758
▁مفعول	-5759
▁وربما	-5760
▁ويخرج	-5761
▁ويفرق	-5762
▁يلحقه	-5763
▁اختاره	-5764
▁الباجي	-5765
▁الرؤية	-5766
▁الزمان	-5767
▁الفقيه	-5768
▁اللعان	-5769
▁المائة	-5770
▁اليمنى	-5771
▁لأبوين	-5772
▁العارية	-5773
▁والجواب	-5774
▁الاجتهاد	-5775
اجد	-5776
ذره	-5777
روق	-5778
سبة	-5779
صاف	-5780
غلظ	-5781
فاف	-5782
فيد	-5783
يما	-5784
▁إث	-5785
صرفه	-5786
قاده	-5787
قتين	-5788
قطوع	-5789
يوان	-5790
▁رأت	-5791
▁صنف	-5792
▁لأج	-5793
▁مخل	-5794
▁مدع	-5795
▁مري	-5796
▁مسك	-5797
▁نبه	-5798
▁نفر	-5799
▁يمر	-5800
غرماء	-5801
▁أكان	-5802
▁أمها	-5803
▁أنزل	-5804
▁إناء	-5805
▁اشتر	-5806
▁التق	-5807
▁باقي	-5808
▁ببلد	-5809
▁بعتك	-5810
▁تتمة	-5811
▁جلوس	-5812
▁خدمة	-5813
▁خصمه	-5814
▁خيبر	-5815
▁رضيت	-5816
▁سيما	-5817
▁شامل	-5818
▁شهدا	-5819
▁صبيا	-5820
▁عتبة	-5821
▁عقبة	-5822
▁عوضا	-5823
▁كبيع	-5824
▁وهبه	-5825
▁يعرض	-5826
▁الراء	-5827
▁السهو	-5828
▁المخت	-5829
▁بعرفة	-5830
▁فلأنه	-5831
▁فيثبت	-5832
▁لتعلق	-5833
▁مدبرا	-5834
▁موافق	-5835
▁مورثه	-5836
▁والكف	-5837
▁وقيمة	-5838
▁يفيده	-5839
▁الإخوة	-5840
▁الدرهم	-5841
▁التقدير	-5842
▁التقييد	-5843
▁الثلثين	-5844
▁المنافع	-5845
▁بالشفعة	-5846
بى	-5847
ايا	-5848
ثار	-5849
صبح	-5850
ظيم	-5851
قاة	-5852
وعب	-5853
يقة	-5854
▁بئ	-5855
حاوي	-5856
خراج	-5857
راحة	-5858
قاتل	-5859
قبول	-5860
نهاج	-5861
▁بدا	-5862
▁تعي	-5863
▁خان	-5864
▁لبي	-5865
▁مرج	-5866
▁يخف	-5867
▁يطل	-5868
▁اتفق	-5869
▁ثبتت	-5870
▁ثمرة	-5871
▁دبره	-5872
▁دفعا	-5873
▁سأله	-5874
▁عقله	-5875
▁عليا	-5876
▁فأعط	-5877
▁فعند	-5878
▁فهلك	-5879
▁قدمت	-5880
▁قطعت	-5881
▁مالي	-5882
▁منزل	-5883
▁نعلم	-5884
▁وبما	-5885
▁يحفظ	-5886
▁يزول	-5887
▁يفوت	-5888
▁أثلاث	-5889
▁أصلها	-5890
▁الجان	-5891
▁الرفع	-5892
▁السهم	-5893
▁عمارة	-5894
▁مأخوذ	-5895
▁موقوف	-5896
▁الأشهر	-5897
▁التشهد	-5898
▁القنية	-5899
▁اليتيم	-5900
▁طلاقها	-5901
▁كتابته	-5902
▁يستلزم	-5903
▁الإشارة	-5904
▁الجنازة	-5905
▁الحنفية	-5906
▁الخلاصة	-5907
▁الغزالي	-5908
▁الملتقط	-5909
▁المنقول	-5910
الغ	-5911
بتة	-5912
حدا	-5913
حمل	-5914
غرم	-5915
لكم	-5916
▁شق	-5917
ارقة	-5918
خيير	-5919
رشاد	-5920
كروه	-5921
▁ألم	-5922
▁أين	-5923
▁بست	-5924
▁تيم	-5925
▁عجل	-5926
▁قبي	-5927
▁كرد	-5928
▁منس	-5929
▁وبد	-5930
إنسان	-5931
▁الأث	-5932
▁الفي	-5933
▁بقيت	-5934
▁تأوي	-5935
▁حقهم	-5936
▁رضاه	-5937
▁سرقة	-5938
▁كلمة	-5939
▁نفسي	-5940
▁وقتل	-5941
▁وكيف	-5942
▁ونوى	-5943
▁الباء	-5944
▁الترك	-5945
▁بأمره	-5946
▁بالقر	-5947
▁بجواز	-5948
▁بشراء	-5949
▁سنتين	-5950
▁فأنكر	-5951
▁لهيعة	-5952
▁مسجدا	-5953
▁موضعه	-5954
▁وتكون	-5955
▁يتأتى	-5956
▁يعتمد	-5957
▁اشتريت	-5958
▁الأيام	-5959
▁التمتع	-5960
▁الزوال	-5961
▁السرقة	-5962
▁العهدة	-5963
▁الهمزة	-5964
▁الوالد	-5965
▁للموصى	-5966
▁منفردا	-5967
▁الكفاية	-5968
▁الموجود	-5969
▁استحقاقه	-5970
▁الامتناع	-5971
سما	-5972
ضيف	-5973
▁خذ	-5974
▁غس	-5975
▁بنو	-5976
▁حرز	-5977
▁رآه	-5978
▁غائ	-5979
▁ونا	-5980
▁يدا	-5981
مرأته	-5982
▁أفسد	-5983
▁ابتد	-5984
▁بانت	-5985
▁بلده	-5986
▁سليم	-5987
▁شفعة	-5988
▁عزله	-5989
▁عمار	-5990
▁فجاز	-5991
▁مريض	-5992
▁نذره	-5993
▁نقدا	-5994
▁يعقل	-5995
▁يمسح	-5996
▁إعطاء	-5997
▁الاكت	-5998
▁التمر	-5999
▁الجلد	-6000
▁الصبح	-6001
▁بسببه	-6002
▁زائدة	-6003
▁لزوال	-6004
▁ممتنع	-6005
▁وذكره	-6006
▁يحمله	-6007
▁استوفى	-6008
▁الأصيل	-6009
▁الأمير	-6010
▁القريب	-6011
▁بالفتح	-6012
▁للمالك	-6013
▁لورثته	-6014
▁مخالفة	-6015
▁الأموال	-6016
▁الإشهاد	-6017
▁المديون	-6018
▁الاختلاف	-6019
رفق	-6020
عدى	-6021
كرة	-6022
حتاج	-6023
راعة	-6024
شهود	-6025
ولدة	-6026
▁آية	-6027
▁ترض	-6028
▁غدا	-6029
▁مجر	-6030
▁وخل	-6031
شتراط	-6032
وافقه	-6033
▁أجاب	-6034
▁أخته	-6035
▁أصبع	-6036
▁بنات	-6037
▁تسلم	-6038
▁تعتق	-6039
▁تلزم	-6040
▁حائط	-6041
▁حقيق	-6042
▁رجعت	-6043
▁سمعه	-6044
▁صححه	-6045
▁ضربه	-6046
▁فاعل	-6047
▁فورا	-6048
▁لأمر	-6049
▁ممكن	-6050
▁نسبة	-6051
▁ورده	-6052
▁يغني	-6053
▁أقسام	-6054
▁الأهل	-6055
▁انفرد	-6056
▁بعتقه	-6057
▁بلوغه	-6058
▁رأيته	-6059
▁عليهن	-6060
▁فيقال	-6061
▁لعموم	-6062
▁محترز	-6063
▁محذوف	-6064
▁نظيره	-6065
▁والحر	-6066
▁ومالك	-6067
▁ويجاب	-6068
▁ويقبل	-6069
▁يجعله	-6070
▁يساوي	-6071
▁أتقاني	-6072
▁إطلاقه	-6073
▁الجلوس	-6074
▁الجهاد	-6075
▁المصحف	-6076
▁كالبيع	-6077
▁للوكيل	-6078
▁واعترض	-6079
▁وثلاثة	-6080
▁الأصابع	-6081
▁الأولين	-6082
▁السابقة	-6083
▁المعصية	-6084
▁بالمعروف	-6085
ئن	-6086
ضط	-6087
طش	-6088
حان	-6089
صلى	-6090
غرق	-6091
قيد	-6092
▁حف	-6093
▁صا	-6094
▁فش	-6095
▁يظ	-6096
ائحة	-6097
▁أتت	-6098
▁أتم	-6099
▁أوج	-6100
▁شرك	-6101
▁عود	-6102
▁فصح	-6103
▁كفى	-6104
▁وأف	-6105
▁أحضر	-6106
▁أعلى	-6107
▁الات	-6108
▁تكرر	-6109
▁توجد	-6110
▁سؤال	-6111
▁غاصب	-6112
▁فالع	-6113
▁وقدم	-6114
▁وقفا	-6115
▁يخبر	-6116
▁يطهر	-6117
▁البول	-6118
▁العاص	-6119
▁النوم	-6120
▁رجلان	-6121
▁غيبته	-6122
▁فيخرج	-6123
▁مسألت	-6124
▁هارون	-6125
▁وحدها	-6126
▁وكونه	-6127
▁يخرجه	-6128
▁يكفيه	-6129
▁الأصغر	-6130
▁التراب	-6131
▁التهمة	-6132
▁الدعاء	-6133
▁الفداء	-6134
▁الموجب	-6135
▁الحضانة	-6136
▁بالعمرة	-6137
ئب	-6138
درك	-6139
ذبا	-6140
فرة	-6141
قاق	-6142
كوم	-6143
صابة	-6144
لاوة	-6145
▁تنز	-6146
▁فقل	-6147
▁أجره	-6148
▁ابنة	-6149
▁تأخذ	-6150
▁توهم	-6151
▁جرحه	-6152
▁جعلت	-6153
▁عقده	-6154
▁فسقط	-6155
▁كفار	-6156
▁مخال	-6157
▁وانت	-6158
▁يبعث	-6159
▁يجزه	-6160
▁يفصل	-6161
▁يهود	-6162
▁إيجاب	-6163
▁اعترف	-6164
▁الوتر	-6165
▁تسمية	-6166
▁تنفسخ	-6167
▁للعلم	-6168
▁يساره	-6169
▁الأعلى	-6170
▁الصلاح	-6171
▁العالم	-6172
▁القربة	-6173
▁المخرج	-6174
▁المنبر	-6175
▁والوجه	-6176
▁وجوبها	-6177
▁الأخيرة	-6178
▁الإتيان	-6179
▁الشيخان	-6180
▁الشيطان	-6181
▁المجنون	-6182
▁شهادتهم	-6183
▁والدليل	-6184
▁الاختيار	-6185
▁الاعتكاف	-6186
اءة	-6187
باغ	-6188
دته	-6189
شته	-6190
▁آن	-6191
▁رؤ	-6192
▁زك	-6193
▁غن	-6194
اركه	-6195
اريخ	-6196
قبال	-6197
قبضه	-6198
لاكه	-6199
وليه	-6200
يلاء	-6201
▁إنا	-6202
▁فتن	-6203
▁قات	-6204
▁كفل	-6205
▁لغو	-6206
▁ملي	-6207
▁وحر	-6208
▁وفق	-6209
▁يزد	-6210
ستاني	-6211
▁أمان	-6212
▁ثلثي	-6213
▁زهير	-6214
▁سميت	-6215
▁صفته	-6216
▁طلوع	-6217
▁عامل	-6218
▁عموم	-6219
▁غريم	-6220
▁فقطع	-6221
▁فوقع	-6222
▁كثرة	-6223
▁ليلى	-6224
▁مؤجل	-6225
▁وحمل	-6226
▁ومما	-6227
▁يؤذن	-6228
▁يطلع	-6229
▁يعجز	-6230
▁ينسب	-6231
▁الأذن	-6232
▁الركن	-6233
▁القلع	-6234
▁بشهاد	-6235
▁تعليل	-6236
▁ثبوته	-6237
▁رجعيا	-6238
▁شفعته	-6239
▁طلاقا	-6240
▁ظاهرة	-6241
▁فيعتق	-6242
▁قائمة	-6243
▁لفوات	-6244
▁معتمد	-6245
▁وقاله	-6246
▁ويجعل	-6247
▁ويدخل	-6248
▁يترتب	-6249
▁يتكرر	-6250
▁الخدمة	-6251
▁الفصول	-6252
▁الوقوع	-6253
▁بالكسر	-6254
▁بالنظر	-6255
▁تسليمه	-6256
▁للمدعي	-6257
▁مرابحة	-6258
▁واختار	-6259
▁الأعضاء	-6260
▁الأعيان	-6261
▁الضرورة	-6262
▁القاعدة	-6263
▁المهملة	-6264
▁واختاره	-6265
▁والثالث	-6266
▁والصحيح	-6267
▁والوصية	-6268
اخ	-6269
فك	-6270
يك	-6271
ئين	-6272
بنى	-6273
جدة	-6274
جوم	-6275
داع	-6276
صال	-6277
طيب	-6278
ويم	-6279
▁إم	-6280
▁دف	-6281
بلوغ	-6282
عمله	-6283
مهما	-6284
واية	-6285
▁بخر	-6286
▁بقا	-6287
▁جنب	-6288
▁حاز	-6289
▁حفص	-6290
▁رمي	-6291
▁سائ	-6292
▁ظلم	-6293
▁عظم	-6294
▁فيأ	-6295
▁فيع	-6296
▁مان	-6297
▁مقل	-6298
▁يجر	-6299
▁يرك	-6300
باشرة	-6301
▁أمتي	-6302
▁أهلا	-6303
▁الحط	-6304
▁بدعة	-6305
▁تهمة	-6306
▁جسده	-6307
▁زوجا	-6308
▁فسأل	-6309
▁للوا	-6310
▁أسماء	-6311
▁أصابع	-6312
▁إلينا	-6313
▁الخاص	-6314
▁العهد	-6315
▁بيقين	-6316
▁جوازه	-6317
▁ضامنا	-6318
▁عيينة	-6319
▁فأقام	-6320
▁لوارث	-6321
▁مخصوص	-6322
▁نقصان	-6323
▁وأقره	-6324
▁وعمرو	-6325
▁ويعتق	-6326
▁يتكلم	-6327
▁ينتقض	-6328
▁أجنبية	-6329
▁العقار	-6330
▁النهار	-6331
▁الوجوه	-6332
▁صداقها	-6333
▁فاشترى	-6334
▁مفهومه	-6335
▁واحترز	-6336
▁يتناول	-6337
▁استئجار	-6338
▁الفرائض	-6339
▁شهادتهما	-6340
ائض	-6341
ارد	-6342
تية	-6343
خسي	-6344
زار	-6345
فري	-6346
فسر	-6347
ميص	-6348
هده	-6349
▁بض	-6350
▁لآ	-6351
بتين	-6352
حوال	-6353
▁آلة	-6354
▁خار	-6355
▁خيف	-6356
▁دعا	-6357
▁رطل	-6358
▁سكر	-6359
▁صلح	-6360
▁قوي	-6361
▁لات	-6362
▁مجه	-6363
▁محص	-6364
▁يسع	-6365
▁يعم	-6366
▁أنفه	-6367
▁الخش	-6368
▁الشه	-6369
▁العق	-6370
▁النع	-6371
▁برضا	-6372
▁بوقت	-6373
▁تضمن	-6374
▁تعدى	-6375
▁زادت	-6376
▁زيدا	-6377
▁شريح	-6378
▁فشهد	-6379
▁قومه	-6380
▁وجوه	-6381
▁يمضي	-6382
▁البين	-6383
▁العزل	-6384
▁المعد	-6385
▁الوسط	-6386
▁باقية	-6387
▁بحصته	-6388
▁بعمرة	-6389
▁بنكاح	-6390
▁بوجوب	-6391
▁دفعها	-6392
▁فساده	-6393
▁محرمة	-6394
▁مكرها	-6395
▁مهرها	-6396
▁وقالت	-6397
▁يتقدم	-6398
▁أثلاثا	-6399
▁الأصلي	-6400
▁فيعتبر	-6401
▁مكاتبا	-6402
▁ويؤيده	-6403
▁السرخسي	-6404
▁المشايخ	-6405
▁الميقات	-6406
▁روايتان	-6407
▁والأقرب	-6408
▁استحسانا	-6409
▁الملائكة	-6410
رن	-6411
ذاء	-6412
زاع	-6413
زري	-6414
طبا	-6415
ظره	-6416
غرس	-6417
قيط	-6418
واس	-6419
▁إق	-6420
▁غا	-6421
ربية	-6422
واعد	-6423
يارة	-6424
▁أيد	-6425
▁تدل	-6426
▁ضيا	-6427
▁مطر	-6428
▁وأت	-6429
▁أسفل	-6430
▁أقرت	-6431
▁أمسك	-6432
▁اثني	-6433
▁الكن	-6434
▁بابه	-6435
▁بمهر	-6436
▁ثمنا	-6437
▁خراج	-6438
▁زينب	-6439
▁سورة	-6440
▁ضررا	-6441
▁عامة	-6442
▁عبدي	-6443
▁عياض	-6444
▁غصبه	-6445
▁لاعت	-6446
▁لغرض	-6447
▁للفق	-6448
▁نفيه	-6449
▁نواه	-6450
▁وزعم	-6451
▁المشت	-6452
▁جاهلا	-6453
▁ذكرته	-6454
▁صريحا	-6455
▁فأخرج	-6456
▁مستحب	-6457
▁معتدة	-6458
▁ويثبت	-6459
▁أنفسهم	-6460
▁الآتية	-6461
▁الجدار	-6462
▁الخامس	-6463
▁الخنثى	-6464
▁الديون	-6465
▁الواطئ	-6466
▁برقبته	-6467
▁للحاجة	-6468
▁وحاصله	-6469
▁الإنفاق	-6470
▁الخصومة	-6471
▁القسامة	-6472
▁المصالح	-6473
▁المملوك	-6474
▁وأربعين	-6475
▁وثلاثين	-6476
▁الأنصاري	-6477
▁الصحيحين	-6478
▁المشركين	-6479
اط	-6480
صم	-6481
طى	-6482
خلا	-6483
شره	-6484
علة	-6485
فيذ	-6486
قرر	-6487
لاد	-6488
▁رغ	-6489
قبلة	-6490
هلال	-6491
يابة	-6492
يدها	-6493
▁انح	-6494
▁بذل	-6495
▁دفن	-6496
▁ردت	-6497
▁علا	-6498
▁فدل	-6499
▁فمه	-6500
▁لمس	-6501
▁نفل	-6502
▁ومؤ	-6503
▁ونظ	-6504
سناده	-6505
▁الجر	-6506
▁السف	-6507
▁بدنة	-6508
▁بعضا	-6509
▁بيعا	-6510
▁شعير	-6511
▁عباد	-6512
▁كالج	-6513
▁كالن	-6514
▁لشيء	-6515
▁محلا	-6516
▁نقصه	-6517
▁وهبت	-6518
▁يدري	-6519
▁يقصر	-6520
هستاني	-6521
▁الالت	-6522
▁العضو	-6523
▁المحا	-6524
▁المفا	-6525
▁بائنا	-6526
▁ثانية	-6527
▁شعبان	-6528
▁فريضة	-6529
▁فيبطل	-6530
▁كاملا	-6531
▁لحصول	-6532
▁للحال	-6533
▁للمقر	-6534
▁مجموع	-6535
▁محلها	-6536
▁يدخله	-6537
▁يعلمه	-6538
▁الثياب	-6539
▁السارق	-6540
▁الظهار	-6541
▁العصمة	-6542
▁بجناية	-6543
▁لمصلحة	-6544
▁مختلفة	-6545
▁مراعاة	-6546
▁مستثنى	-6547
▁الأيمان	-6548
▁الجمهور	-6549
▁الجاهلية	-6550
▁الشريكين	-6551
▁المتقدمة	-6552
▁المستودع	-6553
▁الدارقطني	-6554
بش	-6555
برئ	-6556
سنه	-6557
مير	-6558
واة	-6559
ورق	-6560
ائما	-6561
باته	-6562
ضمين	-6563
وضعه	-6564
▁خلع	-6565
▁دلي	-6566
▁للف	-6567
▁محج	-6568
▁مشى	-6569
▁وتك	-6570
▁وسم	-6571
▁ومت	-6572
شتريه	-6573
▁أجله	-6574
▁التم	-6575
▁الغد	-6576
▁المو	-6577
▁تؤخذ	-6578
▁ترتب	-6579
▁حصلت	-6580
▁زمنه	-6581
▁ضمير	-6582
▁عرضا	-6583
▁لمال	-6584
▁مبيع	-6585
▁مميز	-6586
▁نقلا	-6587
▁وطئت	-6588
▁ولقد	-6589
▁يرثه	-6590
▁أسامة	-6591
▁الخلق	-6592
▁السير	-6593
▁الفضة	-6594
▁تعريف	-6595
▁تقييد	-6596
▁خمسون	-6597
▁طائفة	-6598
▁فادعى	-6599
▁فافهم	-6600
▁فتبين	-6601
▁مردود	-6602
▁وأنها	-6603
▁وجعله	-6604
▁ينعزل	-6605
▁اختصاص	-6606
▁الإناء	-6607
▁الشجرة	-6608
▁المخبر	-6609
▁بالقتل	-6610
▁لأجنبي	-6611
▁للوارث	-6612
▁مالكها	-6613
▁وأخرجه	-6614
▁وعثمان	-6615
▁يلزمها	-6616
▁الإرشاد	-6617
▁الذخيرة	-6618
▁الرابعة	-6619
▁المنهاج	-6620
▁للمرتهن	-6621
▁وأصحابه	-6622
▁والعمرة	-6623
▁الابتداء	-6624
▁والمعتمد	-6625
بوس	-6626
جزه	-6627
حلق	-6628
شرا	-6629
شفة	-6630
صيب	-6631
يان	-6632
▁جا	-6633
▁جذ	-6634
ئتين	-6635
تيقن	-6636
جاوز	-6637
شاهد	-6638
شهوة	-6639
عارة	-6640
فادة	-6641
لزوم	-6642
▁أقا	-6643
▁شمل	-6644
▁مضر	-6645
▁ولع	-6646
▁ويز	-6647
▁يعل	-6648
▁آنفا	-6649
▁أمرا	-6650
▁الصح	-6651
▁الفم	-6652
▁بتلك	-6653
▁بشير	-6654
▁تقطع	-6655
▁تلفه	-6656
▁زالت	-6657
▁صدقت	-6658
▁عقبه	-6659
▁عنقه	-6660
▁فقدم	-6661
▁كفيل	-6662
▁لربه	-6663
▁نزلت	-6664
▁ورجل	-6665
▁ونحن	-6666
▁يتخذ	-6667
▁يزاد	-6668
▁إياها	-6669
▁الزمن	-6670
▁السعي	-6671
▁الشجر	-6672
▁العكس	-6673
▁القيد	-6674
▁تطوعا	-6675
▁تمييز	-6676
▁صفوان	-6677
▁فلانة	-6678
▁لثبوت	-6679
▁للبيع	-6680
▁للناس	-6681
▁مروان	-6682
▁ويسلم	-6683
▁الرسول	-6684
▁يزوجها	-6685
▁يستأجر	-6686
▁اعتبارا	-6687
▁الاثنين	-6688
▁بإسلامه	-6689
▁بالبناء	-6690
أه	-6691
اهن	-6692
جرح	-6693
رثه	-6694
زما	-6695
سطه	-6696
نجس	-6697
نهى	-6698
▁آل	-6699
▁كه	-6700
▁نح	-6701
أنها	-6702
جهيز	-6703
قتال	-6704
واهر	-6705
▁ترج	-6706
▁تمت	-6707
▁سفل	-6708
▁قتي	-6709
▁كلم	-6710
▁ليد	-6711
▁منف	-6712
▁أسمع	-6713
▁أيسر	-6714
▁السم	-6715
▁الهن	-6716
▁بأرض	-6717
▁تعتد	-6718
▁جاوز	-6719
▁جزاء	-6720
▁حارث	-6721
▁حرية	-6722
▁حيضة	-6723
▁رضاع	-6724
▁فسخه	-6725
▁فلذا	-6726
▁كالث	-6727
▁كالص	-6728
▁لأمه	-6729
▁مدعي	-6730
▁معسر	-6731
▁نائب	-6732
▁وسكت	-6733
▁وعرف	-6734
▁ولزم	-6735
▁وندب	-6736
▁ووجد	-6737
▁يضره	-6738
▁أجرته	-6739
▁أرباع	-6740
▁احتمل	-6741
▁البطن	-6742
▁الشرب	-6743
▁الطفل	-6744
▁المجر	-6745
▁بثلاث	-6746
▁تكرار	-6747
▁فاطمة	-6748
▁مندوب	-6749
▁منعها	-6750
▁والأخ	-6751
▁وقياس	-6752
▁ويبطل	-6753
▁يتوضأ	-6754
▁التزام	-6755
▁العورة	-6756
▁الفتوى	-6757
▁القدير	-6758
▁الكافي	-6759
▁بقرينة	-6760
▁فيحتمل	-6761
▁وأربعة	-6762
▁وحدثنا	-6763
▁ومقتضى	-6764
▁ويتوجه	-6765
▁يستوفي	-6766
▁الإمكان	-6767
▁الرجلين	-6768
▁المحتار	-6769
▁المقبوض	-6770
▁لاختلاف	-6771
▁والشافعي	-6772
اظ	-6773
مى	-6774
طرح	-6775
كات	-6776
مسا	-6777
مني	-6778
واط	-6779
وتر	-6780
▁أظ	-6781
▁در	-6782
▁ضي	-6783
▁كد	-6784
ضارب	-6785
لاعن	-6786
وتها	-6787
▁آجر	-6788
▁بتع	-6789
▁بصح	-6790
▁عاج	-6791
▁عار	-6792
▁غرس	-6793
▁فوا	-6794
▁كإن	-6795
▁ليح	-6796
▁مجن	-6797
▁محا	-6798
▁وأس	-6799
▁وطل	-6800
▁يقم	-6801
جارته	-6802
طلقها	-6803
يمتها	-6804
▁أمور	-6805
▁اتحد	-6806
▁بدفع	-6807
▁بوضع	-6808
▁تحيض	-6809
▁تعرف	-6810
▁حرمت	-6811
▁خوفا	-6812
▁ذكرت	-6813
▁ركعت	-6814
▁ظلما	-6815
▁فإني	-6816
▁فسلم	-6817
▁فقام	-6818
▁قبره	-6819
▁مكره	-6820
▁وبحث	-6821
▁وجاء	-6822
▁وذهب	-6823
▁ولمن	-6824
▁ويوم	-6825
▁يعقد	-6826
▁يمشي	-6827
▁بقتله	-6828
▁بقدره	-6829
▁تأويل	-6830
▁تخصيص	-6831
▁تقتضي	-6832
▁ثنتين	-6833
▁حاشية	-6834
▁فيبقى	-6835
▁لعمرو	-6836
▁للحكم	-6837
▁للذكر	-6838
▁مؤجلا	-6839
▁مجاهد	-6840
▁مشروط	-6841
▁وأخذه	-6842
▁والجد	-6843
▁يتأخر	-6844
▁أعتقها	-6845
▁الخرقي	-6846
▁السفيه	-6847
▁اليدين	-6848
▁اليهود	-6849
▁بإسناد	-6850
▁بالوطء	-6851
▁لزوجها	-6852
▁لشريكه	-6853
▁مضاربة	-6854
▁مكاتبه	-6855
▁وبعضهم	-6856
▁الأبوين	-6857
▁الأنوار	-6858
▁الإنكار	-6859
▁المزارع	-6860
▁باختلاف	-6861
▁مشايخنا	-6862
▁والقياس	-6863
▁المزارعة	-6864
▁الموازية	-6865
▁الاستحسان	-6866
قن	-6867
يج	-6868
سهو	-6869
شقة	-6870
ضرا	-6871
قال	-6872
ابته	-6873
حلال	-6874
خالف	-6875
دلال	-6876
ستحق	-6877
شرين	-6878
ياطة	-6879
▁بحد	-6880
▁بكم	-6881
▁بلى	-6882
▁ترث	-6883
▁ركع	-6884
▁سال	-6885
▁عدو	-6886
▁فرأ	-6887
▁فرس	-6888
▁فيء	-6889
▁قلب	-6890
▁قنا	-6891
▁لوق	-6892
▁محم	-6893
▁منت	-6894
▁وكف	-6895
▁ومج	-6896
▁يحب	-6897
▁يرت	-6898
▁يعا	-6899
▁الإب	-6900
▁الذك	-6901
▁الشع	-6902
▁بائع	-6903
▁بعذر	-6904
▁بيتا	-6905
▁تمكن	-6906
▁ثلثا	-6907
▁جديد	-6908
▁حدوث	-6909
▁حمزة	-6910
▁حيضا	-6911
▁دعوة	-6912
▁فأقل	-6913
▁فتجب	-6914
▁فهما	-6915
▁قادر	-6916
▁قصدا	-6917
▁كظهر	-6918
▁لبيك	-6919
▁ونقص	-6920
▁ووجب	-6921
▁يخطب	-6922
▁أنواع	-6923
▁الشام	-6924
▁اللغة	-6925
▁الوزن	-6926
▁تحصيل	-6927
▁رشيدي	-6928
▁فيحلف	-6929
▁فيسقط	-6930
▁قرابة	-6931
▁قطعها	-6932
▁نحوها	-6933
▁وتبعه	-6934
▁وسائر	-6935
▁ويكفي	-6936
▁يدفعه	-6937
▁يندفع	-6938
▁إخراجه	-6939
▁الآخرة	-6940
▁الثابت	-6941
▁الضامن	-6942
▁المحقق	-6943
▁المعسر	-6944
▁المقام	-6945
▁المميز	-6946
▁بالأول	-6947
▁تأخيره	-6948
▁للغاصب	-6949
▁مشتركا	-6950
▁مضمونة	-6951
▁وقيمته	-6952
▁يستعمل	-6953
▁البطلان	-6954
▁التوضيح	-6955
▁المشروط	-6956
▁النقصان	-6957
▁فالمراد	-6958
ؤمن	-6959
ائق	-6960
ابط	-6961
احة	-6962
تيه	-6963
جرا	-6964
رسل	-6965
شرح	-6966
صاد	-6967
فيز	-6968
تبين	-6969
ركان	-6970
صوبة	-6971
صيله	-6972
فهمه	-6973
نتان	-6974
يجاب	-6975
▁أعا	-6976
▁اغت	-6977
▁جزا	-6978
▁حده	-6979
▁ربي	-6980
▁طرق	-6981
▁عفو	-6982
▁فبا	-6983
▁قرا	-6984
▁للد	-6985
▁مأذ	-6986
▁معر	-6987
▁نوا	-6988
▁وبع	-6989
▁ويه	-6990
▁أعمى	-6991
▁إزال	-6992
▁البت	-6993
▁الدا	-6994
▁بائن	-6995
▁بدلا	-6996
▁حسان	-6997
▁حكيم	-6998
▁شخصا	-6999
▁عندك	-7000
▁عورة	-7001
▁فبلغ	-7002
▁قتال	-7003
▁كردي	-7004
▁كغير	-7005
▁مسمى	-7006
▁مطال	-7007
▁موتي	-7008
▁نسوة	-7009
▁نفسك	-7010
▁وأصل	-7011
▁وأمه	-7012
▁يعلى	-7013
▁يليق	-7014
▁يوقف	-7015
▁أحوال	-7016
▁إباحة	-7017
▁الاشت	-7018
▁الساد	-7019
▁الشاة	-7020
▁الفور	-7021
▁النقض	-7022
▁بدينه	-7023
▁تناول	-7024
▁عادته	-7025
▁كتابي	-7026
▁مجنون	-7027
▁وألحق	-7028
▁وحديث	-7029
▁وصاحب	-7030
▁يأمره	-7031
▁يتضمن	-7032
▁الأكبر	-7033
▁التوبة	-7034
▁الحجاج	-7035
▁الدافع	-7036
▁الشهاب	-7037
▁الفقير	-7038
▁القرعة	-7039
▁الكثير	-7040
▁المشار	-7041
▁النصيب	-7042
▁بغيرها	-7043
▁دينارا	-7044
▁مستحقا	-7045
▁وأصلها	-7046
▁ينافيه	-7047
▁احتياطا	-7048
▁الأقوال	-7049
▁الإباحة	-7050
▁الإجزاء	-7051
▁البدائع	-7052
▁استعماله	-7053
ارى	-7054
اطب	-7055
بنه	-7056
ثرة	-7057
حرز	-7058
حمة	-7059
ذاك	-7060
سكر	-7061
ضاع	-7062
قضه	-7063
هاي	-7064
واك	-7065
وقا	-7066
بياء	-7067
دلفة	-7068
قاطه	-7069
نائم	-7070
▁أجد	-7071
▁ادع	-7072
▁باط	-7073
▁ترا	-7074
▁حزم	-7075
▁حلت	-7076
▁غلا	-7077
▁فخذ	-7078
▁قصة	-7079
▁ورق	-7080
▁وفى	-7081
▁ويف	-7082
▁يبد	-7083
▁تبقى	-7084
▁تكره	-7085
▁تيقن	-7086
▁شربه	-7087
▁صيام	-7088
▁فتصح	-7089
▁فدفع	-7090
▁فرجع	-7091
▁فروع	-7092
▁وافق	-7093
▁وحكى	-7094
▁وقضى	-7095
▁يدها	-7096
▁أعضاء	-7097
▁ألبتة	-7098
▁الكتب	-7099
▁انفسخ	-7100
▁بالات	-7101
▁دونها	-7102
▁زكاته	-7103
▁قدمنا	-7104
▁كاتبه	-7105
▁لجميع	-7106
▁للولد	-7107
▁وامرأ	-7108
▁وتعذر	-7109
▁وعنده	-7110
▁ويدفع	-7111
▁يختار	-7112
▁إليهما	-7113
▁العموم	-7114
▁ذكرناه	-7115
▁للثاني	-7116
▁للحاكم	-7117
▁والدين	-7118
▁ورسوله	-7119
▁يأخذها	-7120
▁يقتضيه	-7121
▁يقولون	-7122
▁التعريف	-7123
▁العلامة	-7124
▁المعتاد	-7125
▁للمكاتب	-7126
▁الاقتداء	-7127
▁البزازية	-7128
ئي	-7129
شهب	-7130
نعة	-7131
ويض	-7132
يري	-7133
▁كك	-7134
بنية	-7135
رائه	-7136
عاقد	-7137
ورات	-7138
ولان	-7139
▁بإن	-7140
▁برج	-7141
▁جبر	-7142
▁حدة	-7143
▁قبر	-7144
▁يشر	-7145
ولادة	-7146
▁أجبر	-7147
▁إقام	-7148
▁الأج	-7149
▁التخ	-7150
▁بطلب	-7151
▁بفرض	-7152
▁بقرب	-7153
▁بلغه	-7154
▁بيعت	-7155
▁تجعل	-7156
▁تفسد	-7157
▁جزما	-7158
▁خمرا	-7159
▁عرفت	-7160
▁عظيم	-7161
▁فيقع	-7162
▁كالز	-7163
▁مخير	-7164
▁مستن	-7165
▁نعيم	-7166
▁نقصت	-7167
▁وشرح	-7168
▁وضرب	-7169
▁وغسل	-7170
▁ومعه	-7171
▁يتنا	-7172
▁يركب	-7173
▁أبرأه	-7174
▁البحث	-7175
▁الجبر	-7176
▁الدال	-7177
▁السبع	-7178
▁القدم	-7179
▁المار	-7180
▁المطر	-7181
▁المنت	-7182
▁بموضع	-7183
▁تتعلق	-7184
▁جنازة	-7185
▁ركعات	-7186
▁سيرين	-7187
▁عياله	-7188
▁فأسلم	-7189
▁فحكمه	-7190
▁فيقدم	-7191
▁قدرته	-7192
▁موليا	-7193
▁والمع	-7194
▁وسكون	-7195
▁وولده	-7196
▁ينتظر	-7197
▁الأمان	-7198
▁الصفقة	-7199
▁العامة	-7200
▁العبرة	-7201
▁العقود	-7202
▁القاطع	-7203
▁القرية	-7204
▁المؤذن	-7205
▁المجاز	-7206
▁الموفق	-7207
▁مطالبة	-7208
▁موقوفة	-7209
▁والعتق	-7210
▁والعمل	-7211
▁والولد	-7212
▁وخمسين	-7213
▁يخالفه	-7214
▁التمليك	-7215
▁التنبيه	-7216
▁المعلوم	-7217
▁المفهوم	-7218
▁بالشراء	-7219
▁للمفعول	-7220
▁الجانبين	-7221
▁الروياني	-7222
▁المتبادر	-7223
اجر	-7224
خلص	-7225
ديق	-7226
صري	-7227
ظار	-7228
غيب	-7229
قبه	-7230
كيد	-7231
نفق	-7232
نيه	-7233
وثق	-7234
يال	-7235
▁ار	-7236
▁طا	-7237
دامة	-7238
شديد	-7239
عديه	-7240
غصوب	-7241
لاني	-7242
واني	-7243
▁بأم	-7244
▁بعت	-7245
▁تنت	-7246
▁حجه	-7247
▁دمه	-7248
▁ركب	-7249
▁سكن	-7250
▁ظرف	-7251
▁عنك	-7252
▁كفي	-7253
▁مجل	-7254
▁محق	-7255
▁هدم	-7256
▁يشق	-7257
رابته	-7258
قصيره	-7259
نثيين	-7260
وكيله	-7261
▁أفاد	-7262
▁أقرع	-7263
▁استط	-7264
▁الهد	-7265
▁بالط	-7266
▁برهن	-7267
▁بضرب	-7268
▁بكرا	-7269
▁تخلف	-7270
▁توجه	-7271
▁جبري	-7272
▁جنين	-7273
▁خطبة	-7274
▁سواه	-7275
▁ظهره	-7276
▁فتنة	-7277
▁قهرا	-7278
▁كقول	-7279
▁محيط	-7280
▁مرتب	-7281
▁وزوج	-7282
▁يذبح	-7283
▁إجازة	-7284
▁إشكال	-7285
▁الثمر	-7286
▁الحضر	-7287
▁الخلط	-7288
▁الطيب	-7289
▁العرا	-7290
▁الغرر	-7291
▁النضر	-7292
▁انصرف	-7293
▁بالرد	-7294
▁بالمن	-7295
▁بخمسة	-7296
▁حارثة	-7297
▁حرمته	-7298
▁حضوره	-7299
▁زواله	-7300
▁عندها	-7301
▁غنيمة	-7302
▁فباعه	-7303
▁قولنا	-7304
▁مثقلا	-7305
▁وارثا	-7306
▁وحاصل	-7307
▁ينقسم	-7308
▁الأصول	-7309
▁البالغ	-7310
▁الحاوي	-7311
▁الحدود	-7312
▁الليلة	-7313
▁المؤجل	-7314
▁المباح	-7315
▁المضاف	-7316
▁مكاتبة	-7317
▁والثلث	-7318
▁الإيلاء	-7319
▁بالإسلام	-7320
اض	-7321
سار	-7322
سعة	-7323
شيا	-7324
عون	-7325
قيه	-7326
لاص	-7327
ياق	-7328
يوم	-7329
▁حط	-7330
تبية	-7331
خلاف	-7332
ضاره	-7333
ضرار	-7334
فساخ	-7335
كنها	-7336
▁برق	-7337
▁بمق	-7338
▁تصد	-7339
▁جيد	-7340
▁خات	-7341
▁زائ	-7342
▁شقص	-7343
▁طيب	-7344
▁عصر	-7345
▁وأق	-7346
▁وعا	-7347
▁يقض	-7348
براني	-7349
▁أبطل	-7350
▁بالل	-7351
▁بحمل	-7352
▁بقطع	-7353
▁بمضي	-7354
▁جاره	-7355
▁حائل	-7356
▁حاضت	-7357
▁حجاج	-7358
▁حفظه	-7359
▁زاده	-7360
▁سلمه	-7361
▁علقه	-7362
▁عهدة	-7363
▁فحكم	-7364
▁فضرب	-7365
▁فقير	-7366
▁فيرد	-7367
▁فيقت	-7368
▁قرره	-7369
▁كابن	-7370
▁كالش	-7371
▁للحج	-7372
▁ناظر	-7373
▁نزاع	-7374
▁نظره	-7375
▁ورثه	-7376
▁وملك	-7377
▁يكمل	-7378
▁يهلك	-7379
▁إرادة	-7380
▁الإثم	-7381
▁البصر	-7382
▁الجار	-7383
▁الموس	-7384
▁انفصل	-7385
▁باطلا	-7386
▁باقيه	-7387
▁بيمين	-7388
▁توكيل	-7389
▁جبريل	-7390
▁شرعية	-7391
▁علقمة	-7392
▁فليست	-7393
▁وأجرة	-7394
▁وتارة	-7395
▁وشرحه	-7396
▁أجنبيا	-7397
▁الحلال	-7398
▁العصبة	-7399
▁الغروب	-7400
▁الفراغ	-7401
▁الهلال	-7402
▁انتفاء	-7403
▁بالأقل	-7404
▁لإمكان	-7405
▁مشتركة	-7406
▁معتبرة	-7407
▁ومثلها	-7408
▁الإسناد	-7409
▁الشركاء	-7410
▁الشيخين	-7411
▁العتبية	-7412
▁المازري	-7413
▁والحاكم	-7414
ؤل	-7415
ابا	-7416
باط	-7417
تقى	-7418
ضاح	-7419
عية	-7420
فرع	-7421
يضة	-7422
▁ذن	-7423
▁غد	-7424
ادثة	-7425
الحه	-7426
حرير	-7427
فاضة	-7428
ماني	-7429
نابة	-7430
هاجر	-7431
وجيه	-7432
▁آمن	-7433
▁أخي	-7434
▁أدا	-7435
▁بسن	-7436
▁بفت	-7437
▁بوج	-7438
▁بول	-7439
▁تدع	-7440
▁ثعل	-7441
▁حبل	-7442
▁حية	-7443
▁سنن	-7444
▁علل	-7445
▁فصا	-7446
▁كفا	-7447
▁وتت	-7448
▁وحج	-7449
▁وسل	-7450
▁يبع	-7451
▁يلق	-7452
رائيل	-7453
فعلها	-7454
▁أبيض	-7455
▁إخوة	-7456
▁اختص	-7457
▁بقرة	-7458
▁تابع	-7459
▁تبعه	-7460
▁تقسم	-7461
▁حلقه	-7462
▁ردته	-7463
▁سجدة	-7464
▁فباع	-7465
▁لولي	-7466
▁مطلب	-7467
▁نافذ	-7468
▁وزيد	-7469
▁ويقع	-7470
▁يؤجر	-7471
▁يحسب	-7472
▁يطوف	-7473
▁يفرض	-7474
▁يومه	-7475
▁احترا	-7476
▁السكر	-7477
▁العبا	-7478
▁العمر	-7479
▁المجد	-7480
▁المفت	-7481
▁بتركه	-7482
▁بوجود	-7483
▁تعارض	-7484
▁حدثنى	-7485
▁غريمه	-7486
▁فالذي	-7487
▁قيامه	-7488
▁كأصله	-7489
▁للولي	-7490
▁متتاب	-7491
▁ونصفه	-7492
▁ينصرف	-7493
▁أربعون	-7494
▁اجتماع	-7495
▁التمكن	-7496
▁الجوزي	-7497
▁الفتنة	-7498
▁القديم	-7499
▁الكرخي	-7500
▁بالثلث	-7501
▁بالعمل	-7502
▁بنفسها	-7503
▁فعليها	-7504
▁لضرورة	-7505
▁مضمونا	-7506
▁منفعته	-7507
▁موقوفا	-7508
▁وزيادة	-7509
▁وسبعين	-7510
▁أموالهم	-7511
▁استثناء	-7512
▁التخيير	-7513
▁بالاتفاق	-7514
▁بالجناية	-7515
ذرع	-7516
رده	-7517
سلت	-7518
يئة	-7519
▁إز	-7520
▁شم	-7521
▁كز	-7522
اباة	-7523
اديث	-7524
اهدة	-7525
سالة	-7526
عليق	-7527
فاته	-7528
وسية	-7529
▁أسد	-7530
▁إثم	-7531
▁بأي	-7532
▁تتم	-7533
▁تفر	-7534
▁جحد	-7535
▁حوز	-7536
▁ذوي	-7537
▁سار	-7538
▁سلط	-7539
▁شدة	-7540
▁صلة	-7541
▁ضعي	-7542
▁وعم	-7543
▁أثره	-7544
▁إسنا	-7545
▁اقتص	-7546
▁الرش	-7547
▁بأهل	-7548
▁بعرض	-7549
▁تباع	-7550
▁تكفي	-7551
▁تنجس	-7552
▁حوله	-7553
▁رخصة	-7554
▁سمرة	-7555
▁صفقة	-7556
▁عذاب	-7557
▁فاعت	-7558
▁فبقي	-7559
▁فوات	-7560
▁قتلت	-7561
▁موسر	-7562
▁نقضه	-7563
▁هشيم	-7564
▁وشمل	-7565
▁وصدق	-7566
▁وضعت	-7567
▁وكأن	-7568
▁ومرة	-7569
▁يخصه	-7570
▁البعد	-7571
▁الخبز	-7572
▁المفر	-7573
▁المنك	-7574
▁بالشك	-7575
▁ترتيب	-7576
▁تيممه	-7577
▁ثلثها	-7578
▁جعلها	-7579
▁عدلين	-7580
▁عمرته	-7581
▁لسانه	-7582
▁لظهور	-7583
▁للمسا	-7584
▁للنبي	-7585
▁منزله	-7586
▁والمح	-7587
▁وجدها	-7588
▁ولأبي	-7589
▁يجاوز	-7590
▁الثواب	-7591
▁المثلي	-7592
▁المحيل	-7593
▁النجوم	-7594
▁امتناع	-7595
▁بالنصف	-7596
▁بتقدير	-7597
▁تحريمه	-7598
▁معاملة	-7599
▁موجودة	-7600
▁يستحقه	-7601
▁استبراء	-7602
▁التعبير	-7603
▁التمييز	-7604
▁السلامة	-7605
▁العدالة	-7606
▁المحتال	-7607
▁المعرفة	-7608
▁لامرأته	-7609
▁الاحتمال	-7610
أي	-7611
شو	-7612
غي	-7613
كث	-7614
ارئ	-7615
جنب	-7616
رجة	-7617
طعم	-7618
طها	-7619
ظور	-7620
كوت	-7621
لاب	-7622
يمي	-7623
يني	-7624
▁أض	-7625
▁إت	-7626
ابعة	-7627
ستان	-7628
فيها	-7629
قارب	-7630
قدام	-7631
لزوج	-7632
لهما	-7633
ناعه	-7634
نافع	-7635
وقوع	-7636
▁انه	-7637
▁بهن	-7638
▁تام	-7639
▁شأن	-7640
▁صوت	-7641
▁قرن	-7642
▁لور	-7643
▁ليث	-7644
▁مصل	-7645
▁وتر	-7646
▁يره	-7647
▁يصر	-7648
طالبه	-7649
قتضاه	-7650
هايأة	-7651
▁أبلغ	-7652
▁أقبل	-7653
▁إعاد	-7654
▁ابني	-7655
▁التص	-7656
▁جدار	-7657
▁حازم	-7658
▁خمسا	-7659
▁شهوة	-7660
▁صيغة	-7661
▁قلعه	-7662
▁مظنة	-7663
▁مفسد	-7664
▁وفسخ	-7665
▁وكون	-7666
▁يتهم	-7667
▁يخشى	-7668
▁يطعم	-7669
▁يعدل	-7670
▁يعذر	-7671
▁يكثر	-7672
▁يوهم	-7673
▁استدل	-7674
▁الجيش	-7675
▁النجس	-7676
▁انتفى	-7677
▁بطنها	-7678
▁بقضاء	-7679
▁بواحد	-7680
▁تكبير	-7681
▁توبته	-7682
▁خدمته	-7683
▁خياره	-7684
▁رجعية	-7685
▁شاهدا	-7686
▁قولين	-7687
▁كتابه	-7688
▁للغير	-7689
▁مأذون	-7690
▁مستقل	-7691
▁مشهور	-7692
▁والقر	-7693
▁ويصير	-7694
▁ويقدم	-7695
▁يطأها	-7696
▁ينفرد	-7697
▁استهلك	-7698
▁اعتراض	-7699
▁التبرع	-7700
▁الحقوق	-7701
▁الخفين	-7702
▁الخلوة	-7703
▁الدليل	-7704
▁الربيع	-7705
▁العقبة	-7706
▁الغيبة	-7707
▁الوهاب	-7708
▁مباشرة	-7709
▁مقابله	-7710
▁موافقة	-7711
▁وامتنع	-7712
▁وعليها	-7713
▁الخامسة	-7714
▁الطحاوي	-7715
▁الوصايا	-7716
▁بالصلاة	-7717
▁والترمذي	-7718
▁والمسألة	-7719
▁وخمسمائة	-7720
▁الاستمتاع	-7721
نق	-7722
ارن	-7723
بدع	-7724
بلة	-7725
بيض	-7726
جلد	-7727
ريع	-7728
لال	-7729
وهن	-7730
▁زع	-7731
الية	-7732
خبار	-7733
خلية	-7734
صالح	-7735
ضاعة	-7736
علقة	-7737
كفير	-7738
ونهم	-7739
يابه	-7740
▁بخل	-7741
▁حبي	-7742
▁حدا	-7743
▁ربك	-7744
▁ساق	-7745
▁سعة	-7746
▁سوط	-7747
▁فلس	-7748
▁كأم	-7749
▁مدر	-7750
▁مذك	-7751
▁ممي	-7752
▁نبت	-7753
▁نحر	-7754
▁وخص	-7755
ولاية	-7756
ولدها	-7757
▁اعتد	-7758
▁البك	-7759
▁بأجر	-7760
▁برجل	-7761
▁بسهم	-7762
▁بصري	-7763
▁بنته	-7764
▁تطهر	-7765
▁حاتم	-7766
▁حسنة	-7767
▁حصين	-7768
▁ذهبا	-7769
▁رأيه	-7770
▁سهيل	-7771
▁فعلا	-7772
▁فعلي	-7773
▁قسمه	-7774
▁مسكن	-7775
▁وضمن	-7776
▁ومسح	-7777
▁يركع	-7778
▁يشاء	-7779
▁ينفع	-7780
▁أكثره	-7781
▁إنشاء	-7782
▁إنكار	-7783
▁الصاد	-7784
▁القيم	-7785
▁الكيل	-7786
▁بخروج	-7787
▁تعجيل	-7788
▁صورته	-7789
▁طعامه	-7790
▁للحمل	-7791
▁مشتري	-7792
▁وأصله	-7793
▁وحمله	-7794
▁وكيلا	-7795
▁يتجزأ	-7796
▁يسيرا	-7797
▁يغتسل	-7798
▁يقتصر	-7799
▁أصابعه	-7800
▁الأدلة	-7801
▁الجوهر	-7802
▁الخدري	-7803
▁الشافع	-7804
▁العتيق	-7805
▁الغاية	-7806
▁المرسل	-7807
▁المقيد	-7808
▁اليسير	-7809
▁بدراهم	-7810
▁مملوكة	-7811
▁موجودا	-7812
▁والبيع	-7813
▁الأحوال	-7814
▁الإخبار	-7815
▁المسافة	-7816
▁بالكلية	-7817
▁بالمعنى	-7818
▁تزويجها	-7819
▁ثلثمائة	-7820
▁والصلاة	-7821
▁الأنثيين	-7822
▁الصورتين	-7823
▁المبالغة	-7824
خف	-7825
يغ	-7826
حته	-7827
صده	-7828
غله	-7829
كية	-7830
ناث	-7831
وثة	-7832
يقا	-7833
ابضا	-7834
دينه	-7835
ريبة	-7836
فسده	-7837
وفيق	-7838
▁أحر	-7839
▁أخص	-7840
▁بخط	-7841
▁بدن	-7842
▁بمد	-7843
▁تقا	-7844
▁شائ	-7845
▁صبغ	-7846
▁عون	-7847
▁فتع	-7848
▁لعن	-7849
▁ميم	-7850
▁هدر	-7851
▁وجع	-7852
▁وغل	-7853
▁ويد	-7854
لازمة	-7855
▁أجير	-7856
▁أحمر	-7857
▁أوضح	-7858
▁الخز	-7859
▁بأخذ	-7860
▁بأول	-7861
▁تارة	-7862
▁جمعه	-7863
▁حلفت	-7864
▁درجة	-7865
▁زرعة	-7866
▁ستين	-7867
▁سماه	-7868
▁طاعة	-7869
▁فانت	-7870
▁فحمل	-7871
▁كفره	-7872
▁لحمه	-7873
▁وتجب	-7874
▁ورفع	-7875
▁وصفه	-7876
▁وفعل	-7877
▁ولهم	-7878
▁ووضع	-7879
▁يشرع	-7880
▁يشير	-7881
▁يعزر	-7882
▁يفضل	-7883
▁يقتص	-7884
▁يقرب	-7885
▁ينزع	-7886
▁الستر	-7887
▁بصيغة	-7888
▁بعلمه	-7889
▁جوابه	-7890
▁حالها	-7891
▁دابته	-7892
▁زكريا	-7893
▁سلامه	-7894
▁طريقة	-7895
▁غائبا	-7896
▁فيدخل	-7897
▁قدميه	-7898
▁كبيرا	-7899
▁لولده	-7900
▁وابنه	-7901
▁وحكمه	-7902
▁ولاؤه	-7903
▁ويندب	-7904
▁يرفعه	-7905
▁يقتله	-7906
▁اثنتين	-7907
▁اختلفت	-7908
▁استؤجر	-7909
▁الأنثى	-7910
▁الحادث	-7911
▁الكامل	-7912
▁بأربعة	-7913
▁وقدمنا	-7914
▁الألفاظ	-7915
▁الأمانة	-7916
▁الباقية	-7917
▁البحرين	-7918
▁الطرفين	-7919
▁المختلف	-7920
ؤهم	-7921
خرا	-7922
رأس	-7923
زلت	-7924
عمى	-7925
▁إش	-7926
▁ضح	-7927
▁فف	-7928
ائتة	-7929
اربه	-7930
ارضة	-7931
بائر	-7932
بعضه	-7933
خلها	-7934
رافه	-7935
شتهر	-7936
قرير	-7937
نازع	-7938
نجاء	-7939
▁جام	-7940
▁خبز	-7941
▁صحا	-7942
▁ظفر	-7943
▁فأع	-7944
▁فيس	-7945
▁كمل	-7946
▁متأ	-7947
▁مرح	-7948
▁معي	-7949
▁مغل	-7950
وكالة	-7951
▁أخاه	-7952
▁احتج	-7953
▁اطلع	-7954
▁التت	-7955
▁بئرا	-7956
▁بكون	-7957
▁تنقص	-7958
▁حملا	-7959
▁ذهاب	-7960
▁ربعه	-7961
▁سبقه	-7962
▁طويل	-7963
▁غلبة	-7964
▁قلتم	-7965
▁كالغ	-7966
▁لفظا	-7967
▁لفظة	-7968
▁للمح	-7969
▁مؤقت	-7970
▁هبته	-7971
▁ومال	-7972
▁ووقف	-7973
▁يأثم	-7974
▁يسعى	-7975
▁يليه	-7976
▁يوضع	-7977
▁أضحية	-7978
▁أعمال	-7979
▁أفعال	-7980
▁الخيل	-7981
▁الكسر	-7982
▁بالغا	-7983
▁بذمته	-7984
▁بسرقة	-7985
▁تتزوج	-7986
▁تقصير	-7987
▁تمكنه	-7988
▁طريقه	-7989
▁عارية	-7990
▁فأعتق	-7991
▁فأمره	-7992
▁فيقسم	-7993
▁كافرة	-7994
▁لكثرة	-7995
▁لمجرد	-7996
▁محمدا	-7997
▁ويعلم	-7998
▁يدعيه	-7999
▁احتراز	-8000
▁اعتمده	-8001
▁الأيمن	-8002
▁الذكور	-8003
▁الفوات	-8004
▁المصدر	-8005
▁بالألف	-8006
▁بالبيت	-8007
▁فصاعدا	-8008
▁والمال	-8009
▁وامرأة	-8010
▁يستثنى	-8011
▁إطلاقهم	-8012
▁الإتمام	-8013
▁التصريح	-8014
▁التفريق	-8015
▁المالية	-8016
▁ومقابله	-8017
▁الاكتفاء	-8018
▁المستأمن	-8019
▁والنسائي	-8020
زين	-8021
سيم	-8022
طاء	-8023
فقت	-8024
فله	-8025
كاه	-8026
كمة	-8027
مهل	-8028
وثه	-8029
وكا	-8030
▁تض	-8031
▁كذ	-8032
▁كغ	-8033
بتيه	-8034
ركوب	-8035
طلقة	-8036
عانة	-8037
يتهم	-8038
يلها	-8039
يلهم	-8040
▁أعد	-8041
▁أفت	-8042
▁إبل	-8043
▁شغل	-8044
▁ضبط	-8045
▁فأل	-8046
▁فسق	-8047
▁لتح	-8048
▁ليع	-8049
▁وتج	-8050
▁يؤد	-8051
صراني	-8052
▁أصبح	-8053
▁أفعل	-8054
▁بجزء	-8055
▁بشهر	-8056
▁بعبد	-8057
▁تركت	-8058
▁تضرب	-8059
▁تفعل	-8060
▁ذاته	-8061
▁ركوع	-8062
▁سابق	-8063
▁شيوخ	-8064
▁صوته	-8065
▁عوده	-8066
▁فاسق	-8067
▁فبال	-8068
▁فتلف	-8069
▁فحدث	-8070
▁قطعة	-8071
▁قوما	-8072
▁لشخص	-8073
▁لمرض	-8074
▁لنفس	-8075
▁مائت	-8076
▁متاع	-8077
▁متمت	-8078
▁مولا	-8079
▁هديا	-8080
▁وبأن	-8081
▁وزنه	-8082
▁يجده	-8083
▁اتحاد	-8084
▁اغتسل	-8085
▁الأشر	-8086
▁الحفر	-8087
▁الستة	-8088
▁الشقص	-8089
▁بحاله	-8090
▁تصديق	-8091
▁تصوير	-8092
▁تفاوت	-8093
▁تملكه	-8094
▁سابقا	-8095
▁فتدبر	-8096
▁فقراء	-8097
▁فيحمل	-8098
▁للملك	-8099
▁مأكول	-8100
▁مختصر	-8101
▁مسكين	-8102
▁والمج	-8103
▁وجهها	-8104
▁ونفقة	-8105
▁يسأله	-8106
▁يقينا	-8107
▁يلتفت	-8108
▁استحقت	-8109
▁الأثرم	-8110
▁الجديد	-8111
▁الحساب	-8112
▁الحمام	-8113
▁القابض	-8114
▁القطان	-8115
▁اللقطة	-8116
▁المتلف	-8117
▁المعلم	-8118
▁المورث	-8119
▁اليسار	-8120
▁بإسلام	-8121
▁باتفاق	-8122
▁بالنية	-8123
▁جميعها	-8124
▁محجورا	-8125
▁واقتصر	-8126
▁وجماعة	-8127
▁وللآخر	-8128
▁إسرائيل	-8129
▁الإضافة	-8130
▁الشرعية	-8131
▁الصحيحة	-8132
▁المتوفى	-8133
▁بالسوية	-8134
▁تأويلان	-8135
▁للفقراء	-8136
▁والأظهر	-8137
▁باختياره	-8138
▁بالمدينة	-8139
▁والمشتري	-8140
بور	-8141
ثلث	-8142
حده	-8143
حها	-8144
خرق	-8145
دمه	-8146
قصى	-8147
كمل	-8148
داخل	-8149
رائن	-8150
سلما	-8151
سنان	-8152
قائه	-8153
لحاق	-8154
مادى	-8155
ماوي	-8156
مكنه	-8157
▁أره	-8158
▁إبد	-8159
▁تعم	-8160
▁حقي	-8161
▁حله	-8162
▁حما	-8163
▁خشي	-8164
▁فوض	-8165
▁كرا	-8166
▁منق	-8167
▁موط	-8168
▁نار	-8169
بيهقي	-8170
جاسته	-8171
يراثه	-8172
▁أتيت	-8173
▁أخوه	-8174
▁أشرف	-8175
▁باسم	-8176
▁باطن	-8177
▁بجير	-8178
▁بحضر	-8179
▁بطلا	-8180
▁تسمى	-8181
▁تملي	-8182
▁جاهل	-8183
▁جمرة	-8184
▁جوفه	-8185
▁خشية	-8186
▁شاءت	-8187
▁شارح	-8188
▁عتقا	-8189
▁فأنا	-8190
▁فرعه	-8191
▁فعرف	-8192
▁فنزل	-8193
▁قيده	-8194
▁لحما	-8195
▁لضعف	-8196
▁هدية	-8197
▁وربع	-8198
▁وشرب	-8199
▁يعمر	-8200
▁يفرغ	-8201
▁ينكح	-8202
جتهاده	-8203
▁أفراد	-8204
▁اتفقا	-8205
▁الآبق	-8206
▁الجنب	-8207
▁الصبغ	-8208
▁المسب	-8209
▁بأداء	-8210
▁بقبضه	-8211
▁بملكه	-8212
▁حربيا	-8213
▁صحتها	-8214
▁طريقا	-8215
▁فيجعل	-8216
▁قدرها	-8217
▁قضاؤه	-8218
▁لأجله	-8219
▁ليخرج	-8220
▁متصلا	-8221
▁مجتهد	-8222
▁موتها	-8223
▁وأفهم	-8224
▁وبذلك	-8225
▁وثلثا	-8226
▁وثمان	-8227
▁ولزمه	-8228
▁وماله	-8229
▁ويحلف	-8230
▁يتيقن	-8231
▁يتيمم	-8232
▁يجزيه	-8233
▁يوافق	-8234
▁استعمل	-8235
▁الأسفل	-8236
▁البنات	-8237
▁التملك	-8238
▁الجنون	-8239
▁الفطرة	-8240
▁المهذب	-8241
▁بالآخر	-8242
▁بالواو	-8243
▁فأعتقه	-8244
▁للزوجة	-8245
▁لمولاه	-8246
▁مسلمين	-8247
▁يملكها	-8248
▁احترازا	-8249
▁الأفعال	-8250
▁الإمساك	-8251
▁القرابة	-8252
▁المفقود	-8253
▁للغرماء	-8254
▁القهستاني	-8255
جدد	-8256
حاس	-8257
خلل	-8258
درا	-8259
دنى	-8260
ربت	-8261
روك	-8262
سلا	-8263
صبة	-8264
ضحى	-8265
ضيا	-8266
فال	-8267
ئجار	-8268
اعته	-8269
اهرة	-8270
بينه	-8271
جبار	-8272
سابه	-8273
ساوي	-8274
شركة	-8275
غماء	-8276
فاعل	-8277
فسير	-8278
نساء	-8279
وزون	-8280
وفية	-8281
ويلة	-8282
▁أبق	-8283
▁امر	-8284
▁بتح	-8285
▁بسم	-8286
▁بمت	-8287
▁بوص	-8288
▁خرق	-8289
▁سهو	-8290
▁سوق	-8291
▁شفع	-8292
▁صلب	-8293
▁قلة	-8294
▁متق	-8295
▁مدل	-8296
▁مره	-8297
▁مسن	-8298
▁مشي	-8299
▁نام	-8300
▁وأش	-8301
▁ودع	-8302
▁وكس	-8303
▁ووج	-8304
هارته	-8305
▁أصول	-8306
▁بعمل	-8307
▁تراض	-8308
▁تغلي	-8309
▁تميز	-8310
▁توجب	-8311
▁خلقه	-8312
▁رجعة	-8313
▁ضعفه	-8314
▁عددا	-8315
▁عطفا	-8316
▁فالق	-8317
▁فرده	-8318
▁فلعل	-8319
▁فلكل	-8320
▁فينت	-8321
▁قاطع	-8322
▁كالس	-8323
▁كتبه	-8324
▁كنتم	-8325
▁للمن	-8326
▁لهذه	-8327
▁متصل	-8328
▁مرتد	-8329
▁ههنا	-8330
▁وأول	-8331
▁وجمع	-8332
▁يرضى	-8333
▁يشرط	-8334
▁يعبر	-8335
▁يعفى	-8336
▁أختها	-8337
▁أكرهه	-8338
▁ابنته	-8339
▁احترز	-8340
▁اقتضى	-8341
▁العدم	-8342
▁الفاء	-8343
▁المما	-8344
▁تفريط	-8345
▁تنقضي	-8346
▁روينا	-8347
▁شهدوا	-8348
▁صلاحه	-8349
▁طلاقه	-8350
▁عينها	-8351
▁غرماء	-8352
▁قالوه	-8353
▁مأمور	-8354
▁مؤجلة	-8355
▁مالها	-8356
▁متاعه	-8357
▁مرادا	-8358
▁مريضا	-8359
▁مواضع	-8360
▁وأشهد	-8361
▁وأفتى	-8362
▁والبر	-8363
▁وعشرة	-8364
▁وفعله	-8365
▁وليها	-8366
▁ويحمل	-8367
▁ويشهد	-8368
▁ويمنع	-8369
▁يتأمل	-8370
▁يتخير	-8371
▁يعتقه	-8372
▁يقاتل	-8373
▁إزالته	-8374
▁القدوم	-8375
▁اللقيط	-8376
▁المعير	-8377
▁الوجيز	-8378
▁بالعلم	-8379
▁بجيرمي	-8380
▁بحالها	-8381
▁بعدهما	-8382
▁تقديره	-8383
▁فالوجه	-8384
▁لتعديه	-8385
▁متمتعا	-8386
▁يضمنها	-8387
▁الإجابة	-8388
▁الإطعام	-8389
▁التشبيه	-8390
▁المبارك	-8391
▁المجتهد	-8392
▁المنصوص	-8393
▁النسائي	-8394
▁فالأقرب	-8395
▁فالأولى	-8396
▁والإمام	-8397
▁وثلاثون	-8398
▁الاعتبار	-8399
▁الفصولين	-8400
▁المساكين	-8401
عف	-8402
ارس	-8403
تهب	-8404
ثيل	-8405
جال	-8406
عهد	-8407
كبر	-8408
كنة	-8409
منة	-8410
وبي	-8411
بهام	-8412
فليس	-8413
لزام	-8414
ميته	-8415
نيته	-8416
وافه	-8417
وجبه	-8418
وصوف	-8419
وقفه	-8420
يقين	-8421
▁أخف	-8422
▁أذى	-8423
▁إله	-8424
▁بهز	-8425
▁ثمة	-8426
▁حرج	-8427
▁زيت	-8428
▁عقر	-8429
▁لعا	-8430
▁وتؤ	-8431
▁وتق	-8432
▁يسر	-8433
جهالة	-8434
عتاقه	-8435
▁أصغر	-8436
▁أوسق	-8437
▁الده	-8438
▁الطب	-8439
▁انقط	-8440
▁بآخر	-8441
▁بجنس	-8442
▁بعير	-8443
▁بلاد	-8444
▁بمنع	-8445
▁تراب	-8446
▁تنكح	-8447
▁حادث	-8448
▁حلول	-8449
▁رجحه	-8450
▁رحمة	-8451
▁سبعا	-8452
▁عادت	-8453
▁غرضه	-8454
▁غزوة	-8455
▁فإما	-8456
▁فرأى	-8457
▁قائل	-8458
▁كثرت	-8459
▁لبيت	-8460
▁لستة	-8461
▁مبطل	-8462
▁مبلغ	-8463
▁وأحد	-8464
▁وعمل	-8465
▁وفاة	-8466
▁يمسك	-8467
▁أعطيت	-8468
▁ألفين	-8469
▁أمينا	-8470
▁إجماع	-8471
▁إخبار	-8472
▁ابتدأ	-8473
▁استقر	-8474
▁استقل	-8475
▁الجبل	-8476
▁الفاس	-8477
▁القاف	-8478
▁بأمان	-8479
▁بالمت	-8480
▁باليد	-8481
▁بكلام	-8482
▁تبارك	-8483
▁تحتمل	-8484
▁تغتسل	-8485
▁تقرير	-8486
▁تمامه	-8487
▁جزافا	-8488
▁حيضها	-8489
▁خنزير	-8490
▁رحمهم	-8491
▁عامدا	-8492
▁فتعين	-8493
▁فيشمل	-8494
▁لازما	-8495
▁لزومه	-8496
▁لورثة	-8497
▁ليعلم	-8498
▁متصلة	-8499
▁مرتبا	-8500
▁مشروع	-8501
▁وأمره	-8502
▁ومسلم	-8503
▁ويلحق	-8504
▁يتعذر	-8505
▁يصدقه	-8506
▁يعرفه	-8507
▁يقبله	-8508
▁ينفعه	-8509
▁أيديهم	-8510
▁البقرة	-8511
▁التحفة	-8512
▁الحرير	-8513
▁الداخل	-8514
▁الشامل	-8515
▁اللزوم	-8516
▁المجمع	-8517
▁انقطاع	-8518
▁بالعكس	-8519
▁بالقرب	-8520
▁بالقول	-8521
▁بواحدة	-8522
▁تعليقه	-8523
▁فيتعين	-8524
▁فيمتنع	-8525
▁كتابية	-8526
▁مستأجر	-8527
▁والملك	-8528
▁وبينها	-8529
▁وكلامه	-8530
▁الأعمال	-8531
▁الإمامة	-8532
▁التحقيق	-8533
▁التزويج	-8534
▁النعمان	-8535
▁بالقسمة	-8536
▁بالقضاء	-8537
▁الأنبياء	-8538
▁الأولياء	-8539
▁المعاوضة	-8540
ذم	-8541
اته	-8542
باق	-8543
جلة	-8544
ضحي	-8545
ضلة	-8546
ضيع	-8547
طعه	-8548
قلع	-8549
وئه	-8550
زامه	-8551
شروط	-8552
صبها	-8553
كافه	-8554
نهار	-8555
▁أخا	-8556
▁أسب	-8557
▁أيا	-8558
▁حصر	-8559
▁ذنب	-8560
▁ضما	-8561
▁طرح	-8562
▁طلع	-8563
▁قطن	-8564
▁كشف	-8565
▁كمس	-8566
▁لأخ	-8567
▁مشغ	-8568
▁نخل	-8569
▁نهي	-8570
▁وإب	-8571
▁يقد	-8572
واسطة	-8573
▁الإف	-8574
▁الرب	-8575
▁بنتا	-8576
▁جنبا	-8577
▁حامد	-8578
▁خلوة	-8579
▁سلمت	-8580
▁سماك	-8581
▁ظالم	-8582
▁غنيا	-8583
▁قبضت	-8584
▁لفقد	-8585
▁للمج	-8586
▁منتف	-8587
▁مهدي	-8588
▁وجهل	-8589
▁وحصل	-8590
▁وحكي	-8591
▁وصفة	-8592
▁وقفت	-8593
▁ونصه	-8594
▁ينجس	-8595
▁أهلية	-8596
▁البكر	-8597
▁التعم	-8598
▁السيف	-8599
▁العقر	-8600
▁القرا	-8601
▁اللبس	-8602
▁بالحق	-8603
▁بالرق	-8604
▁بدلها	-8605
▁تفريق	-8606
▁ثعلبة	-8607
▁حراما	-8608
▁زائدا	-8609
▁عدمها	-8610
▁فسأله	-8611
▁كالحر	-8612
▁متقوم	-8613
▁مثليا	-8614
▁مجاوز	-8615
▁محدثا	-8616
▁وضوءه	-8617
▁وقبضه	-8618
▁وقدمه	-8619
▁وقيده	-8620
▁ويؤيد	-8621
▁ويزيد	-8622
▁ويغرم	-8623
▁يتقيد	-8624
▁يغتفر	-8625
▁الحضور	-8626
▁الصيام	-8627
▁بالأرض	-8628
▁بالعبد	-8629
▁بدينار	-8630
▁بمقتضى	-8631
▁حقيقته	-8632
▁درهمين	-8633
▁عاقلته	-8634
▁فالأصح	-8635
▁لزيادة	-8636
▁مجنونا	-8637
▁مملوكا	-8638
▁والسنة	-8639
▁وقولهم	-8640
▁إخراجها	-8641
▁الإشكال	-8642
▁التسوية	-8643
▁العربية	-8644
▁الانتقال	-8645
▁والبيهقي	-8646
▁والمكاتب	-8647
تن	-8648
ذذ	-8649
ؤلؤ	-8650
ئته	-8651
ئهم	-8652
امة	-8653
بسط	-8654
حام	-8655
حول	-8656
داس	-8657
سين	-8658
فاذ	-8659
فور	-8660
قيب	-8661
لفا	-8662
ميس	-8663
واق	-8664
وزع	-8665
وفل	-8666
يقظ	-8667
يمن	-8668
▁سو	-8669
▁ضب	-8670
بتدئ	-8671
ثناة	-8672
حاقه	-8673
دعوى	-8674
ذبحه	-8675
رابي	-8676
ريعة	-8677
قدار	-8678
قيقه	-8679
كامه	-8680
لاته	-8681
لالة	-8682
ناسب	-8683
يداع	-8684
▁بمر	-8685
▁تفت	-8686
▁تكر	-8687
▁حبة	-8688
▁دهن	-8689
▁سها	-8690
▁غرر	-8691
▁لقي	-8692
▁وسع	-8693
▁ويل	-8694
جتماع	-8695
فراده	-8696
▁أذرع	-8697
▁الأر	-8698
▁القل	-8699
▁بحقه	-8700
▁تخير	-8701
▁تنبي	-8702
▁تيسر	-8703
▁جماع	-8704
▁حفصة	-8705
▁ظهرت	-8706
▁عمره	-8707
▁عهده	-8708
▁فترك	-8709
▁فراش	-8710
▁لعان	-8711
▁للمع	-8712
▁وأعط	-8713
▁وخبر	-8714
▁وسجد	-8715
▁وصيا	-8716
▁ومست	-8717
▁ومهر	-8718
▁يحجر	-8719
▁يدعو	-8720
▁يزرع	-8721
▁يصنع	-8722
▁يوصي	-8723
▁أمرها	-8724
▁اعتمد	-8725
▁الجيم	-8726
▁الكبر	-8727
▁المتي	-8728
▁المكي	-8729
▁النسك	-8730
▁النوا	-8731
▁انتقض	-8732
▁بيديه	-8733
▁بيننا	-8734
▁تأثير	-8735
▁تحقيق	-8736
▁تستحق	-8737
▁ثابتة	-8738
▁عقوبة	-8739
▁علامة	-8740
▁ففيها	-8741
▁فيكره	-8742
▁قاتله	-8743
▁قتلها	-8744
▁كيفية	-8745
▁لبيان	-8746
▁لرسول	-8747
▁متعين	-8748
▁معهما	-8749
▁نصفان	-8750
▁والده	-8751
▁والمؤ	-8752
▁وصورة	-8753
▁وللأم	-8754
▁ويسجد	-8755
▁ويمين	-8756
▁يتبعه	-8757
▁استعار	-8758
▁الأمين	-8759
▁السبعة	-8760
▁الشراح	-8761
▁الشعبي	-8762
▁الصانع	-8763
▁القفال	-8764
▁المبعض	-8765
▁المرور	-8766
▁المشقة	-8767
▁المنزل	-8768
▁الوصول	-8769
▁بالزنا	-8770
▁بامرأة	-8771
▁بواسطة	-8772
▁تفسيره	-8773
▁تكبيرة	-8774
▁غرمائه	-8775
▁فالأول	-8776
▁فيشترط	-8777
▁لمالكه	-8778
▁والبقر	-8779
▁والهبة	-8780
▁وجودها	-8781
▁ويتعين	-8782
▁اختيارا	-8783
▁الإحياء	-8784
▁الإرسال	-8785
▁التأويل	-8786
▁الصغيرة	-8787
▁المتكلم	-8788
▁المدفوع	-8789
▁المساجد	-8790
▁بالمسجد	-8791
▁واستشكل	-8792
▁والأنثى	-8793
▁بخمسمائة	-8794
▁للمستأجر	-8795
▁والثانية	-8796
زق	-8797
مم	-8798
ئنا	-8799
ئول	-8800
انب	-8801
باض	-8802
حرر	-8803
حفة	-8804
خصص	-8805
ربص	-8806
سوم	-8807
شير	-8808
ضاة	-8809
طله	-8810
فرغ	-8811
فيل	-8812
قرأ	-8813
▁سع	-8814
بيين	-8815
حتها	-8816
حدود	-8817
دريس	-8818
راها	-8819
صبته	-8820
عليل	-8821
موعة	-8822
وانه	-8823
▁آخذ	-8824
▁أخو	-8825
▁أمد	-8826
▁اصط	-8827
▁جئت	-8828
▁رجب	-8829
▁سقي	-8830
▁طائ	-8831
▁عسر	-8832
▁فاج	-8833
▁فنص	-8834
▁قوت	-8835
▁كيل	-8836
▁للر	-8837
▁مغا	-8838
▁وضم	-8839
▁وقر	-8840
▁وكر	-8841
▁يدر	-8842
▁يكف	-8843
بادلة	-8844
ولاؤه	-8845
▁أصلي	-8846
▁أقله	-8847
▁ابنا	-8848
▁بمنى	-8849
▁جنون	-8850
▁حكاه	-8851
▁دوام	-8852
▁رزين	-8853
▁سفيه	-8854
▁شديد	-8855
▁شياه	-8856
▁عجزه	-8857
▁عذرا	-8858
▁عمرا	-8859
▁غرمه	-8860
▁غريب	-8861
▁فاقت	-8862
▁فرسه	-8863
▁فكتب	-8864
▁لخوف	-8865
▁لسان	-8866
▁لنقص	-8867
▁مفرد	-8868
▁نائم	-8869
▁وأقل	-8870
▁وائل	-8871
▁واسم	-8872
▁وتلف	-8873
▁ورضي	-8874
▁وزنا	-8875
▁وقصد	-8876
▁ولفظ	-8877
▁ومعا	-8878
▁يبيح	-8879
▁يجيز	-8880
▁يعيش	-8881
▁أرسله	-8882
▁إعتاق	-8883
▁اختلط	-8884
▁اعترض	-8885
▁الحاء	-8886
▁الخلف	-8887
▁القوة	-8888
▁بالإن	-8889
▁بالتع	-8890
▁بدخول	-8891
▁بشروط	-8892
▁بهيمة	-8893
▁تفريع	-8894
▁جنابة	-8895
▁حفظها	-8896
▁خزيمة	-8897
▁رعاية	-8898
▁سجوده	-8899
▁عورته	-8900
▁غلاما	-8901
▁فأخذه	-8902
▁فضيلة	-8903
▁فقيرا	-8904
▁قدومه	-8905
▁كالمر	-8906
▁للسنة	-8907
▁للسهو	-8908
▁لمعنى	-8909
▁لوقوع	-8910
▁مرارا	-8911
▁مرتبة	-8912
▁معصوم	-8913
▁واحتج	-8914
▁إحضاره	-8915
▁استثنى	-8916
▁التزوج	-8917
▁العبيد	-8918
▁العوام	-8919
▁الغراس	-8920
▁الكسوة	-8921
▁المحدث	-8922
▁بالنذر	-8923
▁تقديمه	-8924
▁ثلاثون	-8925
▁شاهدين	-8926
▁متعلقة	-8927
▁مخالفا	-8928
▁معينين	-8929
▁مكانها	-8930
▁منافعه	-8931
▁والأرض	-8932
▁وتمامه	-8933
▁يستقبل	-8934
▁الإقالة	-8935
▁التتابع	-8936
▁السعاية	-8937
▁العناية	-8938
▁المجهول	-8939
▁المعتدة	-8940
▁بالأجرة	-8941
▁فالجواب	-8942
▁للأجنبي	-8943
▁للمستحق	-8944
▁ويستثنى	-8945
▁أربعمائة	-8946
▁الاعتراض	-8947
▁والتقدير	-8948
▁والمشهور	-8949
تح	-8950
ثن	-8951
حظ	-8952
خه	-8953
قم	-8954
احم	-8955
تكم	-8956
حال	-8957
حشة	-8958
دوب	-8959
غال	-8960
غرب	-8961
فان	-8962
ماة	-8963
مري	-8964
وحا	-8965
وهب	-8966
▁غي	-8967
ائشة	-8968
ائمة	-8969
تهاء	-8970
حديد	-8971
خوله	-8972
عديل	-8973
فاضل	-8974
فتاء	-8975
فريق	-8976
قصاص	-8977
ملكه	-8978
هاره	-8979
ورهم	-8980
ولود	-8981
يمان	-8982
▁أثم	-8983
▁بثم	-8984
▁بسط	-8985
▁بيض	-8986
▁تبا	-8987
▁حكى	-8988
▁زان	-8989
▁عتي	-8990
▁فأف	-8991
▁فرب	-8992
▁فرط	-8993
▁فظن	-8994
▁نعت	-8995
▁وبت	-8996
▁وبل	-8997
▁وثم	-8998
▁وشك	-8999
▁ونس	-9000
▁ونه	-9001
▁يسب	-9002
▁أجود	-9003
▁أطعم	-9004
▁أقيم	-9005
▁أورد	-9006
▁اجتم	-9007
▁الأط	-9008
▁الجع	-9009
▁الزا	-9010
▁بأصل	-9011
▁تفرق	-9012
▁جوهر	-9013
▁رطبا	-9014
▁صليت	-9015
▁عبدك	-9016
▁فاحش	-9017
▁فسكت	-9018
▁قاسم	-9019
▁قيدا	-9020
▁كالب	-9021
▁للحر	-9022
▁للمد	-9023
▁مساف	-9024
▁منهي	-9025
▁هلكت	-9026
▁وبنى	-9027
▁ودين	-9028
▁وسمع	-9029
▁وصول	-9030
▁وليت	-9031
▁يرمي	-9032
▁يستر	-9033
▁يكبر	-9034
▁أخرجت	-9035
▁إضافة	-9036
▁البضع	-9037
▁التقط	-9038
▁الجهر	-9039
▁السنن	-9040
▁العنب	-9041
▁المنس	-9042
▁الواج	-9043
▁بالمر	-9044
▁ببيعه	-9045
▁بعدهم	-9046
▁بقائه	-9047
▁تصريح	-9048
▁تقدمت	-9049
▁ثالثة	-9050
▁حديثه	-9051
▁دارنا	-9052
▁رؤيته	-9053
▁سلطان	-9054
▁شراؤه	-9055
▁شيئين	-9056
▁عبدين	-9057
▁غايته	-9058
▁فاعله	-9059
▁فراشه	-9060
▁لابنه	-9061
▁مختار	-9062
▁مقدمة	-9063
▁وأولا	-9064
▁وخالف	-9065
▁وصدقه	-9066
▁وعلله	-9067
▁يتحلل	-9068
▁يسمعه	-9069
▁يقابل	-9070
▁الثوري	-9071
▁السادس	-9072
▁الشيوخ	-9073
▁القائم	-9074
▁المقدر	-9075
▁بمعناه	-9076
▁عادتها	-9077
▁فالحكم	-9078
▁مائتين	-9079
▁مختارا	-9080
▁مقصودا	-9081
▁والجمع	-9082
▁ومجنون	-9083
▁ومعناه	-9084
▁يشاركه	-9085
▁اختلفوا	-9086
▁اعتكافه	-9087
▁الأصلية	-9088
▁الأهلية	-9089
▁التكبير	-9090
▁الخليفة	-9091
▁الزوجية	-9092
▁الشريعة	-9093
▁بالضمان	-9094
▁بالنكاح	-9095
▁المستثنى	-9096
صص	-9097
نك	-9098
بعد	-9099
جته	-9100
جين	-9101
حصر	-9102
حقة	-9103
خرس	-9104
راة	-9105
ضبط	-9106
ضلا	-9107
قدا	-9108
قدة	-9109
قده	-9110
كها	-9111
نيت	-9112
وزا	-9113
ياج	-9114
▁دي	-9115
▁زم	-9116
▁صغ	-9117
ائهم	-9118
بيحة	-9119
حياء	-9120
دعاء	-9121
رجال	-9122
طاها	-9123
عارف	-9124
قليد	-9125
هائم	-9126
وابا	-9127
واها	-9128
وبهم	-9129
يبية	-9130
يعاب	-9131
▁أدب	-9132
▁أذا	-9133
▁بذر	-9134
▁جال	-9135
▁جدة	-9136
▁جمل	-9137
▁ضاق	-9138
▁فجر	-9139
▁قاد	-9140
▁لتأ	-9141
▁لحر	-9142
▁لذي	-9143
▁للط	-9144
▁لوج	-9145
▁نعل	-9146
▁وتغ	-9147
▁ودي	-9148
▁ولت	-9149
▁ومل	-9150
خالفة	-9151
خروجه	-9152
▁أذنت	-9153
▁إجاز	-9154
▁التب	-9155
▁النب	-9156
▁باعت	-9157
▁بخبر	-9158
▁بذهب	-9159
▁برأس	-9160
▁تأكل	-9161
▁جهلا	-9162
▁حائض	-9163
▁حدثت	-9164
▁خالص	-9165
▁خبير	-9166
▁خشبة	-9167
▁خصما	-9168
▁خطاب	-9169
▁دفعة	-9170
▁زمنا	-9171
▁سنان	-9172
▁عربي	-9173
▁عقار	-9174
▁فأبى	-9175
▁فطره	-9176
▁فكأن	-9177
▁لترك	-9178
▁مختص	-9179
▁مصعب	-9180
▁معظم	-9181
▁نعمة	-9182
▁وصحح	-9183
▁وصيه	-9184
▁يتفق	-9185
▁يحجب	-9186
▁يعنى	-9187
▁يميز	-9188
▁ينبت	-9189
▁أدائه	-9190
▁أمامة	-9191
▁أمهات	-9192
▁أوصيت	-9193
▁إدخال	-9194
▁اقتدى	-9195
▁التبر	-9196
▁التبع	-9197
▁الجسد	-9198
▁الصبر	-9199
▁الضيا	-9200
▁المرت	-9201
▁النظم	-9202
▁النون	-9203
▁بصلاة	-9204
▁بمسجد	-9205
▁بموجب	-9206
▁بيناه	-9207
▁تغيره	-9208
▁تنفيذ	-9209
▁حلالا	-9210
▁رسوله	-9211
▁رضاها	-9212
▁سبعين	-9213
▁صدقته	-9214
▁صرحوا	-9215
▁ضمنها	-9216
▁علمها	-9217
▁فجاءت	-9218
▁فنقول	-9219
▁قصاصا	-9220
▁للمال	-9221
▁للوقف	-9222
▁مجلسه	-9223
▁محترم	-9224
▁مرتدا	-9225
▁موجبا	-9226
▁نقلها	-9227
▁وأصبغ	-9228
▁والإن	-9229
▁والتع	-9230
▁وقلنا	-9231
▁ويصدق	-9232
▁يتذكر	-9233
▁البلاد	-9234
▁الحنفي	-9235
▁الخادم	-9236
▁الساعة	-9237
▁السراج	-9238
▁الشروع	-9239
▁الصبرة	-9240
▁العباد	-9241
▁الفاسق	-9242
▁الفراش	-9243
▁الكوفة	-9244
▁المشبه	-9245
▁بالإذن	-9246
▁بالرفع	-9247
▁بتسليم	-9248
▁تحليفه	-9249
▁تقييده	-9250
▁للمصنف	-9251
▁مستقبل	-9252
▁مقتضاه	-9253
▁والشرح	-9254
▁ولأنها	-9255
▁ونهاية	-9256
▁يطلقها	-9257
▁التعزير	-9258
▁الرعاية	-9259
▁العراقي	-9260
▁المسروق	-9261
▁المسلمة	-9262
▁للشافعي	-9263
▁والشارح	-9264
▁يتزوجها	-9265
▁المخالفة	-9266
▁المرابحة	-9267
ئك	-9268
اتب	-9269
خلع	-9270
وسا	-9271
وسة	-9272
وضئ	-9273
وضح	-9274
ولك	-9275
يوب	-9276
▁إف	-9277
▁صر	-9278
▁وو	-9279
جزئه	-9280
ذنها	-9281
راضي	-9282
قراض	-9283
ماله	-9284
يادي	-9285
▁أتي	-9286
▁أسم	-9287
▁إبط	-9288
▁اند	-9289
▁ببل	-9290
▁بتأ	-9291
▁بدو	-9292
▁دبغ	-9293
▁ذرا	-9294
▁شرف	-9295
▁ضيق	-9296
▁غني	-9297
▁غيب	-9298
▁قعد	-9299
▁نجد	-9300
▁نجم	-9301
▁يتن	-9302
▁يهد	-9303
نايته	-9304
▁أكمل	-9305
▁أنظر	-9306
▁اثنا	-9307
▁استغ	-9308
▁التغ	-9309
▁اللغ	-9310
▁بأكل	-9311
▁باشر	-9312
▁ببدل	-9313
▁بذله	-9314
▁بربع	-9315
▁تأتي	-9316
▁تدفع	-9317
▁ترفع	-9318
▁تزيد	-9319
▁جمعا	-9320
▁جهله	-9321
▁دامت	-9322
▁زمعة	-9323
▁سهام	-9324
▁ظهار	-9325
▁عوضه	-9326
▁غلام	-9327
▁فاتت	-9328
▁فكال	-9329
▁كراه	-9330
▁لامت	-9331
▁لدون	-9332
▁مدته	-9333
▁مراج	-9334
▁مراه	-9335
▁نزعه	-9336
▁همام	-9337
▁ورقة	-9338
▁وسعه	-9339
▁وظهر	-9340
▁وعاد	-9341
▁ويقت	-9342
▁يأمن	-9343
▁يسكن	-9344
▁أبيها	-9345
▁أدركه	-9346
▁أسباب	-9347
▁أطلقه	-9348
▁إظهار	-9349
▁إكراه	-9350
▁اعتيد	-9351
▁البسا	-9352
▁الحصر	-9353
▁الصمد	-9354
▁انتظر	-9355
▁انكسر	-9356
▁بأربع	-9357
▁بتمام	-9358
▁بجامع	-9359
▁بشهوة	-9360
▁تاريخ	-9361
▁تجارة	-9362
▁تشبيه	-9363
▁تغيير	-9364
▁تكملة	-9365
▁حقهما	-9366
▁رقيقه	-9367
▁سفينة	-9368
▁صالحا	-9369
▁صوابه	-9370
▁فاضرب	-9371
▁فتبطل	-9372
▁فرجها	-9373
▁قريبة	-9374
▁لازمة	-9375
▁لبنها	-9376
▁لحرمة	-9377
▁لكافر	-9378
▁للابن	-9379
▁للاحت	-9380
▁مؤنته	-9381
▁متبرع	-9382
▁مجوسي	-9383
▁مسافر	-9384
▁معيبا	-9385
▁موضوع	-9386
▁وتركه	-9387
▁ودرهم	-9388
▁وصارت	-9389
▁وصوله	-9390
▁وعمرة	-9391
▁ولهما	-9392
▁ويصلي	-9393
▁وينفق	-9394
▁يباشر	-9395
▁يومها	-9396
▁البعير	-9397
▁السكنى	-9398
▁الشهوة	-9399
▁المزني	-9400
▁المفسد	-9401
▁المقدم	-9402
▁انعقاد	-9403
▁بالأخذ	-9404
▁بالحجر	-9405
▁بالحكم	-9406
▁بالذكر	-9407
▁شاهدان	-9408
▁فاندفع	-9409
▁قبولها	-9410
▁قراءته	-9411
▁مستهلك	-9412
▁واشترط	-9413
▁والثمن	-9414
▁والشرط	-9415
▁وخمسون	-9416
▁ولغيره	-9417
▁الأسنان	-9418
▁الإيمان	-9419
▁التفاوت	-9420
▁الفلاني	-9421
▁المضمون	-9422
▁المعينة	-9423
▁بالجواز	-9424
▁بالدخول	-9425
▁مطالبته	-9426
▁واستثنى	-9427
▁والصواب	-9428
▁المعاملة	-9429
▁الموطوءة	-9430
نئ	-9431
جزة	-9432
داة	-9433
زعة	-9434
سرى	-9435
▁حز	-9436
▁صب	-9437
احبه	-9438
بلها	-9439
تبعه	-9440
جتمع	-9441
دخلت	-9442
ذهبت	-9443
سرقة	-9444
عدام	-9445
فسخت	-9446
منعه	-9447
نهاه	-9448
واته	-9449
وفيه	-9450
يسرة	-9451
▁أفر	-9452
▁برض	-9453
▁بمؤ	-9454
▁تلد	-9455
▁جري	-9456
▁حان	-9457
▁ذها	-9458
▁سفه	-9459
▁سنه	-9460
▁صبر	-9461
▁صحح	-9462
▁فحل	-9463
▁قمي	-9464
▁لقط	-9465
▁معص	-9466
▁مكث	-9467
▁نسك	-9468
▁ورا	-9469
▁وقا	-9470
زرعها	-9471
غنياء	-9472
لاعنة	-9473
▁أخصر	-9474
▁أذنه	-9475
▁أسهل	-9476
▁أفهم	-9477
▁اضطر	-9478
▁الذا	-9479
▁النخ	-9480
▁بآفة	-9481
▁بابن	-9482
▁بريء	-9483
▁بطنه	-9484
▁بفسخ	-9485
▁بكرة	-9486
▁تخلل	-9487
▁تعيب	-9488
▁تفوت	-9489
▁توبة	-9490
▁تولد	-9491
▁ثاني	-9492
▁حجته	-9493
▁خادم	-9494
▁دفنه	-9495
▁ركوب	-9496
▁شقيق	-9497
▁شوال	-9498
▁ضمنا	-9499
▁عامه	-9500
▁فمتى	-9501
▁قديم	-9502
▁كذبت	-9503
▁لأصل	-9504
▁لاشت	-9505
▁لبون	-9506
▁للجد	-9507
▁للمس	-9508
▁موصى	-9509
▁نسلم	-9510
▁وسأل	-9511
▁وسدس	-9512
▁ولدي	-9513
▁يسبق	-9514
▁يصلى	-9515
▁يصيب	-9516
▁يولد	-9517
▁أراده	-9518
▁أصالة	-9519
▁أطراف	-9520
▁إبراء	-9521
▁إدراك	-9522
▁اشتهر	-9523
▁الأمن	-9524
▁الفقر	-9525
▁المقل	-9526
▁النسي	-9527
▁بخصوص	-9528
▁بقاؤه	-9529
▁بكتاب	-9530
▁بلغني	-9531
▁بيتها	-9532
▁تابعة	-9533
▁تعلقه	-9534
▁ثيابه	-9535
▁ذبحها	-9536
▁سلامة	-9537
▁سمعته	-9538
▁صائما	-9539
▁فأجاز	-9540
▁فيصدق	-9541
▁قائلا	-9542
▁قريبه	-9543
▁قلناه	-9544
▁كتابا	-9545
▁لظاهر	-9546
▁للعتق	-9547
▁محبوس	-9548
▁مغصوب	-9549
▁هاتين	-9550
▁وشرعا	-9551
▁ويضرب	-9552
▁يسافر	-9553
▁أخبرنى	-9554
▁إثباته	-9555
▁الأصبع	-9556
▁الحائض	-9557
▁الدعوة	-9558
▁الطبري	-9559
▁العسكر	-9560
▁العلاء	-9561
▁المبدع	-9562
▁المحبس	-9563
▁بالسيف	-9564
▁بالصحة	-9565
▁درهمان	-9566
▁طلقتين	-9567
▁فأخبره	-9568
▁فوجهان	-9569
▁لامرأة	-9570
▁لبطلان	-9571
▁متعلقا	-9572
▁متعمدا	-9573
▁مجهولا	-9574
▁معرفته	-9575
▁مقصودة	-9576
▁والدار	-9577
▁الأشباه	-9578
▁الإيجاب	-9579
▁التوفيق	-9580
▁السفينة	-9581
▁العمارة	-9582
▁القدوري	-9583
▁الكبائر	-9584
▁المنذور	-9585
▁النيابة	-9586
▁بالأداء	-9587
▁روايتين	-9588
▁مسألتنا	-9589
▁المفارقة	-9590
خة	-9591
ظل	-9592
خيص	-9593
درة	-9594
زاء	-9595
سره	-9596
صبه	-9597
ضون	-9598
عاف	-9599
لاط	-9600
معه	-9601
نبل	-9602
▁هن	-9603
امحة	-9604
باعا	-9605
بهته	-9606
ذاته	-9607
رابه	-9608
راضه	-9609
صوله	-9610
لفها	-9611
وفيا	-9612
وقات	-9613
وهري	-9614
يهام	-9615
▁آكد	-9616
▁أضر	-9617
▁ائت	-9618
▁بأع	-9619
▁تلي	-9620
▁خشب	-9621
▁سات	-9622
▁ضاع	-9623
▁عفي	-9624
▁فحا	-9625
▁لتع	-9626
▁لمح	-9627
▁مشك	-9628
▁مهم	-9629
▁وبإ	-9630
▁وتخ	-9631
▁ومح	-9632
▁ووص	-9633
▁ويخ	-9634
▁يعج	-9635
▁يغر	-9636
▁يلغ	-9637
انمين	-9638
هيرية	-9639
والاة	-9640
▁أعسر	-9641
▁أيما	-9642
▁الرض	-9643
▁بمدة	-9644
▁بيوت	-9645
▁تدبر	-9646
▁تعري	-9647
▁تفرد	-9648
▁تمتع	-9649
▁تمرا	-9650
▁جزية	-9651
▁حذفه	-9652
▁رجعا	-9653
▁فالخ	-9654
▁فشمل	-9655
▁فضلا	-9656
▁فمنع	-9657
▁قضاه	-9658
▁لمحل	-9659
▁نادر	-9660
▁وإني	-9661
▁واشت	-9662
▁وثمن	-9663
▁وجوز	-9664
▁وردت	-9665
▁وصبي	-9666
▁وطئه	-9667
▁وعبر	-9668
▁وعين	-9669
▁ونظر	-9670
▁يزيل	-9671
▁يسعه	-9672
▁أثمان	-9673
▁أجازه	-9674
▁أخوات	-9675
▁أوجبه	-9676
▁إتمام	-9677
▁الحوز	-9678
▁الريح	-9679
▁الكنز	-9680
▁الندب	-9681
▁بخيار	-9682
▁بزوال	-9683
▁بعيدة	-9684
▁بقلبه	-9685
▁بنسبة	-9686
▁بنصفه	-9687
▁تساوي	-9688
▁جنسها	-9689
▁جنونه	-9690
▁حاضرا	-9691
▁ذكروا	-9692
▁شرائه	-9693
▁شرطها	-9694
▁عبدوس	-9695
▁فماتت	-9696
▁فيمنع	-9697
▁منقطع	-9698
▁وأسلم	-9699
▁وأشهب	-9700
▁وأمكن	-9701
▁والتي	-9702
▁وبقيت	-9703
▁وصلاة	-9704
▁ونكاح	-9705
▁ووجوب	-9706
▁ويجبر	-9707
▁ويسمى	-9708
▁ويقسم	-9709
▁يبلغه	-9710
▁ينقلب	-9711
▁استويا	-9712
▁التغير	-9713
▁العلوق	-9714
▁اللازم	-9715
▁المثال	-9716
▁الوجود	-9717
▁فالبيع	-9718
▁فقالوا	-9719
▁لبعضهم	-9720
▁مأذونا	-9721
▁معروفا	-9722
▁والرجل	-9723
▁يبيعها	-9724
▁الأجزاء	-9725
▁الإتلاف	-9726
▁الباقين	-9727
▁الفاسدة	-9728
▁المفعول	-9729
▁المكروه	-9730
▁بإسناده	-9731
▁بالقرعة	-9732
▁بمقابلة	-9733
▁واعتمده	-9734
▁والزوجة	-9735
▁والمسلم	-9736
▁وامرأتين	-9737
▁الاستعمال	-9738
أت	-9739
شط	-9740
بحث	-9741
بسا	-9742
خلت	-9743
شهر	-9744
ظنه	-9745
قره	-9746
كنت	-9747
لغو	-9748
لمس	-9749
نون	-9750
نيع	-9751
▁ده	-9752
▁سؤ	-9753
▁قم	-9754
تباع	-9755
طعمه	-9756
فاسد	-9757
متعة	-9758
همات	-9759
وتهم	-9760
▁آله	-9761
▁أسن	-9762
▁تجر	-9763
▁توا	-9764
▁ثور	-9765
▁حري	-9766
▁دور	-9767
▁رجح	-9768
▁رسم	-9769
▁فتا	-9770
▁فلت	-9771
▁فمر	-9772
▁قسط	-9773
▁كفه	-9774
▁ككل	-9775
▁لحل	-9776
▁لغا	-9777
▁مؤن	-9778
▁مجم	-9779
▁مكي	-9780
▁نشأ	-9781
▁وظن	-9782
ستأجر	-9783
عبارة	-9784
كانها	-9785
مساكه	-9786
▁أعرض	-9787
▁أكلت	-9788
▁اتخذ	-9789
▁الكس	-9790
▁امرئ	-9791
▁بثوب	-9792
▁بصره	-9793
▁بمصر	-9794
▁تامة	-9795
▁تختص	-9796
▁تنفذ	-9797
▁حجره	-9798
▁حمار	-9799
▁حمام	-9800
▁رجاء	-9801
▁صائم	-9802
▁صاعا	-9803
▁صنعة	-9804
▁فأتى	-9805
▁فاحت	-9806
▁فحلف	-9807
▁فغير	-9808
▁فلبس	-9809
▁فللأ	-9810
▁فلين	-9811
▁فوال	-9812
▁قذفه	-9813
▁لقوم	-9814
▁لملك	-9815
▁محرز	-9816
▁مسحه	-9817
▁مسقط	-9818
▁معشر	-9819
▁مناز	-9820
▁نماء	-9821
▁نوفل	-9822
▁هانئ	-9823
▁وغرم	-9824
▁وقاص	-9825
▁يحلق	-9826
▁أرباب	-9827
▁أسباع	-9828
▁أكلها	-9829
▁ألفاظ	-9830
▁أمرين	-9831
▁إعارة	-9832
▁ارتفع	-9833
▁اكترى	-9834
▁الأشع	-9835
▁البرء	-9836
▁التحل	-9837
▁الجدة	-9838
▁الحبل	-9839
▁الخال	-9840
▁الدور	-9841
▁الربا	-9842
▁العظم	-9843
▁الغزو	-9844
▁الغلط	-9845
▁المتع	-9846
▁اليأس	-9847
▁الياء	-9848
▁بائنة	-9849
▁بالكف	-9850
▁ببقاء	-9851
▁بصحته	-9852
▁بنائه	-9853
▁تختلف	-9854
▁تكليف	-9855
▁جريان	-9856
▁حصوله	-9857
▁طاهرا	-9858
▁طويلة	-9859
▁فأرسل	-9860
▁فأولى	-9861
▁فيحصل	-9862
▁لتحقق	-9863
▁لربها	-9864
▁للأخت	-9865
▁للأمر	-9866
▁للعقد	-9867
▁ليشمل	-9868
▁ماشيا	-9869
▁مالية	-9870
▁مقاتل	-9871
▁وأجاز	-9872
▁وافقه	-9873
▁وبعضه	-9874
▁وستين	-9875
▁وضوئه	-9876
▁وهبته	-9877
▁ويحكم	-9878
▁ويعرف	-9879
▁ويعمل	-9880
▁يأكله	-9881
▁يشتغل	-9882
▁يكتفى	-9883
▁يلتزم	-9884
▁اعتقاد	-9885
▁الأسير	-9886
▁الأيسر	-9887
▁البصري	-9888
▁البهجة	-9889
▁الجراح	-9890
▁الخبرة	-9891
▁السائب	-9892
▁الصباغ	-9893
▁القتيل	-9894
▁الكاتب	-9895
▁المدار	-9896
▁المعدة	-9897
▁المنفق	-9898
▁المواق	-9899
▁الموسر	-9900
▁الوداع	-9901
▁الوفاة	-9902
▁بالأمر	-9903
▁بالحرم	-9904
▁بالغسل	-9905
▁بالناس	-9906
▁صلاتها	-9907
▁نصراني	-9908
▁واستمر	-9909
▁وحدثني	-9910
▁ولقوله	-9911
▁وللزوج	-9912
▁ومراده	-9913
▁يوافقه	-9914
▁اختياره	-9915
▁اشتريته	-9916
▁الإحصان	-9917
▁الثلثان	-9918
▁الجواهر	-9919
▁الحارثي	-9920
▁الصلوات	-9921
▁المتنجس	-9922
▁المحرمة	-9923
▁المقدار	-9924
▁الموافق	-9925
▁بشهادته	-9926
▁بقيمتها	-9927
▁فالحاصل	-9928
▁والأخرى	-9929
▁العبادات	-9930
▁المتعلقة	-9931
▁المجموعة	-9932
▁بالإقرار	-9933
خب	-9934
ضد	-9935
لل	-9936
ازي	-9937
خرة	-9938
خلق	-9939
رمى	-9940
رها	-9941
غاء	-9942
متك	-9943
ناب	-9944
نصر	-9945
▁اح	-9946
▁فآ	-9947
ادية	-9948
جيله	-9949
رحام	-9950
رعها	-9951
شيته	-9952
قدمه	-9953
هداء	-9954
وروث	-9955
يران	-9956
▁أضح	-9957
▁أود	-9958
▁أوق	-9959
▁تضر	-9960
▁تقم	-9961
▁تمس	-9962
▁جحش	-9963
▁حظه	-9964
▁حلي	-9965
▁رقه	-9966
▁روض	-9967
▁سوء	-9968
▁سيف	-9969
▁صوف	-9970
▁فعن	-9971
▁فهر	-9972
▁قرش	-9973
▁قلم	-9974
▁كفء	-9975
▁كلف	-9976
▁كهو	-9977
▁لصح	-9978
▁لعي	-9979
▁ليم	-9980
▁مرك	-9981
▁مسه	-9982
▁مفا	-9983
▁ملء	-9984
▁نقي	-9985
▁هلا	-9986
▁وأل	-9987
▁واس	-9988
▁ولص	-9989
▁وهن	-9990
▁يتل	-9991
برئها	-9992
رساله	-9993
▁أجلا	-9994
▁أعرف	-9995
▁أولي	-9996
▁العن	-9997
▁بتسل	-9998
▁بجهة	-9999
▁برفع	-10000
▁بعدد	-10001
▁تكلف	-10002
▁جناح	-10003
▁حيان	-10004
▁دعاء	-10005
▁رأيي	-10006
▁سرية	-10007
▁صفات	-10008
▁ظانا	-10009
▁ظهرا	-10010
▁عارض	-10011
▁عذره	-10012
▁عقدا	-10013
▁فأذن	-10014
▁فإنا	-10015
▁فاشت	-10016
▁فامت	-10017
▁فسقه	-10018
▁فقبض	-10019
▁فقضى	-10020
▁فكره	-10021
▁فنظر	-10022
▁قفيز	-10023
▁كاست	-10024
▁كسوة	-10025
▁كنان	-10026
▁لقطة	-10027
▁محتر	-10028
▁مرسل	-10029
▁مصحف	-10030
▁معتد	-10031
▁مقار	-10032
▁منهج	-10033
▁نأخذ	-10034
▁وأذن	-10035
▁وتحل	-10036
▁وتست	-10037
▁وتعل	-10038
▁وفرض	-10039
▁وقتا	-10040
▁ولبس	-10041
▁ونسب	-10042
▁يبيت	-10043
▁يتلف	-10044
▁يرجى	-10045
▁يسري	-10046
▁أحضره	-10047
▁أخماس	-10048
▁أسلما	-10049
▁أعاده	-10050
▁أمثلة	-10051
▁أيكون	-10052
▁أيمان	-10053
▁ابنها	-10054
▁اشتغل	-10055
▁الآخذ	-10056
▁الرأي	-10057
▁السمع	-10058
▁الصدق	-10059
▁الصوت	-10060
▁الظرف	-10061
▁الغني	-10062
▁المرا	-10063
▁المرد	-10064
▁الموج	-10065
▁باقيا	-10066
▁تعجيز	-10067
▁تفويت	-10068
▁توجيه	-10069
▁ذكروه	-10070
▁ركوعه	-10071
▁فراغه	-10072
▁فيدفع	-10073
▁كاذبا	-10074
▁لأخيه	-10075
▁لتبين	-10076
▁لتمام	-10077
▁لحيته	-10078
▁لقيام	-10079
▁للضرر	-10080
▁ليرجع	-10081
▁مائتي	-10082
▁مشاعا	-10083
▁مفسدة	-10084
▁ملكهم	-10085
▁ناحية	-10086
▁وبيان	-10087
▁وستون	-10088
▁وفاقا	-10089
▁ومائة	-10090
▁ويغسل	-10091
▁يتضرر	-10092
▁يحتسب	-10093
▁يردها	-10094
▁اعتكاف	-10095
▁التردد	-10096
▁الثبوت	-10097
▁الجلال	-10098
▁الحشفة	-10099
▁الخزرج	-10100
▁الركوب	-10101
▁الضعيف	-10102
▁العربي	-10103
▁العيوب	-10104
▁القدوة	-10105
▁المجبر	-10106
▁المنية	-10107
▁الهجرة	-10108
▁بالأصل	-10109
▁فإنهما	-10110
▁للشارح	-10111
▁للشبهة	-10112
▁لوارثه	-10113
▁معناها	-10114
▁وتعبير	-10115
▁وفائدة	-10116
▁وللأخت	-10117
▁ومعلوم	-10118
▁ويمتنع	-10119
▁الآخرين	-10120
▁الأشجار	-10121
▁الإقناع	-10122
▁التعجيل	-10123
▁الخنزير	-10124
▁المتوسط	-10125
▁المختصر	-10126
▁المسبوق	-10127
▁المقاصة	-10128
▁المهمات	-10129
▁الموضحة	-10130
▁والأكثر	-10131
▁والنفقة	-10132
▁واليمين	-10133
▁ومقتضاه	-10134
▁الأجنبية	-10135
▁الأحاديث	-10136
▁الروايات	-10137
▁والخلاصة	-10138
▁والمجنون	-10139
▁الاستنجاء	-10140
▁الاستيفاء	-10141
▁الروايتين	-10142
صت	-10143
ادي	-10144
انى	-10145
ردب	-10146
عيض	-10147
غلق	-10148
فية	-10149
ناد	-10150
نهر	-10151
ورع	-10152
▁بو	-10153
بدله	-10154
ثليث	-10155
جاره	-10156
جبوب	-10157
حباب	-10158
ذورة	-10159
راجع	-10160
ريمة	-10161
سمان	-10162
فاعه	-10163
فرقا	-10164
فسره	-10165
قراء	-10166
كسرة	-10167
كميل	-10168
ليلة	-10169
نفعة	-10170
يامه	-10171
▁أقف	-10172
▁أمت	-10173
▁حكي	-10174
▁حمد	-10175
▁خاد	-10176
▁خدي	-10177
▁خطه	-10178
▁ذئب	-10179
▁راح	-10180
▁سرى	-10181
▁سطح	-10182
▁سند	-10183
▁عرق	-10184
▁عمي	-10185
▁غاص	-10186
▁فأي	-10187
▁فرك	-10188
▁فنس	-10189
▁فير	-10190
▁لذة	-10191
▁لسه	-10192
▁ليأ	-10193
▁مضط	-10194
▁ملا	-10195
▁ناش	-10196
▁وبم	-10197
▁وتل	-10198
▁يصف	-10199
لانية	-10200
ورتها	-10201
▁أئمة	-10202
▁أقسم	-10203
▁أهدى	-10204
▁أهلي	-10205
▁إراد	-10206
▁اتصل	-10207
▁الرغ	-10208
▁انتق	-10209
▁انته	-10210
▁بأيد	-10211
▁بجعل	-10212
▁بزمن	-10213
▁بلال	-10214
▁بوزن	-10215
▁تجري	-10216
▁تحدث	-10217
▁تحول	-10218
▁خالع	-10219
▁رابع	-10220
▁ستون	-10221
▁عتيق	-10222
▁عجزت	-10223
▁عقدة	-10224
▁عقلا	-10225
▁فبطل	-10226
▁قتيل	-10227
▁لجهة	-10228
▁لحكم	-10229
▁لعلة	-10230
▁للتع	-10231
▁لنفي	-10232
▁متهم	-10233
▁معلق	-10234
▁مليء	-10235
▁نفعا	-10236
▁هيئة	-10237
▁وأمة	-10238
▁والآ	-10239
▁واله	-10240
▁ورجح	-10241
▁وصرف	-10242
▁وطال	-10243
▁وعطف	-10244
▁وعقد	-10245
▁ومضى	-10246
▁يطول	-10247
▁يعجل	-10248
▁يفتى	-10249
▁أذنيه	-10250
▁أرطال	-10251
▁ألفان	-10252
▁أمرهم	-10253
▁أولها	-10254
▁إحياء	-10255
▁اشتبه	-10256
▁اعتمر	-10257
▁الأدب	-10258
▁الأذى	-10259
▁الافت	-10260
▁الدفن	-10261
▁الدهر	-10262
▁الذنب	-10263
▁الغرم	-10264
▁بالحر	-10265
▁بالضم	-10266
▁ببعضه	-10267
▁بحيضة	-10268
▁بصحيح	-10269
▁بظاهر	-10270
▁تشترط	-10271
▁ثلثاه	-10272
▁جالسا	-10273
▁داخلة	-10274
▁دعوته	-10275
▁راكبا	-10276
▁رجوعا	-10277
▁شريكا	-10278
▁عدلان	-10279
▁فتضرب	-10280
▁فلزمه	-10281
▁فيقبل	-10282
▁فينظر	-10283
▁كالمت	-10284
▁لأمته	-10285
▁لمكان	-10286
▁ليسوا	-10287
▁مباحا	-10288
▁متعذر	-10289
▁متوال	-10290
▁مجازا	-10291
▁مرسلا	-10292
▁مصالح	-10293
▁مكرهة	-10294
▁موصوف	-10295
▁نقصها	-10296
▁والرد	-10297
▁وبغير	-10298
▁وتصرف	-10299
▁وحسنه	-10300
▁وزوجة	-10301
▁ويوجه	-10302
▁يتعدى	-10303
▁يتملك	-10304
▁يتولى	-10305
▁يشارك	-10306
▁أكثرهم	-10307
▁أمواله	-10308
▁إجارته	-10309
▁إحداهن	-10310
▁الأحسن	-10311
▁التزمه	-10312
▁الدواب	-10313
▁السابع	-10314
▁العاقل	-10315
▁المشكل	-10316
▁بإسقاط	-10317
▁بالدفع	-10318
▁بالزوج	-10319
▁بالعرف	-10320
▁بالولد	-10321
▁تعيينه	-10322
▁فأعطاه	-10323
▁فاختلف	-10324
▁فوطئها	-10325
▁فيحتاج	-10326
▁لسيدها	-10327
▁للحديث	-10328
▁للوجوب	-10329
▁مستحقه	-10330
▁مقصوده	-10331
▁مهايأة	-10332
▁والأمر	-10333
▁والفضة	-10334
▁وتعتبر	-10335
▁يحتمله	-10336
▁اعتقاده	-10337
▁الأخبار	-10338
▁الأرحام	-10339
▁الأسباب	-10340
▁الإثبات	-10341
▁الجوهري	-10342
▁الصدقات	-10343
▁القرينة	-10344
▁المتعلق	-10345
▁المحكوم	-10346
▁المقذوف	-10347
▁بالوصية	-10348
▁بالولاء	-10349
▁لإقراره	-10350
▁للتجارة	-10351
▁والأفضل	-10352
▁والكلام	-10353
▁الظهيرية	-10354
▁المباشرة	-10355
▁والإجارة	-10356
▁والعشرين	-10357
أها	-10358
بسة	-10359
تنا	-10360
زلا	-10361
ضحة	-10362
فتي	-10363
قبح	-10364
كلف	-10365
لاس	-10366
ودا	-10367
▁تث	-10368
▁زن	-10369
▁شب	-10370
▁طع	-10371
▁نخ	-10372
أمين	-10373
بيها	-10374
تهاد	-10375
تهدا	-10376
جلوس	-10377
ذبوح	-10378
راقة	-10379
زاعة	-10380
سقاط	-10381
سلها	-10382
طوبة	-10383
علها	-10384
غتفر	-10385
فران	-10386
كومة	-10387
لقاء	-10388
ناظر	-10389
ياسه	-10390
▁أبر	-10391
▁تضع	-10392
▁دوا	-10393
▁راه	-10394
▁سعى	-10395
▁شكر	-10396
▁فيز	-10397
▁لإن	-10398
▁لدخ	-10399
▁مبت	-10400
▁ميز	-10401
▁نسل	-10402
▁وشد	-10403
▁ولن	-10404
▁يتغ	-10405
▁يرا	-10406
▁يشك	-10407
▁يهب	-10408
كاتبه	-10409
وافقا	-10410
▁أحصر	-10411
▁أراه	-10412
▁أفرد	-10413
▁أقصى	-10414
▁أليس	-10415
▁أنتم	-10416
▁إجاب	-10417
▁اتبع	-10418
▁الفس	-10419
▁الكع	-10420
▁برئت	-10421
▁بسنة	-10422
▁بنجس	-10423
▁بنقد	-10424
▁بياض	-10425
▁تبرأ	-10426
▁تمسك	-10427
▁جاءه	-10428
▁جلدة	-10429
▁زرعه	-10430
▁سكنى	-10431
▁صبرة	-10432
▁ضبطه	-10433
▁ضربة	-10434
▁طهور	-10435
▁علقة	-10436
▁عيبه	-10437
▁غروب	-10438
▁فبين	-10439
▁فذاك	-10440
▁فرقة	-10441
▁فسخت	-10442
▁فلهم	-10443
▁فهمه	-10444
▁قبضا	-10445
▁قوته	-10446
▁كالك	-10447
▁كزوج	-10448
▁لاخت	-10449
▁لذكر	-10450
▁مصرف	-10451
▁معبد	-10452
▁معهن	-10453
▁مهرا	-10454
▁نوبة	-10455
▁هلاك	-10456
▁وأبى	-10457
▁وأكل	-10458
▁ويحل	-10459
▁ويرث	-10460
▁يخلف	-10461
▁يسوغ	-10462
▁يصدر	-10463
▁يقرع	-10464
▁ينفك	-10465
عاقدين	-10466
▁أبواب	-10467
▁أسداس	-10468
▁أسقطت	-10469
▁أصوله	-10470
▁ابتاع	-10471
▁اعتما	-10472
▁الاصط	-10473
▁الجمل	-10474
▁الدبر	-10475
▁السمك	-10476
▁الفسق	-10477
▁المرف	-10478
▁باطنا	-10479
▁بالمح	-10480
▁بحديث	-10481
▁برأسه	-10482
▁تولية	-10483
▁حكاية	-10484
▁دينهم	-10485
▁شروطه	-10486
▁شعرها	-10487
▁شيبان	-10488
▁صلوات	-10489
▁فيسلم	-10490
▁قبيلة	-10491
▁كالذي	-10492
▁لفساد	-10493
▁لمثله	-10494
▁مقدرة	-10495
▁مقطوع	-10496
▁موضحة	-10497
▁والتح	-10498
▁والحق	-10499
▁والرا	-10500
▁وتبين	-10501
▁وثبوت	-10502
▁ورجحه	-10503
▁ولكنا	-10504
▁ومثال	-10505
▁ويذكر	-10506
▁ويقضي	-10507
▁وينظر	-10508
▁يستطع	-10509
▁يستقل	-10510
▁يكاتب	-10511
▁ينتفي	-10512
▁إسناده	-10513
▁إعادته	-10514
▁إقامته	-10515
▁البيوع	-10516
▁الحمار	-10517
▁الخطيب	-10518
▁الدرجة	-10519
▁الزاني	-10520
▁القادر	-10521
▁المفتي	-10522
▁اليقين	-10523
▁بالمنع	-10524
▁بحضرته	-10525
▁بنقصان	-10526
▁تعليمه	-10527
▁تغليبا	-10528
▁شيوخنا	-10529
▁فطلقها	-10530
▁كالعدم	-10531
▁متعددة	-10532
▁مشتريه	-10533
▁واستدل	-10534
▁والأمة	-10535
▁والخبر	-10536
▁والرهن	-10537
▁والزوج	-10538
▁والعين	-10539
▁والنهي	-10540
▁وتسعين	-10541
▁ومعرفة	-10542
▁يشتريه	-10543
▁اجتهاده	-10544
▁الإصابة	-10545
▁التكرار	-10546
▁التكليف	-10547
▁التولية	-10548
▁الجوهرة	-10549
▁الرجعية	-10550
▁الزراعة	-10551
▁المخالف	-10552
▁المعترض	-10553
▁المعتكف	-10554
▁المعطوف	-10555
▁النسيان	-10556
▁امتناعه	-10557
▁بالنفقة	-10558
▁باليمين	-10559
▁وأربعون	-10560
▁والشراء	-10561
▁والوكيل	-10562
▁وبعبارة	-10563
▁الاحتراز	-10564
▁الطبراني	-10565
▁ثلاثمائة	-10566
▁كالأجنبي	-10567
▁المذكورين	-10568
سى	-10569
صق	-10570
انم	-10571
حدى	-10572
حوق	-10573
ختم	-10574
رجم	-10575
رقا	-10576
سدس	-10577
ظلة	-10578
قيف	-10579
كنا	-10580
لتك	-10581
هنم	-10582
وطأ	-10583
▁حض	-10584
أجرة	-10585
أموم	-10586
انته	-10587
تقاء	-10588
ثنان	-10589
رائر	-10590
رقاق	-10591
عامة	-10592
فتين	-10593
قبله	-10594
لبية	-10595
نسوة	-10596
وبري	-10597
▁بدم	-10598
▁بسا	-10599
▁تول	-10600
▁ثدي	-10601
▁حوا	-10602
▁خاط	-10603
▁ردي	-10604
▁فأب	-10605
▁فأج	-10606
▁فتت	-10607
▁فطل	-10608
▁فعد	-10609
▁فور	-10610
▁قصي	-10611
▁كرم	-10612
▁لئن	-10613
▁مخر	-10614
▁مرز	-10615
▁ممت	-10616
▁نفق	-10617
▁هند	-10618
▁وأد	-10619
▁واق	-10620
▁وتف	-10621
▁وها	-10622
▁يصب	-10623
▁ينج	-10624
بادرة	-10625
حوالة	-10626
دلالة	-10627
▁أبان	-10628
▁أداه	-10629
▁أدري	-10630
▁أزال	-10631
▁أسير	-10632
▁أشكل	-10633
▁أطيب	-10634
▁أفلس	-10635
▁ألقى	-10636
▁البخ	-10637
▁برده	-10638
▁بزنا	-10639
▁تطلب	-10640
▁تنقض	-10641
▁ثيبا	-10642
▁جنسا	-10643
▁جهنم	-10644
▁خرقة	-10645
▁دفعت	-10646
▁ديون	-10647
▁رشده	-10648
▁ساقط	-10649
▁سهمه	-10650
▁شرطت	-10651
▁صفية	-10652
▁طالت	-10653
▁فالن	-10654
▁فداء	-10655
▁فرسا	-10656
▁فطلب	-10657
▁قدرة	-10658
▁كيوم	-10659
▁لشدة	-10660
▁مؤخر	-10661
▁محال	-10662
▁مدين	-10663
▁مرجح	-10664
▁مريم	-10665
▁مضطر	-10666
▁نبيه	-10667
▁نهار	-10668
▁وأرش	-10669
▁وأمن	-10670
▁وارت	-10671
▁وحسن	-10672
▁وسبع	-10673
▁وشيخ	-10674
▁وفهم	-10675
▁وقام	-10676
▁وهلك	-10677
▁يتيم	-10678
▁يشتر	-10679
▁ينام	-10680
▁يهدي	-10681
▁أدخله	-10682
▁أمرنا	-10683
▁إجزاء	-10684
▁الآجر	-10685
▁السمن	-10686
▁الصدر	-10687
▁الغرس	-10688
▁الفحل	-10689
▁الفيء	-10690
▁بشاهد	-10691
▁تجهيز	-10692
▁تحليف	-10693
▁تضمين	-10694
▁تعديا	-10695
▁جائزا	-10696
▁جهتها	-10697
▁خارجا	-10698
▁خالفه	-10699
▁رائحة	-10700
▁راجعا	-10701
▁زمانه	-10702
▁صالحه	-10703
▁عميرة	-10704
▁فأنزل	-10705
▁فانظر	-10706
▁فوائد	-10707
▁فيأتي	-10708
▁قارنا	-10709
▁قاعدا	-10710
▁كنانة	-10711
▁للآمر	-10712
▁للجهل	-10713
▁للصبي	-10714
▁ماشية	-10715
▁مباشر	-10716
▁مذكور	-10717
▁مقبول	-10718
▁موجبه	-10719
▁وأوصى	-10720
▁واليد	-10721
▁وتزوج	-10722
▁وجميع	-10723
▁وجواز	-10724
▁وسأله	-10725
▁ولادة	-10726
▁ولفظه	-10727
▁ويفهم	-10728
▁يؤاخذ	-10729
▁يتحرك	-10730
▁يعينه	-10731
▁يناسب	-10732
▁أولياء	-10733
▁استخلف	-10734
▁استطاع	-10735
▁التعدد	-10736
▁الصيغة	-10737
▁الطهور	-10738
▁العدوي	-10739
▁العذاب	-10740
▁العراق	-10741
▁العماد	-10742
▁القاذف	-10743
▁القافة	-10744
▁القنوت	-10745
▁اللسان	-10746
▁المتصل	-10747
▁المتفق	-10748
▁المضطر	-10749
▁المقضي	-10750
▁المنهي	-10751
▁النفاس	-10752
▁بالصفة	-10753
▁بالمست	-10754
▁بالنار	-10755
▁بتأخير	-10756
▁تحصيله	-10757
▁حيوانا	-10758
▁خروجها	-10759
▁كالعبد	-10760
▁كلاهما	-10761
▁لموكله	-10762
▁مساكين	-10763
▁مفارقة	-10764
▁وإطلاق	-10765
▁والبذر	-10766
▁والصبي	-10767
▁والفرض	-10768
▁وولدها	-10769
▁اعتباره	-10770
▁الأشعري	-10771
▁الاتفاق	-10772
▁الحكومة	-10773
▁الخمسين	-10774
▁الدينار	-10775
▁الماشية	-10776
▁المجوسي	-10777
▁المشترى	-10778
▁المظاهر	-10779
▁المقطوع	-10780
▁المكتري	-10781
▁المواضع	-10782
▁الموحدة	-10783
▁الواجبة	-10784
▁بالكلام	-10785
▁والصدقة	-10786
▁والقيمة	-10787
▁وعبارته	-10788
▁الركعتين	-10789
▁المساقاة	-10790
▁المماثلة	-10791
▁الاستقبال	-10792
طم	-10793
غه	-10794
ابس	-10795
ابع	-10796
ارخ	-10797
بتك	-10798
حرى	-10799
سبع	-10800
صيص	-10801
ضاد	-10802
ضحك	-10803
طرق	-10804
طلة	-10805
طين	-10806
ظير	-10807
ناك	-10808
هرة	-10809
يفا	-10810
باين	-10811
حتين	-10812
حكام	-10813
داده	-10814
دمها	-10815
ضيعة	-10816
ظالم	-10817
غرور	-10818
لاحظ	-10819
ماعه	-10820
نازة	-10821
ناهم	-10822
وانع	-10823
وقية	-10824
▁أخل	-10825
▁ترت	-10826
▁تعا	-10827
▁تكف	-10828
▁جوف	-10829
▁حرث	-10830
▁سود	-10831
▁صير	-10832
▁فقه	-10833
▁فلأ	-10834
▁قمح	-10835
▁كيس	-10836
▁لقا	-10837
▁مدا	-10838
▁مسب	-10839
▁مسل	-10840
▁ميل	-10841
▁نكا	-10842
▁وقص	-10843
▁ولح	-10844
▁يبت	-10845
▁يكر	-10846
وديعة	-10847
يلولة	-10848
▁أبين	-10849
▁أجرا	-10850
▁أسوة	-10851
▁أضاف	-10852
▁أقرض	-10853
▁أهلك	-10854
▁أودع	-10855
▁أيها	-10856
▁الإش	-10857
▁الإم	-10858
▁التا	-10859
▁الشد	-10860
▁الضر	-10861
▁العت	-10862
▁العج	-10863
▁القط	-10864
▁النف	-10865
▁انفص	-10866
▁بردة	-10867
▁بمرض	-10868
▁بيدك	-10869
▁تؤكل	-10870
▁تجدد	-10871
▁تحجب	-10872
▁تحلل	-10873
▁تصاد	-10874
▁تعمل	-10875
▁تفسخ	-10876
▁حكمة	-10877
▁ربحه	-10878
▁ربنا	-10879
▁ستره	-10880
▁شرائ	-10881
▁ضربت	-10882
▁طولا	-10883
▁عنوة	-10884
▁فائد	-10885
▁فبعث	-10886
▁فترد	-10887
▁فثبت	-10888
▁فحسن	-10889
▁فسره	-10890
▁فعمل	-10891
▁فغسل	-10892
▁فيهن	-10893
▁قرضا	-10894
▁قضيت	-10895
▁لحمل	-10896
▁لسنة	-10897
▁لقوة	-10898
▁للرك	-10899
▁متبر	-10900
▁محار	-10901
▁محصن	-10902
▁مدخل	-10903
▁مدعى	-10904
▁نجسا	-10905
▁نفاه	-10906
▁نوعه	-10907
▁وأطل	-10908
▁واقع	-10909
▁وباع	-10910
▁ورأى	-10911
▁وسبب	-10912
▁وللإ	-10913
▁ووقت	-10914
▁يرسل	-10915
▁يسكر	-10916
▁يضيع	-10917
▁يطرأ	-10918
▁يغير	-10919
▁يكاد	-10920
▁يوجه	-10921
▁أرضعت	-10922
▁أقامت	-10923
▁أقبضه	-10924
▁أنكره	-10925
▁الآلة	-10926
▁الجزم	-10927
▁الحقي	-10928
▁الخيط	-10929
▁العطش	-10930
▁الغضب	-10931
▁القصة	-10932
▁المعل	-10933
▁الميل	-10934
▁اندفع	-10935
▁بالأم	-10936
▁بركعة	-10937
▁بمكان	-10938
▁بيضاء	-10939
▁تأكيد	-10940
▁تعددت	-10941
▁تعينت	-10942
▁جبهته	-10943
▁جعلنا	-10944
▁جهالة	-10945
▁حكمنا	-10946
▁خارجه	-10947
▁درجته	-10948
▁دليلا	-10949
▁زوجتك	-10950
▁سقوطه	-10951
▁ضعيفة	-10952
▁طوافه	-10953
▁عدوان	-10954
▁فصالح	-10955
▁فقلنا	-10956
▁فيؤخذ	-10957
▁فيصلي	-10958
▁قابضا	-10959
▁قراضا	-10960
▁قسمين	-10961
▁لمولى	-10962
▁ليأخذ	-10963
▁مانعا	-10964
▁مرزوق	-10965
▁معذور	-10966
▁معلقا	-10967
▁ميسرة	-10968
▁ناقصا	-10969
▁نسبته	-10970
▁وأحكم	-10971
▁وأفاد	-10972
▁والوج	-10973
▁وضعته	-10974
▁وضعها	-10975
▁ولآخر	-10976
▁ومنعه	-10977
▁يرتفع	-10978
▁يسترد	-10979
ارخانية	-10980
▁أحكامه	-10981
▁إقرارا	-10982
▁اقتداء	-10983
▁الجائز	-10984
▁الجارح	-10985
▁الحبشة	-10986
▁الشعير	-10987
▁الصديق	-10988
▁القران	-10989
▁المعيب	-10990
▁بالفسخ	-10991
▁بدخوله	-10992
▁جمعهما	-10993
▁ركعتان	-10994
▁فليحرر	-10995
▁فوالله	-10996
▁كغيرها	-10997
▁للخدمة	-10998
▁ميراثه	-10999
▁نجاسته	-11000
▁والحسن	-11001
▁والناس	-11002
▁ونظيره	-11003
▁ويفارق	-11004
▁يستطيع	-11005
▁يطالبه	-11006
▁يقابله	-11007
▁أولادهم	-11008
▁الأركان	-11009
▁الإسقاط	-11010
▁الإفاضة	-11011
▁البناني	-11012
▁البهيمة	-11013
▁الترغيب	-11014
▁التفرقة	-11015
▁الدلالة	-11016
▁الرسالة	-11017
▁الفتاوى	-11018
▁المتيطي	-11019
▁المحتاج	-11020
▁المحترم	-11021
▁المضمضة	-11022
▁المعدوم	-11023
▁المقتضي	-11024
▁الموضوع	-11025
▁المولود	-11026
▁بالمسلم	-11027
▁والبينة	-11028
▁وثمانية	-11029
▁الأربعين	-11030
▁الاحتياط	-11031
▁الانتصار	-11032
▁الشافعية	-11033
▁المالكية	-11034
▁المتابعة	-11035
▁المعتزلة	-11036
▁للمساكين	-11037
▁الاستدلال	-11038
ؤي	-11039
زح	-11040
اعا	-11041
جاع	-11042
جعل	-11043
درج	-11044
سعى	-11045
ضمض	-11046
كدة	-11047
نعت	-11048
نوي	-11049
وضه	-11050
▁رس	-11051
▁غم	-11052
▁قي	-11053
▁مذ	-11054
ائره	-11055
اجدا	-11056
اردة	-11057
رامة	-11058
طاعة	-11059
عدوم	-11060
غلبة	-11061
غناء	-11062
فاره	-11063
قامت	-11064
قتان	-11065
قدرة	-11066
ناقض	-11067
وانة	-11068
وهما	-11069
وهمه	-11070
▁أفع	-11071
▁أوس	-11072
▁بإح	-11073
▁بضع	-11074
▁تحق	-11075
▁حقك	-11076
▁ردا	-11077
▁ريع	-11078
▁شقه	-11079
▁عزر	-11080
▁عطش	-11081
▁غرة	-11082
▁غفر	-11083
▁كأخ	-11084
▁لؤي	-11085
▁لوط	-11086
▁مطب	-11087
▁معط	-11088
▁معك	-11089
▁مقط	-11090
مامته	-11091
نائها	-11092
▁أحرز	-11093
▁أذان	-11094
▁أزوا	-11095
▁أسيد	-11096
▁أصلح	-11097
▁اتسع	-11098
▁الأغ	-11099
▁الجا	-11100
▁الفل	-11101
▁بدرا	-11102
▁بغبن	-11103
▁ترجح	-11104
▁تعبد	-11105
▁تفيد	-11106
▁حدود	-11107
▁حكمت	-11108
▁خفيه	-11109
▁ركنا	-11110
▁رماه	-11111
▁زنيت	-11112
▁سفرا	-11113
▁صلاح	-11114
▁فحصل	-11115
▁فسخا	-11116
▁فيئا	-11117
▁قرعة	-11118
▁كعبد	-11119
▁لاقت	-11120
▁لذمي	-11121
▁لوجب	-11122
▁محضة	-11123
▁معتب	-11124
▁مقرا	-11125
▁ملكت	-11126
▁نصبه	-11127
▁وأجر	-11128
▁وأخر	-11129
▁وألف	-11130
▁وجها	-11131
▁وحذف	-11132
▁وحلق	-11133
▁وزفر	-11134
▁وستة	-11135
▁وعجز	-11136
▁وعلل	-11137
▁وقيس	-11138
▁وكبر	-11139
▁ولبن	-11140
▁يحول	-11141
▁يفتي	-11142
▁يكذب	-11143
اجتهاد	-11144
▁أثواب	-11145
▁إحضار	-11146
▁الأنف	-11147
▁الخشب	-11148
▁الشين	-11149
▁العنت	-11150
▁المبت	-11151
▁المخل	-11152
▁المرء	-11153
▁المرة	-11154
▁المسك	-11155
▁المقص	-11156
▁النجا	-11157
▁النزع	-11158
▁النفع	-11159
▁الورق	-11160
▁بالغة	-11161
▁بثبوت	-11162
▁بحرية	-11163
▁بدعوى	-11164
▁برأيه	-11165
▁بنتها	-11166
▁بهرام	-11167
▁تحتها	-11168
▁تنازع	-11169
▁تنقسم	-11170
▁حديثا	-11171
▁زيلعي	-11172
▁ساجدا	-11173
▁سلمان	-11174
▁سليما	-11175
▁سواها	-11176
▁شديدة	-11177
▁صلاها	-11178
▁عرفات	-11179
▁غسلها	-11180
▁فأحرم	-11181
▁فاسقا	-11182
▁فالمت	-11183
▁فتقبل	-11184
▁فتقدم	-11185
▁فسكون	-11186
▁فضربه	-11187
▁فوقها	-11188
▁فيحنث	-11189
▁فيخير	-11190
▁فيقتل	-11191
▁قتيبة	-11192
▁قسمته	-11193
▁قليلة	-11194
▁كفيلا	-11195
▁لعجزه	-11196
▁لعلمه	-11197
▁للوصي	-11198
▁لملكه	-11199
▁مدخول	-11200
▁مرجوح	-11201
▁مسروق	-11202
▁معارض	-11203
▁مقيدة	-11204
▁مميزا	-11205
▁نافلة	-11206
▁نسائه	-11207
▁وأجزأ	-11208
▁والأن	-11209
▁والحج	-11210
▁والمق	-11211
▁وسلمه	-11212
▁وشرطه	-11213
▁وضمان	-11214
▁وقضاء	-11215
▁وكذبه	-11216
▁وهناك	-11217
▁ويترك	-11218
▁ويريد	-11219
▁ويقوم	-11220
▁أثنائه	-11221
▁أهليته	-11222
▁إتلافه	-11223
▁إجازته	-11224
▁إنسانا	-11225
▁إنكاره	-11226
▁استأنف	-11227
▁استبرأ	-11228
▁البائن	-11229
▁البقاء	-11230
▁التحرز	-11231
▁التعرض	-11232
▁الصائم	-11233
▁العظيم	-11234
▁القضاة	-11235
▁الماضي	-11236
▁المبطل	-11237
▁المشرق	-11238
▁المقري	-11239
▁النزاع	-11240
▁الهواء	-11241
▁بالصوم	-11242
▁بتمامه	-11243
▁بخمسين	-11244
▁تناوله	-11245
▁توكيله	-11246
▁ثمانين	-11247
▁جميعهم	-11248
▁ركبتيه	-11249
▁زماننا	-11250
▁فاستحق	-11251
▁فاعتبر	-11252
▁كونهما	-11253
▁لإنسان	-11254
▁لدخوله	-11255
▁للراهن	-11256
▁مبالغة	-11257
▁مجتهدا	-11258
▁مسافرا	-11259
▁مستحقة	-11260
▁مستقلة	-11261
▁والأخت	-11262
▁والعلم	-11263
▁ورواية	-11264
▁وشهادة	-11265
▁يتبعها	-11266
▁يخرجها	-11267
▁الإقدام	-11268
▁التصديق	-11269
▁التلبية	-11270
▁الجبيرة	-11271
▁المتصدق	-11272
▁المجروح	-11273
▁المنتقى	-11274
▁المندوب	-11275
▁بالثاني	-11276
▁بالشبهة	-11277
▁تحريمها	-11278
▁مكاتبته	-11279
▁والفروع	-11280
▁والمحرر	-11281
▁والمصنف	-11282
▁الاقتصار	-11283
▁الغانمين	-11284
▁المنكوحة	-11285
▁والتصريح	-11286
▁يستبرئها	-11287
▁الاستئجار	-11288
▁والمستوعب	-11289
زى	-11290
فف	-11291
ئية	-11292
ارف	-11293
خصة	-11294
سبا	-11295
سلة	-11296
ضعة	-11297
ضيل	-11298
طاط	-11299
فوت	-11300
كشف	-11301
ليظ	-11302
مية	-11303
ياش	-11304
يتك	-11305
يحة	-11306
▁حذ	-11307
▁غض	-11308
▁مم	-11309
اخذة	-11310
انيا	-11311
بائه	-11312
بيته	-11313
ساره	-11314
عاها	-11315
علمه	-11316
قيقا	-11317
كينه	-11318
لحقه	-11319
مانا	-11320
متنا	-11321
متين	-11322
معنى	-11323
ياته	-11324
يازة	-11325
يسير	-11326
يصال	-11327
▁أمث	-11328
▁بأخ	-11329
▁بذي	-11330
▁برب	-11331
▁بصف	-11332
▁تحا	-11333
▁تصل	-11334
▁تطه	-11335
▁حجا	-11336
▁حسا	-11337
▁خصم	-11338
▁دعي	-11339
▁ردة	-11340
▁رفض	-11341
▁صفر	-11342
▁فشر	-11343
▁قلا	-11344
▁كرب	-11345
▁لرج	-11346
▁لفا	-11347
▁متح	-11348
▁محس	-11349
▁مذي	-11350
▁مصح	-11351
▁مصد	-11352
▁نظم	-11353
▁وأر	-11354
▁وبأ	-11355
▁يبن	-11356
▁يعف	-11357
▁ينه	-11358
بغداد	-11359
جهوري	-11360
رجاني	-11361
سلطان	-11362
يانها	-11363
▁أزيد	-11364
▁أسبق	-11365
▁أصدق	-11366
▁ألزم	-11367
▁أنفس	-11368
▁أنفع	-11369
▁أوقع	-11370
▁اختل	-11371
▁اشتد	-11372
▁الجم	-11373
▁الوس	-11374
▁بادر	-11375
▁باله	-11376
▁بشاة	-11377
▁بعلم	-11378
▁تصلح	-11379
▁حسنا	-11380
▁حليف	-11381
▁حنثه	-11382
▁دواء	-11383
▁ذهبت	-11384
▁رداء	-11385
▁رغبة	-11386
▁زمزم	-11387
▁زوجت	-11388
▁زوجه	-11389
▁سارق	-11390
▁سننه	-11391
▁ضاعت	-11392
▁ظنها	-11393
▁عرفه	-11394
▁عصره	-11395
▁قتلا	-11396
▁قرآن	-11397
▁كأنت	-11398
▁كرها	-11399
▁لزمت	-11400
▁للقر	-11401
▁متعة	-11402
▁ملخص	-11403
▁نذرا	-11404
▁نفاس	-11405
▁نفوذ	-11406
▁نكحت	-11407
▁هاجر	-11408
▁وأبا	-11409
▁والذ	-11410
▁وخلف	-11411
▁وكفر	-11412
▁وكنت	-11413
▁ولحم	-11414
▁وميت	-11415
▁يزال	-11416
▁يزعم	-11417
▁يقلد	-11418
▁يكلم	-11419
▁ينفي	-11420
▁أفهمه	-11421
▁أقررت	-11422
▁ألزمه	-11423
▁إذنها	-11424
▁إعلام	-11425
▁الأوس	-11426
▁الثقة	-11427
▁السجن	-11428
▁السين	-11429
▁الطرق	-11430
▁العلو	-11431
▁اللوث	-11432
▁بأخذه	-11433
▁بالان	-11434
▁برؤية	-11435
▁بسقوط	-11436
▁بطعام	-11437
▁بعيرا	-11438
▁بقسطه	-11439
▁بيدها	-11440
▁تابعه	-11441
▁تعميم	-11442
▁ثابتا	-11443
▁رأسها	-11444
▁ركعتي	-11445
▁سبحان	-11446
▁صداقا	-11447
▁صيانة	-11448
▁ضربها	-11449
▁طلبها	-11450
▁عاقلا	-11451
▁عينيه	-11452
▁فأكله	-11453
▁فذهبت	-11454
▁فلعله	-11455
▁فوجده	-11456
▁قتيلا	-11457
▁قذفها	-11458
▁لأهله	-11459
▁لصلاة	-11460
▁للأرض	-11461
▁للدين	-11462
▁للعين	-11463
▁متأخر	-11464
▁متقدم	-11465
▁مفردا	-11466
▁مكلفا	-11467
▁منقول	-11468
▁موضعا	-11469
▁ميقات	-11470
▁ناقصة	-11471
▁وتصير	-11472
▁وخروج	-11473
▁وراءه	-11474
▁وطريق	-11475
▁وفاته	-11476
▁وقبله	-11477
▁ولولا	-11478
▁ويجزئ	-11479
▁يتوجه	-11480
▁يتوصل	-11481
▁يعارض	-11482
▁يعتكف	-11483
▁يكونا	-11484
▁أجمعين	-11485
▁أضحيته	-11486
▁أقاربه	-11487
▁إسقاطه	-11488
▁اجتهاد	-11489
▁الأحمر	-11490
▁الإماء	-11491
▁الباطن	-11492
▁البصرة	-11493
▁البقية	-11494
▁التحمل	-11495
▁التعدي	-11496
▁الحكمة	-11497
▁الحيضة	-11498
▁الذهاب	-11499
▁الصادق	-11500
▁الطاعة	-11501
▁الفروض	-11502
▁القصار	-11503
▁المحصن	-11504
▁المفصل	-11505
▁الناظم	-11506
▁النبوة	-11507
▁بالنسب	-11508
▁بخروجه	-11509
▁تطليقة	-11510
▁تعبيره	-11511
▁ستمائة	-11512
▁غسلهما	-11513
▁قرابته	-11514
▁كأصلها	-11515
▁كافرين	-11516
▁كفايته	-11517
▁لتمكنه	-11518
▁مائتان	-11519
▁متبرعا	-11520
▁مختلفا	-11521
▁مستندا	-11522
▁واعتمد	-11523
▁والأرش	-11524
▁والمسا	-11525
▁وقالوا	-11526
▁وقوعها	-11527
▁ويتصدق	-11528
▁ويستحق	-11529
▁يستحلف	-11530
▁يكونوا	-11531
▁أخبرناه	-11532
▁استدامة	-11533
▁الأقارب	-11534
▁الإعارة	-11535
▁الإعطاء	-11536
▁الإعلام	-11537
▁البساطي	-11538
▁البستان	-11539
▁الحلقوم	-11540
▁السراية	-11541
▁الغنائم	-11542
▁الفضلاء	-11543
▁القواعد	-11544
▁المأكول	-11545
▁المرضعة	-11546
▁الممتنع	-11547
▁الهندية	-11548
▁بالقبول	-11549
▁بانقضاء	-11550
▁تأخيرها	-11551
▁لتقصيره	-11552
▁مرحلتين	-11553
▁والبناء	-11554
▁والخروج	-11555
▁والضمير	-11556
▁والطلاق	-11557
▁والكثير	-11558
▁والولاء	-11559
▁الأكثرين	-11560
▁الحديبية	-11561
▁النصراني	-11562
▁والخنزير	-11563
▁والكفارة	-11564
▁الاستيلاد	-11565
خط	-11566
بضع	-11567
تبى	-11568
حلي	-11569
حون	-11570
ديب	-11571
ذام	-11572
زعا	-11573
سال	-11574
شيش	-11575
ظيف	-11576
قاف	-11577
قون	-11578
لته	-11579
مأن	-11580
هاز	-11581
ودي	-11582
وقة	-11583
▁سأ	-11584
▁ضد	-11585
▁قض	-11586
أنثى	-11587
ابقة	-11588
بايع	-11589
تابي	-11590
راخي	-11591
طابي	-11592
عروف	-11593
عيته	-11594
قاية	-11595
قيما	-11596
نهما	-11597
نيين	-11598
▁بحل	-11599
▁بقط	-11600
▁خيل	-11601
▁عاش	-11602
▁عطب	-11603
▁عمة	-11604
▁غري	-11605
▁فأح	-11606
▁قمت	-11607
▁لرد	-11608
▁لفر	-11609
▁لوث	-11610
▁منح	-11611
▁نست	-11612
▁نوم	-11613
▁وعز	-11614
▁أتاه	-11615
▁أخما	-11616
▁أسرع	-11617
▁أصيب	-11618
▁أمرك	-11619
▁إنهم	-11620
▁استث	-11621
▁استع	-11622
▁الصغ	-11623
▁الوث	-11624
▁بحجر	-11625
▁بذره	-11626
▁بسبع	-11627
▁بعشر	-11628
▁بغسل	-11629
▁بقوة	-11630
▁بكار	-11631
▁بكيل	-11632
▁بلدة	-11633
▁بنفي	-11634
▁تقتل	-11635
▁حديد	-11636
▁حركة	-11637
▁خفية	-11638
▁ذوات	-11639
▁زعمه	-11640
▁سلبه	-11641
▁سواد	-11642
▁شهيد	-11643
▁صحبة	-11644
▁طلبت	-11645
▁عاما	-11646
▁عداه	-11647
▁غفلة	-11648
▁فدعا	-11649
▁فرجة	-11650
▁فلله	-11651
▁فوضع	-11652
▁قويا	-11653
▁كاذب	-11654
▁كالر	-11655
▁كرهه	-11656
▁لاحت	-11657
▁لتعل	-11658
▁لفعل	-11659
▁محمل	-11660
▁مصدق	-11661
▁مصرح	-11662
▁نفعه	-11663
▁وأرى	-11664
▁وبعث	-11665
▁وبلغ	-11666
▁وصحت	-11667
▁وفسر	-11668
▁ويحي	-11669
▁يتصل	-11670
▁يشفع	-11671
▁يغفر	-11672
▁يوصف	-11673
▁أخذته	-11674
▁أطلقت	-11675
▁أعلمه	-11676
▁أمسكه	-11677
▁إزاره	-11678
▁إصلاح	-11679
▁إطعام	-11680
▁الاند	-11681
▁الذات	-11682
▁الرشد	-11683
▁الظفر	-11684
▁العسل	-11685
▁الفار	-11686
▁القطن	-11687
▁اللذة	-11688
▁انتفع	-11689
▁بابها	-11690
▁بالأب	-11691
▁ببلوغ	-11692
▁بظهور	-11693
▁بعيدا	-11694
▁بكثرة	-11695
▁تتوقف	-11696
▁تجزئه	-11697
▁تسوية	-11698
▁تعليم	-11699
▁تقدمه	-11700
▁ثوبين	-11701
▁جمهور	-11702
▁حاضرة	-11703
▁خاتمة	-11704
▁خزاعة	-11705
▁خصومة	-11706
▁خليفة	-11707
▁ذراعا	-11708
▁سهمين	-11709
▁عصبته	-11710
▁عصمته	-11711
▁فتجوز	-11712
▁فتصير	-11713
▁فتلفت	-11714
▁فصارت	-11715
▁فيضرب	-11716
▁فيظهر	-11717
▁فيقوم	-11718
▁فيملك	-11719
▁قضائه	-11720
▁لسقوط	-11721
▁لشبهة	-11722
▁لفعله	-11723
▁لمعين	-11724
▁ليلته	-11725
▁مأمون	-11726
▁مؤمنة	-11727
▁متنجس	-11728
▁مخزوم	-11729
▁مزوجة	-11730
▁مطلوب	-11731
▁معتاد	-11732
▁مقيدا	-11733
▁مكحول	-11734
▁ميمون	-11735
▁وأثبت	-11736
▁وأهله	-11737
▁واستح	-11738
▁والأب	-11739
▁والتن	-11740
▁والرك	-11741
▁والعم	-11742
▁وتصدق	-11743
▁وتكره	-11744
▁وحكما	-11745
▁وشراء	-11746
▁وقتله	-11747
▁ولابن	-11748
▁ولدين	-11749
▁ويقطع	-11750
▁ويملك	-11751
▁يحلفه	-11752
▁يطؤها	-11753
▁يطلبه	-11754
▁يفتقر	-11755
▁ينتهي	-11756
▁أخرجها	-11757
▁أصحهما	-11758
▁إمكانه	-11759
▁استأذن	-11760
▁الجمرة	-11761
▁الدجال	-11762
▁الساعي	-11763
▁الصالح	-11764
▁الطويل	-11765
▁العروض	-11766
▁الفيئة	-11767
▁اللذين	-11768
▁المحلي	-11769
▁المركب	-11770
▁المسكن	-11771
▁المصدق	-11772
▁المعول	-11773
▁المقرض	-11774
▁الهدية	-11775
▁بالإرث	-11776
▁بالبلد	-11777
▁بالنصب	-11778
▁بالهبة	-11779
▁بكتابة	-11780
▁بلسانه	-11781
▁بمثلها	-11782
▁سماوية	-11783
▁صلاتهم	-11784
▁طهارته	-11785
▁فامتنع	-11786
▁قلوبهم	-11787
▁لخروجه	-11788
▁للأولى	-11789
▁للواقف	-11790
▁للوضوء	-11791
▁ميراثا	-11792
▁وإقرار	-11793
▁واعتبر	-11794
▁والذين	-11795
▁والصوم	-11796
▁والقبض	-11797
▁والميت	-11798
▁وبقوله	-11799
▁وكسرها	-11800
▁ولادته	-11801
▁يستفاد	-11802
▁يستقيم	-11803
▁أولادها	-11804
▁الأذنين	-11805
▁التبعية	-11806
▁التقديم	-11807
▁التقرير	-11808
▁الحرمين	-11809
▁الحقيقي	-11810
▁الشهرين	-11811
▁القرافي	-11812
▁المحمول	-11813
▁المستحب	-11814
▁المشترط	-11815
▁الملتزم	-11816
▁المنتهى	-11817
▁المهاجر	-11818
▁الموصوف	-11819
▁بالكوفة	-11820
▁بالمبيع	-11821
▁فالقياس	-11822
▁لامتناع	-11823
▁لانعدام	-11824
▁وإقراره	-11825
▁والوجيز	-11826
▁يتناوله	-11827
▁بالإشارة	-11828
▁بالتسليم	-11829
▁والإقامة	-11830
▁والكتابة	-11831
▁المتقدمين	-11832
▁المستحقين	-11833
ظا	-11834
اجز	-11835
بدن	-11836
جزا	-11837
ساع	-11838
شوف	-11839
صرا	-11840
صها	-11841
عاء	-11842
كرم	-11843
واح	-11844
وذي	-11845
وطة	-11846
ولت	-11847
ياك	-11848
يتم	-11849
يعه	-11850
يلي	-11851
▁اص	-11852
▁حش	-11853
▁خب	-11854
اركة	-11855
بالغ	-11856
بعضة	-11857
بعها	-11858
جزية	-11859
دارك	-11860
راجح	-11861
ضاها	-11862
طلاع	-11863
عدمه	-11864
عسار	-11865
عملا	-11866
فراش	-11867
قالة	-11868
كسوة	-11869
كلها	-11870
ماثل	-11871
ملته	-11872
منوع	-11873
ناؤه	-11874
ورها	-11875
وصاف	-11876
ويته	-11877
ويين	-11878
▁أبت	-11879
▁أحي	-11880
▁أوا	-11881
▁بمث	-11882
▁تدا	-11883
▁تعط	-11884
▁جني	-11885
▁جهر	-11886
▁حيز	-11887
▁خلل	-11888
▁سنا	-11889
▁ضحى	-11890
▁طير	-11891
▁عصا	-11892
▁عطس	-11893
▁عنا	-11894
▁عيد	-11895
▁فتل	-11896
▁ماض	-11897
▁نجز	-11898
▁هرم	-11899
▁وبق	-11900
▁وحم	-11901
▁ووق	-11902
▁يحط	-11903
باتها	-11904
فسهما	-11905
مينها	-11906
يرانه	-11907
▁أبيح	-11908
▁أحيا	-11909
▁أذهب	-11910
▁أرجح	-11911
▁أرضي	-11912
▁أشعر	-11913
▁اللا	-11914
▁بسوط	-11915
▁بعدت	-11916
▁بلبن	-11917
▁بنين	-11918
▁تشبه	-11919
▁تقضي	-11920
▁ثوبي	-11921
▁جالس	-11922
▁حدثا	-11923
▁حرير	-11924
▁حريم	-11925
▁ذكاة	-11926
▁سترة	-11927
▁سريج	-11928
▁صادف	-11929
▁ضرره	-11930
▁عائد	-11931
▁غلطا	-11932
▁غنمه	-11933
▁فأدى	-11934
▁فإنك	-11935
▁فالح	-11936
▁فرفع	-11937
▁فروض	-11938
▁فوقف	-11939
▁فيتم	-11940
▁قرأت	-11941
▁كلفة	-11942
▁لتلك	-11943
▁لقلة	-11944
▁لولد	-11945
▁لونه	-11946
▁ليال	-11947
▁مزيد	-11948
▁مقات	-11949
▁مقتل	-11950
▁منعت	-11951
▁مورث	-11952
▁نجدة	-11953
▁نقصا	-11954
▁نمير	-11955
▁وجرى	-11956
▁وحفظ	-11957
▁ودية	-11958
▁وسطه	-11959
▁وشهر	-11960
▁وصلة	-11961
▁وعرض	-11962
▁ونية	-11963
▁ويقا	-11964
▁يجهل	-11965
▁يفار	-11966
▁يفتح	-11967
▁يفسق	-11968
▁يقاس	-11969
▁يقلع	-11970
ستهلاك	-11971
▁آخرين	-11972
▁أختين	-11973
▁أصبعه	-11974
▁أعلاه	-11975
▁أياما	-11976
▁إبقاء	-11977
▁إتيان	-11978
▁إماما	-11979
▁الأشج	-11980
▁الحلي	-11981
▁الخاء	-11982
▁الروح	-11983
▁السقي	-11984
▁العزى	-11985
▁الغرة	-11986
▁القدح	-11987
▁القمح	-11988
▁الكرم	-11989
▁المنح	-11990
▁الودي	-11991
▁بريدة	-11992
▁بصدقة	-11993
▁بناته	-11994
▁بواجب	-11995
▁بوجهه	-11996
▁تجديد	-11997
▁تعلقت	-11998
▁حدوثه	-11999
▁خارجة	-12000
▁خروجا	-12001
▁طالبه	-12002
▁عوانة	-12003
▁فتصدق	-12004
▁فجائز	-12005
▁فقبضه	-12006
▁فيقطع	-12007
▁قبضته	-12008
▁كالمن	-12009
▁كصلاة	-12010
▁لدخول	-12011
▁لزمها	-12012
▁لعذره	-12013
▁للأصل	-12014
▁للزوم	-12015
▁للعمل	-12016
▁للماء	-12017
▁مثقال	-12018
▁محصنة	-12019
▁مخاطب	-12020
▁مخافة	-12021
▁منسوخ	-12022
▁منصوب	-12023
▁نيابة	-12024
▁هداية	-12025
▁وأنثى	-12026
▁واقعة	-12027
▁والأس	-12028
▁والحد	-12029
▁وبطلت	-12030
▁وتأمل	-12031
▁وتبطل	-12032
▁وتوقف	-12033
▁وهبها	-12034
▁ويباح	-12035
▁يأتيه	-12036
▁يتركه	-12037
▁يتعدد	-12038
▁يحضره	-12039
▁يخاطب	-12040
▁يستدل	-12041
▁يسلمه	-12042
▁يعترف	-12043
▁يغسله	-12044
▁ينفصل	-12045
▁أسلموا	-12046
▁أعادها	-12047
▁ارتفاع	-12048
▁الآثار	-12049
▁الأخرس	-12050
▁الباطل	-12051
▁البنين	-12052
▁التسعة	-12053
▁الجمال	-12054
▁الجهات	-12055
▁الحجاز	-12056
▁الحطاب	-12057
▁الدماء	-12058
▁الدوام	-12059
▁السواد	-12060
▁الشهيد	-12061
▁الصفات	-12062
▁العاجز	-12063
▁العرصة	-12064
▁القارن	-12065
▁القميص	-12066
▁المؤنة	-12067
▁المبيت	-12068
▁المحصر	-12069
▁المحمل	-12070
▁المشاع	-12071
▁المكيل	-12072
▁النسبة	-12073
▁انتقال	-12074
▁بالحيض	-12075
▁بالردة	-12076
▁باللفظ	-12077
▁بالوجه	-12078
▁بنصيبه	-12079
▁قبلهما	-12080
▁لغيرها	-12081
▁للجمعة	-12082
▁للجميع	-12083
▁للكافر	-12084
▁للمجني	-12085
▁للنساء	-12086
▁متقوما	-12087
▁مستقيم	-12088
▁مسكينا	-12089
▁مولاها	-12090
▁وأولاد	-12091
▁والباء	-12092
▁والشيخ	-12093
▁والغرس	-12094
▁والنصف	-12095
▁والوصي	-12096
▁وانقضت	-12097
▁وبخلاف	-12098
▁وخالفه	-12099
▁ومسألة	-12100
▁ونحوهم	-12101
▁يقبضها	-12102
▁أتزوجها	-12103
▁الأشربة	-12104
▁الإبهام	-12105
▁التشريق	-12106
▁التضحية	-12107
▁التكفير	-12108
▁التلاوة	-12109
▁الفضولي	-12110
▁المؤجرة	-12111
▁المبتدأ	-12112
▁المدبرة	-12113
▁المصباح	-12114
▁المعتقة	-12115
▁المقتدي	-12116
▁المقترض	-12117
▁بأيديهم	-12118
▁بالصواب	-12119
▁كالوكيل	-12120
▁كلامهما	-12121
▁للإنسان	-12122
▁للمضارب	-12123
▁للموقوف	-12124
▁للموهوب	-12125
▁مختلفين	-12126
▁والعبرة	-12127
▁والمنور	-12128
▁الأجهوري	-12129
▁البينونة	-12130
▁التصرفات	-12131
▁الحلواني	-12132
▁الدنانير	-12133
▁المشتركة	-12134
▁المغصوبة	-12135
▁المقدمات	-12136
▁المملوكة	-12137
▁بالتدبير	-12138
▁بالكتابة	-12139
▁والمختار	-12140
▁والمعتبر	-12141
لج	-12142
ئان	-12143
بطة	-12144
خاص	-12145
راش	-12146
رجو	-12147
ريت	-12148
سيط	-12149
صفه	-12150
ضعه	-12151
ضله	-12152
طفة	-12153
نيب	-12154
هدا	-12155
هرى	-12156
ورى	-12157
ويز	-12158
▁سط	-12159
▁ظل	-12160
ؤهما	-12161
ارها	-12162
بدال	-12163
ثيره	-12164
جديد	-12165
حاطة	-12166
حداث	-12167
دخله	-12168
ذكار	-12169
صاله	-12170
صرها	-12171
صيلا	-12172
ظيره	-12173
عاقب	-12174
عطيه	-12175
عمول	-12176
فاقة	-12177
فويت	-12178
قلال	-12179
لافا	-12180
لاها	-12181
ناعة	-12182
واقع	-12183
وطئه	-12184
ومان	-12185
▁أهم	-12186
▁بتك	-12187
▁تخت	-12188
▁تزل	-12189
▁تنف	-12190
▁دلت	-12191
▁رتب	-12192
▁رطب	-12193
▁زنت	-12194
▁سرج	-12195
▁ظنا	-12196
▁عات	-12197
▁عري	-12198
▁علو	-12199
▁فخل	-12200
▁لقل	-12201
▁مؤت	-12202
▁مطي	-12203
▁منط	-12204
▁نفى	-12205
▁ويم	-12206
▁يحا	-12207
▁يدك	-12208
ارقته	-12209
باحته	-12210
خراجه	-12211
خصومة	-12212
عاوضة	-12213
وزاعي	-12214
▁أخره	-12215
▁أساء	-12216
▁أضعف	-12217
▁أعوذ	-12218
▁اشهد	-12219
▁الثا	-12220
▁الطل	-12221
▁الها	-12222
▁بأبي	-12223
▁بالآ	-12224
▁بالذ	-12225
▁بحثا	-12226
▁بذمة	-12227
▁بسند	-12228
▁بصوم	-12229
▁بغلة	-12230
▁تترك	-12231
▁تجبر	-12232
▁تعار	-12233
▁حيلة	-12234
▁خاتم	-12235
▁دقيق	-12236
▁دمها	-12237
▁ربكم	-12238
▁رحله	-12239
▁روحه	-12240
▁سبقت	-12241
▁شائع	-12242
▁شداد	-12243
▁طرفه	-12244
▁طهره	-12245
▁عاجز	-12246
▁عطفه	-12247
▁عفوه	-12248
▁غلته	-12249
▁فارس	-12250
▁فاقد	-12251
▁فالز	-12252
▁فذبح	-12253
▁فعتق	-12254
▁فقرأ	-12255
▁فلمن	-12256
▁فوته	-12257
▁قراض	-12258
▁قربه	-12259
▁قسطه	-12260
▁قسمت	-12261
▁قصدت	-12262
▁كرهت	-12263
▁لأخذ	-12264
▁لاعن	-12265
▁لحظة	-12266
▁لسبق	-12267
▁للأخ	-12268
▁لمست	-12269
▁مائه	-12270
▁متنا	-12271
▁مشاع	-12272
▁معان	-12273
▁معنا	-12274
▁مقتض	-12275
▁موات	-12276
▁موكل	-12277
▁نخلة	-12278
▁وأنف	-12279
▁وبها	-12280
▁وثوب	-12281
▁وسبق	-12282
▁وصحة	-12283
▁وصفا	-12284
▁وصلت	-12285
▁وكلا	-12286
▁يبدل	-12287
▁يتجر	-12288
▁يحفر	-12289
▁يخدم	-12290
▁يرغب	-12291
▁يزكي	-12292
▁يعلق	-12293
▁يغرس	-12294
▁يقعد	-12295
▁ينقد	-12296
▁أسمعه	-12297
▁إلحاق	-12298
▁التاء	-12299
▁الحرث	-12300
▁الحصن	-12301
▁الزيت	-12302
▁الطول	-12303
▁المضر	-12304
▁المكث	-12305
▁النجم	-12306
▁النعم	-12307
▁الهاء	-12308
▁انهدم	-12309
▁بأصله	-12310
▁بالذي	-12311
▁بتعدد	-12312
▁بذكره	-12313
▁بمجلس	-12314
▁بوضعه	-12315
▁تأخرت	-12316
▁تبرعا	-12317
▁تتعين	-12318
▁تخريج	-12319
▁تخليص	-12320
▁تخيير	-12321
▁ترضعه	-12322
▁تقليد	-12323
▁حنظلة	-12324
▁دبرها	-12325
▁رشيدا	-12326
▁زانية	-12327
▁زرعها	-12328
▁سالما	-12329
▁سبيله	-12330
▁صدقها	-12331
▁عمامة	-12332
▁غصبها	-12333
▁فائتة	-12334
▁فاتته	-12335
▁فتركه	-12336
▁فجعلت	-12337
▁فرضها	-12338
▁فيفسخ	-12339
▁كأنها	-12340
▁كانتا	-12341
▁كسرها	-12342
▁لآدمي	-12343
▁لبابة	-12344
▁لتوقف	-12345
▁للقتل	-12346
▁مؤقتة	-12347
▁مباحة	-12348
▁مبنية	-12349
▁متمكن	-12350
▁مثاله	-12351
▁محكوم	-12352
▁معدوم	-12353
▁مفردة	-12354
▁مكانا	-12355
▁منتفع	-12356
▁نائما	-12357
▁ناويا	-12358
▁نكاحا	-12359
▁نوبته	-12360
▁هلاكه	-12361
▁وأسقط	-12362
▁وأقول	-12363
▁والبغ	-12364
▁والرق	-12365
▁والعل	-12366
▁والفق	-12367
▁وباعه	-12368
▁وبيعه	-12369
▁وتحرم	-12370
▁وتذكر	-12371
▁وصدقة	-12372
▁وفلان	-12373
▁وكسبه	-12374
▁وكسوة	-12375
▁ومسجد	-12376
▁وملكه	-12377
▁ويبرأ	-12378
▁ويحصل	-12379
▁ويفسخ	-12380
▁ويقتل	-12381
▁يتحمل	-12382
▁يتقرر	-12383
▁يحبسه	-12384
▁يستمر	-12385
▁يشمله	-12386
▁يصرفه	-12387
▁يقضيه	-12388
▁يقطعه	-12389
▁إجابته	-12390
▁الأبعد	-12391
▁الأعرج	-12392
▁الأعظم	-12393
▁الأوسط	-12394
▁البدنة	-12395
▁البراء	-12396
▁البعيد	-12397
▁التيمي	-12398
▁الحديد	-12399
▁الحميد	-12400
▁الخصاف	-12401
▁الرازي	-12402
▁السائل	-12403
▁السكوت	-12404
▁السماع	-12405
▁السورة	-12406
▁الشريف	-12407
▁الشقيق	-12408
▁الصريح	-12409
▁الصغار	-12410
▁العاشر	-12411
▁العدول	-12412
▁القعدة	-12413
▁اللغوي	-12414
▁المؤخر	-12415
▁المبلغ	-12416
▁المجرد	-12417
▁انفسخت	-12418
▁بالحال	-12419
▁بالحبس	-12420
▁بالقطع	-12421
▁باليمن	-12422
▁بحريته	-12423
▁بطلانه	-12424
▁بفعلها	-12425
▁بوجوده	-12426
▁تدبيره	-12427
▁تراضيا	-12428
▁تمليكه	-12429
▁فادعاه	-12430
▁فتاويه	-12431
▁لجماعة	-12432
▁لدلالة	-12433
▁للسجود	-12434
▁للقبلة	-12435
▁متعديا	-12436
▁مساقاة	-12437
▁مكروها	-12438
▁وإجارة	-12439
▁والبنت	-12440
▁والشرب	-12441
▁والمعت	-12442
▁والنظر	-12443
▁وكفارة	-12444
▁ووطئها	-12445
▁يتوارث	-12446
▁يدفعها	-12447
▁يلزمهم	-12448
▁الأوقات	-12449
▁الترجيح	-12450
▁الكعبين	-12451
▁المحارب	-12452
▁المشروع	-12453
▁بالخروج	-12454
▁فالأظهر	-12455
▁كالصلاة	-12456
▁مقابلته	-12457
▁نصرانية	-12458
▁وأخبرني	-12459
▁والقاضي	-12460
▁والمولى	-12461
▁الانفراد	-12462
▁المفاوضة	-12463
▁المقصودة	-12464
▁الموالاة	-12465
▁والزيادة	-12466
▁والشهادة	-12467
▁المستحاضة	-12468
▁المتعاقدين	-12469
خن	-12470
دد	-12471
مش	-12472
نش	-12473
الج	-12474
حتم	-12475
زلي	-12476
زية	-12477
شري	-12478
طبق	-12479
فعا	-12480
كيل	-12481
لول	-12482
نيث	-12483
وسع	-12484
ووا	-12485
▁إك	-12486
▁قذ	-12487
بيعا	-12488
تينا	-12489
جنين	-12490
دادي	-12491
ربها	-12492
رداء	-12493
رداد	-12494
ريقه	-12495
سقاء	-12496
شروع	-12497
صارى	-12498
طلوب	-12499
عتكف	-12500
فاعة	-12501
فيده	-12502
قيته	-12503
كتفى	-12504
كوله	-12505
لائق	-12506
لعان	-12507
ملوك	-12508
وحدة	-12509
ورية	-12510
ويجه	-12511
▁اضط	-12512
▁انف	-12513
▁بحا	-12514
▁بكف	-12515
▁تبد	-12516
▁تسم	-12517
▁تكل	-12518
▁توق	-12519
▁جسد	-12520
▁جنت	-12521
▁راع	-12522
▁صغر	-12523
▁طعن	-12524
▁طوي	-12525
▁عاص	-12526
▁عبا	-12527
▁غنى	-12528
▁لتق	-12529
▁لتن	-12530
▁لحد	-12531
▁لخل	-12532
▁لسب	-12533
▁لنس	-12534
▁ليؤ	-12535
▁نفا	-12536
▁نور	-12537
▁ودم	-12538
▁وسه	-12539
▁وعت	-12540
▁وكت	-12541
▁ولق	-12542
▁يمض	-12543
▁ينص	-12544
زدلفة	-12545
غنيمة	-12546
فاقته	-12547
كاتها	-12548
ولياء	-12549
▁أصبت	-12550
▁أعور	-12551
▁أعيد	-12552
▁أمرت	-12553
▁أنوا	-12554
▁أهون	-12555
▁الشق	-12556
▁الضم	-12557
▁الغا	-12558
▁الكث	-12559
▁الكم	-12560
▁المط	-12561
▁الود	-12562
▁بأمة	-12563
▁ببين	-12564
▁بحصة	-12565
▁بخير	-12566
▁بعثه	-12567
▁بعدي	-12568
▁بناه	-12569
▁تؤخر	-12570
▁تحلف	-12571
▁تعود	-12572
▁جعلا	-12573
▁حافظ	-12574
▁حولا	-12575
▁خامس	-12576
▁خبرا	-12577
▁خلقة	-12578
▁دعاه	-12579
▁رباح	-12580
▁رتبة	-12581
▁سويد	-12582
▁سيفا	-12583
▁شراب	-12584
▁صنعه	-12585
▁صوما	-12586
▁ضابط	-12587
▁طاوس	-12588
▁طهرت	-12589
▁عجوة	-12590
▁عدوا	-12591
▁عرضه	-12592
▁عياش	-12593
▁فأتي	-12594
▁فالب	-12595
▁فحيث	-12596
▁فنقص	-12597
▁فيحل	-12598
▁قارئ	-12599
▁قدوم	-12600
▁قميص	-12601
▁قولي	-12602
▁كسرى	-12603
▁كلبا	-12604
▁لشرط	-12605
▁لقصد	-12606
▁لقيت	-12607
▁لمدة	-12608
▁لوجه	-12609
▁مجرى	-12610
▁مجيء	-12611
▁محقق	-12612
▁مخوف	-12613
▁مصنف	-12614
▁مضغة	-12615
▁معقل	-12616
▁مفلس	-12617
▁ملحق	-12618
▁منعة	-12619
▁نسبا	-12620
▁وأحب	-12621
▁وترا	-12622
▁وجنس	-12623
▁وذبح	-12624
▁وسعى	-12625
▁وشعر	-12626
▁وصوم	-12627
▁وكثر	-12628
▁ونزل	-12629
▁وورث	-12630
▁يؤيد	-12631
▁يتعد	-12632
▁يتوب	-12633
▁يجيء	-12634
▁يسرع	-12635
▁يشرك	-12636
▁يعار	-12637
▁يفضي	-12638
▁يقين	-12639
▁ينحر	-12640
خالفته	-12641
مأنينة	-12642
▁أحرار	-12643
▁أداها	-12644
▁أركان	-12645
▁أصناف	-12646
▁أميال	-12647
▁إجبار	-12648
▁إيقاع	-12649
▁ابتلي	-12650
▁احتيج	-12651
▁استرد	-12652
▁الأبد	-12653
▁البدع	-12654
▁الثيب	-12655
▁الخطإ	-12656
▁السفل	-12657
▁السوق	-12658
▁الظلم	-12659
▁العزم	-12660
▁الكفن	-12661
▁الموق	-12662
▁بالنص	-12663
▁بحساب	-12664
▁بعضكم	-12665
▁بوقوع	-12666
▁بينهن	-12667
▁تعزير	-12668
▁جوابا	-12669
▁حادثة	-12670
▁حريته	-12671
▁خزانة	-12672
▁دليله	-12673
▁ذهابه	-12674
▁صادقا	-12675
▁صحيحه	-12676
▁طلقتك	-12677
▁غيلان	-12678
▁فأتيت	-12679
▁فخرجت	-12680
▁فلهما	-12681
▁فمنهم	-12682
▁فيباع	-12683
▁فيعمل	-12684
▁فيفسد	-12685
▁قسمها	-12686
▁لتفري	-12687
▁لعارض	-12688
▁لكنها	-12689
▁للعرف	-12690
▁للوطء	-12691
▁مؤمنا	-12692
▁مالهم	-12693
▁مانعة	-12694
▁مرتهن	-12695
▁ملتزم	-12696
▁ملخصا	-12697
▁مليكة	-12698
▁مهملة	-12699
▁نكحها	-12700
▁هبيرة	-12701
▁وأحرم	-12702
▁وأحسن	-12703
▁وأعتق	-12704
▁وأمها	-12705
▁والحا	-12706
▁والعا	-12707
▁وبناء	-12708
▁وتقبل	-12709
▁وسعيد	-12710
▁وضعفه	-12711
▁وطلاق	-12712
▁وعتقه	-12713
▁وكتاب	-12714
▁ولخبر	-12715
▁ومؤنة	-12716
▁يدركه	-12717
▁يستقر	-12718
▁يشترى	-12719
▁يضربه	-12720
▁أحواله	-12721
▁إرساله	-12722
▁الأرجح	-12723
▁الأزجي	-12724
▁البدعة	-12725
▁البغاة	-12726
▁البلدة	-12727
▁التكلم	-12728
▁التمام	-12729
▁الجبهة	-12730
▁الحميل	-12731
▁السبيل	-12732
▁السجدة	-12733
▁السلاح	-12734
▁الطاهر	-12735
▁الفاضل	-12736
▁الفراق	-12737
▁الفلوس	-12738
▁القائف	-12739
▁المبيح	-12740
▁المعجل	-12741
▁المفرد	-12742
▁الممكن	-12743
▁الناذر	-12744
▁النجار	-12745
▁النداء	-12746
▁بإحرام	-12747
▁بإعتاق	-12748
▁بالصلح	-12749
▁بالغصب	-12750
▁بقولهم	-12751
▁بوطئها	-12752
▁تصديقه	-12753
▁تفصيله	-12754
▁تقديرا	-12755
▁ثالثها	-12756
▁خالعها	-12757
▁سقوطها	-12758
▁ضمانها	-12759
▁فانطلق	-12760
▁قررناه	-12761
▁لحاجته	-12762
▁للخلاف	-12763
▁للعمرة	-12764
▁للفاعل	-12765
▁معتبرا	-12766
▁واشترى	-12767
▁والثوب	-12768
▁والعقد	-12769
▁والغسل	-12770
▁والوقف	-12771
▁ومقابل	-12772
▁ونصفها	-12773
▁وواحدة	-12774
▁يعرفها	-12775
▁الأخوات	-12776
▁الإنصاف	-12777
▁البرهان	-12778
▁البكارة	-12779
▁الحادثة	-12780
▁الحاشية	-12781
▁الحالين	-12782
▁الزيادي	-12783
▁الكبيرة	-12784
▁المخاطب	-12785
▁المنفصل	-12786
▁الواقعة	-12787
▁امرأتين	-12788
▁بالوضوء	-12789
▁للإسلام	-12790
▁مستوفيا	-12791
▁والحديث	-12792
▁والخنثى	-12793
▁والكافر	-12794
▁والنكاح	-12795
▁ومفهومه	-12796
▁يستحقها	-12797
▁الاحتياج	-12798
▁الالتزام	-12799
▁الانقطاع	-12800
▁العاقدين	-12801
▁المائتين	-12802
▁المحرمات	-12803
▁المستوعب	-12804
▁الملازمة	-12805
▁الملاعنة	-12806
▁بالزيادة	-12807
▁للاحتراز	-12808
▁التتارخانية	-12809
شب	-12810
ضن	-12811
ىء	-12812
ادف	-12813
انق	-12814
بتي	-12815
بدة	-12816
تخب	-12817
حره	-12818
حمه	-12819
ذله	-12820
روض	-12821
سلط	-12822
سيد	-12823
شوش	-12824
طبي	-12825
ظلم	-12826
عكس	-12827
قاض	-12828
كاز	-12829
لاج	-12830
وتة	-12831
وتي	-12832
▁أئ	-12833
▁حث	-12834
▁كط	-12835
أمور	-12836
ؤيته	-12837
بعيد	-12838
جعها	-12839
حتية	-12840
حمول	-12841
دائه	-12842
ذاهب	-12843
رتيب	-12844
ركته	-12845
رهما	-12846
ستها	-12847
صراف	-12848
طهرا	-12849
عهود	-12850
قاؤه	-12851
قيها	-12852
كاره	-12853
كاية	-12854
لافه	-12855
لبوس	-12856
مسوح	-12857
مكنا	-12858
وراة	-12859
وفاء	-12860
▁آكل	-12861
▁أهد	-12862
▁بأو	-12863
▁ببا	-12864
▁ببر	-12865
▁برا	-12866
▁بزع	-12867
▁بعل	-12868
▁بفر	-12869
▁تضي	-12870
▁تفا	-12871
▁حصن	-12872
▁خلي	-12873
▁درر	-12874
▁دمي	-12875
▁ربط	-12876
▁طبخ	-12877
▁عصى	-12878
▁غرق	-12879
▁فنف	-12880
▁فوه	-12881
▁لشر	-12882
▁لقر	-12883
▁لقص	-12884
▁لمع	-12885
▁مضا	-12886
▁مفع	-12887
▁ملة	-12888
▁نطق	-12889
▁وتم	-12890
▁وسر	-12891
▁يحق	-12892
▁ينف	-12893
جدتين	-12894
فساده	-12895
فقتها	-12896
ماهير	-12897
▁أجيز	-12898
▁أفصح	-12899
▁أنقص	-12900
▁إرثه	-12901
▁الأل	-12902
▁بشرب	-12903
▁بمست	-12904
▁بيعة	-12905
▁تحبس	-12906
▁تحرك	-12907
▁تدعي	-12908
▁تريد	-12909
▁تطلع	-12910
▁تقدر	-12911
▁تموت	-12912
▁تنزل	-12913
▁تولى	-12914
▁حجرا	-12915
▁حضان	-12916
▁حلفا	-12917
▁حلها	-12918
▁ذنبه	-12919
▁رشيد	-12920
▁ساقه	-12921
▁سنته	-12922
▁شقصا	-12923
▁عبثا	-12924
▁غصبا	-12925
▁فأرى	-12926
▁فارت	-12927
▁فالث	-12928
▁فالص	-12929
▁فجمع	-12930
▁فروى	-12931
▁فسمع	-12932
▁فشرط	-12933
▁فلزم	-12934
▁فنصف	-12935
▁فيحد	-12936
▁قبلي	-12937
▁قرأه	-12938
▁قلوب	-12939
▁كالل	-12940
▁كقطع	-12941
▁لبعد	-12942
▁لبلد	-12943
▁لزوج	-12944
▁لطلب	-12945
▁لقدر	-12946
▁للشك	-12947
▁مخاض	-12948
▁مفطر	-12949
▁منقط	-12950
▁موال	-12951
▁هديه	-12952
▁وأدى	-12953
▁وأنس	-12954
▁وابت	-12955
▁واسع	-12956
▁وترد	-12957
▁وحجر	-12958
▁ودعا	-12959
▁وفضة	-12960
▁وقفة	-12961
▁وللع	-12962
▁ومرض	-12963
▁ومشى	-12964
▁ويضع	-12965
▁يؤجل	-12966
▁يبدو	-12967
▁يسهم	-12968
▁يظنه	-12969
▁يعسر	-12970
▁يغاب	-12971
▁يقام	-12972
▁ينته	-12973
انعقاد	-12974
هادتين	-12975
▁أرادت	-12976
▁أرسلت	-12977
▁أمانه	-12978
▁أوقية	-12979
▁إدريس	-12980
▁إفراز	-12981
▁إلزام	-12982
▁إنفاذ	-12983
▁الأسد	-12984
▁الأوا	-12985
▁الارت	-12986
▁الرطب	-12987
▁السبي	-12988
▁الصفا	-12989
▁الطير	-12990
▁العول	-12991
▁الفوا	-12992
▁المتح	-12993
▁الهاد	-12994
▁انتقص	-12995
▁انتهت	-12996
▁بافضل	-12997
▁بالجر	-12998
▁بالحد	-12999
▁بخدمة	-13000
▁بعمله	-13001
▁بغسله	-13002
▁بفوات	-13003
▁تنتقل	-13004
▁جلوسه	-13005
▁حاكما	-13006
▁حبيبة	-13007
▁حضانة	-13008
▁خطبته	-13009
▁زوجني	-13010
▁سببها	-13011
▁سماعة	-13012
▁سوداء	-13013
▁سيدنا	-13014
▁ضروري	-13015
▁عبيده	-13016
▁علماء	-13017
▁فأشار	-13018
▁فتخرج	-13019
▁فجعله	-13020
▁فسألت	-13021
▁فطرته	-13022
▁فيقضي	-13023
▁فيكفي	-13024
▁قادرا	-13025
▁كالأب	-13026
▁كالمس	-13027
▁لأخذه	-13028
▁لخروج	-13029
▁للآية	-13030
▁للصوم	-13031
▁مؤكدة	-13032
▁متولي	-13033
▁معتقه	-13034
▁مقدما	-13035
▁منصوص	-13036
▁منفرد	-13037
▁نكوله	-13038
▁وآخره	-13039
▁وأورد	-13040
▁والكل	-13041
▁وبقية	-13042
▁ورأسه	-13043
▁وعلمه	-13044
▁وقدره	-13045
▁وكافر	-13046
▁ومجمع	-13047
▁ومذهب	-13048
▁ويؤمر	-13049
▁ويباع	-13050
▁ويجري	-13051
▁ويجمع	-13052
▁ويحيى	-13053
▁وينفذ	-13054
▁يبتدئ	-13055
▁يتعمد	-13056
▁يتميز	-13057
▁يجامع	-13058
▁يجتهد	-13059
▁يزوجه	-13060
▁يستند	-13061
▁يستوي	-13062
▁يقوله	-13063
▁يقيده	-13064
▁استبرا	-13065
▁استظهر	-13066
▁الأعمى	-13067
▁الاستخ	-13068
▁التفرق	-13069
▁التوقف	-13070
▁الحصاد	-13071
▁الحلول	-13072
▁الخلال	-13073
▁الدمين	-13074
▁الذابح	-13075
▁الذكاة	-13076
▁الساكت	-13077
▁السفلى	-13078
▁السقوط	-13079
▁السياق	-13080
▁الطبقة	-13081
▁الكوفي	-13082
▁اللحية	-13083
▁المقلد	-13084
▁النزول	-13085
▁الوارد	-13086
▁الوديع	-13087
▁اليمان	-13088
▁انتقلت	-13089
▁انعقدت	-13090
▁انقطعت	-13091
▁بألفين	-13092
▁بخصوصه	-13093
▁براءته	-13094
▁تقصيره	-13095
▁تمكينه	-13096
▁دخولها	-13097
▁رءوسهم	-13098
▁فالمال	-13099
▁فالولد	-13100
▁فتلزمه	-13101
▁فصالحه	-13102
▁كالمست	-13103
▁لأصحاب	-13104
▁لأولاد	-13105
▁لإطلاق	-13106
▁لبسهما	-13107
▁لقراءة	-13108
▁للأكثر	-13109
▁للمعتق	-13110
▁للواهب	-13111
▁متفرقة	-13112
▁مجاوزة	-13113
▁مذهبنا	-13114
▁مزارعة	-13115
▁نحوهما	-13116
▁وأصحاب	-13117
▁والبحر	-13118
▁والماء	-13119
▁والوطء	-13120
▁وثلثان	-13121
▁وعائشة	-13122
▁وكسوته	-13123
▁يستوجب	-13124
▁يشترطه	-13125
▁استحباب	-13126
▁استرداد	-13127
▁الأختين	-13128
▁الأعذار	-13129
▁الإحراز	-13130
▁الإدراك	-13131
▁الإعراض	-13132
▁الإفراد	-13133
▁الإلحاق	-13134
▁البهائم	-13135
▁التعديل	-13136
▁التعليم	-13137
▁التفليس	-13138
▁التقصير	-13139
▁التنوير	-13140
▁الحليفة	-13141
▁الزوجات	-13142
▁العشرين	-13143
▁القلتين	-13144
▁الكتابي	-13145
▁المالين	-13146
▁المروذي	-13147
▁المسكين	-13148
▁النوادر	-13149
▁بخلافها	-13150
▁فاشتراه	-13151
▁للاتباع	-13152
▁لمالكها	-13153
▁متوالية	-13154
▁مستعملا	-13155
▁والكسوة	-13156
▁والمعتق	-13157
▁وبينهما	-13158
▁الثلاثين	-13159
▁الشاهدين	-13160
▁المحاباة	-13161
▁المنازعة	-13162
▁بالإعتاق	-13163
▁بالتحريم	-13164
▁بالوكالة	-13165
▁وإبراهيم	-13166
▁بالاجتهاد	-13167
▁والدارقطني	-13168
جى	-13169
ابق	-13170
اعر	-13171
امه	-13172
اور	-13173
باي	-13174
دني	-13175
ديا	-13176
رفض	-13177
زته	-13178
ساة	-13179
ستا	-13180
شاة	-13181
شفع	-13182
شوز	-13183
طبخ	-13184
عدو	-13185
عرض	-13186
غرر	-13187
قوا	-13188
قيح	-13189
كتك	-13190
كهة	-13191
نجي	-13192
هلة	-13193
وفر	-13194
يئا	-13195
ينك	-13196
▁آت	-13197
▁إغ	-13198
▁از	-13199
▁كآ	-13200
▁لذ	-13201
ارته	-13202
بدعة	-13203
بسها	-13204
بوله	-13205
ثلثة	-13206
جاهد	-13207
جموع	-13208
دتها	-13209
رهنه	-13210
زاله	-13211
شهدا	-13212
شيئا	-13213
قليل	-13214
كتفي	-13215
نشاق	-13216
نعقد	-13217
وءته	-13218
والد	-13219
وريث	-13220
وزنه	-13221
وصول	-13222
ويها	-13223
يائه	-13224
▁أيس	-13225
▁بصد	-13226
▁تعت	-13227
▁حمى	-13228
▁رائ	-13229
▁رزق	-13230
▁سقف	-13231
▁عزة	-13232
▁فاح	-13233
▁فحق	-13234
▁فقأ	-13235
▁فلن	-13236
▁فنا	-13237
▁فيم	-13238
▁قاص	-13239
▁قرئ	-13240
▁قرة	-13241
▁قلد	-13242
▁ليب	-13243
▁متن	-13244
▁مجب	-13245
▁مدي	-13246
▁مرد	-13247
▁معم	-13248
▁مفه	-13249
▁وجر	-13250
▁وعق	-13251
▁ووا	-13252
▁يرب	-13253
▁يسد	-13254
▁يوص	-13255
دخلها	-13256
شوراء	-13257
▁أحال	-13258
▁أسنا	-13259
▁أغلظ	-13260
▁أغمي	-13261
▁أفاق	-13262
▁أقبض	-13263
▁أقدم	-13264
▁أقطع	-13265
▁أنسب	-13266
▁أنشأ	-13267
▁اتجه	-13268
▁اتخا	-13269
▁اضرب	-13270
▁الأف	-13271
▁الري	-13272
▁بخطه	-13273
▁بنيه	-13274
▁تحري	-13275
▁تذهب	-13276
▁ترثه	-13277
▁تضرر	-13278
▁حائز	-13279
▁حساب	-13280
▁خاصا	-13281
▁داري	-13282
▁سكوت	-13283
▁سودة	-13284
▁سوطا	-13285
▁شبيه	-13286
▁طرحه	-13287
▁ظلمة	-13288
▁عبار	-13289
▁عصمة	-13290
▁علته	-13291
▁عمده	-13292
▁فالش	-13293
▁فتوى	-13294
▁فرجه	-13295
▁فشرب	-13296
▁فضله	-13297
▁فليف	-13298
▁فينا	-13299
▁قباء	-13300
▁كبار	-13301
▁كثوب	-13302
▁كشرط	-13303
▁كفاه	-13304
▁كلمت	-13305
▁لارت	-13306
▁لبائ	-13307
▁لعسر	-13308
▁لعمل	-13309
▁للفظ	-13310
▁لمنع	-13311
▁ليسا	-13312
▁متاب	-13313
▁مفرع	-13314
▁مفيد	-13315
▁ملكي	-13316
▁مناق	-13317
▁ناقة	-13318
▁نزول	-13319
▁نصفا	-13320
▁نهيه	-13321
▁وإنا	-13322
▁والو	-13323
▁وجرح	-13324
▁ودار	-13325
▁وسمي	-13326
▁وسنة	-13327
▁وطنه	-13328
▁وطهر	-13329
▁وفات	-13330
▁وفرع	-13331
▁وقوف	-13332
▁وللا	-13333
▁وماء	-13334
▁ونفذ	-13335
▁ويتم	-13336
▁يدفن	-13337
▁يرجح	-13338
▁يضاف	-13339
▁يعول	-13340
▁يفرد	-13341
▁ينصب	-13342
▁ينهى	-13343
ماعهما	-13344
▁أعوام	-13345
▁أقربك	-13346
▁أقيمت	-13347
▁أملكه	-13348
▁أنملة	-13349
▁أولئك	-13350
▁إعانة	-13351
▁ارتدت	-13352
▁اعتاد	-13353
▁اعتدت	-13354
▁اقترض	-13355
▁الأثر	-13356
▁الأصم	-13357
▁الأما	-13358
▁الجعد	-13359
▁الحمر	-13360
▁الرجم	-13361
▁السبت	-13362
▁السحر	-13363
▁الشرك	-13364
▁الصنف	-13365
▁العجم	-13366
▁العقب	-13367
▁الغزل	-13368
▁الغيب	-13369
▁المضي	-13370
▁المنة	-13371
▁الورد	-13372
▁بأنهم	-13373
▁باثني	-13374
▁بحرمة	-13375
▁برضاه	-13376
▁بكفره	-13377
▁بكلمة	-13378
▁تأخذه	-13379
▁ترتفع	-13380
▁تنافي	-13381
▁تندفع	-13382
▁تنقطع	-13383
▁ثالثا	-13384
▁ثوبان	-13385
▁حائضا	-13386
▁حبسها	-13387
▁خصوصا	-13388
▁رابعة	-13389
▁رجعوا	-13390
▁سكوته	-13391
▁شاءوا	-13392
▁شائبة	-13393
▁صاحبي	-13394
▁صومها	-13395
▁ضعيفا	-13396
▁عبدان	-13397
▁عداوة	-13398
▁عمومه	-13399
▁فأحسن	-13400
▁فتسقط	-13401
▁فثلاث	-13402
▁فيحكم	-13403
▁فيعطى	-13404
▁قالاه	-13405
▁قياسه	-13406
▁كفالة	-13407
▁كلاما	-13408
▁كنيسة	-13409
▁لأبيك	-13410
▁للنظر	-13411
▁للنهي	-13412
▁مبسوط	-13413
▁متاعا	-13414
▁متروك	-13415
▁محصنا	-13416
▁مخرمة	-13417
▁مقدرا	-13418
▁نسيان	-13419
▁نوعان	-13420
▁والخل	-13421
▁والقا	-13422
▁وبأنه	-13423
▁وبالم	-13424
▁وتسقط	-13425
▁وجملة	-13426
▁وحكاه	-13427
▁ورأيت	-13428
▁وسقطت	-13429
▁وشبهه	-13430
▁وعبيد	-13431
▁وعطاء	-13432
▁وكثير	-13433
▁ويتبع	-13434
▁ويحنث	-13435
▁ويقيم	-13436
▁يؤاجر	-13437
▁يعتمر	-13438
▁يفسده	-13439
▁ينزعه	-13440
▁يهودي	-13441
▁أجمعوا	-13442
▁إرادته	-13443
▁اجتمعا	-13444
▁استقبل	-13445
▁استولى	-13446
▁اعتبرت	-13447
▁الأكمل	-13448
▁الإناث	-13449
▁البقعة	-13450
▁الخاصة	-13451
▁الخشبة	-13452
▁الدائن	-13453
▁الزناد	-13454
▁الصامت	-13455
▁الصنعة	-13456
▁العطار	-13457
▁العليا	-13458
▁القارئ	-13459
▁القعود	-13460
▁الكثرة	-13461
▁الكلمة	-13462
▁المتجه	-13463
▁المحكم	-13464
▁المخوف	-13465
▁المكري	-13466
▁النخعي	-13467
▁بالحمل	-13468
▁بالخمس	-13469
▁بالرجل	-13470
▁بالفضل	-13471
▁بالمثل	-13472
▁ببطلان	-13473
▁ببغداد	-13474
▁بدونها	-13475
▁بقراءة	-13476
▁بقولنا	-13477
▁بكونها	-13478
▁تعجيزه	-13479
▁حقوقهم	-13480
▁روايته	-13481
▁سيذكره	-13482
▁فنصيبه	-13483
▁لثلاثة	-13484
▁للقاتل	-13485
▁لهؤلاء	-13486
▁لوجوبه	-13487
▁ماليته	-13488
▁معتادة	-13489
▁مقلوعا	-13490
▁منفصلة	-13491
▁موطوءة	-13492
▁واستحق	-13493
▁والحجر	-13494
▁والحمل	-13495
▁والزرع	-13496
▁والفتح	-13497
▁والقتل	-13498
▁وقولنا	-13499
▁ولصاحب	-13500
▁ومنفعة	-13501
▁وولاؤه	-13502
▁ويشتري	-13503
▁يتملكه	-13504
▁يستخلف	-13505
▁يعلمون	-13506
▁استصحاب	-13507
▁الأسواق	-13508
▁الأمتعة	-13509
▁الأمهات	-13510
▁الإعسار	-13511
▁الإغماء	-13512
▁الإنشاء	-13513
▁الابنين	-13514
▁التبيين	-13515
▁التخصيص	-13516
▁التعمير	-13517
▁التقويم	-13518
▁التمكين	-13519
▁الجهالة	-13520
▁الحضرمي	-13521
▁الخيانة	-13522
▁الدرداء	-13523
▁الزيارة	-13524
▁العقوبة	-13525
▁الكافرة	-13526
▁الكفاءة	-13527
▁المتعدي	-13528
▁المتقوم	-13529
▁المدخول	-13530
▁المعمول	-13531
▁المقابل	-13532
▁المقدسي	-13533
▁المنافق	-13534
▁بالتصرف	-13535
▁بالتيمم	-13536
▁بالواجب	-13537
▁تعليلهم	-13538
▁فأخبرته	-13539
▁فالعبرة	-13540
▁كالمسلم	-13541
▁كالوصية	-13542
▁مستثناة	-13543
▁والإخوة	-13544
▁والتصرف	-13545
▁والقبول	-13546
▁الأكثرون	-13547
▁الاجتماع	-13548
▁الثمانية	-13549
▁الجرجاني	-13550
▁المقابلة	-13551
▁المواقيت	-13552
▁بالعربية	-13553
▁والإقرار	-13554
▁والزركشي	-13555
▁والمرتهن	-13556
▁والمنفعة	-13557
▁والنهاية	-13558
▁الاستعانة	-13559
خى	-13560
غض	-13561
أكل	-13562
اوة	-13563
بون	-13564
بيس	-13565
جمي	-13566
حلف	-13567
حوط	-13568
ستر	-13569
شمي	-13570
صاح	-13571
صحح	-13572
طره	-13573
عمت	-13574
فته	-13575
فظة	-13576
فوذ	-13577
قلي	-13578
قوى	-13579
كيم	-13580
لثة	-13581
ندق	-13582
وطا	-13583
▁زا	-13584
▁صع	-13585
▁نو	-13586
ائله	-13587
اركا	-13588
اموس	-13589
حالة	-13590
حرار	-13591
خليص	-13592
داؤه	-13593
دانة	-13594
ذيبه	-13595
رمته	-13596
ريها	-13597
زكية	-13598
سامح	-13599
شبيه	-13600
صبعه	-13601
صبغه	-13602
عليم	-13603
علين	-13604
فاوض	-13605
فتوى	-13606
قبلا	-13607
واتر	-13608
ودهم	-13609
ولات	-13610
ياله	-13611
▁أبد	-13612
▁أحل	-13613
▁أدم	-13614
▁ألق	-13615
▁أهو	-13616
▁بعم	-13617
▁تحد	-13618
▁تشت	-13619
▁ختم	-13620
▁خدم	-13621
▁داع	-13622
▁رجي	-13623
▁شار	-13624
▁شرى	-13625
▁عزم	-13626
▁غبن	-13627
▁غزا	-13628
▁غضب	-13629
▁فأر	-13630
▁فبر	-13631
▁فرآ	-13632
▁فسي	-13633
▁فكم	-13634
▁فمس	-13635
▁قهر	-13636
▁قوا	-13637
▁كيد	-13638
▁لائ	-13639
▁مبر	-13640
▁مبه	-13641
▁مشد	-13642
▁مشه	-13643
▁معز	-13644
▁مفل	-13645
▁مكن	-13646
▁موز	-13647
▁ناب	-13648
▁نسج	-13649
▁وسج	-13650
▁يخش	-13651
▁يرم	-13652
▁ينب	-13653
▁ينس	-13654
بائهم	-13655
دراكه	-13656
صيلها	-13657
فاتحة	-13658
فعتها	-13659
قطاعه	-13660
▁أحلف	-13661
▁أخرس	-13662
▁أذكر	-13663
▁أسره	-13664
▁أشرك	-13665
▁أطول	-13666
▁أملك	-13667
▁أوان	-13668
▁أويس	-13669
▁استد	-13670
▁اعمل	-13671
▁التج	-13672
▁الدر	-13673
▁الشح	-13674
▁الفأ	-13675
▁المض	-13676
▁بحرف	-13677
▁برفق	-13678
▁بهبة	-13679
▁تبيع	-13680
▁تتاب	-13681
▁تجمع	-13682
▁تخدم	-13683
▁تسأل	-13684
▁تغرب	-13685
▁تقري	-13686
▁تلبس	-13687
▁توكل	-13688
▁حفظا	-13689
▁حوائ	-13690
▁خمسه	-13691
▁دافع	-13692
▁دواب	-13693
▁رأسا	-13694
▁راشد	-13695
▁سرته	-13696
▁سلاح	-13697
▁سياق	-13698
▁شارك	-13699
▁صدره	-13700
▁صدور	-13701
▁صغار	-13702
▁صلحا	-13703
▁ضربا	-13704
▁ظلمه	-13705
▁عروض	-13706
▁علية	-13707
▁فبعد	-13708
▁فتحت	-13709
▁فداه	-13710
▁فزاد	-13711
▁فصدق	-13712
▁فضمن	-13713
▁فعبد	-13714
▁ففتح	-13715
▁فيرث	-13716
▁قوية	-13717
▁كالد	-13718
▁كالف	-13719
▁لجاز	-13720
▁لحوم	-13721
▁لعلي	-13722
▁لقطع	-13723
▁للرد	-13724
▁للسا	-13725
▁للكل	-13726
▁لوقت	-13727
▁مبتد	-13728
▁متسا	-13729
▁مدرك	-13730
▁مرضي	-13731
▁مستق	-13732
▁مطعم	-13733
▁مكيل	-13734
▁مهما	-13735
▁نازع	-13736
▁نجسة	-13737
▁نجوم	-13738
▁نفسا	-13739
▁نهاه	-13740
▁وأرض	-13741
▁واقد	-13742
▁وبلا	-13743
▁وجحد	-13744
▁وحنث	-13745
▁وطؤه	-13746
▁وقرأ	-13747
▁وقلت	-13748
▁وكذب	-13749
▁ونائ	-13750
▁ونفي	-13751
▁ونكل	-13752
▁وولي	-13753
▁ويدع	-13754
▁يؤدب	-13755
▁يختر	-13756
▁يدعى	-13757
▁يرجو	-13758
▁يرهن	-13759
▁يستخ	-13760
▁يسمي	-13761
▁يعصب	-13762
▁يقدح	-13763
▁يوزن	-13764
عايتين	-13765
فاقهما	-13766
▁أجيرا	-13767
▁أسيرا	-13768
▁أفسده	-13769
▁أقرضه	-13770
▁أنفقه	-13771
▁أوجبت	-13772
▁أوصاف	-13773
▁إحداث	-13774
▁استوت	-13775
▁استوى	-13776
▁اسمها	-13777
▁اشتمل	-13778
▁الأخص	-13779
▁الاغت	-13780
▁التقا	-13781
▁التنز	-13782
▁الحظر	-13783
▁السبق	-13784
▁السفه	-13785
▁الصلب	-13786
▁العلل	-13787
▁العمة	-13788
▁الغين	-13789
▁الفلس	-13790
▁القيس	-13791
▁المذي	-13792
▁باسمه	-13793
▁بالتح	-13794
▁ببدنه	-13795
▁بتسعة	-13796
▁بتيمم	-13797
▁بثلثي	-13798
▁بمحضر	-13799
▁بنفقة	-13800
▁بوطئه	-13801
▁تزكية	-13802
▁تمادى	-13803
▁حائطه	-13804
▁خامسة	-13805
▁خانية	-13806
▁خلافة	-13807
▁خيانة	-13808
▁دائما	-13809
▁دخلوا	-13810
▁زيارة	-13811
▁سكران	-13812
▁سلمها	-13813
▁سيجيء	-13814
▁شديدا	-13815
▁شروعه	-13816
▁شهوده	-13817
▁ضربين	-13818
▁طائعا	-13819
▁عجلان	-13820
▁عرفها	-13821
▁عقارا	-13822
▁عقدها	-13823
▁علمنا	-13824
▁فأفطر	-13825
▁فدخلت	-13826
▁فذكرت	-13827
▁فقهاء	-13828
▁فمعنى	-13829
▁فواضح	-13830
▁قدامة	-13831
▁كعدمه	-13832
▁لأنهن	-13833
▁لذاته	-13834
▁لقضاء	-13835
▁لكلام	-13836
▁للسبب	-13837
▁للغسل	-13838
▁ليسلم	-13839
▁محصور	-13840
▁مستقر	-13841
▁معمول	-13842
▁مفقود	-13843
▁موالي	-13844
▁وأظهر	-13845
▁وأفضل	-13846
▁والدم	-13847
▁والدي	-13848
▁والما	-13849
▁وثمرة	-13850
▁وجدته	-13851
▁وخرجت	-13852
▁وسألت	-13853
▁وظيفة	-13854
▁وعبده	-13855
▁وفسره	-13856
▁ويسعى	-13857
▁ويقبض	-13858
▁ويكفر	-13859
▁ويهدي	-13860
▁يبطله	-13861
▁يديها	-13862
▁يرثها	-13863
▁يشتمل	-13864
▁يعترض	-13865
▁يكتفي	-13866
▁أئمتنا	-13867
▁أرباعا	-13868
▁أعضائه	-13869
▁أعطاها	-13870
▁إعتاقه	-13871
▁إفاقته	-13872
▁إمساكه	-13873
▁استشكل	-13874
▁استقرض	-13875
▁الأنهر	-13876
▁التالف	-13877
▁التعلق	-13878
▁الثمار	-13879
▁الجدات	-13880
▁الحركة	-13881
▁الحلية	-13882
▁الدواء	-13883
▁الرواة	-13884
▁الزهرى	-13885
▁السلمي	-13886
▁الصفار	-13887
▁الضياع	-13888
▁القبور	-13889
▁الكبرى	-13890
▁المفوض	-13891
▁المقدس	-13892
▁المقوم	-13893
▁الموطأ	-13894
▁النائم	-13895
▁النبيذ	-13896
▁النكول	-13897
▁الهروي	-13898
▁الواقد	-13899
▁امرأتي	-13900
▁بالعدد	-13901
▁بالمهر	-13902
▁بتركها	-13903
▁بتقديم	-13904
▁بثمنها	-13905
▁برضاها	-13906
▁بزوجته	-13907
▁بفتحات	-13908
▁بقدرها	-13909
▁بمسألة	-13910
▁تسميته	-13911
▁تعليله	-13912
▁جماهير	-13913
▁راجعها	-13914
▁طلقتان	-13915
▁عادتهم	-13916
▁فانكسر	-13917
▁فحدثني	-13918
▁فعرفنا	-13919
▁كالهبة	-13920
▁لإصلاح	-13921
▁للباقي	-13922
▁للرجال	-13923
▁للشفيع	-13924
▁للمفلس	-13925
▁للنكاح	-13926
▁مبادلة	-13927
▁مختصره	-13928
▁مستأمن	-13929
▁مستقلا	-13930
▁موافقا	-13931
▁وأعتقه	-13932
▁والحمد	-13933
▁والعصر	-13934
▁والمهر	-13935
▁وتأخير	-13936
▁وتقدير	-13937
▁وسبعون	-13938
▁أوجههما	-13939
▁إقامتها	-13940
▁الأخوين	-13941
▁الأذكار	-13942
▁الأنواع	-13943
▁الإحصار	-13944
▁الإلزام	-13945
▁البخارى	-13946
▁التفسير	-13947
▁التقليد	-13948
▁الجعالة	-13949
▁السابعة	-13950
▁الصبيان	-13951
▁الفوقية	-13952
▁المحارم	-13953
▁المشيئة	-13954
▁الولدين	-13955
▁اليمامة	-13956
▁بالرجوع	-13957
▁بدنانير	-13958
▁فالضمان	-13959
▁فالمعنى	-13960
▁فالوصية	-13961
▁كتابتها	-13962
▁لأصحابه	-13963
▁للمبتاع	-13964
▁للمجهول	-13965
▁مستقبلة	-13966
▁واستظهر	-13967
▁والعادة	-13968
▁والقضاء	-13969
▁والواجب	-13970
▁الأتقاني	-13971
▁الاشتراك	-13972
▁المستقرض	-13973
▁المنفصلة	-13974
▁الموقوفة	-13975
▁بالإحرام	-13976
▁بالولادة	-13977
▁والأصحاب	-13978
▁والمستأجر	-13979
سف	-13980
شئ	-13981
ظه	-13982
تهل	-13983
ثوم	-13984
جزم	-13985
حاك	-13986
حلة	-13987
خصم	-13988
دال	-13989
ذنب	-13990
رحم	-13991
زني	-13992
شرك	-13993
صحب	-13994
صفر	-13995
ضحه	-13996
ضوب	-13997
طعا	-13998
ظرا	-13999
علا	-14000
ففة	-14001
قتك	-14002
قطه	-14003
كاك	-14004
مرت	-14005
نطة	-14006
هية	-14007
ويق	-14008
▁قو	-14009
▁يذ	-14010
الهم	-14011
جنبه	-14012
حدهم	-14013
دليس	-14014
دمته	-14015
رفات	-14016
شارك	-14017
ضعفه	-14018
ضمون	-14019
ظنون	-14020
عاده	-14021
عدية	-14022
عراض	-14023
غاله	-14024
غليب	-14025
مالا	-14026
هلها	-14027
وارج	-14028
وقها	-14029
وينا	-14030
يصاء	-14031
▁أصم	-14032
▁أكر	-14033
▁أمك	-14034
▁أنف	-14035
▁إثر	-14036
▁بتس	-14037
▁تحض	-14038
▁تسن	-14039
▁تصر	-14040
▁تفق	-14041
▁ثيب	-14042
▁جبة	-14043
▁جزئ	-14044
▁جسم	-14045
▁حبا	-14046
▁حيي	-14047
▁خطا	-14048
▁خيط	-14049
▁دلس	-14050
▁شاب	-14051
▁شطر	-14052
▁شكه	-14053
▁ضده	-14054
▁عده	-14055
▁عمت	-14056
▁فجل	-14057
▁فوط	-14058
▁فيخ	-14059
▁كائ	-14060
▁كحر	-14061
▁كفن	-14062
▁لحج	-14063
▁لون	-14064
▁مطا	-14065
▁مكس	-14066
▁نوح	-14067
▁هتك	-14068
▁هجر	-14069
▁هرب	-14070
▁وغر	-14071
▁ولإ	-14072
▁يتب	-14073
▁يتر	-14074
▁يجل	-14075
▁يحك	-14076
▁يخر	-14077
▁يرق	-14078
▁يغل	-14079
باعية	-14080
تلافه	-14081
ريقين	-14082
صابته	-14083
لامهم	-14084
مانته	-14085
هادات	-14086
▁أنفذ	-14087
▁أوتر	-14088
▁أيدي	-14089
▁أيمن	-14090
▁اجعل	-14091
▁الجذ	-14092
▁العش	-14093
▁القص	-14094
▁بحيض	-14095
▁بزوج	-14096
▁بقذف	-14097
▁تتبع	-14098
▁تدري	-14099
▁تصلي	-14100
▁تعول	-14101
▁تقبض	-14102
▁حلية	-14103
▁حنفي	-14104
▁حنين	-14105
▁خبزا	-14106
▁خلفا	-14107
▁خوفه	-14108
▁دخله	-14109
▁دعوا	-14110
▁ربيع	-14111
▁رطلا	-14112
▁شراح	-14113
▁شعرا	-14114
▁شغله	-14115
▁شمله	-14116
▁صبغه	-14117
▁عدال	-14118
▁عرصة	-14119
▁عسره	-14120
▁عضوا	-14121
▁علقت	-14122
▁عيني	-14123
▁غرما	-14124
▁فحضر	-14125
▁فعفا	-14126
▁فقسم	-14127
▁فليق	-14128
▁فمسح	-14129
▁فيقر	-14130
▁فيكم	-14131
▁قنية	-14132
▁كيلا	-14133
▁لبيع	-14134
▁لغوا	-14135
▁للبر	-14136
▁متلف	-14137
▁مستع	-14138
▁مفصل	-14139
▁منفذ	-14140
▁همزة	-14141
▁واقف	-14142
▁وامت	-14143
▁وبنو	-14144
▁وخوف	-14145
▁ودون	-14146
▁وسعد	-14147
▁وشيء	-14148
▁وطئا	-14149
▁وعده	-14150
▁وقرب	-14151
▁وليا	-14152
▁ونذر	-14153
▁ونهى	-14154
▁وهبة	-14155
▁وهيب	-14156
▁ويتأ	-14157
▁ويحد	-14158
▁ويصل	-14159
▁وينت	-14160
▁يدعه	-14161
▁يدين	-14162
▁يرتد	-14163
▁يرخص	-14164
▁يروى	-14165
▁يستأ	-14166
▁يستس	-14167
▁يكسر	-14168
▁يوتر	-14169
التزام	-14170
▁أبوها	-14171
▁أخيها	-14172
▁أدركت	-14173
▁أزواج	-14174
▁أسقطه	-14175
▁أعيان	-14176
▁ألقاه	-14177
▁أمامه	-14178
▁أنفقت	-14179
▁أوائل	-14180
▁أيجوز	-14181
▁إجابة	-14182
▁إشعار	-14183
▁إفراد	-14184
▁ابنين	-14185
▁اتصال	-14186
▁اتفاق	-14187
▁ارتكب	-14188
▁اشترك	-14189
▁البغي	-14190
▁البيض	-14191
▁الجرم	-14192
▁الحوض	-14193
▁السرة	-14194
▁الشبه	-14195
▁الشيب	-14196
▁الصاع	-14197
▁المبا	-14198
▁المتر	-14199
▁المحب	-14200
▁المرأ	-14201
▁انظره	-14202
▁بأدنى	-14203
▁بأهله	-14204
▁بالإح	-14205
▁بالبا	-14206
▁بالحل	-14207
▁بتصرف	-14208
▁بصورة	-14209
▁بعدمه	-14210
▁بفساد	-14211
▁بقبول	-14212
▁بقربه	-14213
▁بكثير	-14214
▁بكذبه	-14215
▁بكسبه	-14216
▁بلعان	-14217
▁بلفظه	-14218
▁بمحرم	-14219
▁بمسلم	-14220
▁بمعين	-14221
▁بوصية	-14222
▁تخالف	-14223
▁تذكره	-14224
▁ترجمة	-14225
▁ثمرته	-14226
▁ثوابه	-14227
▁دخلها	-14228
▁ديانة	-14229
▁ذكاته	-14230
▁زوجتي	-14231
▁سرقته	-14232
▁شافعي	-14233
▁شاهده	-14234
▁صرفها	-14235
▁ضياعه	-14236
▁طويلا	-14237
▁عبيدي	-14238
▁عظيمة	-14239
▁عقرها	-14240
▁فأقبل	-14241
▁فأوصى	-14242
▁فالله	-14243
▁فبانت	-14244
▁فتوضأ	-14245
▁فربما	-14246
▁فشيئا	-14247
▁فعلوا	-14248
▁فيجري	-14249
▁قاضيا	-14250
▁قسامة	-14251
▁قلعها	-14252
▁قميصا	-14253
▁كثيره	-14254
▁كيسان	-14255
▁لأداء	-14256
▁لبائع	-14257
▁لحمها	-14258
▁للحفظ	-14259
▁للفرق	-14260
▁مأموم	-14261
▁محذور	-14262
▁مستند	-14263
▁ملازم	-14264
▁مميزة	-14265
▁منسوب	-14266
▁منعهم	-14267
▁موجبة	-14268
▁وأجمع	-14269
▁وأنتم	-14270
▁واستن	-14271
▁واسمه	-14272
▁وتثبت	-14273
▁وتجوز	-14274
▁وتسلم	-14275
▁وتسمى	-14276
▁وتعتد	-14277
▁وثلثي	-14278
▁وجمعه	-14279
▁وردها	-14280
▁وزكاة	-14281
▁وسبعة	-14282
▁وسقوط	-14283
▁وصفته	-14284
▁وقفها	-14285
▁وقوفه	-14286
▁وكالة	-14287
▁وكلما	-14288
▁ولزوم	-14289
▁ومدبر	-14290
▁وولدت	-14291
▁ويجلس	-14292
▁ويخير	-14293
▁ويرفع	-14294
▁ويعزر	-14295
▁ويقاس	-14296
▁يراعى	-14297
▁يصيبه	-14298
▁يفديه	-14299
▁يلاعن	-14300
▁يلبسه	-14301
▁ينبني	-14302
▁أصابها	-14303
▁أعتقتك	-14304
▁أفراده	-14305
▁أمرهما	-14306
▁أولدها	-14307
▁إتمامه	-14308
▁اختارت	-14309
▁اعتماد	-14310
▁التتمة	-14311
▁التلذذ	-14312
▁الخالة	-14313
▁الخلطة	-14314
▁الخليل	-14315
▁الخميس	-14316
▁الدقيق	-14317
▁الرجعي	-14318
▁الشاعر	-14319
▁الشيوع	-14320
▁الضابط	-14321
▁العصير	-14322
▁الكريم	-14323
▁الكلية	-14324
▁المائع	-14325
▁المثنى	-14326
▁المجوس	-14327
▁المحلل	-14328
▁المصري	-14329
▁الممسك	-14330
▁المنفي	-14331
▁الهندي	-14332
▁انتفاع	-14333
▁بإجماع	-14334
▁بإزالة	-14335
▁بالفاء	-14336
▁بالليل	-14337
▁ببراءة	-14338
▁بتحريم	-14339
▁بحسابه	-14340
▁بسماوي	-14341
▁بشرائه	-14342
▁بعشرين	-14343
▁تصادقا	-14344
▁تضمينه	-14345
▁تقريره	-14346
▁تملكها	-14347
▁تمليكا	-14348
▁تنازعا	-14349
▁ثمانون	-14350
▁عدوانا	-14351
▁فزوجها	-14352
▁فسألته	-14353
▁فيأخذه	-14354
▁فيتعلق	-14355
▁كالرجل	-14356
▁لبائعه	-14357
▁لجهالة	-14358
▁للتصرف	-14359
▁للحرمة	-14360
▁للصغير	-14361
▁للغالب	-14362
▁للقضاء	-14363
▁للقيام	-14364
▁للمحرم	-14365
▁للمدعى	-14366
▁للنفقة	-14367
▁ليشتري	-14368
▁مؤاخذة	-14369
▁مجوسية	-14370
▁محجوره	-14371
▁مطلوبة	-14372
▁معتقدا	-14373
▁موضعها	-14374
▁نفقتهم	-14375
▁وأبوين	-14376
▁وإسحاق	-14377
▁والأكل	-14378
▁والابن	-14379
▁والدية	-14380
▁والرأس	-14381
▁والسعي	-14382
▁والطهر	-14383
▁والعرف	-14384
▁والعقل	-14385
▁والغلة	-14386
▁والغنم	-14387
▁واليوم	-14388
▁وقياسه	-14389
▁يذكرها	-14390
▁يستعين	-14391
▁يمنعها	-14392
▁إسلامها	-14393
▁اختصاصه	-14394
▁الألفين	-14395
▁الأوصاف	-14396
▁الإصلاح	-14397
▁الإضرار	-14398
▁الإفطار	-14399
▁الإنزال	-14400
▁البادية	-14401
▁التحتية	-14402
▁التخلية	-14403
▁التعميم	-14404
▁الحاصلة	-14405
▁الحاضرة	-14406
▁الدميري	-14407
▁الرضاعة	-14408
▁الشافعى	-14409
▁العداوة	-14410
▁العمامة	-14411
▁الكناية	-14412
▁المباشر	-14413
▁المتعين	-14414
▁المتوضئ	-14415
▁المجتبى	-14416
▁المخصوص	-14417
▁المقسوم	-14418
▁انفراده	-14419
▁انفصاله	-14420
▁انقطاعه	-14421
▁بالقرآن	-14422
▁بثمانية	-14423
▁تنبيهات	-14424
▁فإقراره	-14425
▁فالواجب	-14426
▁قيمتهما	-14427
▁لاشتراط	-14428
▁والحربي	-14429
▁والخلاف	-14430
▁والرابع	-14431
▁والراجح	-14432
▁والضمان	-14433
▁والعامل	-14434
▁والمروة	-14435
▁والموصى	-14436
▁والنساء	-14437
▁وثمانين	-14438
▁وقيمتها	-14439
▁الاحتلام	-14440
▁المحققين	-14441
▁المرفقين	-14442
▁المشركون	-14443
▁بالإضافة	-14444
▁فللمشتري	-14445
▁والثالثة	-14446
▁وامرأتان	-14447
ءا	-14448
ئز	-14449
ثق	-14450
سح	-14451
شع	-14452
عز	-14453
ئتي	-14454
افة	-14455
امح	-14456
بوع	-14457
تاج	-14458
تمه	-14459
ثاء	-14460
جمع	-14461
ذني	-14462
ريش	-14463
سرة	-14464
سنة	-14465
سور	-14466
سية	-14467
ظمه	-14468
فلا	-14469
قاذ	-14470
قمة	-14471
نعا	-14472
نوب	-14473
نيف	-14474
هلك	-14475
ياخ	-14476
▁جب	-14477
▁نط	-14478
أخوذ	-14479
بنها	-14480
بيبا	-14481
تقيد	-14482
جمية	-14483
خفيف	-14484
داها	-14485
دعوة	-14486
ذهبي	-14487
زارع	-14488
ضعيف	-14489
طعمة	-14490
ظاره	-14491
عانه	-14492
عتان	-14493
فتيه	-14494
فسدة	-14495
قصان	-14496
قطعه	-14497
كامل	-14498
همال	-14499
وضوع	-14500
ومات	-14501
يثية	-14502
يفية	-14503
يلته	-14504
▁آثر	-14505
▁آفة	-14506
▁أطا	-14507
▁أكن	-14508
▁بجل	-14509
▁بعق	-14510
▁بيا	-14511
▁تها	-14512
▁تيق	-14513
▁جذع	-14514
▁جمح	-14515
▁حاض	-14516
▁حرق	-14517
▁حصص	-14518
▁خصه	-14519
▁رجم	-14520
▁رعي	-14521
▁ساد	-14522
▁سمن	-14523
▁صلت	-14524
▁طرو	-14525
▁عبق	-14526
▁عرا	-14527
▁فاب	-14528
▁فخر	-14529
▁فرخ	-14530
▁كرر	-14531
▁كنز	-14532
▁لمت	-14533
▁مبن	-14534
▁نصح	-14535
▁وإذ	-14536
▁وذو	-14537
▁وفت	-14538
ؤمنين	-14539
بنتين	-14540
شارته	-14541
طابقة	-14542
عرانة	-14543
قبلها	-14544
لاتين	-14545
يفائه	-14546
▁آنية	-14547
▁أبوا	-14548
▁أحوط	-14549
▁أرشه	-14550
▁أكذب	-14551
▁أكلم	-14552
▁أوفى	-14553
▁إياس	-14554
▁استن	-14555
▁الإج	-14556
▁الإد	-14557
▁الذى	-14558
▁الشت	-14559
▁بأرش	-14560
▁بتلف	-14561
▁بستة	-14562
▁بنسب	-14563
▁بوصف	-14564
▁بيني	-14565
▁تأمر	-14566
▁تحسب	-14567
▁تخفي	-14568
▁تدعو	-14569
▁تعدل	-14570
▁تقام	-14571
▁توضي	-14572
▁جحده	-14573
▁جلده	-14574
▁جنبه	-14575
▁جهلت	-14576
▁حسبة	-14577
▁حينه	-14578
▁دخلا	-14579
▁دماء	-14580
▁دينك	-14581
▁ذمية	-14582
▁رأسك	-14583
▁رجعي	-14584
▁رفعت	-14585
▁رميه	-14586
▁ريبة	-14587
▁ريحه	-14588
▁سترا	-14589
▁سعيه	-14590
▁سلما	-14591
▁سنده	-14592
▁سوقه	-14593
▁شركا	-14594
▁شفاء	-14595
▁صرفا	-14596
▁ضيعة	-14597
▁طبيب	-14598
▁طرفا	-14599
▁عسكر	-14600
▁عشرا	-14601
▁غارم	-14602
▁غرسه	-14603
▁غسان	-14604
▁غسلا	-14605
▁فأرض	-14606
▁فأهل	-14607
▁فاخت	-14608
▁فالغ	-14609
▁فرقا	-14610
▁فزال	-14611
▁فطرة	-14612
▁قربت	-14613
▁كالق	-14614
▁كتبت	-14615
▁كعدم	-14616
▁كمثل	-14617
▁كهبة	-14618
▁كيله	-14619
▁لبني	-14620
▁لزفر	-14621
▁لسيد	-14622
▁لصدق	-14623
▁لصير	-14624
▁للمؤ	-14625
▁للما	-14626
▁لنية	-14627
▁متفا	-14628
▁مثبت	-14629
▁مثلي	-14630
▁مضار	-14631
▁معدن	-14632
▁مقصر	-14633
▁مكثه	-14634
▁مكرر	-14635
▁مليا	-14636
▁مودع	-14637
▁نحاس	-14638
▁نصها	-14639
▁نكلت	-14640
▁نويت	-14641
▁والظ	-14642
▁وتسع	-14643
▁وجلس	-14644
▁وحال	-14645
▁وفضل	-14646
▁وليح	-14647
▁وممن	-14648
▁ومنا	-14649
▁يتسا	-14650
▁يجيب	-14651
▁يحال	-14652
▁يختم	-14653
▁يصبح	-14654
▁يضحي	-14655
▁يضعف	-14656
▁يطرح	-14657
▁يطيب	-14658
▁يكفن	-14659
▁يمهل	-14660
▁آدميا	-14661
▁أحرمت	-14662
▁أخذوا	-14663
▁أذانه	-14664
▁أسفله	-14665
▁أصبحت	-14666
▁أعطيه	-14667
▁أقاما	-14668
▁ألحقه	-14669
▁أوقات	-14670
▁إخوته	-14671
▁إصابة	-14672
▁إفادة	-14673
▁إلغاء	-14674
▁إلقاء	-14675
▁إمساك	-14676
▁اتباع	-14677
▁اكتفى	-14678
▁الأسر	-14679
▁البرد	-14680
▁الحية	-14681
▁الدهن	-14682
▁السطح	-14683
▁السلب	-14684
▁السلع	-14685
▁الطين	-14686
▁الغزي	-14687
▁القوت	-14688
▁القوي	-14689
▁القيء	-14690
▁الملي	-14691
▁المنق	-14692
▁الهمز	-14693
▁الورع	-14694
▁بأكله	-14695
▁بإمام	-14696
▁بالبر	-14697
▁بالدم	-14698
▁بتفري	-14699
▁بجنسه	-14700
▁بحكمه	-14701
▁بقرعة	-14702
▁بنيته	-14703
▁تبينا	-14704
▁تتغير	-14705
▁تلاوة	-14706
▁تنزيه	-14707
▁جوزنا	-14708
▁حانوت	-14709
▁حمارا	-14710
▁خاتما	-14711
▁ذريعة	-14712
▁رأينا	-14713
▁رجالا	-14714
▁سفيها	-14715
▁سلمنا	-14716
▁شبهته	-14717
▁شقيقة	-14718
▁صحابي	-14719
▁طلقني	-14720
▁عالمة	-14721
▁عربية	-14722
▁غاصبا	-14723
▁فأبرأ	-14724
▁فأدخل	-14725
▁فاختص	-14726
▁فاضلا	-14727
▁فالمس	-14728
▁فتزوج	-14729
▁فدفعه	-14730
▁فليقل	-14731
▁فماله	-14732
▁فيبدأ	-14733
▁فيبرأ	-14734
▁قبلنا	-14735
▁قتلهم	-14736
▁كشراء	-14737
▁لتقدم	-14738
▁لدينه	-14739
▁للبعض	-14740
▁للخمي	-14741
▁للشرب	-14742
▁للعذر	-14743
▁للعلة	-14744
▁للقول	-14745
▁مبيعا	-14746
▁مدبرة	-14747
▁مدرسة	-14748
▁مشتمل	-14749
▁مقدور	-14750
▁ملبوس	-14751
▁مولاة	-14752
▁نسيئة	-14753
▁نعلمه	-14754
▁نقوله	-14755
▁وأجبر	-14756
▁وأدخل	-14757
▁وأعاد	-14758
▁وأعطى	-14759
▁واتفق	-14760
▁والخا	-14761
▁وبالج	-14762
▁وتبقى	-14763
▁وتعول	-14764
▁ودفعه	-14765
▁وصوبه	-14766
▁وضمنه	-14767
▁وغاية	-14768
▁ولعمر	-14769
▁ولغير	-14770
▁ونسبه	-14771
▁ويحبس	-14772
▁ويصلى	-14773
▁ويفعل	-14774
▁يتبعض	-14775
▁يخبره	-14776
▁يسقطه	-14777
▁يفترق	-14778
▁يكتسب	-14779
▁يكذبه	-14780
▁ينقصه	-14781
نبلالية	-14782
▁أبانها	-14783
▁أخماسا	-14784
▁إباحته	-14785
▁إبطاله	-14786
▁إعساره	-14787
▁استغنى	-14788
▁اشترطا	-14789
▁اكتفاء	-14790
▁التجار	-14791
▁التوجه	-14792
▁الجراد	-14793
▁الحكمي	-14794
▁الخصوص	-14795
▁الرءوس	-14796
▁الرخصة	-14797
▁العيني	-14798
▁القاضى	-14799
▁الكائن	-14800
▁الكفين	-14801
▁الكلاب	-14802
▁المخيط	-14803
▁المزكى	-14804
▁المعرف	-14805
▁المقيم	-14806
▁انتهاء	-14807
▁بإجارة	-14808
▁بإقامة	-14809
▁بالأرش	-14810
▁بالسفر	-14811
▁بالمعا	-14812
▁بالنفس	-14813
▁بالهدي	-14814
▁ببلوغه	-14815
▁بدارنا	-14816
▁بدعواه	-14817
▁بمحذوف	-14818
▁بنكوله	-14819
▁تساويا	-14820
▁تعريفه	-14821
▁ثمرتها	-14822
▁جوازها	-14823
▁راحلته	-14824
▁سجدتين	-14825
▁ظاهرها	-14826
▁فارقها	-14827
▁فسيأتي	-14828
▁فظاهره	-14829
▁فلأنها	-14830
▁فولاؤه	-14831
▁كالاست	-14832
▁كمسألة	-14833
▁للأجير	-14834
▁للشريك	-14835
▁للضمان	-14836
▁لمنفعة	-14837
▁لنفسها	-14838
▁متطهرا	-14839
▁محترزه	-14840
▁مستغرق	-14841
▁مشتريا	-14842
▁مصالحه	-14843
▁معارضة	-14844
▁معروفة	-14845
▁موصولا	-14846
▁ميمونة	-14847
▁وأخذها	-14848
▁وإقامة	-14849
▁والاحت	-14850
▁والذمي	-14851
▁والربح	-14852
▁والعشر	-14853
▁والفرع	-14854
▁والمنع	-14855
▁والموت	-14856
▁وانقطع	-14857
▁وبعضها	-14858
▁وبنتها	-14859
▁وجوابه	-14860
▁وكانوا	-14861
▁ولكنها	-14862
▁ومكاتب	-14863
▁ويختلف	-14864
▁يتبادر	-14865
▁يحملها	-14866
▁يدخلها	-14867
▁يستدعي	-14868
▁يستغفر	-14869
▁يستوفى	-14870
▁يعارضه	-14871
▁إعادتها	-14872
▁الأحرار	-14873
▁التأبيد	-14874
▁التأجيل	-14875
▁التخريج	-14876
▁التضمين	-14877
▁التفريع	-14878
▁التلخيص	-14879
▁التنازع	-14880
▁الحيازة	-14881
▁الخطابي	-14882
▁الخوارج	-14883
▁الخياطة	-14884
▁العينين	-14885
▁الفائدة	-14886
▁القاموس	-14887
▁الكثيرة	-14888
▁الماضية	-14889
▁المتصلة	-14890
▁المنفرد	-14891
▁النقدين	-14892
▁الواقدي	-14893
▁بالسلام	-14894
▁بالطريق	-14895
▁بالمرأة	-14896
▁بالنكول	-14897
▁بطلاقها	-14898
▁عاشوراء	-14899
▁فالمذهب	-14900
▁فتزوجها	-14901
▁للمسافر	-14902
▁مستهلكا	-14903
▁منفعتها	-14904
▁موافقته	-14905
▁نصرانيا	-14906
▁والحرية	-14907
▁والسجود	-14908
▁والعشاء	-14909
▁والقدرة	-14910
▁والمحرم	-14911
▁والمكان	-14912
▁وبالعكس	-14913
▁يشتريها	-14914
▁استبرأها	-14915
▁استحبابا	-14916
▁استولدها	-14917
▁الأعرابي	-14918
▁الأغنياء	-14919
▁الأوزاعي	-14920
▁الأوليين	-14921
▁الاعتدال	-14922
▁الالتقاط	-14923
▁الانفساخ	-14924
▁الحاضرين	-14925
▁المبادرة	-14926
▁المتعارف	-14927
▁المجوسية	-14928
▁المساواة	-14929
▁المشهورة	-14930
▁المعارضة	-14931
▁المفردات	-14932
▁الموافقة	-14933
▁الوصيتين	-14934
▁باستيفاء	-14935
▁متتابعين	-14936
▁والتدبير	-14937
▁والمقصود	-14938
▁والطبراني	-14939
حف	-14940
زت	-14941
صع	-14942
صى	-14943
غى	-14944
ألك	-14945
ؤكم	-14946
ئلا	-14947
اءه	-14948
اتر	-14949
ادا	-14950
افه	-14951
الع	-14952
ثور	-14953
جبه	-14954
جهز	-14955
دلة	-14956
دمت	-14957
دون	-14958
ذبة	-14959
راث	-14960
سات	-14961
سيل	-14962
طاة	-14963
طته	-14964
عرف	-14965
فاض	-14966
فرت	-14967
كاب	-14968
مون	-14969
نعه	-14970
نوا	-14971
وحش	-14972
وشب	-14973
وطن	-14974
يأس	-14975
يعا	-14976
▁اغ	-14977
▁زي	-14978
▁ضل	-14979
▁لى	-14980
▁مآ	-14981
ائبة	-14982
ابعه	-14983
ابلا	-14984
اتبه	-14985
احمة	-14986
باسه	-14987
تهنه	-14988
ثبته	-14989
خاطب	-14990
ذكور	-14991
راؤه	-14992
زعها	-14993
زوجك	-14994
سببه	-14995
شكله	-14996
شيئة	-14997
صباء	-14998
ضاعت	-14999
ضرره	-15000
طهير	-15001
عتمر	-15002
عداد	-15003
فارة	-15004
فاقه	-15005
فصال	-15006
لتان	-15007
مرته	-15008
ودها	-15009
وضحه	-15010
يطان	-15011
يفته	-15012
يناه	-15013
▁أعز	-15014
▁أكت	-15015
▁تزد	-15016
▁تشا	-15017
▁تعظ	-15018
▁حضت	-15019
▁خلو	-15020
▁داء	-15021
▁درس	-15022
▁دود	-15023
▁ذرة	-15024
▁سلك	-15025
▁غره	-15026
▁غفل	-15027
▁فأخ	-15028
▁فسم	-15029
▁قلن	-15030
▁لإح	-15031
▁لعد	-15032
▁لقب	-15033
▁مبع	-15034
▁متك	-15035
▁محد	-15036
▁وأو	-15037
▁وبك	-15038
▁وتب	-15039
▁وخذ	-15040
▁ودا	-15041
▁وسد	-15042
▁ووط	-15043
▁يؤم	-15044
▁يري	-15045
انيها	-15046
بهيمة	-15047
تابعة	-15048
تابية	-15049
جيرمي	-15050
ختيار	-15051
دخاله	-15052
راويل	-15053
عطائه	-15054
ولاها	-15055
يانهم	-15056
▁أجده	-15057
▁أخاف	-15058
▁أسأل	-15059
▁أسنى	-15060
▁أعجب	-15061
▁أقوم	-15062
▁أمري	-15063
▁اتهم	-15064
▁اقتل	-15065
▁البط	-15066
▁التط	-15067
▁الصك	-15068
▁الصي	-15069
▁القم	-15070
▁الوح	-15071
▁ببدن	-15072
▁ببطن	-15073
▁بجرح	-15074
▁بحبس	-15075
▁بركة	-15076
▁بسفر	-15077
▁بسفه	-15078
▁بصير	-15079
▁بطرف	-15080
▁بكفر	-15081
▁تؤثر	-15082
▁تجرد	-15083
▁تحية	-15084
▁تذبح	-15085
▁ترضع	-15086
▁تطيب	-15087
▁تكتب	-15088
▁تكفل	-15089
▁تنكر	-15090
▁جاحد	-15091
▁جبرا	-15092
▁جبره	-15093
▁حرزا	-15094
▁حشفة	-15095
▁حضرت	-15096
▁حكمي	-15097
▁حليا	-15098
▁حوشب	-15099
▁خلطه	-15100
▁دائم	-15101
▁ديني	-15102
▁رأسي	-15103
▁ربوي	-15104
▁زرعا	-15105
▁سائل	-15106
▁سرقه	-15107
▁سيئة	-15108
▁شكرا	-15109
▁شيخه	-15110
▁صلوا	-15111
▁طولب	-15112
▁طوله	-15113
▁طيبا	-15114
▁عتاب	-15115
▁عدته	-15116
▁عدمت	-15117
▁عرضت	-15118
▁عقيب	-15119
▁غنما	-15120
▁غيري	-15121
▁فتحل	-15122
▁فتست	-15123
▁فزوج	-15124
▁فليل	-15125
▁فملك	-15126
▁فهدر	-15127
▁قارن	-15128
▁قبلة	-15129
▁قدرت	-15130
▁قشره	-15131
▁قصره	-15132
▁كالا	-15133
▁كذبا	-15134
▁كسره	-15135
▁لبنت	-15136
▁لحجر	-15137
▁لحفظ	-15138
▁لشهر	-15139
▁لضيق	-15140
▁لعتق	-15141
▁لقمة	-15142
▁لقيه	-15143
▁لمسا	-15144
▁لمكة	-15145
▁ماذا	-15146
▁محشي	-15147
▁محضر	-15148
▁مريد	-15149
▁مسند	-15150
▁مصيب	-15151
▁مصير	-15152
▁معتك	-15153
▁معفو	-15154
▁مقيم	-15155
▁مكاف	-15156
▁مهلك	-15157
▁مهنا	-15158
▁نذرت	-15159
▁نسيت	-15160
▁نكرة	-15161
▁وباط	-15162
▁وبدل	-15163
▁وتبع	-15164
▁وجدا	-15165
▁وحبس	-15166
▁وخاف	-15167
▁وخير	-15168
▁وسهم	-15169
▁وضعا	-15170
▁وضعف	-15171
▁وعاء	-15172
▁وغاب	-15173
▁وفار	-15174
▁وللث	-15175
▁وللش	-15176
▁ومعي	-15177
▁وموا	-15178
▁ونسي	-15179
▁ووطء	-15180
▁ويحت	-15181
▁ويسر	-15182
▁يؤذي	-15183
▁ياسر	-15184
▁يبول	-15185
▁يثني	-15186
▁يخمس	-15187
▁يدلك	-15188
▁يرعى	-15189
▁يصبر	-15190
▁يعاد	-15191
▁يعزل	-15192
▁يعظم	-15193
▁يعفو	-15194
▁ينبه	-15195
راجعها	-15196
صرانية	-15197
▁أتساع	-15198
▁أخذنا	-15199
▁أخذوه	-15200
▁أسلمه	-15201
▁أشبهه	-15202
▁أصلية	-15203
▁أعرفه	-15204
▁أمارة	-15205
▁أمرتك	-15206
▁أنزلت	-15207
▁أودعه	-15208
▁إبدال	-15209
▁إرسال	-15210
▁إضرار	-15211
▁إيفاء	-15212
▁استحل	-15213
▁الخطر	-15214
▁الرائ	-15215
▁الزاي	-15216
▁السعر	-15217
▁الشعب	-15218
▁العما	-15219
▁المرج	-15220
▁المغا	-15221
▁الهرم	-15222
▁الوحي	-15223
▁انقلب	-15224
▁بأقرب	-15225
▁بإزاء	-15226
▁بالحا	-15227
▁بحضور	-15228
▁برهان	-15229
▁بسائر	-15230
▁بشران	-15231
▁بصريح	-15232
▁بعبده	-15233
▁بعتكه	-15234
▁بقتال	-15235
▁بقولي	-15236
▁بمؤجل	-15237
▁بمحله	-15238
▁بناؤه	-15239
▁بنحوه	-15240
▁تحديد	-15241
▁تحمله	-15242
▁تصدقت	-15243
▁تضمنه	-15244
▁تعلمه	-15245
▁تعمدت	-15246
▁تفضيل	-15247
▁تقويم	-15248
▁ثنتان	-15249
▁جراحة	-15250
▁حواشي	-15251
▁حولها	-15252
▁خديجة	-15253
▁رضاعا	-15254
▁زوجات	-15255
▁سافرت	-15256
▁سبعون	-15257
▁سراية	-15258
▁شائعا	-15259
▁شرطاه	-15260
▁شفقته	-15261
▁شيئان	-15262
▁صريحة	-15263
▁ضيافة	-15264
▁طهرها	-15265
▁عفراء	-15266
▁غائبة	-15267
▁غنائم	-15268
▁فأدرك	-15269
▁فأصبح	-15270
▁فأطلق	-15271
▁فتنبه	-15272
▁فرأيت	-15273
▁فقياس	-15274
▁فهلكت	-15275
▁فيغسل	-15276
▁فيمكن	-15277
▁قائله	-15278
▁قالها	-15279
▁قررته	-15280
▁قلابة	-15281
▁كالمد	-15282
▁كلمات	-15283
▁لسهوه	-15284
▁لمحمد	-15285
▁لنقصه	-15286
▁لنكاح	-15287
▁لوليه	-15288
▁ليحصل	-15289
▁ليدخل	-15290
▁ليعمل	-15291
▁مأمنه	-15292
▁مائتا	-15293
▁مبنيا	-15294
▁متطوع	-15295
▁متعدد	-15296
▁متلفا	-15297
▁متمول	-15298
▁مجتمع	-15299
▁مخيرا	-15300
▁مرتبط	-15301
▁مرتفع	-15302
▁مريضة	-15303
▁معتقة	-15304
▁معجمة	-15305
▁مغاير	-15306
▁مغلظة	-15307
▁مفروض	-15308
▁مقبرة	-15309
▁مقبوض	-15310
▁مقصده	-15311
▁مكفول	-15312
▁منكرا	-15313
▁مهران	-15314
▁نبينا	-15315
▁نسخته	-15316
▁وأقله	-15317
▁والقص	-15318
▁وبالإ	-15319
▁وتؤخذ	-15320
▁وتعلق	-15321
▁وتعين	-15322
▁وجعلت	-15323
▁وسمعت	-15324
▁وضمير	-15325
▁وعندي	-15326
▁وفرعه	-15327
▁وقبول	-15328
▁ولأجل	-15329
▁وللجد	-15330
▁ونصفا	-15331
▁ووارث	-15332
▁وورثه	-15333
▁ويأكل	-15334
▁ويأمر	-15335
▁ويبدأ	-15336
▁ويشبه	-15337
▁ويطلق	-15338
▁ويوقف	-15339
▁يؤيده	-15340
▁يتجدد	-15341
▁يخاصم	-15342
▁يسيرة	-15343
▁يعزله	-15344
▁يقترن	-15345
▁يمسها	-15346
▁أبرأتك	-15347
▁أجزائه	-15348
▁أرباعه	-15349
▁أزواجه	-15350
▁أسنانه	-15351
▁أطلقوه	-15352
▁أظفاره	-15353
▁أعتقته	-15354
▁أقامها	-15355
▁أولادي	-15356
▁أولهما	-15357
▁اجتمعت	-15358
▁استشهد	-15359
▁اصطلاح	-15360
▁الأبيض	-15361
▁الأدنى	-15362
▁الأشبه	-15363
▁الأغلب	-15364
▁الأنسب	-15365
▁الإزار	-15366
▁البياض	-15367
▁التأمل	-15368
▁التحرم	-15369
▁التحية	-15370
▁التعلم	-15371
▁الجانب	-15372
▁الجبار	-15373
▁الخاتم	-15374
▁الخلاء	-15375
▁الذنوب	-15376
▁الرحيم	-15377
▁الساتر	-15378
▁السرية	-15379
▁السنين	-15380
▁الطائف	-15381
▁العنان	-15382
▁القضية	-15383
▁القلوب	-15384
▁الكبار	-15385
▁المبدل	-15386
▁المبهم	-15387
▁المحلة	-15388
▁المعطي	-15389
▁المعية	-15390
▁النخلة	-15391
▁امتنعت	-15392
▁بإخراج	-15393
▁بإذنها	-15394
▁بالسبب	-15395
▁بالسنة	-15396
▁بجوازه	-15397
▁بحركته	-15398
▁بسببها	-15399
▁بمعرفة	-15400
▁بمقدار	-15401
▁بمنفعة	-15402
▁بوجوبه	-15403
▁تزويجه	-15404
▁تعارضت	-15405
▁توضيحه	-15406
▁توليته	-15407
▁جاريته	-15408
▁جنينها	-15409
▁ذكرهما	-15410
▁زوالها	-15411
▁شارحنا	-15412
▁فالدية	-15413
▁فانصرف	-15414
▁فعلهما	-15415
▁فليحفظ	-15416
▁قلنسوة	-15417
▁كالدين	-15418
▁كالولد	-15419
▁كراهته	-15420
▁لاتحاد	-15421
▁لغيرهم	-15422
▁للتهمة	-15423
▁للحالف	-15424
▁للطالب	-15425
▁لليتيم	-15426
▁متابعة	-15427
▁متعددا	-15428
▁محتاجا	-15429
▁مستعير	-15430
▁مستغنى	-15431
▁مشروعة	-15432
▁مضروبا	-15433
▁مقبولة	-15434
▁ممنوعا	-15435
▁منافاة	-15436
▁مندوبا	-15437
▁منكوحة	-15438
▁وإزالة	-15439
▁والديه	-15440
▁والقرض	-15441
▁والكسب	-15442
▁واللبن	-15443
▁وبعدها	-15444
▁وتركها	-15445
▁وثلثين	-15446
▁وزوجته	-15447
▁وزوجها	-15448
▁وشيخنا	-15449
▁يأتيها	-15450
▁يتغابن	-15451
▁يتفاوت	-15452
▁يدخلون	-15453
▁يستغرق	-15454
▁أثنائها	-15455
▁إقرارها	-15456
▁استباحة	-15457
▁استهلكه	-15458
▁الأسماء	-15459
▁الأعمام	-15460
▁الإزالة	-15461
▁الإفاقة	-15462
▁الإفتاء	-15463
▁البرزلي	-15464
▁التاريخ	-15465
▁التصوير	-15466
▁التعارض	-15467
▁التفويض	-15468
▁التوراة	-15469
▁الحجارة	-15470
▁الحرابة	-15471
▁الدارمي	-15472
▁الرشيدي	-15473
▁الزوائد	-15474
▁السادسة	-15475
▁العبادي	-15476
▁الفضيلة	-15477
▁الفوائد	-15478
▁القدمين	-15479
▁المباحة	-15480
▁المبيعة	-15481
▁المتروك	-15482
▁المحضون	-15483
▁المعذور	-15484
▁المفتين	-15485
▁المناسك	-15486
▁النافلة	-15487
▁اليهودي	-15488
▁بالأشهر	-15489
▁بالإمام	-15490
▁بالتراب	-15491
▁باللعان	-15492
▁بالموجب	-15493
▁فالبينة	-15494
▁فالولاء	-15495
▁قهستاني	-15496
▁للمشهود	-15497
▁للمغصوب	-15498
▁مباشرته	-15499
▁متابعته	-15500
▁متتابعا	-15501
▁معاملته	-15502
▁مفارقته	-15503
▁منافعها	-15504
▁وأحدهما	-15505
▁والبائع	-15506
▁والحالة	-15507
▁والحاوي	-15508
▁والمدعى	-15509
▁الاختصاص	-15510
▁الاصطياد	-15511
▁البينتين	-15512
▁العالمين	-15513
▁المحرمية	-15514
▁المستفاد	-15515
▁الموضعين	-15516
▁بالقراءة	-15517
▁فالمشهور	-15518
▁كالمكاتب	-15519
▁والثلثان	-15520
▁اجتماعهما	-15521
▁الاستحباب	-15522
ثد	-15523
جئ	-15524
خم	-15525
طت	-15526
جية	-15527
حرف	-15528
حوا	-15529
دوا	-15530
ذرة	-15531
راخ	-15532
رفا	-15533
روة	-15534
زجر	-15535
سلف	-15536
شيه	-15537
طاس	-15538
طرو	-15539
ظام	-15540
عدن	-15541
عوا	-15542
غمى	-15543
قطن	-15544
قيع	-15545
ماش	-15546
ماغ	-15547
نتي	-15548
ندي	-15549
همز	-15550
ورك	-15551
ياح	-15552
▁جف	-15553
▁غش	-15554
ابرة	-15555
ابنة	-15556
الغة	-15557
بتان	-15558
بطال	-15559
بليغ	-15560
بيلة	-15561
ثنية	-15562
جاجة	-15563
جراء	-15564
حققه	-15565
خليل	-15566
خوته	-15567
ذورا	-15568
سماه	-15569
صوبا	-15570
ضيلة	-15571
طيفة	-15572
عينه	-15573
غراق	-15574
غروب	-15575
فعها	-15576
فلها	-15577
كسار	-15578
كيله	-15579
لتقط	-15580
مهال	-15581
موله	-15582
نهدم	-15583
والق	-15584
وحيد	-15585
ودعه	-15586
يسار	-15587
▁آبق	-15588
▁أنث	-15589
▁إنى	-15590
▁بتق	-15591
▁بخي	-15592
▁بغل	-15593
▁تشق	-15594
▁تضم	-15595
▁تعب	-15596
▁تلا	-15597
▁توس	-15598
▁جما	-15599
▁حتف	-15600
▁حسي	-15601
▁حلب	-15602
▁خذه	-15603
▁دني	-15604
▁رقا	-15605
▁ريب	-15606
▁سجن	-15607
▁سكة	-15608
▁سني	-15609
▁شبع	-15610
▁صلي	-15611
▁طرد	-15612
▁عسى	-15613
▁غدر	-15614
▁فاء	-15615
▁فدع	-15616
▁قرآ	-15617
▁قرى	-15618
▁قصب	-15619
▁كبد	-15620
▁كدم	-15621
▁كمر	-15622
▁لدى	-15623
▁ليخ	-15624
▁ليص	-15625
▁مطم	-15626
▁مغر	-15627
▁نقب	-15628
▁هوى	-15629
▁وإح	-15630
▁وثق	-15631
▁وحش	-15632
▁وزر	-15633
▁ووث	-15634
▁ووك	-15635
▁ويص	-15636
▁يبل	-15637
▁يذك	-15638
▁يسل	-15639
▁يفد	-15640
امعها	-15641
بنيان	-15642
راحات	-15643
ضافته	-15644
فرقين	-15645
ودهما	-15646
وليين	-15647
يادته	-15648
▁آثار	-15649
▁أصفر	-15650
▁أصوب	-15651
▁أضرب	-15652
▁أعبد	-15653
▁أكلا	-15654
▁أمام	-15655
▁أمهل	-15656
▁أوسع	-15657
▁إردب	-15658
▁اسما	-15659
▁الرم	-15660
▁المب	-15661
▁بآلة	-15662
▁بإرث	-15663
▁بابا	-15664
▁بايع	-15665
▁بخمر	-15666
▁بذبح	-15667
▁برؤه	-15668
▁بعته	-15669
▁بفضة	-15670
▁بنظر	-15671
▁بيتي	-15672
▁تارك	-15673
▁تبدل	-15674
▁تراه	-15675
▁تسعى	-15676
▁تشعر	-15677
▁تغسل	-15678
▁تغلب	-15679
▁تقيم	-15680
▁تكمل	-15681
▁تلفظ	-15682
▁تلقي	-15683
▁تنفي	-15684
▁توسط	-15685
▁ثقات	-15686
▁جلست	-15687
▁جمعت	-15688
▁حرزه	-15689
▁خلقا	-15690
▁ذبيح	-15691
▁رزقه	-15692
▁رقاب	-15693
▁زناه	-15694
▁ساكت	-15695
▁سلطه	-15696
▁سلوك	-15697
▁شفقة	-15698
▁شمول	-15699
▁صفوف	-15700
▁صنيع	-15701
▁صيده	-15702
▁ضمنت	-15703
▁طائر	-15704
▁طارق	-15705
▁طلبا	-15706
▁طهرا	-15707
▁ظفره	-15708
▁عاقد	-15709
▁عدوه	-15710
▁عشره	-15711
▁عمته	-15712
▁فأول	-15713
▁فجلس	-15714
▁فسجد	-15715
▁فعاد	-15716
▁فعدم	-15717
▁فقدر	-15718
▁فقده	-15719
▁فقيه	-15720
▁فكبر	-15721
▁فمهر	-15722
▁فوصل	-15723
▁فيسن	-15724
▁قاذف	-15725
▁قران	-15726
▁كالط	-15727
▁كتفه	-15728
▁كغسل	-15729
▁كلاب	-15730
▁كلمه	-15731
▁كمرض	-15732
▁كوطء	-15733
▁لؤلؤ	-15734
▁لشبه	-15735
▁لعلم	-15736
▁لعنة	-15737
▁لغسل	-15738
▁للقا	-15739
▁لمعا	-15740
▁لنقل	-15741
▁ليصل	-15742
▁ماءه	-15743
▁ماؤه	-15744
▁مخطئ	-15745
▁مرثد	-15746
▁مرجع	-15747
▁مساو	-15748
▁مشرك	-15749
▁معلم	-15750
▁مقول	-15751
▁نبات	-15752
▁نحكم	-15753
▁نفيا	-15754
▁هجرة	-15755
▁هرمز	-15756
▁وآله	-15757
▁وأتت	-15758
▁وأتم	-15759
▁وأتى	-15760
▁وبرئ	-15761
▁وحجة	-15762
▁وربح	-15763
▁وسلف	-15764
▁وسمى	-15765
▁وصله	-15766
▁وعقل	-15767
▁ولحق	-15768
▁ولست	-15769
▁ولير	-15770
▁ومسب	-15771
▁وهدي	-15772
▁ويقر	-15773
▁يتحا	-15774
▁يتضح	-15775
▁يثاب	-15776
▁يجبه	-15777
▁يرجم	-15778
▁يرشد	-15779
▁يرون	-15780
▁يسكت	-15781
▁يضطر	-15782
▁ينطق	-15783
▁ينوه	-15784
بايعين	-15785
جارتها	-15786
حداهما	-15787
▁آخرون	-15788
▁أتمها	-15789
▁أثبته	-15790
▁أجناس	-15791
▁أرشها	-15792
▁أصابت	-15793
▁أواخر	-15794
▁أورده	-15795
▁اتخذه	-15796
▁اجتهد	-15797
▁استهل	-15798
▁اعتكف	-15799
▁الأبي	-15800
▁الامت	-15801
▁التاب	-15802
▁التطل	-15803
▁التفت	-15804
▁الجوف	-15805
▁الحرج	-15806
▁الحصة	-15807
▁الحطب	-15808
▁الخبث	-15809
▁الخفي	-15810
▁الدرر	-15811
▁الرسم	-15812
▁السكة	-15813
▁الشفع	-15814
▁الفرد	-15815
▁القصب	-15816
▁القفا	-15817
▁القمر	-15818
▁الكوع	-15819
▁اللون	-15820
▁المرق	-15821
▁المكس	-15822
▁الموه	-15823
▁الهدم	-15824
▁الوصل	-15825
▁انتها	-15826
▁انحلت	-15827
▁بأخرى	-15828
▁باشره	-15829
▁بالعد	-15830
▁ببدله	-15831
▁ببلده	-15832
▁بثلثه	-15833
▁بجماع	-15834
▁بدنها	-15835
▁برقبة	-15836
▁بزمان	-15837
▁بستان	-15838
▁بضاعة	-15839
▁بعضهن	-15840
▁بقليل	-15841
▁بلزوم	-15842
▁تصرفا	-15843
▁تصوره	-15844
▁تعديل	-15845
▁تعظيم	-15846
▁تغطية	-15847
▁توافق	-15848
▁جاءني	-15849
▁جعالة	-15850
▁حفرها	-15851
▁حلوله	-15852
▁خرجنا	-15853
▁خفيفة	-15854
▁دارهم	-15855
▁ديتها	-15856
▁ديونه	-15857
▁ربعها	-15858
▁رطوبة	-15859
▁زرارة	-15860
▁سؤاله	-15861
▁ساترا	-15862
▁سكناه	-15863
▁شاتين	-15864
▁شراءه	-15865
▁شرائط	-15866
▁شوبري	-15867
▁صفاته	-15868
▁ظهاره	-15869
▁عرفنا	-15870
▁عروبة	-15871
▁علمهم	-15872
▁فأتاه	-15873
▁فحملت	-15874
▁فرائض	-15875
▁فيترك	-15876
▁فيعود	-15877
▁فيفرق	-15878
▁فيفيد	-15879
▁فيلحق	-15880
▁فينفذ	-15881
▁قبلكم	-15882
▁قدمها	-15883
▁قليله	-15884
▁لأشهب	-15885
▁لتركه	-15886
▁لحمله	-15887
▁للأكل	-15888
▁للأمة	-15889
▁للشيخ	-15890
▁للفرض	-15891
▁للفسخ	-15892
▁لوفور	-15893
▁مبعضا	-15894
▁مثلهم	-15895
▁مجالس	-15896
▁محالة	-15897
▁محرزا	-15898
▁مزاحم	-15899
▁مستغر	-15900
▁مسقطا	-15901
▁مسكنه	-15902
▁مسماة	-15903
▁مسنده	-15904
▁مسيرة	-15905
▁مشغول	-15906
▁مضافا	-15907
▁مضطرا	-15908
▁مقيما	-15909
▁ملكته	-15910
▁موروث	-15911
▁موليه	-15912
▁نزلوا	-15913
▁نفذنا	-15914
▁وأخته	-15915
▁وأخرى	-15916
▁وأصاب	-15917
▁وأنفق	-15918
▁وبالأ	-15919
▁وبشرط	-15920
▁وتوفي	-15921
▁ورجعت	-15922
▁ورقيق	-15923
▁وسجود	-15924
▁وسيلة	-15925
▁وشركة	-15926
▁وطأها	-15927
▁وطئتك	-15928
▁وقاتل	-15929
▁وكثرة	-15930
▁ويطلب	-15931
▁ويقدر	-15932
▁ويمسح	-15933
▁يتحول	-15934
▁يتيسر	-15935
▁يجبره	-15936
▁يحتلم	-15937
▁يزداد	-15938
▁يصلون	-15939
▁يعتاد	-15940
▁يعمله	-15941
▁يلاحظ	-15942
▁ينفيه	-15943
▁أرادوا	-15944
▁أصدقها	-15945
▁أفعاله	-15946
▁استلحق	-15947
▁اقتضاء	-15948
▁الأجود	-15949
▁الأفصح	-15950
▁الاثني	-15951
▁التاسع	-15952
▁التخلف	-15953
▁التمسك	-15954
▁الجناح	-15955
▁الحائل	-15956
▁الحافر	-15957
▁الحسبة	-15958
▁الرغبة	-15959
▁الصحاح	-15960
▁الصغرى	-15961
▁العائد	-15962
▁القابل	-15963
▁الكسوف	-15964
▁اللباب	-15965
▁المرفق	-15966
▁المشرك	-15967
▁المفيد	-15968
▁الملقي	-15969
▁الهيئة	-15970
▁انتظار	-15971
▁انفساخ	-15972
▁بإيجاب	-15973
▁بالشرع	-15974
▁بالشيء	-15975
▁بالضرب	-15976
▁بالعفو	-15977
▁بالفرض	-15978
▁بالقوة	-15979
▁بالكيل	-15980
▁بالمسح	-15981
▁بالميت	-15982
▁بالنقد	-15983
▁بتثليث	-15984
▁بزازية	-15985
▁بكماله	-15986
▁تعليقا	-15987
▁خيارها	-15988
▁رجعتها	-15989
▁سلامته	-15990
▁عبيدان	-15991
▁عدالته	-15992
▁عمامته	-15993
▁فائدته	-15994
▁فاشترط	-15995
▁فباعها	-15996
▁فتعتبر	-15997
▁فثلاثة	-15998
▁فقيمته	-15999
▁فلينظر	-16000
▁فيقتضي	-16001
▁كالعتق	-16002
▁كفارات	-16003
▁كفارته	-16004
▁لإسقاط	-16005
▁لقدرته	-16006
▁لقولهم	-16007
▁للخروج	-16008
▁للوصية	-16009
▁لموالي	-16010
▁لوقوعه	-16011
▁مأخوذة	-16012
▁محمولة	-16013
▁مرهونة	-16014
▁مزدلفة	-16015
▁مسامحة	-16016
▁مساويا	-16017
▁مستقرة	-16018
▁مشاركة	-16019
▁مقبوضة	-16020
▁مقطوعة	-16021
▁مكتوبة	-16022
▁مكروهة	-16023
▁ممنوعة	-16024
▁منفردة	-16025
▁نسيانا	-16026
▁وأعطاه	-16027
▁وأنكره	-16028
▁واحتمل	-16029
▁والانت	-16030
[...]
