#version: 0.2
Ġ Ø
Ù Ħ
Ġ Ù
Ø §
Ù Ĩ
ÙĦ Ù
Ù Ĭ
Ù ĩ
Ù Ī
Ø ±
ĠØ §
ÙĦ Ø
Ù ħ
Ø ¨
Ø ¯
č Ċ
Ø ª
Ø ¹
ĠÙ Ī
ĠØ £
Ù Ĥ
ĠÙ ħ
ĠØ§ ÙĦØ
ĠØ ¨
ĠÙ ģ
Ø ©
ĠØ ¹
ÙĦÙ ħ
Ù ģ
Ø ³
ĠÙ Ĭ
Ø Ń
ÙĦ Ø§
ÙĦÙ ĩ
Ù ĥ
Ø ¬
Ø £
ĠÙ Ĥ
Ø °
ÙĨ Ùĩ
Ø µ
ĠÙģ ÙĬ
Ùħ Ø§
ÙĦÙ Ĭ
ĠÙ ĥ
ĠØ§ ÙĦÙħ
Ø ¶
ĠØ ¥
ĠÙħ ÙĨ
ÙĦÙ ī
Ø ®
Ø «
ÙĦÙ ĥ
Ø ·
ĠØ ª
Ø ¥
ÙĦÙ Ī
ĠØ Ń
Ø§ Ø
Ø§ ÙĦ
Ùĩ Ø§
ÙĬ ÙĨ
Ø§ ÙĨ
Ø§ ÙĦØ
ĠØ§ ÙĦ
ÙĬ Ø±
ĠØ£ ÙĪ
Ø ´
ÙĪ ÙĦÙĩ
ĠØ£ ÙĨ
Ù ī
Ġ ÙĦØ
Ø ²
Ø° Ø§
ÙĦÙ Ĥ
ĠØ¹ ÙĦÙī
Ø§ Ø±
ĠØ ±
Ø¥ ÙĨ
ĠÙ Ĩ
ÙĦÙĬ Ùĩ
Ġ ÙĦØ§
ĠØ¹ ÙĨ
Ġ ÙĦÙħ
ĠÙ ĩ
ÙĨ Ø§
ĠØ ³
ĠÙħ Ø§
Øª Ùĩ
ĠØ§ÙĦØ £
ĠØ ´
ĠØ£ ÙĬ
ĠØ °
ÙĦÙ ģ
ĠØ µ
Ġ ÙĦÙĩ
ĠØ¹ ÙĦÙĬÙĩ
Ø§Ø ¡
Ø± Ø§
ÙĬ Ø©
ÙĪ ÙĦ
º ÙĬØ±
Ġ ÙĦ
ĠØ¨ ÙĨ
ĠØ ¬
ĠÙĥ Ø§ÙĨ
ÙĪ ÙĨ
Ø³ Øª
Ø§ Ø¨
ĠØ§ÙĦØ ¹
Ùħ ÙĨ
Ø¨ ÙĬ
ÙĤ Ø¯
ĠØ¨ Ø¹
ĠØ§ÙĦØ Ń
ĠØ «
ØŃ Ø¯
ÙĤ ÙĪÙĦÙĩ
ÙĦØ £
Ùĩ ÙĪ
ĠØ§ÙĦ ÙĦÙĩ
ĠÙĤ ÙĪÙĦÙĩ
ĠØ ¯
ÙĪ Ø§
ĠØ ®
ĠØ° ÙĦÙĥ
ĠÙħ Ø¹
Ø± ÙĬ
ĠØ¨ Ùĩ
ĠØ§ ÙĦÙĤ
Ø± Ùĩ
ĠÙĤ Ø§ÙĦ
ĠÙĪ Ø§
Ø§Ø ¦
ÙĤ Ø§ÙĦ
ĠØ£ ÙĨÙĩ
Ùħ Ø±
Ùģ ÙĬ
Ø¯ Ùĩ
Ùħ Ùĩ
ÙĪ Ø¬
ĠÙħ ÙĨÙĩ
ĠØ§ ÙĦÙĪ
ĠØ¥ ÙĨ
Ø ¸
Ø¹ Øª
ĠØ ºÙĬØ±
Ø º
ĠÙĦØ £
Ùħ Ø©
Ø± Ø¬
ĠØ§ÙĦØ ¨
ĠØ§ÙĦØ ª
ĠØ¨ Ø§ÙĦØ
ĠÙĪ Ø§ÙĦØ
Ø³ ÙĦÙħ
Ùģ Ø¹
Ø ¡
Ø± Ø©
Ø± Ø¨
ÙĤ ÙĬ
Ġ ÙĦÙĪ
ÙĦØ ©
Ø¯ Ø©
Ø ¦
ĠØ§ÙĦØ ¥
Ø¨ Ø¯
ÙĪ Ùħ
Ø¨ ÙĨ
Ø§ Ùħ
Ùĩ Ø±
Ø¨ Ø±
Ø¨ ÙĦ
ĠÙĪ ÙĦØ§
ĠÙģÙĬ Ùĩ
Ùĥ Ø±
Ø£ ÙĨ
ÙĬ Ø¯
ĠÙĬ Ùĥ
ĠØ¨ Ø§
ĠØ§ÙĦ ÙĨ
ÙĪ ÙĬ
Ø± Ø¶
Ø¨ Ùĩ
ĠØ ²
Ø¨ Ø§
ÙĬ Ø¹
ĠØ¥ Ø°Ø§
Ùĩ Ùħ
ÙĦØ ª
ĠØ¨Ø¹ Ø¯
Ùĥ Ùħ
ĠØ§ÙĦØ ´
ĠÙĬ ÙĤ
ĠØ§ÙĦØ ¬
ĠÙĪ Ø£
ÙĪ Ø¹
ĠØ ·
ĠØ¥ ÙĦÙī
ĠØ« Ùħ
ĠÙģ ÙĦØ§
ĠÙĪ Ø¬
ĠÙĥ ÙħØ§
ÙĬ Ø§
ĠÙĪ Ø¥ÙĨ
ĠÙĬ Ø¬
ĠØ§ÙĦØ ³
Ø¹ Ø©
ÙĪ Ø¥ÙĨ
Ø± Ùĥ
ĠÙĪ ÙĬ
ĠØ§ Ø¨ÙĨ
Ø¹ Ø§
Ùħ ÙĦ
Ø± Ùģ
Ùģ Ø³
ĠØ£ Ø®
ĠÙĦ ÙĦØ
ÙĨ ÙĬ
Ùģ Ø±
Ġ ÙĦÙĬ
ÙĦØ£ ÙĨ
ÙĦØ ¯
ĠØ§ ÙĦÙģ
ÙĦØ£ ÙĨÙĩ
ĠØ§ÙĦØ µ
Øµ ØŃ
Ùħ Ø¯
ĠÙħ ØŃ
ĠÙĬ Øª
ĠÙĬ ØŃ
Ø° ÙĦÙĥ
Ø¯ ÙĬ
Ø ¤
Ø´ Øª
Ø¨ Ø©
ÙĤ Øª
ĠØ§ÙĦØ ®
ĠÙĩ Ø°Ø§
ĠÙĬ Ø¹
Ø ºÙĬØ±
Ø£ ÙĪ
Ø° Ùĩ
Øµ ÙĦ
ĠÙĪ ÙĩÙĪ
ÙĪ Ø±
ĠØ§ ÙĦÙĥ
Ùĩ ÙħØ§
ÙĦØ§ Ùģ
ĠÙģ Ø¥ÙĨ
ÙĤ Ø±
ĠØ¹ ÙĨÙĩ
ĠØ´ ÙĬ
ĠØ º
Ø® Ø±
ÙĦØ ®
ĠÙĤ Ø¨ÙĦ
Ø¯ Ùħ
ÙĪ Ø¯
ĠØµ ÙĦÙī
Ø¶ ÙĬ
Ø³ Ùħ
ÙĤ Ø§
ĠØ§ÙĦØ «
ĠÙĩ ÙĪ
ĠØ§ÙĦØ ¯
Ø¨ Øª
ĠÙĪ Ùĥ
ĠÙĪ Ø¹
Øª Ùī
ÙĪ Ùĩ
Ø§Ø ²
ĠÙĪ Ø³ÙĦÙħ
Ùģ Ø§
Ø¬ Ø±
ĠØ£ Ø¨ÙĬ
ÙĪ ÙĦØ§
Ùĥ Ø§
ĠØ¥ ÙĦØ§
Ùħ Ø³
ĠÙĪ ÙĦÙĪ
ÙĤ Ø·
Ø± Ø·
Ø± Ùħ
ĠÙĬ ÙĨ
ÙĬ Øª
ÙĤ Ùĩ
ĠØ¥ ÙĦØ®
Ø¶ Ø§
ĠØ± Ø¬
ÙĦØ ¨
ĠØ§ÙĦØ °
ĠØ¨ ÙĬÙĨ
ÙĪ Ùĥ
ÙĤ Ø©
ĠØ ¶
ÙĪ Ø¨
ÙĪ Øª
Ø® Øª
ĠØ¹ Ø¨Ø¯
ĠØ¨ Ø£
ÙĦØ§ Ùħ
ĠØ£ Ùħ
ĠÙĥ ÙĦ
ÙĪ ÙĦÙĪ
ÙĬ ÙĨÙĩ
ĠØ£ ØŃØ¯
Ø¯ Ø§
ÙĪ Ø¶
ÙĬ Ùħ
ĠØ§ Ø³Øª
Ùģ Ø¥ÙĨ
ĠÙĤ Ø¯
Ø« ÙĨØ§
ĠØ¹ÙĨ Ø¯
ÙĪ Ø²
Ùħ Ø¹
ĠØ§ÙĦ Ø±
ĠÙĦØ£ ÙĨÙĩ
ĠØ§ÙĦØ ²
Ùĩ ÙĦ
Ø¨ Ø¹
ĠØŃ Ø¯
ĠÙģ Ø¥
ĠÙĪ Øª
ÙĬ ÙĦ
ĠØ¹ ÙĦÙĬ
ĠÙħ Ø«
ĠØ£ Ø¨
ĠÙĨ Øµ
ĠÙĬÙĥ ÙĪÙĨ
ÙĪ Ø£
ĠÙĪ ÙĤ
ĠØ¨ Ø¯
¢ Ø®Ø±
ÙĦÙĩ Ø§
ĠØ¨ Ø£ÙĨ
ÙĦØ§ Ø«
ÙĦØ ²
ØŃ Øª
ĠÙĪØ§ ØŃØ¯
ĠØ¨Ø¹ Ø¶
Ø§Ø± Ø©
Ġ ÙĦÙĥ
ÙħØ§ ÙĨ
ĠÙĪ Ø¥
ĠØ§ ÙĦØ§
ĠØ ¸
Ø¹ ÙĦ
ĠÙĪ Ùĩ
Ø§ Ø¬
Ùģ Ø©
Ø§ Ø¯
ÙĤ ÙĦ
ĠØ§ÙĦØ º
ÙĪ Ø§ÙĦØ
ĠØª Ø¹
ĠÙĦ ÙĦÙħ
Ø´ Ø±
Øª ÙĬ
ÙĪ ÙĤ
Ø³ Ø¨
ĠÙĪ ÙĦÙħ
ĠØŃ ØªÙī
ĠÙĬ Ø¯
ĠÙģ Ø£
Ø« Ùħ
ĠÙĦØ£ ÙĨ
ÙĨÙĩ Ø§
ØŃ ÙĬ
ÙĨ Ùī
Ø¹ Ùĩ
ĠÙħ Øª
Ø® Ø°
Øµ Ø¯
ĠÙĬ Ùħ
Ø« Ø±
ĠØºÙĬØ± Ùĩ
Ø¹ ÙĬ
Ø§ Ùĩ
ĠÙĤ Ø¨
ÙĨ Ø©
ĠÙĪ ÙĨ
ĠÙģ Ø§
ĠÙĪ Ùħ
ÙĪ Ùģ
ÙħØ§ Ùħ
Ø· ÙĦÙĤ
ĠØ¹ ÙħØ±
Ø± ØŃ
Ø° Ø±
ÙģØ³ Ùĩ
ĠØ§ÙĦØ° ÙĬ
ĠØ£ ØŃ
ĠØ´ÙĬ Ø¡
ÙĤØ¯ Ùħ
Ø±Ø§ Ø¯
ĠØ¨ Ùħ
ĠØ¥ ÙĦÙĬÙĩ
ÙĦØ Ń
Ø± Ø¯
ÙĬ Ø¨
ÙĦÙĬ Ø³
ÙĪ Ø³
ĠÙĦÙĬ Ø³
ĠÙĪØ§ ÙĦÙħ
ĠØ§ ÙĨ
ĠÙĤ ÙĪÙĦ
Øª ÙĤ
ĠÙħ Ø³
ĠÙĦÙħ Ø§
Ø£ ÙĬ
ĠØ¨ ÙĩØ§
ĠØ¨ ÙħØ§
Ùĥ ÙĨ
Ø§ ÙĩØ±
ÙĪ ÙĩÙĪ
Ø± Ùī
ĠØ° ÙĥØ±
ĠØŃ ÙĬ
ÙĤ Øµ
Ø® ÙĦØ§Ùģ
Ùĥ Ø±Ùĩ
Ø± ÙĤ
ĠØ§ÙĦÙħ Øª
ĠØ£ Ø¹
ĠÙĬ Ø£
ĠÙħ ÙĦÙĥ
ĠÙģ Øª
ĠÙĥØ§ÙĨ Øª
Ø¸ Ø±
ÙĦØ ¹
ÙĪ Ùī
Ùĥ ÙĦ
Ø§ Øµ
ĠØ§ÙĦØ ·
ĠØ£ Ø¬
Øª ÙĩØ§
ÙĨ Ùģ
ĠÙĬ Ø®
ĠØ§ÙĦÙħ Ø³
ĠÙħØ§ ÙĦÙĥ
ĠØ£Ø¨ ÙĪ
ĠÙĬÙĥ ÙĨ
Ø§ ØŃ
ĠØ¨ ØŃ
Ùĥ ÙĪÙĨ
Ø³Øª ØŃ
ĠÙħ Ø±
ÙĨ Ø¹
Ø§ Øª
ÙĦØ «
ĠØ£ÙĬ Ø¶Ø§
Ø® ÙĦ
ØŃ Ø©
Ø§ÙĨ ÙĬ
Ø³ ÙĪÙĦ
ĠÙģØ¥ ÙĨÙĩ
Ø· Ø¹
Ùĩ Ø¯
ĠÙĦÙĩ Ø§
ĠÙģ Ø¹
ÙĪ ÙģÙĬ
Ø§ ÙĤ
ĠÙĬ Ø³
Ø± Ø£
ĠØ« ÙĦØ§Ø«
Ø¨ ÙĬÙĨ
ĠØ¨ ÙĦ
ĠÙħØŃ ÙħØ¯
ÙĦØ§ Ø©
ĠØ£ Ø´
ĠÙĦØ ¹
ĠÙĬ ÙĪÙħ
ØŃ ÙĪ
ÙĪ Ø¥
ÙĪ ÙĦÙī
ĠØŃØ¯ Ø«ÙĨØ§
Ø´Øª Ø±ÙĬ
ĠÙĪ ÙĦØ¯
Ø§ ÙĦÙħ
ĠØ± Ø³ÙĪÙĦ
Øª Ø§Ø¨
Ø¬ Ùĩ
ĠÙģ ÙĩÙĪ
Ø° ÙĨ
ĠØ§ÙĦØ£ ÙĪÙĦ
Ùģ Øª
Ùĥ Ø«Ø±
Øµ Ø±
ĠÙĩ Ø°Ùĩ
ĠØ§ÙĦØ¹ Ø¨Ø¯
ĠØ¨ ÙĬÙĨÙĩ
Ø¹ ÙĨ
Ùģ Ùĩ
Ø± Ø«
Øª Ø¨
ĠØŃ ÙĤ
ĠØ§ÙĦÙĤ Ø§
ĠØ£ Øµ
Ø³ ÙĨ
Ùħ ÙĬ
Ø¬ Ø¨
ĠØ§ÙĦÙħ Ø¹
ĠØ¹ ÙĦÙħ
ĠÙĥ Ø§ÙĦØ
ĠØ§ÙĦÙħ Ø¯
Ø³ Ø±
Ø¹Øª ÙĤ
Ø¹Ø§ ÙĦÙī
ĠÙĬ Ø¶
ĠØ¨ ÙĬØ¹
Ùĥ Ø§ÙĨ
ĠÙģ ÙĤØ§ÙĦ
ĠÙĤ Ø§
ĠØª ØŃ
Ø³ ÙĦ
ĠØ¨Ø§ ÙĦÙħ
Ø£ ÙĦØ©
ĠØ§ÙĦÙħ Øµ
Ø±Ø§ Ùĩ
ĠÙĪ ØºÙĬØ±
ÙĪ ÙĨÙĩ
ĠÙģÙĬ ÙĩØ§
ĠÙĩ ÙĨØ§
ÙĨ Ø³
ĠÙĪ Øµ
ĠÙħÙĨÙĩ Ø§
ĠÙĬØ¬ ÙĪØ²
Ø¬ Ø¯
ĠØ§ÙĦÙħ ØŃ
ĠØ¨ Ø®ÙĦØ§Ùģ
ĠÙĬ ÙĦØ²
ĠÙģÙĬ ÙħØ§
Ùħ Øª
ÙĪ Øµ
ĠØ§ ÙĦÙĬ
ĠØ¨ Ø¥
Ø§Ø ´
ÙĤÙĬ ÙĦ
ĠØ¨ Ø§ÙĦ
Ø· ÙĦ
ĠØª Ø¹Ø§ÙĦÙī
ĠØŃÙĬ Ø«
ÙĦØ§ ÙĤ
ÙĬÙĨ Ø©
Ø§ Ø¹
Ùģ ÙĤ
ĠÙħ ÙħØ§
ĠØ¹ÙĦÙĬ ÙĩØ§
ĠÙĨ ÙģØ³Ùĩ
ÙĪ Ø·
Ø° ÙĥØ±
Ø¬ Ø²
Ø± Ø¹
ĠÙĤ Øª
ĠÙĪ ØŃ
ĠÙĪ Ø§ÙĦ
ĠÙĪØ¥ ÙĦØ§
ÙĤ ÙĪÙĦ
ÙĨ Øª
Ø´ ÙĬ
Ġ Ġ
ĠØ³ Ø¨
Ùħ ÙĬØ¹
ĠÙĪ ÙĤØ¯
ĠÙĬ Øµ
Ø§Ø± Ùĩ
ĠØ² ÙĪØ¬
ĠØ¨ ØºÙĬØ±
ĠÙĦØ ²
ĠÙĪ Ø³
ĠÙĪ ÙģÙĬ
ÙĬ ÙħØ©
ĠØ¨ Ø°ÙĦÙĥ
Ø± Ø§Ø¡
ĠÙĪ ÙħØ§
ĠØ§ÙĦØ¥ ÙħØ§Ùħ
ĠØ¹ Ø¯Ùħ
Ġ ÙĦÙĤ
ÙĪ Ø©
ÙĪ ÙĤØ¯
ĠØ ¢Ø®Ø±
ĠØ±Ø¬ ÙĦ
Ø¯ÙĬ Ø«
Ø§ÙĦØ ¨
ĠÙĦØ Ń
Ø¶ Ø§Ø¡
Ø§ÙĦØ ©
ĠØ£ ÙĩÙĦ
ÙĦØ º
ĠÙĦØ ª
ÙĪ Ø±Ø©
ĠØ£Ø® Ø°
ĠÙĬ Ø³Øª
ĠØ£ØŃØ¯ ÙĩÙħØ§
ĠØŃ ÙĥÙħ
ĠÙĬ ØµØŃ
ÙĪ ÙĤØ§ÙĦ
Ø² ÙĪØ¬
ÙĤ Ø¨
ĠØ¨ Øª
Ø® Ø±Ø¬
ÙĨ Ø«
Ø§Ø¦ Ø¹
ĠÙħÙĨÙĩ ÙħØ§
ÙĦØ ³
Ø§ Ùģ
ĠØ§ÙĦÙħ Ø§ÙĦ
ĠØ´ Ø±Ø·
ĠÙĬ Ø¤
ĠÙĬØ¬ Ø¨
ØŃØ¯ Ø«ÙĨØ§
ÙĪ Ø§Ø¡
ÙĦÙĬ ÙĦ
ĠÙĪ ÙħÙĨ
ĠÙħØ§ Øª
Ø¨ Øº
ĠØ§ Ø´Øª
ĠØ± Ø£
Ø¦ Ø§
ĠØ§ÙĦ Ø±Ø¬
ĠÙĪØ¬ Ùĩ
ĠØ¨ ÙĦØ§
Ø« Ø¨Øª
ĠØ§ÙĦÙĨ Ø¨ÙĬ
Ø¨ ÙĬØ±
Ø±Ùĩ Ùħ
ÙĨ Ø¨ÙĬ
ÙĪ Ø§Ø¨
ĠØ£ Ø±Ø¨
ĠØ§ÙĦØ¨ ÙĬØ¹
ĠÙħ Ø§ÙĦ
ÙĥØ§ ØŃ
ĠØ ¢
ĠØ¨ ÙĬ
ĠØ¥ Ø°
ĠØª Ø±Ùĥ
ĠØµ Ø§ØŃ
ÙħØ± Ø£
Ø¹ Ø¯
ÙĬ Ùĩ
ÙĪ Ø§ÙĦ
ĠØ§ ÙĦÙĩ
Ø±Ø¬ Ø¹
ĠÙģ Ø³
Ø°Ùĩ Ø¨
Ø³ Ùĩ
ĠÙĬ Ø´
ĠØ¹ Ø¯
ÙĪØ£ ÙħØ§
ĠØ® ÙħØ³
ĠØ§ÙĦØ² ÙĪØ¬
ĠÙĬ Ø¨
ÙĪ ÙħØ§
Ø§Ø± Ø«
ĠØ¯ ÙĬÙĨ
ĠÙĪ Ø·
ĠØª ÙĤØ¯Ùħ
ĠÙĦØ ¨
ÙĪ ÙħÙĨ
ĠØ§ÙĦÙħØµ ÙĨÙģ
ÙĪØ¬ Ùĩ
ĠÙĥ Ø°ÙĦÙĥ
Ø¨ÙĬ Ø¹
ĠØ¹ÙĨ Ø¯Ùĩ
ĠØ® ÙĦØ§Ùģ
Ø¸ ÙĩØ±
ØŃÙĬ ØŃ
Ø¹ Ùħ
ĠØ¨ Ùĥ
Ø§ÙĦØ ª
ĠØŃ Ø±
ĠÙĪ Ø¨
Ø¶ ÙĦ
ĠØ± Ø¶ÙĬ
Ø¶ Ùī
ĠÙģ ÙĦÙħ
Øµ Ø±Ùģ
ĠØ§ Ø¹Øª
ĠÙĥ Ø°Ø§
ĠØ¨ ÙĤÙĪÙĦÙĩ
Ø¨ Ø§Ø±
ĠØ´ÙĬ Ø¦Ø§
ĠØ§ÙĦØ ¶
ĠÙĬÙĤ ÙĪÙĦ
ÙĬ Ùģ
ĠØ± ÙĪØ§
ĠÙħØ« ÙĦ
ĠØ§ÙĦÙħ ÙĨ
Øµ Ùģ
Ø§ Ø³
ÙĬ Ø§Ø±
Ø§ ÙĦÙģ
ĠØ§ÙĦØŃ ÙĥÙħ
Ø® Øµ
Ø¯ Ø§Ø¡
ĠÙĪØ§ÙĦØ £
Ø¶ Ø±
ĠØ§ÙĦØ¯ ÙĬÙĨ
ĠÙĨØµ Ùģ
ĠØ± ØŃ
ĠÙħ Ø·ÙĦÙĤ
ĠÙĬØ¹ ÙĦÙħ
ĠØŃ ÙĬÙĨ
ĠØ£ ÙĤ
ĠÙħ Ø³ÙĦÙħ
ĠØ¹ Ø´Ø±
Ùģ Ø¥
ĠØ¨ ÙĤÙĬ
ÙĦÙģ Ø¸
Ø· Ø±
ĠÙĪ ÙĤØ§ÙĦ
ĠØ§ Ø®Øª
Ø¬ ÙĦ
ÙĪ ØŃ
Ø¹ Ùī
ĠØ¨ Ø´
ÙĦØ§ ÙħÙĩ
ĠØ§ÙĦØ¹ ÙĤØ¯
ĠÙģ Ùĥ
ĠØ¨ ÙĤ
ĠØ«ÙĦØ§Ø« Ø©
ÙĪ Ø§Ø²
ĠØ¨ Ø·
Ø³ Ø§
ĠÙĪÙĩ ÙĬ
ĠØ¥ÙĨ ÙħØ§
ĠÙĤ ÙĬÙħ
ĠØ§ÙĦÙħ Ø´ØªØ±ÙĬ
ĠØ§ÙĦØ ¢
ĠÙħ Ø¬
ĠÙģ ÙĤØ¯
ĠÙĪ ÙĤÙĪÙĦÙĩ
ĠØª Ø£
ĠØ¯ ÙĪÙĨ
ØŃ ÙĪÙĩ
ĠÙĪ ÙĤØª
ĠØ¨Ø§ÙĦØ ¹
ØµØ¯ ÙĤ
Ø´ Ø±Ø©
ÙĪ ÙĦÙĬ
Ø² ÙĦ
Ø§ÙĦØ Ń
ĠØ¨ÙĬÙĨÙĩ ÙħØ§
Øª ÙĬÙĨ
Ø¨ ØŃ
ĠØ§ÙĦÙħ Ø³ÙĦÙħ
ĠØ¹ Ø¨
ÙģØ¹ Ø©
ÙĪ ÙĦÙħ
ĠØ£ ÙĥØ«Ø±
Ùģ ÙĦØ§
Ø± Øª
ĠØ¨Ø¹ Ø¯Ùĩ
ĠÙĥ ÙĦØ§Ùħ
ĠÙĪØºÙĬØ± Ùĩ
ØŃ Ø±
ĠÙĪÙĥ Ø°Ø§
ĠØ£ÙĨÙĩ Ø§
Ø¹ ÙĦÙĤ
ĠÙħØ¹ Ùĩ
Ø±ÙĬ ÙĤ
ĠØ§ÙĦØ ¢Ø®Ø±
ÙĤ ÙĦØª
ĠØ¬ ÙħÙĬØ¹
ÙĬ ØªÙĩ
Ø±Ø§ Ø¬
ĠØ¸ Ø§ÙĩØ±
ĠØ§ ÙħØ±Ø£
ÙĪ ØªÙĩ
ĠÙĪØ§ØŃØ¯ Ø©
ĠØ¥ Ø³
Ø§ Ø¯Ø©
ĠØ¹ Ø±Ùģ
Ø¶ Ùĩ
Ø¶ Ùħ
Ø§ ÙģØ¹
ĠØ£ Ø³
ĠØ§ÙĦØµ ÙĦØ§Ø©
ĠÙĨ Ø³
Ø« ÙĦ
ÙĦÙĥ ÙĨ
ĠØ§ÙĦÙħ Ø³Øª
Ø§Ø¨ ÙĨ
ÙĬØ± Ø©
ÙħØ± Ø©
Ø£ ÙĨÙĩ
ĠØ° ÙĥØ±Ùĩ
ĠØ¬ Ø§Ø²
ĠØ§ÙĦÙĪ ÙĦØ¯
Ùĥ ÙħØ§
Ø¨Øº ÙĬ
ĠÙħ Ø³Øª
Ø¦ Ø©
ĠØŃ ÙĦÙģ
ĠØµ ØŃ
ĠØ§ÙĦØª ÙĬ
ĠØ± Ø¯
Ø¦ Ø°
Ø¬ Ø§Ø±Ø©
ĠÙĦ ÙĦØ£
ĠÙĬÙĤ Øª
ĠÙħØ§ ÙĦÙĩ
ĠÙģ ÙĤØ·
ÙĨØ§ Ùĩ
ĠØ¨Ø§ÙĦØ £
ĠØ£ ÙĤØ±
Ø±Ø§ Ùħ
ØµØŃ Ø§Ø¨
ĠÙģØ¥ Ø°Ø§
ÙĨ Ø¯
ĠÙĬ ÙĤØ§ÙĦ
ĠØ³ ÙĬ
ĠØ±ØŃ ÙħÙĩ
ĠØª ÙĤ
ĠØŃ Ø¬
Ø² Ùħ
ĠØ§ÙĦÙħ Ø¬
ÙĬØ± Ø§
ĠØ® Ø±Ø¬
ÙĪÙĥ Ø°Ø§
Ùģ Ø£
ĠØ£ Ø¯
ÙĪØ§ ÙĦÙħ
Ø¶ Ø©
Ø§Ùħ ÙĦ
Ùħ ÙĬÙĨ
Ø¹ ÙĬÙĨ
ĠÙģ Ø±
ĠØ§ÙĦØ£ ØµÙĦ
ĠØµ Ø¯
ĠÙĬ Ø¯Ùĩ
Ø§ ÙĥÙħ
ÙĪ ÙĤÙĪÙĦÙĩ
ĠØ§ÙĦØ£ Ø±Ø¶
ĠØ§ÙĦØŃ Ø±
ĠÙĦÙĩ Ùħ
ĠÙĨ ØŃÙĪ
ĠØ§ÙĦØ« ÙħÙĨ
ĠØ³ Ùħ
ĠÙĬÙĦØ² ÙħÙĩ
Ø¶ Ø¹
Øµ ÙĬØ©
ĠØª Ø³
Ùĥ Øª
ĠÙĦ ÙĨ
ĠÙĥ ÙĦÙĩ
Øµ Ø¨
ĠØ§ÙĦØ¨ Ø§Ø¦Ø¹
Ùĥ Ø©
ÙĤØ¯ Ø±
ĠÙĤØ¯ Ø±
ĠØ´ Ø±ØŃ
ĠÙĪØ¬ Ø¯
ĠÙħÙĨÙĩ Ùħ
ĠÙĬ Ø²
ĠØ§ÙĦØ ¸
Ø±Ø£ Ø©
ÙĪÙĩ Ø°Ø§
ĠÙģ Ø§ÙĦØ
ĠÙħÙĦÙĥ Ùĩ
ĠØŃ Øµ
ĠØ± Ùĥ
ĠÙģ Ùĩ
ÙĨØ§ Ø³
ĠØ§ÙĦÙħ ÙĦÙĥ
ĠØ¨Ø£ ÙĨÙĩ
ĠÙģ Ø¹ÙĦ
Ø« ÙĨ
Ø± Ø±
ĠÙģ ÙĦÙĩ
ĠÙħØ·ÙĦÙĤ Ø§
Ø° Ùĥ
ÙħØ§ Ø¹
ĠÙĩ ÙĬ
ĠÙĦÙħ ÙĨ
ĠØ§ÙĦØ´ ÙĬ
ĠØ£ Ùģ
ĠØ³ ÙĦÙħ
ÙħÙĨ Ø¹
ĠØ³ ÙĨØ©
ĠØª ÙĨ
ĠØ³ Øª
ĠØ§ÙĦØ§ Ø³Øª
ĠØ¹ Ùħ
ÙĦØ§ ÙĨ
ĠØ³ ÙĪØ§Ø¡
ÙĬØ§ Ø¯Ø©
ÙĪØ¶ Ø¹
Ø§ ÙĦÙĤ
Ùĩ Ø¨
ĠØ· ÙĦÙĤ
ĠÙħØ« ÙĦÙĩ
ØŃ ÙĦ
ĠØ£Ø® Ø¨Ø±
ÙĤØ± Ø§Ø±
Ùģ ÙĤØ©
ĠØ² ÙĬØ¯
ĠÙĬØ¬ Ø²
ÙĪØ¬ Ø¨
ĠØ´ Ø§Ø¡
ĠÙģ ÙĦÙĪ
Ø³ØªØŃ ÙĤ
ĠÙĤØ¨ ÙĦÙĩ
ÙĦØ ·
Ø¬ Ø±Ø©
ĠØ§ÙĦÙħ Ø´
ĠØ¯ ÙģØ¹
ĠØ£ØŃ ÙħØ¯
ĠÙģ ÙĦÙĬ
Ø´Øª Ø±Ø·
ĠØ§ÙĦØ£ Ùħ
ĠÙĪØ§ÙĦØ ¹
ĠØ£ ÙĦÙģ
ĠÙĦÙĥ ÙĨ
ÙħØ§ ÙĦ
ĠÙĬØŃ Øª
ĠÙĪ ÙĦÙĬØ³
ĠÙĬ Ø·
ÙĦÙĪ Ø§
ĠÙĤØ§ ÙĦÙĩ
Ø¯ ØªÙĩ
ĠÙĬ Ø±Ø¬Ø¹
Ø± Ø³
ÙĦÙĬ Ø©
ĠÙĪ Ø£ÙĨ
ĠØ¨Ø§ ÙĦÙĤ
ĠØ¨Ø¹Ø¶ ÙĩÙħ
ĠÙĤÙĬÙħ ØªÙĩ
Ø§ ÙģØ±
ĠÙĦØ ºÙĬØ±
ĠØ£ ÙħØ±
Ø³ ÙĦØ§Ùħ
ĠØ± Ø¨
Ø¶ ÙĪ
ĠØ§ÙĦØ£ Ø¨
Ø§Ø¨ Ø©
ĠÙĪÙĩ Ø°Ø§
Ø¨ Ø³
ĠÙĪ Ø®
ØŃ Ùĩ
Ø ¢
Øµ ÙĬ
Ø§ÙĦØ «
Ø¹ ÙĬØ¯
ĠØ« ÙĦØ«
ÙĦØ§ Ø¡
Ø¬ ÙĪØ²
ÙĤ Ùģ
ÙģÙĬ Ùĩ
Ø¹Øª Ø¨Ø±
ĠØ§ÙĦÙĤØ§ Ø¶ÙĬ
ĠØŃ Ø§ÙĦ
ĠØ¬ Ùĩ
ĠØ§ÙĦÙħ Ø§
ÙĪØ¥ ÙĦØ§
Ùħ ØªÙĩ
ĠØµØ§ØŃ Ø¨
Ùĥ Ùĩ
Ø¯ ÙĦ
ĠØ§ÙĦØŃ Ø¬
ĠØ§ÙĦÙĤ Ø¨
Ø± Ø´
ĠØ¹ ÙĤØ¯
ĠÙĬØ£ ØªÙĬ
ĠØ£ Ø±Ø§Ø¯
ĠÙĤ ÙĦØª
Øº ÙĨÙĬ
ÙĪ Ø§ÙĨ
ĠØ¹ ØªÙĤ
ĠÙĨ Ø¸Ø±
ĠØ¯ Ø±ÙĩÙħ
Ø§Ø¦ Ùĩ
ĠÙħ Ø´
ÙĩØ§ Ø¯Ø©
ÙĪØ¥ Ø°Ø§
ĠÙħ Ø¤
ĠÙĤ Ø·Ø¹
ĠÙĬ Ø«Ø¨Øª
ĠØ¨Ø§ÙĦØ ª
ĠØ´ Ø¹
ĠØ¹ ÙĬÙĨ
ÙĪ ÙĦØ¯
ĠØŃ ÙĨÙĬ
ĠØ¨Ø§ÙĦØ Ń
ÙģØ¹ ÙĦ
ĠÙĦÙĦØ ¹
ĠØ£Ø¹ ÙĦÙħ
ĠØ¨ ÙĥØ±
ĠØ±Ø¬ Ø¹
ĠÙħ Ø¯
ĠØ¹ Ø·
ĠÙĥ Ùģ
ÙĩÙĪ Ø±
ĠÙĪÙĨ ØŃÙĪÙĩ
Ø® ÙĬØ±
ĠÙĬØ¹ ÙĨÙĬ
Øª Ùħ
ĠØ§ÙĦÙĤØ§ Ø³Ùħ
ĠØ¨ ÙħÙĨ
ĠÙĬ Ùģ
Ø±Ùĥ Ø©
ĠØŃÙĨÙĬ ÙģØ©
ÙĪØ¥ÙĨ ÙħØ§
ÙĪ ÙĤÙĬÙĦ
ÙħØ§ Ø¡
ĠÙĩ ÙĦ
Ø§ÙĨ ÙĬØ©
ĠÙĪØ§ÙĦØ Ń
ĠØŃ ÙĤÙĩ
Ø¯ Ø±
Ùģ ÙĩÙĪ
ĠØª Ùħ
ÙĪÙĨ Ø©
ĠÙĪ Ø«
ĠÙĥ ÙĦØ§ÙħÙĩ
ĠØ¥ ÙĦÙĬ
ĠÙĬØ® Ø±Ø¬
ĠØ§ Øª
ÙĨØ§ ÙĬØ©
Øµ Ø§Ø±
ĠØ£ ÙħØ§
ĠØ¨Ø§ÙĦØ ¥
° ÙĦÙĥ
ĠÙħ ÙĤ
ĠØŃØ¯ Ø«
ĠÙĤØª ÙĦ
ĠÙĪ Ø´
ĠØ§ÙĦØ±Ø¬ ÙĦ
ĠÙĬÙĦØ² Ùħ
ĠØ¬ Ø¹
ĠØ¨ Ø¬
ĠØ¹ÙħØ± ÙĪ
ĠÙĤ ÙĬÙħØ©
ĠØ§ÙĦØ¬ Ùħ
ĠØ§ÙĦØ« Ø§ÙĨÙĬ
ĠØ´ Ø±
ÙĪÙĥ ÙĦ
Ø£ Ùħ
ĠÙĪÙĤ Ø¹
ĠÙĬ Ø±Ø¯
ĠÙĪÙĥ Ø§ÙĨ
ĠÙģ Ø±Ø¶
ĠØŃ Ø§
ØŃØ¯ Ø«
ÙĦÙĬ ÙĨ
ĠØ§ÙĦÙħ ÙĬØª
ĠÙĬ Øº
ÙĤØ· Ø¹
ØŃ Ø§
ĠØ¨ Ø±
ĠÙĥ Ø«
ĠØ§ÙĦÙĥ ØªØ§Ø¨
ĠØ§ÙĦÙħ Ø¤
ÙħØ§ Ø¹Ø©
Ø§Ø± ØŃ
ĠÙħ ÙħÙĨ
ĠÙĦ ÙĦ
ØªÙĩ Ùħ
ĠØ§ÙĦÙħ Ø°Ùĥ
ĠØŃ Ø¯ÙĬØ«
Ø£ Ø¬Ø±
ĠØ³ Ø¹ÙĬØ¯
ĠÙĪ Ø¨ÙĬÙĨ
ĠØ£ÙĪ ÙĦØ§
ĠØ§Ø³Øª ØŃ
ĠØ§ Ø¯
ĠØ¹ÙĦÙĬÙĩ Ùħ
ĠØ¨ÙĬÙĨ Ø©
ĠØª Ø¨
ĠØµ ØŃÙĬØŃ
Ùĥ ÙĬÙĦ
ĠØª Øª
ÙĬ Ø²
ĠØ¹ Ø´Ø±Ø©
ĠÙĪ ÙĦÙĩ
ĠØ¹ Ø¨Ø§
ĠÙĪØ£ ÙħØ§
ĠÙĬØ¶ ÙħÙĨ
ÙĤ Ø¶
ĠÙħØ¹ Ø§
ĠØ§ÙĦØŃ Ø¯
ĠÙĦÙĦØ Ń
ĠØ§ÙħØ±Ø£ Ø©
ĠØ£ÙĪ ÙĦÙī
ĠÙĪØ¬ Ø¨
ĠÙĪ ÙĦÙĬ
ĠÙĦØ ³
ĠØ§ÙĦÙħ Ø±Ø£Ø©
ĠÙĪØ§ÙĦØ ª
ĠÙĥ ØªØ§Ø¨
ĠØ®ÙħØ³ Ø©
ĠØŃ Ùħ
ĠÙĥ ÙĪÙĨÙĩ
ĠØ£ Ø±Ø¶
ĠÙĪØ¥ÙĨ ÙħØ§
ĠØ¬ Ø²
Ø§Ø¦ ÙĦ
ĠÙĬÙħ ÙĦÙĥ
ĠÙĤ ÙĦ
ÙĪØ§ Ùĩ
ĠÙħØ« ÙĦØ§
ĠØ£ Ùĩ
ĠÙĪ Ø¯
ĠØ§ÙĦÙħ Ø¹Øª
ĠÙĦ ÙĦÙĪ
Ø§Ø¦ Ø²
ĠØµ Ø§Ø±
ĠØ§ÙĦØ« ÙĦØ«
ĠØ§ÙĦÙħ Ø±Ø§Ø¯
Ø± ØªÙĩ
Ø° Ùģ
ÙĦÙĩ Ùħ
ÙĦØ£ÙĨÙĩ Ø§
ĠØ£Ø¨ÙĬ Ùĩ
ĠØ£ Ø³ÙĦÙħ
ĠØ§ÙĦ ÙĨØ§Ø³
Ø±Ø« Ø©
Ø±Ùĩ ÙĨ
ĠØ§ÙĦØ± ØŃ
ÙĤÙĬ ÙĤ
ĠÙĤ Ø¯Ùħ
ĠØ§ÙĦØ¹ ÙĦÙħ
Ùģ ÙĦ
Ùģ ÙĤØ§ÙĦ
ĠØ§ÙĦØ¹ ØªÙĤ
ĠØ¨Ø§ÙĦØ ¨
ĠÙĨ ÙģØ³
ÙĦØ² ÙħÙĩ
ĠØ£Ø±Ø¨ Ø¹Ø©
Ø¬ Ø§Ø¨
Ø±ÙĬ Ø¯
Ø² ÙĦØ©
ĠÙĪØ§ÙĦØ ¨
ĠØµ ÙĦØ§
ÙĪ Ø¨Ùĩ
ĠØ§ ØŃØª
ĠØ¨ Ø³
Ø§Ø± ÙĬØ©
ĠØ« Ø¨Øª
ĠØ§ÙĦØ¥ Ø³ÙĦØ§Ùħ
Ø±Ø¬ ÙĦ
ÙĪÙĤ Ùģ
ĠÙħ Ø®
ÙĪØ¬ Ø¯
ÙĥØ§ ØªØ¨
Ùģ Ø¸
Ùģ ØµÙĦ
ĠØª ÙĥÙĪÙĨ
Ø£ ØªÙĬ
ĠÙĤ ÙĬÙĦ
ĠØ§ÙĦÙĥ Ùģ
ÙĨ ÙĪÙĨ
ÙĦØª Ùĩ
ĠØ§ÙĦÙħ Ø§Ø¡
Ø±ÙĬ Ùħ
ĠÙĪ Ø±
ÙĦÙħ Ø§
ÙģØ¥ Ø°Ø§
ĠÙĬ ÙĪØ³
ĠØª ØµØŃ
ĠØ® Ø·
ĠÙĬÙħ ÙĥÙĨ
ĠÙĦØ ¥
ĠØ§ÙĦØ¹ ÙĬÙĨ
ĠÙĪ ÙĦ
ĠÙģ ÙħØ§
Ø§Ø¬ Ø©
Ø¹ ÙĦÙī
ĠÙĪ Ø²
ĠØ§ÙĦØ£ ÙĪÙĦÙī
ĠÙĨ ÙĤØµ
ÙĥØ§ Ø©
ĠÙĦØ¹ Ø¯Ùħ
Ø±Ø§ Ø¨
ÙĪÙĥ Ø°ÙĦÙĥ
Øµ Ø§Øµ
ĠØ§ÙĦÙĤ ÙĪÙĦ
ĠØ¹ÙĨÙĩ Ø§
ĠØ´ÙĬ Ø®
ĠØ§ÙĦÙħØª ÙĨ
ÙĨ ÙĬÙĨ
Ø¨ ÙĤ
Ø§Ø¦ Ø±
ĠØ§ÙĦØª Ø¹
ĠÙĬÙĪØ³ Ùģ
ĠØ£ Øª
Ø· Ø©
ÙĨØ¹ Ùħ
Ø® ÙĪÙĦ
ĠØ¯ Ø§Ø±
ÙĨ Ø§Ø¡
ĠØµ ÙĦØ§Ø©
ÙĨ Ø¨
Ø® Ø¨Ø±
ĠÙĥ Ø§ÙĦÙħ
ĠÙħØ¹ ÙĨÙī
ĠØ§ÙĦÙĪ ÙĤÙģ
ĠØ§ÙĦØŃ Ø§ÙĥÙħ
ĠÙĤØ¨ Ø¶
Ùģ Ùī
ĠÙĬ Ø´ØªØ±Ø·
Øª Ùĥ
Ø®Øª ÙĦÙģ
ĠØ§ÙĦÙħØ³ Ø£ÙĦØ©
ÙĪ ÙĬÙĨ
ĠÙģ ÙĦÙĬØ³
ÙĬØ± Ùĩ
Ø³ ÙħØ©
Ø³ Ø®
ĠÙĬ ÙħÙĨØ¹
ĠØª ÙĦÙĥ
ĠØ£ Ùĥ
Ø§Ùĩ Ø¯
ĠØ´ Ø±ÙĬ
ĠÙĬ Ø±
ĠØ§ÙĦØ£ ÙħØ±
ĠÙħ Ø§Ø¦
ĠØ¯ Ø¹
ĠØ£Ø® Ø°Ùĩ
Ġ ÙĦÙģ
ĠØ§ÙĦÙĨ ÙĥØ§ØŃ
ĠØŃ Ùĥ
ÙĪ ÙĬØ©
ĠÙģÙĦØ§ ÙĨ
ÙĬ Ø§Ùħ
ĠÙģ ÙĥØ§ÙĨ
ĠÙħØŃ ÙĦ
ĠØ¯ Ø®ÙĦ
ĠÙĥ Ø£ÙĨ
Ø§Ø¨ Øª
ĠÙģ ØŃ
ĠØ¬ ÙħØ¹
ĠØ§ÙĦØ· ÙĦØ§ÙĤ
ĠÙĦØ µ
ÙĬ Ø³
ĠÙĤ Ø·
ÙģØª ØŃ
ĠØŃÙĬÙĨ Ø¦Ø°
ĠØ§ÙĦÙħ Ø°ÙĩØ¨
Ø§Ø ¤
ÙĦØ§ ÙĦ
ĠÙĤ ØµØ¯
ĠØ§ÙĦØŃ ÙĬ
ĠÙĪØ§ ÙĦÙĤ
Øµ Ùī
ØŃÙĬ Ø«
ĠØ§ÙĦØ³ ÙĬØ¯
ĠÙĬØ£ Ø®Ø°
ĠØª Ùģ
ĠØ§ÙĦØŃ ÙĤ
ĠØ· ÙĦØ¨
ĠØ· Ø§ÙĦÙĤ
ÙĤ ÙĦÙĩ
ĠÙĪØ¥ Ø°Ø§
ĠÙĪØ§ÙĦ ÙĦÙĩ
ĠØ±ÙĪØ§ ÙĬØ©
ĠØ§ÙĦÙĪ ØµÙĬØ©
ĠÙĬØ¯ Ø®ÙĦ
Ø· Ø¡
Ø´ Ø©
ĠØ¬ Ø¹ÙĦ
ĠØ¹ ÙħØ§
ĠØ§ÙĦØ® Ø·
ÙĪØ§ÙĦØ £
Ø° Ø¨
ĠØ¨ Ø§Ø¨
ÙĦØ§Ø« Ø©
Ø±Ø§ ÙĩÙħ
Ø§Øµ Ø¨
ÙĦÙĬ Ùħ
Ø£ ÙħØ§
ĠÙĨ Ø¹Ùħ
ÙĪØ¶ Ø©
Ø· ÙĬ
Ø¨Ùĩ Ø©
ĠÙĬ Ø¹ØªÙĤ
Ø§Ø± Ø¬
ĠÙĬÙĤ Ø¨ÙĦ
ĠÙĦ ÙĦÙĤ
ÙģØ± ÙĤ
ĠÙĪØ§ÙĦØ ³
ĠØ£ ØµÙĦ
ĠØ§ÙĦØ£ ØµØŃ
ØŃ Ø±Ùħ
Ø· Ùĩ
° ÙĬ
ĠÙĬØŃ ÙĬ
ĠØ¸ ÙĩØ±
ĠÙħ Ø¯Ø©
ĠØ¨ Ø«
Ø±Ø§Ø¡ Ø©
Ø´ ÙĩØ¯
ĠÙĨ ÙĥØ§ØŃ
Ùģ ÙĦÙĪ
ĠØ¨Ø§ Ø¹
Ø¬Ø± Ø¯
ĠØ£ Ø¨Ø§
ĠÙĬÙĤ Ø¹
ĠØ§ÙĦÙħØ³ Ø¬Ø¯
ĠØ£Ø®Ø¨Ø± ÙĨØ§
ĠØ£ ÙĤÙĦ
ĠØ´ ÙĩØ¯
ĠØ¬ Ø§Ø¦Ø²
Ø¨Ø¹ Ø¯
ĠØ³Øª Ø©
ÙĪ Ø«
ĠØ£ÙĪ ÙĦ
ĠØ±Ø¬ ÙĦØ§
ĠØ§ÙĦØ±ØŃ ÙħÙĨ
ĠÙĦÙĥ ÙĦ
ĠÙĦÙĤ ÙĪÙĦÙĩ
ĠØ¨ ÙħØ¹
ĠÙĦ ÙĦØª
ĠØ§ÙĦÙĪ Ø§
Ø¶ ØŃ
ĠØ§ÙĦØ´ Ø§Ø±ØŃ
Ø§ Ùĥ
Ø¨ Ø®ÙĦØ§Ùģ
ĠØ§ÙĦØ¹ ÙħÙĦ
Ø¨Ø§ Ø¹
ĠØ§Ø´Øª Ø±Ùī
ĠØ¨ÙĨ Øª
Ø¬ ÙĪØ¯
ØªÙĩ Ùī
ĠÙĦØ² ÙħÙĩ
ÙĤ ÙĤ
ĠÙģ ÙĤ
ĠÙħÙĨ Ø¹
ĠØ§ ÙĤØª
ÙģØ³ Ø®
ĠÙģÙĬ ÙĥÙĪÙĨ
ĠØª ØŃØª
ÙĤÙĬ ÙĤØ©
Ġ ÙĦÙģØ¸
ĠÙĥ Ø³
ÙĪ Ø¨Ø§
ĠÙĬÙĨ Ø¨ØºÙĬ
ĠØ£Ø´ ÙĩØ±
ĠÙģ Ø¬
ĠÙĪ Ø§Ø¨ÙĨ
ĠÙĦÙĦØ ¨
ĠÙĪ Ø°ÙĦÙĥ
ÙĪØ§ Øª
ĠØ§ÙĦÙĪ ÙĤØª
Ø¸ Ø§ÙĩØ±
ÙħØ³ Ø£ÙĦØ©
ÙĦØ² Ùħ
ĠÙĪÙĨ ØŃÙĪ
ĠØ§ÙĦÙĬ ÙħÙĬÙĨ
ĠØ¨Ø§ÙĦ ÙĨ
ĠØ§ÙĦÙħ ÙĪÙĦÙī
ĠØ§ÙĦÙĤ Ø±
ĠÙĪÙĩ Ø¨
ĠØ± Ùħ
ĠØ§ÙĦÙħØ§ ÙĦÙĥ
ĠÙĬØŃÙĬ Ùī
ĠØ¨ Øµ
Ø¶ Ø±Ø¨
ĠØ¬ ÙĨØ³
ĠØ² Ø§Ø¯
Ø¶ÙĪ Ø¡
ĠÙĤ Ø±
Ø¶ Ø§ÙĨ
ĠØºÙĬØ± ÙĩØ§
Ø³Ùħ Ùī
Ø±Ø¨ Ø¹
ÙĬÙĨ Ø§
ĠÙĨ Ø¬
ĠØ§ÙĦÙħØ°Ùĥ ÙĪØ±
ĠØ¨Ø§ÙĦØ ´
Ø§ Ø©
ÙĬ Ø¨Ùĩ
Ø³ Ø§ÙĨ
ĠØ¬ Ø§Ø¡
ĠÙĪØ¹ ÙĦÙī
ÙĨØ¨ÙĬ Ùĩ
ĠØ¨Ø´ Ø±Ø·
ĠØ£ ÙħØ©
ĠØª Ø²ÙĪØ¬
Ø¹ Ø±
Øµ Ø©
ĠÙĦÙĩ ÙħØ§
ĠØ¹ Ø²
ÙĦÙģ Ùĩ
Ø¦ Ùĩ
ĠÙĬØŃ Ø±Ùħ
ÙĪ ÙĦÙĬØ³
Ùĥ Ø°Ø§
ĠØ¨ Ø®
Ø¦ ÙĦ
ĠØ¨Ø§ ÙĦÙģ
ĠØ¨ ÙĬØª
ĠØ§ÙĦÙħ Ø¨ÙĬØ¹
ĠÙĦØ º
ĠÙĪØ§ÙĦØ ¥
ĠØµ ØŃØ©
ĠÙĬØ³ ÙĤØ·
ĠØ¹Ø¨Ø§ Ø³
ĠÙĪ ØŃØ¯
Ø¶ ÙħÙĨ
Ø³Ø¨ Ø¨
Ùģ Ø§Ø¡
Ø§ÙģØ¹ ÙĬ
ÙĪ ÙħÙĩ
ĠÙĦØ °ÙĦÙĥ
ĠØ´ ÙĩØ§
ĠÙĪØ¬ ÙĪØ¨
ĠÙĪØ¹ ÙĦÙĬÙĩ
ĠØ§ÙĨ Øª
ĠØ¥ Ø¨
ĠØ§ÙĦØ£ Øµ
ĠÙĤ Ø±ÙĬ
ĠØ§ÙĦØ´ÙĬ Ø®
ĠØ§ÙĦØ¬Ùħ Ø¹Ø©
ĠØ¨ ÙĦØº
Ø§Ø¬ Ø¨
ĠÙĦØ£ÙĨÙĩ Ø§
ĠØª Ùĥ
ĠØ¨ÙĨ ÙģØ³Ùĩ
ĠØ¨ÙħÙĨ Ø²ÙĦØ©
Øª ÙĦ
ĠØ§ÙĦÙħ Ø«ÙĦ
ĠØª Øµ
ÙĤØ± Ø§Ø±Ùĩ
ĠØ§ Ø¨Øª
Ùħ ÙĥÙĨ
ÙħØ§ Ø¦Ø©
ĠØ±ÙĪØ§ Ùĩ
Ø´ÙĬ Ø¡
ĠÙĬ Ø¸ÙĩØ±
ĠØ¶ ÙħÙĨ
ÙĬÙħ Ùħ
Ø± ÙĪØ¬
ĠØ§ÙĦÙĪ ÙĦÙĬ
ĠÙĥ Ø§
ØŃ ÙħØ¯
Ùĥ ÙĬ
ĠØ£ÙĪ ØµÙī
ĠØ§ÙĦÙĪ ÙĥÙĬÙĦ
ĠØµØ§ØŃ Ø¨Ùĩ
Ø§ ÙĤÙĬ
ÙĪ Ø¨Ø©
ĠØ¶ ÙħØ§ÙĨ
ØŃ Ø±Ø§Ùħ
ĠØ§ÙĦÙħ Øº
ĠÙĦØ ¬
ĠÙĦÙĨ ÙģØ³Ùĩ
ØŃ Ø§ÙĤ
ĠØ§ÙĦØŃ Ø³ÙĨ
ĠÙĪÙĤ Ùģ
Ø¹ ÙĦÙħ
ĠØ£ ØµØŃØ§Ø¨
ĠØ§ÙĦÙĪ Ø¬Ùĩ
ØŃØª ÙħÙĦ
ĠØ¬Ùĩ Ø©
ÙĤ Ø¨ÙĦ
ĠØ¹Ø¨ Ø§Ø±Ø©
Ø±ØªÙĩ ÙĨ
Ø´ Ø¯
ĠØ£Ø® Ø±Ùī
Ø£ ÙħÙĦ
ĠÙħØ³ Ø£ÙĦØ©
ĠÙĬ Ø¹Øª
Ø§Ø º
ĠØ§ÙĦØ£ ÙħØ©
ĠØ¬ Ùħ
Ø¸ Ùħ
ĠÙģØ§ Ø³
Øª ØŃ
Ø® Ø°Ùĩ
Ø³Ùħ Ø¹
ĠØ£ Ø¹ØªÙĤ
ÙĬØ§ Ø³
ĠØ¶ Ø±Ø¨
Ø° ÙĬ
ĠÙĦØ ´
ĠÙħ Øµ
ĠØ¹ Ø§Ø¦
ĠØ§ÙĦÙħØ¯ ÙĪÙĨØ©
ĠØ´ÙĬØ® ÙĨØ§
ĠØµ Ø±ØŃ
ĠÙħØ¹ Øª
ĠØ§ÙĦÙĤ ÙĬÙħØ©
ĠÙħ Ø±Ø©
ĠØ¬ ÙĪØ§Ø²
ĠÙģ Ø±ÙĤ
Ø¶ Ø§Ø±
ÙħØª ÙĨØ¹
Ø¨ Ø±Ùĩ
ĠÙĪ ÙĤÙĬÙĦ
ĠÙĬ Ø§
ĠØ£ÙĨ Øª
ĠØ£Ø® Ø±Ø¬
ĠØ¨ÙĬØ¹ Ùĩ
Ø¨Ø± Ø£
ĠØ¨Ø§ ÙĦÙĪ
ÙģØ¥ ÙĨÙĩ
ĠØ¹Ø±Ùģ Ø©
ĠØ¨ÙĨ ÙĬ
ĠÙģØ¹ ÙĦÙĩ
ĠÙĩ Ø±
ĠÙĦÙĦØ ¥
ĠÙģØ¹ ÙĦÙĬÙĩ
ÙĪ ÙĩÙħ
Ø± Ø²
ĠØ§ÙĦÙĤ Ø¶Ø§Ø¡
ĠØ§ÙĦØ¨ ÙĬÙĨØ©
ÙĦØŃ ÙĤ
Ø« ÙĦÙĩ
ĠØ¯ Ø§
Ø§Ø¦ Ø¨
ĠØ§ÙĦØµ ØŃÙĬØŃ
ĠØ±Ø£ Ø³
Ùħ ÙĨÙĩ
ĠÙħ Ø±Ø¶
ĠÙĪØ¹ ÙĨ
ĠØ§ÙĦÙħ ÙĪØª
Ø§Ùĩ Ø±Ùĩ
Ø¯ Ø¨
ĠØ£ Ø¬Ø±
ĠÙĥ ÙĪÙĨ
ĠÙĪØ§ ÙĦÙĪ
ĠÙģÙĩ ÙĬ
Ø¹ Ø·
Ø±Ø§ Ø¶
Ø±ÙĬ ØŃ
Ø¹ Ø¶
ĠØ¹ Øª
ĠÙĬÙĤØª Ø¶ÙĬ
ĠØ§ÙĦØ¹ Ø¯
ĠØ¹ Ø§
ĠØ¹ Ø¨ÙĬ
ĠØ® Øµ
ÙĬØ¹ Ø©
ĠÙħØ¹ ÙĦÙĪ
ĠÙĪØ§ ÙĦÙģ
ÙĬ ØŃ
ĠÙħ ÙĩØ±
ĠØŃ ÙĬØ§
ĠØ£ÙĬ Ø§Ùħ
ĠØ¥Ø³ ØŃØ§ÙĤ
ÙĪ ÙĨÙĩØ§
ĠØ¨ Ø´ÙĬØ¡
ĠÙĬØŃ ÙĨØ«
Ø³ØªØŃ Ø¨
ÙĪ Ø¯Ùĩ
ĠØª ÙĦÙģ
ĠØ£Ø¨ Ùī
ÙĩÙĪ Ø¯
ĠÙģ ÙĩÙĦ
ĠØ§ÙĦÙħ ÙĤØ±
ĠØ¥ ÙħØ§
ĠØ§ÙĦØŃ Ø¯ÙĬØ«
ÙģØ¹ Ùĩ
ÙĪØ¹ Ùĩ
ÙĬ Ø§ÙĨ
ĠØŃ ÙħÙĦ
ĠØ¥ Ø°ÙĨ
Ø±Ùģ Ø©
ĠØ´ ÙĩØ±
ĠÙĩØ± ÙĬØ±Ø©
Ùĥ Ø³
Ø§ÙĦØ £
Ø¹ Ø§Ùħ
ĠØ¨Ø§ ÙĦÙĥ
ĠÙĬØŃ ÙĦ
ĠØ§ÙĦØ¯ ÙĬØ©
ÙĪÙĩ ÙĬ
ĠÙħ Ø§Ø¡
ĠØ§ÙĦÙħ Ø·
ĠØ¥ ÙĨÙĩ
Ø§ Ø·
Ø· ÙĦØ§ÙĤ
ĠÙĨ Ø¸
ÙĤØµ ÙĪØ¯
ĠÙĤÙĦ ÙĨØ§
Ø§Ø¦ Ùħ
ÙģØ³ Ø¯
ĠÙĬØ² ÙĬØ¯
ÙĤÙĬ Ø¯
ĠÙĬ Ø±ÙĬØ¯
Ø¯ÙĬ Ùĩ
ÙĤ Ùī
Ø§Ø± ÙĤ
ĠØ± Ùĩ
ĠÙħØ§Ø¦ Ø©
Ø¥ Ø°Ø§
ĠØ§ÙĦÙĪ Ø·Ø¡
Ùĥ ÙĨÙĩ
ĠØ®ÙĦØ§Ùģ Ø§
ĠÙħ ÙĪØ¶Ø¹
ĠØµÙĦØ§ ØªÙĩ
ĠØ§ÙĦØ® ÙĦØ§Ùģ
ĠØ§ÙĦÙĤØ¨ Ø¶
ĠØ£Ø¬ Ø±Ø©
ĠØ§Ø¯ Ø¹Ùī
ĠØ§ÙĦØ´ Ø±Ø·
ĠØ§ÙĦ Ø±ÙĩÙĨ
ĠØ§ÙĦØ£ Ø¬
ĠØ¯ ÙĬÙĨÙĩ
Ø¨Ø§ ØŃ
ĠØª ÙĤØ¯
ĠÙĪØ§ Ø³Øª
Ø±Ø£ ÙĬØª
ĠÙĪÙĦØ¯ Ùĩ
Ø± ÙĪØ±Ø©
ĠØ¯ Ùħ
ĠÙĬÙĨ Øª
ĠÙĪØ· Ø¦
Ø§Ø¦ Ø¯Ø©
ĠØ§ÙĦØ³ Ø¨
ĠØ³Ùħ Ø¹Øª
ĠØ³ ÙĤØ·
Ø¨ÙĬ ÙĦ
ĠØ§ÙĦØ® ÙĬØ§Ø±
ĠÙĪ ÙĬÙĨ
ĠØ± Ø¯Ùĩ
ÙĪ Ø£ÙĨ
Ùģ ÙĪ
Ø§ÙĦØ ¹
ĠÙĪØ§ÙĦØ ®
ĠÙĦØºÙĬØ± Ùĩ
ÙĤ Ø¨Ø©
ØŃØ¯ ÙĩÙħØ§
ĠÙĬØ¹ Ø±Ùģ
Øµ ÙĪØ±
ĠØ§ÙĦÙħØ³ÙĦÙħ ÙĬÙĨ
Ø¬ Ø§Ø²
ĠØ¹Ø§Ø¦ Ø´Ø©
ĠØ¨Ø£ Ø³
ĠØ¨Ø¹Ø¶ Ùĩ
ĠÙħ ÙĪØªÙĩ
Ø° ÙĥØ±Ùĩ
ĠØ§ÙĦÙĥ ÙĦØ§Ùħ
ĠÙħ Ø·
ĠØª Ø·
ĠØ§ÙĦÙģ Ø±
ĠØ³ÙĬ Ø¯Ùĩ
ÙĪ ÙħØ©
ĠØ§ÙĦØ¥ Ø¬Ø§Ø±Ø©
ĠÙĬØŃ ØµÙĦ
ĠØ§ÙĦÙĬ Ø¯
ĠÙģØ³ Ø®
ĠØ¹ Ø§Ø¯
ĠÙĪ Ø¨Ùĩ
ĠÙħ ÙĬØª
ĠÙĤ Ø§ÙĦØª
Ø« ÙħØ§ÙĨ
ĠØª Ø¯
ĠÙģØ§ ÙĦÙħ
ĠØ§ÙĦØ£ Ø®
Ø§ ÙĦÙĩ
ĠÙĦØ ®
ĠØ¹Ø¨ Ø¯Ùĩ
ĠØ¹Ø¨Ø¯ Ø§
ĠÙĪ ÙħØ¹
ÙĤ Ø§Ùħ
ĠØ¨ÙĬ Ø§ÙĨ
ĠÙĤ Ø¶Ø§Ø¡
ÙĪØ§ Ùģ
ĠÙĪ Ø§Ø±Ø«
ĠØ§ÙĦÙĪ Ø±Ø«Ø©
ĠÙĪØ§ÙĦØ ¬
ĠØ£Øµ Ø§Ø¨
ÙĦÙĬ ÙĤ
ĠØŃ ØµÙĦ
ĠØŃ Ø±Ùħ
Ø£ÙĨ Øª
ĠÙĪ Ø¶Ø¹
ĠØ¨Ø§ÙĦØ ³
ĠÙĦÙĦØ ³
ÙģØ± Ø¯
ÙĦØŃ Ø©
ĠØ¥ Ø®
ĠØ§ Ø«ÙĨ
Ùħ ÙĦÙĪ
ĠÙħ ÙĪØª
ĠØ¨ Ø³Ø¨Ø¨
Ùģ Ø°
ĠÙĥ Ø¹
ĠØ¨Ø§ÙĦØ ¬
ĠÙĬÙĥ Ø±Ùĩ
ĠØ¹ ÙħÙĦ
ÙģØ± Ø¹
ĠØ¹ ÙħØ¯
ÙģØ§ ÙĤ
ĠØ§ÙĦÙĥØªØ§Ø¨ Ø©
ĠØ§ÙĦÙħØ¹Øª ÙħØ¯
ÙĤ Ø±Ø¨
ĠØ§ÙĦÙħ Ø¯Ø©
ĠØ³Ø¨ ÙĤ
ĠØ¥ÙĦÙĬ ÙĩØ§
ÙĪ Ø°ÙĦÙĥ
Øª Ø§ÙĨ
Ø§Ø± ÙĬ
ĠØ²ÙĪØ¬ ÙĩØ§
ĠØ³Ø¨ Ø¨
ĠØ¨ ÙĤØ¯Ø±
ĠÙĬ Ø°ÙĥØ±
ĠØ¯ Ø®
ĠØ§ÙĦØ± Ø¯
ĠÙħØª Ø¹ÙĦÙĤ
ĠÙģ ÙĨ
ĠÙĪØ§ÙĦØ ¯
ĠÙĤØª ÙĦÙĩ
Ùħ ÙĦÙĩ
ĠÙħ ÙĥØ©
ĠÙĨ Ø°Ø±
ÙĪ Ø±Ø§
ĠÙħ Ø±Ø§
ĠØª Ø®
ĠØ§ÙĦÙĨ Ø³
ĠÙĤØ¨ Ø¶Ùĩ
Ø°Ø± Ø¹ÙĬ
ĠØ§ÙĦÙĨ ØµÙģ
ÙģÙĩÙĪ Ùħ
Ø¯Ø§ ÙĤ
ĠØ¨Ø¯ ÙĦ
Ø¨ Ø¶
Ø¨ Ø§ÙĨ
ĠÙħØ¹ ÙĬÙĨ
ĠØ²ÙĪØ¬ ØªÙĩ
Ø£ ÙĦ
Ø§Ø¦ Ø¯
ĠÙĪØ§ÙĦØ ´
ÙĪÙĥ Ø§ÙĨ
ĠØ¨ÙĬ Ø¯Ùĩ
ĠÙĬ ÙĪÙħØ§
Ø¬ Ø¹
ĠØ§ÙĦÙħ ÙĥØ§ØªØ¨
ĠÙĪØ¬ ÙĪØ¯
ĠÙĬØŃ ÙĦÙģ
ĠØº Ø³ÙĦ
ĠØ§ÙĦØ¯ Ø§Ø±
ĠØ£ Ø°ÙĨ
Ø§ÙĨ Ø¹
ĠØ³ÙĦÙħ Ø©
Ø¯ Ùī
ĠØ¨ Ø²
ĠØ§ÙĦØª ØŃ
Ø¨ ÙĪØª
ĠÙĪ Ùģ
ĠÙĬ ÙĪØ¬Ø¯
ĠÙĨ ÙĪÙī
Ø¨ Ø·
Øª ÙĨØ¨ÙĬÙĩ
Ùĥ Ùģ
ĠØµ Ø§ÙĦØŃ
ĠÙĪÙĬ Øª
Ø®Øª Ø§Ø±
ÙĬ ÙĤ
Ø¨ ÙĪ
Ø« Ùĩ
ĠÙĦØ ¯
ĠØ£Ø±Ø¨ Ø¹
Ø§Ø¤ Ùĩ
ĠÙĪ ÙĬØ±
ÙĦØ§ Ø³Øª
ĠØ§Ø®Øª ÙĦÙģ
Ø¨ Ø§Ø¨
ĠÙĤ Ø§Ùħ
Ø¥ Ø°
ĠØ´ Ø®Øµ
ĠØ§ÙĦØ´ Ø§ÙģØ¹ÙĬ
ĠÙĬØ¯ ÙĦ
ĠØ¨ ÙĬØ¯
Ø¬ Øª
ĠÙĨ ÙĩØ§
ÙĪØ¹ ÙĨ
ĠÙĥ Ø£
Ø§Ø ¸
ĠØ§ÙĦØ¹ Ø¯Ø©
ÙģÙĬ Ø§ÙĨ
ĠÙĦÙĦØ ´
ĠØ£Ø´ Ø§Ø±
ĠÙģ ÙĦ
Ø§ÙĦØ ¯
ĠÙĨ ÙĬØ©
ĠØ§ÙĦØ¥ ÙĤØ±Ø§Ø±
ĠÙĨØµ ÙĬØ¨Ùĩ
ĠØ³ ÙĨ
ĠØ¨ÙĨ Ø§Ø¡
ĠÙģÙĬÙĩ ÙħØ§
ĠÙĪÙĥ ÙĦ
ĠØªØ¹ ÙĦÙĤ
ÙĪØµ Ùī
ĠØª ÙĥÙĨ
ĠØ« Ø§Ø¨Øª
Ø£ Ø®Ø°
ĠØ§ÙĦØ£ Ø°Ø±Ø¹ÙĬ
Ø¬ ÙĪØ¨
Ø¨Ø§ Øª
Ùĩ Ø°Ø§
ĠÙģ ÙħÙĨ
Ø¬ Ø§Ø±
ĠØ¥ ØŃØ¯
Ø² Ø§
ĠØ´ Ùĥ
ĠØ¬ ÙħØ§Ø¹Ø©
ĠØ§ÙĦØ¬ Ø²
ĠØ§ÙĦÙĥ ÙĦ
ÙĤØ§ Øª
ĠÙģ Øµ
ĠØ¨Ø¹ ÙĬÙĨÙĩ
ĠØ· Ø±ÙĬÙĤ
ĠÙħ ÙĥØ§
ÙĦØ§ ØŃ
ĠØª Ø¬Ø¨
ĠÙĪØ§ÙĦØ «
ĠØ§ÙĦØº Ø§ØµØ¨
ĠÙĬØ¤ Ø®Ø°
ĠØ¨ÙħØ¹ ÙĨÙī
ÙĬ Ø¯Ùĩ
Ùħ ÙĪØ¹
Ø±Ø¨ Ø¹Ø©
Ø¨ÙĨ ÙĬ
Ø¨Ø¹ Ø¶
Ø¯ ÙĬØ©
ÙģÙĬ Ø¯
ĠØ¨Ø§ÙĦØ ¯
ĠØ§ÙĦØ³ ÙĦØ§Ùħ
ÙĤØ§ ÙĤ
ĠØ£ ÙħÙĩ
ĠØ§ÙĦÙħ Ø±ØªÙĩÙĨ
ĠØ§ÙĦÙģ Ø±Ø¶
ĠÙħØŃ Øª
ĠØ§ÙĦÙĬ ÙĪÙħ
ĠÙĪ Øº
ÙĪÙĨ Ø³
ĠØ² ÙĬØ§Ø¯Ø©
ÙĩØ§ ÙĨ
Ø±Ø¶ Ø§
ĠØ§ÙĦØ« ÙĪØ¨
ĠÙĪØ¹ Ø´Ø±
Ø§Ø´ Øª
² ÙĪØ¬
ĠÙģ Ùħ
Ø¨Ø± Ø§Ø¡
ĠØ£Ø¬ Ø²
ĠØ¹Ø· Ùģ
ĠØª Øº
ĠØ³ ÙħØ¹
ĠØ¹ÙĦÙĬÙĩ ÙħØ§
ĠØ¬Ø¹ ÙģØ±
ÙĬ Ø¡
ĠØ§ÙĦ Ø±Ùĥ
ĠØ¬Ø² Ø¡
ĠØ§ÙĦØŃ ÙħÙĦ
ĠÙĦÙĬ Ø³Øª
ĠØ´ÙĩØ§ Ø¯ØªÙĩ
ĠÙħ Ø´Øª
ĠØ¨Ùĩ Ø°Ø§
ĠÙĪØ§ ÙĦÙĥ
ĠØ±Ùħ Ø¶Ø§ÙĨ
¸ Ø§ÙĩØ±
ĠØª ØµØ±Ùģ
ĠÙĬØ¬ Ø¯
ĠØ§ÙĨ ØªÙĩÙī
ĠØ§ÙĦØ¨ ØŃØ±
ĠØ§ÙĦØ¶ ÙħØ§ÙĨ
ÙĬ Ø·
Ø¨ÙĬ Ø¨
Ø±Ùĩ ÙħØ§
ĠØ§ÙĦØ¯ Ùħ
ÙĦØ °
ĠÙĨ Ø²
ĠØ§ÙĦØ³ Ø§Ø¨
ĠØ§ÙĦØ±Ø¬ ÙĪØ¹
ÙĪØ§ÙĦ ÙĦÙĩ
ĠØ§ÙĦØ« Ø§ÙĨÙĬØ©
ĠØ³ ÙģÙĬØ§ÙĨ
ĠØ® ÙĬØ±
ĠØ£Ùģ Ø¶ÙĦ
ĠÙĬØŃØª ÙħÙĦ
ĠØŃÙĥ ÙħÙĩ
Ø±ÙĬ Ø¶
Ø±Ø§Ùĩ Ø©
ĠØ§ Ø³Ùħ
Øµ ÙĬØ±
ĠØ± ÙģØ¹
ĠÙģ ÙģÙĬ
ĠÙĨ ÙĤÙĦ
ÙĪØ¹ ÙĦÙī
ĠØŃ ÙĨØ«
ĠÙĬØ¨ Ø·ÙĦ
ĠØ§ÙĦØ ºÙĬØ±
ÙĨÙĩ Ùħ
ĠÙĬÙĤ Ø·Ø¹
ÙĪÙĬ Øª
ĠØ§ÙĦØ³ ÙĨØ©
ĠÙħØŃ Ø±Ùħ
ĠØªÙĤ Ø¨ÙĦ
ĠØ² ÙħÙĨ
ĠØ¨Ø£ ÙĦÙģ
ĠØ£ Ø·ÙĦÙĤ
ĠØª ÙĤØ±
ĠÙĦ ÙĦÙĩ
ĠÙĬÙħ ÙĬÙĨ
ĠØ£Ø¹ Ø·
ĠÙĬ Ø¹ØªØ¨Ø±
ĠØ¨ ÙĦØ¯
ĠØ§ÙĦØº Ø³ÙĦ
ÙĪ Ø´
ÙĪØ¹ Ø§
ÙĬ Ø«
ĠÙģ ÙĪÙĤ
ĠÙĪ ÙĦÙĥÙĨ
ĠÙģÙĬ ÙħÙĨ
ĠØµ ØºÙĬØ±
ĠØ§ÙĦÙĪ Ø§ÙĤ
ĠÙĪÙĥ Ø°ÙĦÙĥ
ÙĪØ§ÙĦØ Ń
ÙĨ Ùħ
Ø¨ ÙĩØ§
ĠØ¨ ØŃÙĬØ«
ĠØ±Ø£ Ø³Ùĩ
ÙĨ Ø²
ĠØ£ ÙĥÙĦ
Ùģ Øµ
ÙĦÙĥ Ùĩ
ĠØŃ ÙĦ
ĠÙĩ Ø´
Ø¹Øª Ø¨Ø§Ø±
ÙĪÙĦÙĬ ÙĨ
ĠÙĪØŃØ¯ Ùĩ
Ø¬ Ø³
ĠÙĨ ÙģÙĤØ©
ĠØ® Ø§Øµ
ĠÙĦÙĦØ ¬
Ø¨ Ø§Ø±Ø©
ĠÙĬ Ø³ÙĦÙħ
ĠØ« ÙħØ§ÙĨ
ĠØ¹ Ø¬Ø²
ĠÙĤ Ø±Ø¨
ĠØ§ÙĦÙħ ÙĤ
ĠØ¨Ø§ÙĦØ ®
ĠØ§ÙĦÙģ Ø±ÙĤ
ÙĤØª ÙĦ
Ùĥ ÙĬÙĨ
Ø±Ø§Ùĩ ÙĬÙħ
Ø± ÙħØ§Ø¡
ĠØ§ÙĦÙĤ Ø¯
ĠØ§ÙĦÙĪ Ø§Ø±Ø«
Ø§ ØµÙĦ
ĠÙħ ÙĪØ³
ĠØ§ÙĦ Ø±Ø§
ĠÙĬÙħ ÙĬÙĨÙĩ
ĠÙĬØ¶ Ø±
ĠØ´Ø¹ Ø¨Ø©
ĠØ§ÙĦØ£ Ø´
ÙĤÙĬ Ùħ
ĠØ« ÙħÙĨ
Ø¨Ø¹ Ùĩ
ĠØ§ÙĦØ¸ Ø§ÙĩØ±
ĠØ§ Ø¨
Ø¶ ÙĬØ©
ĠØ± ÙĪÙĬ
ĠØ§ÙĦØ£ Ø³
ĠÙĪ Ø±Ø¯
ĠØ¹ Ø±
ĠÙĪØ§ÙĦØ µ
Ø¯ Ø³
ĠÙĬ ÙĪÙĨØ³
Ø§Ùħ Ø¹
ĠØ§ÙĦÙģ Ø³Ø®
ĠÙĪÙģÙĬ Ùĩ
ÙĨ Ø§ÙĨ
ĠÙĬ ÙĨØ§
ÙĤØ§ ÙħØ©
ÙħØ³ Ø©
Ø¶Ø§ Ùĩ
ĠÙĬØµ ÙĦÙĬ
Ø£ ÙĦØª
ÙĤØ± Ø§Ø¡
Ø¢ ÙĨ
ĠÙĤ Ø³Ùħ
ĠØ§ÙĦØ£ Ø¬Ø±Ø©
Ø¹Øª ÙĤÙĩ
ĠØŃØ¬ Ø©
ĠØ¹Ø¨ÙĬ Ø¯
ĠØ¨ Øº
ÙĦØ¨ Ùĩ
ĠØµ ÙģØ©
ĠÙĦ ÙĦÙģ
ĠÙħ Øº
ĠØ¹ ÙĤ
Ùĥ Ø§Ùħ
ĠØ§ÙĦÙħ ÙĪÙĥÙĦ
Ø¶ Øª
ĠØ® Ø¨Ø±
ÙĬØ§ Ùĩ
ĠÙĬØ¬ Ø¹ÙĦ
ĠØ¨ ÙģØªØŃ
Ø¬ ÙħØ§Ø¹
ĠØ³ ÙĬØ¯
Ø¨ÙĬ Ùĩ
ĠØ¯ ÙĬØ©
ĠÙĦØ£ Ø¨
ĠØ§ÙĦØ¨ Ø§ÙĤÙĬ
ĠØ¨Ø§ÙĦØ µ
Ø¨ Ø±Ø©
Ùģ ÙĨ
ĠØ§ÙĦÙĤ Ø·Ø¹
Ø±Ø§Ùĩ ÙĨ
Ø¯ Øª
ĠØ¨ Ø¶Ùħ
ĠÙĤ ÙĬØ¯
ĠØª Ø²
ĠØ° ÙĩØ¨
ĠØ£ Ø±
Ø£ Ø±Ø£ÙĬØª
ĠØ¯ Ø±Ø§ÙĩÙħ
ĠØ¨Ø§ÙĦØ º
ĠØ£ ØªÙī
ĠØ¹ Øµ
Ø£ Ø°
ĠØ§ÙĦÙĪ Ø¶ÙĪØ¡
ĠØ£Ùħ Ø±Ùĩ
ĠØ§ÙĦÙħØ¯ Ø¹ÙĬ
Ø¨ ØªÙĩ
ĠÙĦØ£ Ø¬ÙĦ
ÙĪ Ø°ÙĥØ±
ĠÙģÙĬ ÙĨ
Ø¥ ÙĦØ§
Ø¹ ÙĪØ¯
ĠØ¹ ÙĦÙĤ
ĠÙĬ ÙģØ¹ÙĦ
Ø« ÙĨÙī
Ø¦ Øª
ĠØ§ÙĦÙħØŃ Ø±Ùħ
ĠØ§ÙĦ ÙĨÙĩ
ĠØ§ÙĦØŃ Ø§ÙĦ
ĠØ£Øµ ÙĦØ§
ĠØ§ÙĦØ£ Ø¹
ĠØ¨Ø§ÙĦØ «
ÙĦØ¨ Ø³
ĠØ«ÙĦØ§Ø« Ø§
ĠØ§ÙĦÙĩ Ø¨Ø©
ĠÙģÙĬ Øª
ĠÙĬØª Ø¹ÙĦÙĤ
ĠÙģØ§ÙĦØ £
Ùĩ Ø±Ø§
ĠØ§ÙĦØŃ Ø±Ø¨
ĠØ§ÙĦØª ØµØ±Ùģ
ĠØ· ÙĦØ§ÙĤ
ĠÙħØŃ ÙĦÙĩ
ĠØ§ÙĦÙħØ³Øª Ø£Ø¬Ø±
ĠÙĥ Ùħ
ĠØ§ÙĦÙĤ Ø³ÙħØ©
ĠÙĨØµ ÙĬØ¨
ĠØ§ÙĦØ§ Ø¨ÙĨ
ĠØ§ÙĦÙĪØ§ ØŃØ¯
ĠÙħ ÙĤØ¯
ĠØ§ÙĦÙħ Ø®
ĠØ§ÙĦØ£ ÙĨ
ÙĪØ¹ ÙĨÙĩ
ÙĤØª Ø¶Ùī
ĠÙĥØ« ÙĬØ±
ĠØŃ ÙĤÙĬÙĤØ©
ĠØ¨Ùĩ ÙħØ§
ĠØ£Øµ ÙĦÙĩ
ĠØ±Ø£ ÙĬØª
ĠØ§ Ø±Øª
¦ ÙĦØ§
ÙĬÙĨ Ø¦Ø°
ĠØ§ÙĦØ¨ Ø±
ĠØ«Ùħ ÙĨÙĩ
ĠÙĬØ´ ÙĩØ¯
Ø«ÙĨ Ø§Ø¡
Ø¨ Ø·ÙĦ
ĠÙĪ Ø±Ø«
Ø§ÙĦØ ¬
ĠØ§ÙĦØ¥ ØŃØ±Ø§Ùħ
ĠØ§ÙĦØ« ÙĦØ§Ø«Ø©
ÙĪ Ø°
ĠØ® ÙĬØ§Ø±
ĠØµØ¯ ÙĤ
ĠØ¨ Ø§ÙĨ
ĠØ§ÙĦÙħ Ø²
ĠØ§ÙĦÙħ ÙĨØ¹
ĠØŃ ÙĨ
ĠØ§ÙĦØ£ ÙĦÙģ
ĠØ§Ø¨Øª Ø¯Ø§Ø¡
ÙĬ ÙĦØ§
Ø± ÙħØ§
Ùģ Ùĥ
ĠØª Ø¨ÙĬÙĨ
ĠØ§ÙĦØ® Øµ
ĠØº Ø§ÙĦØ¨
Ø®Øª Øµ
ĠØ¨ÙĬÙĨÙĩ Ùħ
ĠØ¥Ø¨ Ø±Ø§ÙĩÙĬÙħ
ĠÙĥ ÙĦÙĩØ§
ĠØª Ø¬
ĠØ§ÙĦÙĨ Ø¸Ø±
ĠØŃ Ø³
ĠØ§ÙĦØ£ ØµØŃØ§Ø¨
ĠØ§ÙĦØ¹ Ø¨Ø§
Øº Ø±
Ø¹ÙĬ Ùģ
ÙĨØ« Ùī
ĠØª Ø±Ùī
ĠØŃ Ø¬Ø±
ĠØ± Ø´Ø¯
ĠØ´ ÙĩØ§Ø¯Ø©
ĠØ¯Ø§ ÙĪØ¯
Ø¹ ÙĨÙī
Ùĥ ØŃ
ĠÙģØ¹ ÙĦÙī
ĠÙĬØŃØª Ø§Ø¬
ÙĨ Øµ
ĠØ¨ Ø°
ĠÙģ Ø¶ÙĦ
Ø±Ùĥ Ùĩ
ĠØ± Ø§Ø¬
ÙģØ¹ ÙĦÙĩ
ĠÙĪØ· Ø¡
ÙĦØ ¬
ĠØµ ÙĪÙħ
ĠØ§ÙĦØ´ ÙĩØ§Ø¯Ø©
ĠØ§ÙĦØ¬ Ø¯
Ø§Øª ÙĦ
ÙĪ ÙĨØ§
ĠØ³ Ø¹Ø¯
ĠØ§ÙĦØ£ Ø¬ÙĦ
ĠØ§ÙĦÙĤ ØªÙĦ
ĠØ§ÙĦØ²ÙĪØ¬ Ø©
ÙģÙĬ ÙĦ
ÙĬØ§ Øª
Ø¹ ÙĬØ±
ĠÙĪ Ø¶
ĠÙħ ÙĥØ±
ĠØ£ÙĨ Ø³
ĠØ¹ ÙĬÙĨÙĩ
ĠØ§ÙĦØ¨ ÙĬØª
Ø¯Ùħ ÙĬ
ĠØ¹ÙĨØ¯ ÙĨØ§
ĠØ£Ø¬ ÙĨØ¨ÙĬ
ĠÙĬÙĤØª ÙĦ
ĠØ¨ Ø·ÙĦ
ĠÙģ Ø¯
ĠØ§ÙĦÙħ Ùģ
Ø§Ø± Ø§
ĠØ§ÙĦÙĪ Ø§Ø¬Ø¨
Ø±Ø¨ ØŃ
Ø®Ø± Ùī
ÙĪØ¯ Ø¹
Ø§Ø³ Ø©
ĠÙĩ ÙĦÙĥ
Ø±Ùĥ Ø´ÙĬ
ĠØ§ÙĦÙģ Ø¹ÙĦ
ĠØ£ÙĨ Ø§
ĠØ§ÙĦÙĤ ØµØ§Øµ
ÙĪØ¬ ÙĪØ¯
ĠØ¨Ø§ÙĦ ÙĨØ³
ĠØªØ±Ùĥ Ùĩ
Øµ ÙĪØ¨
Ø¤ Ø®Ø°
ĠØ§ÙĦØ± ÙĪØ¶
ĠØŃØ¯Ø« ÙĨÙĬ
ĠØ£Ùĩ ÙĦÙĩ
ĠÙĬ ÙĤØ¯Ø±
Ø² Ø©
ĠÙĬÙĥ ÙģÙĬ
ĠÙĪØ£ Ùħ
Ø±Ùģ Ùĩ
ĠØ³Ø¨ Ø¹Ø©
Ùĥ Ø³Ùĩ
Ø£ Ø³
Ø´ Ø¨Ùĩ
ĠØ§ÙĦØŃ Ø¬Ø±
ĠÙĬØµ ÙĬØ±
ĠØ§Ø¹Øª Ø¨Ø§Ø±
ĠÙĩØ´ Ø§Ùħ
ÙĨ ÙĬØ©
ÙĪ Ø¡
ĠØ§ÙĦØ£ ØŃ
ĠØ¨Ø§ Ø¹Ùĩ
ÙĨÙĩØ§ ÙĬØ©
ĠÙħÙĤ Ø§Ø¨
Ø³ ÙĦÙĩ
ĠØ¨Ø¯ ÙĪÙĨ
ĠÙģÙĦÙħ Ø§
ĠÙĥÙģ Ø§Ø±Ø©
Ø¬ Ø©
ĠÙĥ Øª
ĠØŃ ÙħØ§
ÙĬÙĨ ÙĬ
ĠØ° ÙħØªÙĩ
ĠÙĬØª ØŃ
ĠØ§ÙħØ±Ø£ ØªÙĩ
ĠÙĪ Ø§ÙĨ
ĠØ« ÙĪØ¨
ĠØ§ÙĦÙĨ Ø³Ø¨
ÙĪÙĬ ÙĦ
ĠØ§ÙĦØ´ÙĬ Ø¡
Ø®Ø¨Ø± ÙĨØ§
ÙĪ Ø®
Ùħ ÙĬØ±
ĠØ¹ Ø§Ø¯Ø©
ĠÙĤ Øµ
ĠØ§Ø´Øª Ø±Ø§
ĠÙĬ Ø³ØªØŃÙĤ
ÙĪØ¹ ÙĦÙĬÙĩ
ĠØ§ÙĦÙħØ´ ÙĩÙĪØ±
Øµ Ø§Ø¨
ĠØ¥ ÙĤØ±Ø§Ø±Ùĩ
ĠØ° Ø¨ØŃ
ĠØ§ÙĦØ¹ Ø§ÙħÙĦ
ĠØ§ÙĦØµ ÙĪÙħ
ĠØ§ÙĦØ± ÙĪØ¶Ø©
ÙĦØ µ
ĠØ¹ Ø¯Ø©
ĠØ¹ Ø«ÙħØ§ÙĨ
ØºÙĬØ± Ùĩ
ÙĪÙĤ ÙĪÙģ
ĠÙĬØ¨ ÙĦØº
Ùĥ ÙĦÙģ
ĠÙĥ ØªØ¨
ĠØ§ÙĦÙħ ÙĨØ§
ÙĪÙĬ Ø¬
ÙħØ³ Ùĥ
ĠØ§Ø³Øª Ø¹
ĠØ§ÙĦÙħÙĨ ÙģØ¹Ø©
ĠØ£ Ø«Ø±
ĠÙĦÙĦØ ®
ĠÙĬØª Ùħ
ĠÙģØ¥ ÙĨÙĩØ§
ĠØ®Ø· Ø£
Ø§ Ø¹Ø©
ĠØ§ÙĦ Ø±Ø§ÙĩÙĨ
ĠØ§ÙĦØ¨ Ø¯
ĠØ§ÙĦØ¨ ÙĨØ§Ø¡
ĠØ§ÙĦØµ Ø¯
ĠØ§ÙĦØµ ØºÙĬØ±
ÙģØ§ Ø¹
ÙĪØ¶ Ø£
ØŃØª ÙħØ§ÙĦ
ĠØ¹ÙħØ¯ Ø§
ÙĪ Ø¯Ø©
Ø¨ Ø£ÙĨ
ĠÙĬ ØµØ¯ÙĤ
ĠÙĬ ÙĪØ¬Ø¨
ĠÙĥ ÙĦØ§
ÙĪÙĦÙĩ Ø§
ĠÙĨ ÙĤÙĦÙĩ
ĠÙĪØ§ Ø¬Ø¨
ÙĪØ± Ø«
ĠØ§ÙĦØ« Ø§ÙĦØ«
ÙĪ ÙĦÙĥÙĨ
ĠÙĪ ÙĬØ¹
ĠØ§ÙĦØ¬ ÙĨØ§ÙĬØ©
ĠÙĪØ¬ ÙĦ
ĠØ³ÙĬ Ø£ØªÙĬ
ĠØµØ¯ ÙĤØ©
ĠØ´Ø±ÙĬ ÙĥÙĩ
ÙĬ ÙĦÙĩ
ĠØ£ Ø±Ø´
ĠÙħ ÙĪØ§
ĠØ¹ Ø°Ø±
ĠÙĬ Ø¯ÙĬÙĩ
ÙĦÙĤ ÙĪÙĦ
ĠÙģØª ØŃ
Ø¹ Ø°Ø±
Ø£ Ø®Ø±
Ø§ÙĦØ º
Ø¯Ø§ Ø¯
ĠØ£ØŃ Ø±Ùħ
ĠÙĬØ¨ ÙĤÙī
ĠØ³ ÙĦÙĬ
Ø¹Øª ÙĬÙĨ
ĠØ¨Ø¹Ø¯ ÙĩØ§
ĠÙĬØŃ ÙĥÙħ
ÙĦ ÙĦ
ÙĪ ÙĬØ±
ĠØ¥ ÙĤØ±Ø§Ø±
ĠÙĦÙĦØ µ
ĠØ£Ùħ ÙĥÙĨ
ĠÙĬØ¯ ÙģØ¹
ĠÙĬØ£ ÙĥÙĦ
ÙĪÙģÙĬ Ùĩ
ĠÙĪØ§ÙĦ ÙĨ
ĠØ¬ÙħÙĬØ¹ Ø§
ĠÙĬ Ø±Ø«
ØŃ ÙĨ
ĠØ¨Ø¯ ÙĬÙĨ
ĠØ¹ Ø§Ùħ
ĠØª ÙħØ§Ùħ
ĠØŃ Ø§Ø¬Ø©
Ø´ Ø§Ø±Ø©
ĠØ´ Ø±Ø¨
Ø¯Ùĩ Ùħ
ĠØ² ÙĬØ§
ÙĤØ§ Ø·
ĠÙĨØµ ÙģÙĩ
ĠØ£ØŃ ÙĤ
Ø± ÙĤØ©
ĠØ§ÙĦØ¨ ÙĦØ¯
ĠÙĬÙĤ ÙĦ
ĠØŃØµ ØªÙĩ
Ø§ ÙĬØ©
ÙĪ ÙģØ§
ĠØ¨ Ø´Ø±
ÙĦØ§ Ùĥ
ĠØ§ÙĦÙħ ÙĩØ±
ÙĦÙĪ ÙĨ
ĠÙĬÙĤ ØµØ¯
ĠØ¸ Ø§ÙĩØ±Ùĩ
ĠØ§ÙĦÙħØ¹ ÙĨÙī
ĠÙĤÙĬÙħ ØªÙĩØ§
Ø£ Ø¬
Ø§Ø± Ø¶
ĠØ§ÙĦØµ Ø¨ÙĬ
ĠØ§ÙĦØ² ÙĥØ§Ø©
ĠÙĦÙĥ Ø§ÙĨ
ĠÙĩÙĨØ§ Ùĥ
ĠØ£ÙĤ Ø§Ùħ
Ø³ Ø·
ÙĦÙĪ Øº
Ø§Ø¦ Ø·
Ø¨Ø¯ Ø§
ĠØ£ÙĤ Ø±Ø¨
ÙĤ Ø§Ø¡
ĠÙģ ØµØ§Ø±
Ø§ ÙĪÙĬ
ÙĪ ÙĦØ£ÙĨ
ĠØ¥ ØŃ
ĠØ± ÙĪÙī
ĠØ´ Ø±Ø¹
Ø§Ø¨ Ø±
ĠØ§ÙĦØŃ Ø§Ø±Ø«
ÙĦØ °ÙĦÙĥ
ĠØ¨ Ùģ
ĠÙĤ ÙĪÙħ
Ø´ Ø§Ø±
ĠØ§ÙĦØª Ø³
ĠØ§ÙĦÙĨ ÙģÙĤØ©
ĠÙĪØ§ØŃØ¯ Ø§
ĠØ§ÙĦØŃÙĬ Ø¶
ĠØ¨Ø§ÙĦÙĨØ³ Ø¨Ø©
ĠØ¹ ÙĬØ¨
Ø³ ÙĤØ·
ĠÙĥ ÙĨØª
ĠÙĨ ÙģÙĬ
ĠØŃÙĬ Ø¶
ĠØ§ÙĦØ®Ø· Ø§Ø¨
ÙĬ Ø¨Ø©
Ø· Ø¨
ĠØ§ÙĦØ´ Ø±Ø¹
ĠÙħØ« ÙĦÙĩØ§
ĠÙĪÙĦØ¯ Øª
ÙĬØ±Ø§ Ø«
Ø£ Ø®
ÙĨØ§ Ø¹
ĠØ§ÙĦØ´ Ø±
ĠØº ØµØ¨
ĠÙĦÙĦÙħ Ø´ØªØ±ÙĬ
ĠØ£Ø´ ÙĩØ¨
ĠØªØ¨ Ø¹Ø§
Ø§ ÙĨÙĩ
ÙĬ Ø§Ø¨
Øª Ø±
ÙĤ Ø³Ùħ
ĠØ¨ Ø§Ø¦
ĠÙģ Ø¨
ĠØª Ø±
ÙĩØ§ Ø¯
ĠØ³ ÙĩÙħ
ĠØµ Ùģ
ĠÙĦÙĦØ º
ĠÙĬØ¹ ÙħÙĦ
ĠØ§ÙĦØ² Ø±ÙĥØ´ÙĬ
ĠÙĦÙĥ ÙĪÙĨÙĩ
ĠØ¸ ÙĨ
ĠØªØ¹ Ø°Ø±
ĠØ£ Ø«
ĠØ§ÙĦØ¹ ÙĬØ¨
ĠØ§ÙĦØŃ Ø³
ĠØ§ÙĦØŃ Ø±Ùħ
ĠØ§ÙĦØ¬ ÙħØ¹
ĠØ§ÙĦØ§ ÙĨØª
ÙĤ ÙĪØ·
ĠØ¹ ÙĬ
ĠØŃ Ø§ÙĦØ©
ĠÙĬØ¹ Ø·
Ø¨Øª Ø¯
ĠÙĬÙĨ Ø¸Ø±
ĠØ¨Ùħ Ø¬Ø±Ø¯
Øª Ø¨Ø©
ĠØ¨Ùĩ Ùħ
Ø±Ø¬ ØŃ
ÙĪÙĦØ§ Ùĩ
ĠØ¨Ø· ÙĦØª
ĠØ§ÙĦÙĤØ± Ø¢ÙĨ
ÙĦÙĪ Ø¨
ĠÙĪÙĬ ÙĥÙĪÙĨ
ĠÙĤ Ø§Ø¦
ÙħØ§ ÙĨÙĩ
ĠØŃ Ø±Ø§Ùħ
ĠØ§ÙĦ Ø±Ùħ
ĠØ³ Ø¨Ø¹
ĠØ§ÙĦØ£ Ø®Ø°
ĠØ¬ Ø¯
ĠØ§ÙĦØ´ Ø±ÙĬ
ÙĦØ¹ ÙĦ
ĠÙģÙĦÙĬ Øª
Ø± ÙħØ©
Ùģ ÙĦÙĩ
ĠØ± Ø£ÙĬ
ĠØµ Ø¨ÙĬ
ĠØ§Ø¨ ÙĨÙĩ
Ùģ Ø§ÙĨ
ĠØ§ÙĦÙħ Ø£Ùħ
ĠÙĦ Ø±Ø¬ÙĦ
ĠÙħØ¹ ÙĨØ§Ùĩ
Ø³ Ø©
Ø§ÙĦØ ³
Ø¯Ùĩ ÙħØ§
ĠØ¨Ø¹Ø¯ Ùħ
Ø¹Ø§ Ø¯Ø©
ĠØ¨Ø¥ Ø°ÙĨ
ĠØ®ÙĦØ§Ùģ Ùĩ
ĠÙĥ ÙĬÙģ
ĠØ§ÙĦÙħ Ø¶Ø§Ø±
ĠØŃ Ø¨
ĠÙĦØ ¦ÙĦØ§
Ø±Ø¶ Ùĩ
ĠÙĬØŃ ÙħÙĦ
ĠØ§ÙĦØ° ÙħØ©
ĠØ±Ùĥ Ø¹Ø©
ÙĤ Ø§Ø¨
Ø£ Ùĩ
Ø« Ùī
ĠÙĪØ£ ÙĨÙĩ
ĠØ¶ Ø±Ø±
ĠØ¨Ø¹Ø¶ ÙĩØ§
ÙħÙĬ Ø²
ĠÙĨÙģØ³ ÙĩØ§
ØŃ ØªÙī
ĠØ´ Ø¨ÙĩØ©
ĠÙħØ® Ø§ÙĦÙģ
ĠÙĪÙĨØŃÙĪ ÙĩØ§
ĠÙĥ Ø±Ùĩ
Ø´ Ø§Ø¡
ĠÙĬÙĤ ÙĪÙħ
ĠØ§ÙĦØ³ ÙĦÙħ
ĠÙģØ§ Øª
ĠØ§ÙĦÙĥÙģ Ø§Ø±Ø©
ĠØ«ÙħØ§ÙĨ ÙĬØ©
ÙĬ Øµ
ĠØ§ÙĦÙħ ÙĨÙĩ
ĠØŃ Ø±Ø§
ÙĩØ§ Ø±
ÙĤØª ÙĦÙĩ
ĠÙĬØµ ÙĦØŃ
Ø¨ÙĬØ± Ø©
ĠÙģÙĥ Ø°ÙĦÙĥ
ĠØ¯Ø¹ ÙĪÙī
ĠØ§ÙĦØ³Ø§Ø¨ ÙĤ
ĠÙģ Ø§ÙĨ
ĠØ§ÙĦÙħ Ø³ØªØŃÙĤ
ĠÙĨ ØŃÙĪÙĩ
ÙĬØ¯ Ø§
ĠÙĬØ® ÙģÙī
Ø§ØŃ Ø¨
ĠØ¹ÙĦÙħ Ùĩ
ÙĨØª ÙĬÙĨ
ĠÙĦØ² Ùħ
ÙĤØ¨ Ø¶
ĠØ§ÙĦÙħØ¬ ÙħÙĪØ¹
Ø¹ ÙĩØ§
ĠÙĪ Ø¨ÙĬ
ĠÙħ ÙħÙĦÙĪ
ĠØ¹ ÙĪØ¶
Ø¶Ø§ Ùģ
ÙģÙĤ ØªÙĩ
Ø³ ÙĬ
ÙħÙĩ Ùħ
Ø¹Ø§ Ø¯
ĠÙĥØ§ÙĦØ £
Ø¹ ÙĦÙĩ
ĠÙĪ ÙĦØ£ÙĨ
ĠÙģ Ø£ÙĨØª
ĠØŃ Ø³ÙĨ
ĠÙĨ ÙĪØ¹
Ø±ÙĬ Ø¨
ĠØ¨Ø§ ÙĦØ§
ĠÙĬØ¹ Ø¯
ĠØ§ÙĦØ¯ Ø®ÙĪÙĦ
ÙĪØµ ÙĬ
ĠÙĨÙĩØ§ ÙĬØ©
ĠÙħ Ø°ÙĩØ¨
ĠØ§ÙĦÙħ Ø±
ĠØª Ø´
Ø§ÙĨ Ø§
ĠØ± Ø¶Ø§
ĠØ± Ø¨Ø¹
ĠØ§ÙĦØ£ ÙĥØ«Ø±
ĠØ§ÙĦØ± ÙĪØ§
ĠØ¥Ø° ÙĨÙĩ
ĠØ¨ ÙĬÙħ
ÙĦÙħ Ùĩ
ĠØ§ÙĦÙħ ÙĪØ§
ĠØ§ÙĦÙħ Ø·ÙĦÙĤ
ĠØ¬ Ø§Ø±ÙĬØ©
ĠØªØ¹ ÙĬÙĨ
ĠÙĥÙĦØ§ÙħÙĩ Ùħ
Øª Ø©
Ùģ ÙĩÙħ
ĠÙħÙĨ ÙģØ¹Ø©
Ø· ÙĦØ§
ĠØµ ÙĪØ±Ø©
ĠØ¬ ÙĨ
ĠØ¯ ÙĦÙĬÙĦ
ĠØ¹ÙĨÙĩ Ùħ
ÙĨØ³ Ø§ÙĨ
ĠÙģÙħØ§ Øª
ĠØ¹Øª ÙĤÙĩ
ĠØ§ÙĦÙħ ÙĤØµÙĪØ¯
ĠØŃ Ø¨ÙĬØ¨
ĠØ¹ÙĨ Ø¯ÙĬ
ĠØ¨Ø§ Ø¹ØªØ¨Ø§Ø±
Ø¤ ÙĬØ©
Ø¯ ÙħØ©
ĠÙĤØ¨ ÙĦÙĩØ§
ÙĦØ¹ Ø©
ĠØ£Ø¬ ÙĦ
ĠØ·ÙĦÙĤ Ø©
Øª ÙĦØ§Ùģ
ĠÙĪ Ø°ÙĥØ±
ĠØ¨ ÙĥÙĦ
ÙħØ§ Ø±
ĠØ³ ÙĨÙĬÙĨ
ĠÙħØ§ ÙĦØ§
ĠÙĦ ÙĨØ§
ĠÙħØ¹ ÙĩØ§
ĠØ§ÙĦÙĪ ØµÙĬ
ĠØ§ÙĦØ¨ Ø¹Ø¶
Ø¦ Ø±
ĠØ§ÙĦÙģ Ø¬Ø±
ĠÙħØ¹ÙĦÙĪ Ùħ
ĠØªÙĤØ± Ø±
ÙĬ Ø®
Ø± ÙĪÙģ
ĠØ§ÙĦÙĪØ§ÙĤ Ùģ
Ø±Ø§ ÙĤ
ĠØ§ÙĦØ¹ Ø§Ø¯Ø©
ĠØ§ÙĦØ¥ Ø®
ĠØ² ÙĥØ§Ø©
ĠÙĦÙĬ ÙĦØ©
ĠØ¹ÙĦÙĬ Ùĥ
ÙĤ Ø¹
ÙĩØ§ Ø¨
ĠÙĨ ÙĤØ¯
Ø¨Ø± Ø¹
ĠØ§ÙĦØ® Ø§Ø±Ø¬
Ø®Øª ÙĦØ§Ùģ
ĠÙĬØ¯ Ø¹ÙĬ
ĠØ§ÙĦÙħØ¯ Ø¹Ùī
ĠØ¯ÙĬÙĨ Ø§Ø±
ÙĦØ· Ø§ÙĨ
ĠØ§ÙĦØŃØ¯ Ø«
Ø§ ÙħÙĨ
Ø§ ÙĪØ²
Ùħ ÙĥØ§ÙĨ
ĠÙĥ ÙħÙĨ
ĠØ® ÙĦÙĤ
ĠØ§ÙĦÙĥ Ø§ÙģØ±
ĠØ¹ÙĨÙĩ ÙħØ§
ÙĪ ÙģØ©
Ùħ ÙĪÙĦ
ĠØ¹ Ø§ÙĦÙħ
ĠÙĬ ÙĤØ¯Ùħ
ĠÙĬ Ø´ØªØ±ÙĬ
ØŃ ÙĨÙĪÙĨ
ĠØ§ÙĦØ¨ Øº
ĠÙĪØ§ÙĦØ º
Ø§Ùħ ÙĦØ©
ĠÙĬØ¬ Ø¨Ø±
Ø¹ Ùģ
ĠÙĥ Ø§ÙģØ±
ĠØª Ø³Øª
Ø¸ ÙĨ
ĠØ¹ÙĦÙħ Øª
ĠØ§ÙĦØ³Ø¨ Ø¨
ĠØ§ Ø³
ĠÙĪ ÙĬØ¯
Ø° ÙĨÙĩ
ĠØ§ÙĦÙħ Ø´Øª
ĠØ§ÙĦ ÙĦÙģØ¸
ĠØ¬ Ø±ØŃ
ĠÙĪÙĬ ØŃ
ĠØ£Ùħ ØªÙĩ
ĠØ¬Ùħ ÙĦØ©
ĠØ§ Ø¬Øª
Ø¹ ÙĤØ¯
ĠÙĪ ÙĦÙĥ
ĠÙĪ Ø¨ÙĨ
ĠÙĨ Ùĩ
ĠØ³ Ø§Ø¦Ø±
ĠØ« Ø¨ÙĪØª
Ø¹Øª Ø§ÙĤ
ÙĤÙĬ Ùĩ
ĠØ§Ø´Øª Ø±Ø§Ùĩ
ĠÙĪ ÙĩÙħ
ÙĨØ§ Øª
ĠÙĤÙĪÙĦÙĩ Ùħ
ĠØ¶ Ø¹ÙĬÙģ
ĠØ¨Ø¯ ÙĦÙĬÙĦ
ĠÙĬÙħ Øª
ÙĪÙģ Ùī
ĠÙĪØ« ÙĦØ«
ĠØªØ¨ Ø·ÙĦ
ĠØ³ÙĦÙĬ ÙħØ§ÙĨ
Ùħ Ø±Ùĩ
ÙĩØ§ Ø±Ø©
ĠØ§ÙĨ Ø¸Ø±
ĠØ§ÙĦÙħØ¹ ÙĬÙĨ
ÙĬ ÙĬÙĨ
Ø± ÙĬØ©
ĠÙĬ ØŃØ¯Ø«
ĠÙĥ Ø±
ÙĦÙĤ ÙĬÙĨÙĬ
ĠØ® Ø§Ø±Ø¬
ĠØ¥ÙĨ Ø³Ø§ÙĨ
Ø¨Ø§ ØŃØ©
ĠØ§ÙĦØ® ÙħØ±
ĠØ§ÙĦØ§ Ø¹Øª
ĠØ¨ÙħØ§ ÙĦ
ĠØ²ÙĪØ¬ Ø©
ĠÙģÙĩ Ø°Ø§
ĠÙĪØ§ÙĦØ³ ÙĦØ§Ùħ
Ø¯ ÙģØ¹
ĠØ§ÙĦÙħ ÙĤØª
ĠØ§ÙĦØ´ Ø±Ø§Ø¡
ĠØ§ÙĦØ² ÙĬØ§Ø¯Ø©
ĠÙĦÙĥ ÙĨÙĩ
ĠØŃØ± ÙħØ©
ĠØ´Ø± Ø¹Ø§
ĠÙĪ ÙĤÙĬ
ĠÙĪ ØµØŃ
ÙĦØ§ ÙħØ©
Ø£ Ùĥ
Ø« Ø¨Ø§Øª
ĠØª Ø¬Ø²
ĠØŃ Ø±Ø©
ĠØ§ÙĦØ£ Ø¬Ø±
ĠØ§ÙĦÙĪ Ø¬ÙĪØ¨
ÙĪÙħ ÙĨÙĩØ§
ĠØ§ÙĦÙĨ Ø¬
ĠØ§ÙĦØµ ØŃØ©
Ø³Ùħ ÙĬØ©
ÙģØ§ Ø¯
ĠØ¨ØºÙĬØ± Ùĩ
ĠØ¹Ø¯ ÙĦ
ĠØ§ÙĦØ£Ø¬ ÙĨØ¨ÙĬ
ĠÙĪ ÙĩÙĦ
Ø³ Ø¦ÙĦ
ĠÙħÙĨ Ùĥ
ÙĪØ§ ÙĦÙģ
ĠØ§ÙĦÙĤ Ø¯Ø±
ĠØ§ÙĦØ¬ ÙħØ§Ø¹Ø©
ĠØ§ÙĦØº Ø±ÙħØ§Ø¡
ÙĪØ§ÙĦØ ¹
ĠØ£ØŃ Ø¨
Ø§ ÙĩÙħØ§
ĠØ§ ÙħØªÙĨØ¹
ĠØ£ Ø·
ĠÙĨ Ø³Ø¨
ĠØ³ Ùģ
ĠÙĦ ÙĦØ§
ĠØ£ÙĨÙĩ Ùħ
Ø±Ø¯ Ø¯
ĠÙĥØ§ÙĦØ ¹
Ø²ÙĪØ¬ ÙĩØ§
ĠØ±Ø£ Ùī
ĠØ§ÙĦØ¸ ÙĩØ±
ÙĤ ÙĦØ§
ĠÙĦ Ø±Ø¨
ĠØ§ÙĦØ¬ ÙħÙĬØ¹
ĠØ§ÙĦØ« ÙĦØ§Ø«
ÙĦØ¨ ÙĨ
ĠØªØ¹ Ø¯
ĠØ®Ø±Ø¬ Øª
Ø§ ÙģØ©
ĠÙħ Ø¨
ĠØ¹ ÙĦØ©
Ø° Ø¨Ùĩ
ĠØ¥ Ø¹
ĠØ° Ùĥ
ĠØ® ÙĦÙģ
ĠØ§ÙĦØ¥ ÙĬ
ĠÙĪØºÙĬØ± ÙĩØ§
ĠØ¨ Ø¨
Ø¥ ÙĨÙĩ
ÙĤØ¯ ÙĬØ±
Øº Øª
ĠØ§ÙĦÙĨ ÙĬØ©
ØŃÙĬ ØŃØ©
ĠÙĤØª Ø§Ø¯Ø©
ĠÙħ ÙĪØ¶
ĠÙģ Ùī
ÙĦÙħ Ø©
ĠØ¥ ÙĬ
ĠÙħÙĨ ÙĬ
Ø« ÙĬØ±
ĠØ¬ ÙĪØ§Ø¨
Ø§Ø¨ Ø¹
Øº Ø©
ÙĬÙģ Ø§Ø¡
ĠÙħ Ùģ
ĠÙģ Ø±Ø¬
Ø¬ ÙĪØ±
Ø® Ø±Ùĩ
ĠØŃ Ø¨Ø³
ĠÙĨ Ø§ÙģØ¹
ĠØ° ÙĬ
Ø±Ø§ Ùĥ
ĠØ§ÙĦØª ÙĬÙħÙħ
ĠØ§ÙĦØ¯ Ø¹
ĠØ¨ÙĤ Ø§Ø¡
Ø£Ø° ÙĪÙĨ
ÙĦÙĬ Ùĥ
Ø±ÙĬ Ø¬
ĠØ§ÙĦØ´ ÙĩØ±
ÙĤ ÙĪØ¯
ĠØ¨ ÙĦÙģØ¸
Ø³ ÙĨØ§
Ø£ ÙĦØ§
ĠÙĦØ£ ØŃØ¯
Ø¦ ÙħØ©
ĠØ§ÙĦØ³ ÙģØ±
ĠØ£Ø´ Ø¨Ùĩ
ĠØ£Ø¯ Ùī
ĠØ¹Ø§ ÙħØ±
Ùģ Ø¶ÙĦ
ĠØŃ ÙģØ¸
ĠØ± Ø¶Ùī
Ø¨ÙĬ Ø¹Ùĩ
ØŃØ¯ ÙĬØ«
ĠØ¯ Ø±ÙĩÙħØ§
ĠÙĪØ§ Ø¬
Ø¯Ø§ ÙĬØ©
Ø¨ Ø£
ĠÙħ Ø¶Ùħ
ÙĦØ§ ÙĦØ©
ĠØ± Ø¨Ùĩ
ĠØ´ Ø±Ø§Ø¡
ĠÙĪØ£ Ø®Ø°
Ø§Ø² Ø©
ĠØ§ÙĦÙħØ¯ ÙĬÙĨØ©
ÙģØ£ Ø¬Ø§Ø¨
ĠØ§Ø³ØªØŃ ÙĤ
ÙĪ ÙĩØ§
ĠÙħ ØªÙī
ĠÙĤ Ø¶Ùī
ĠØ¬ ÙĩÙĦ
ĠØ« ÙĪØ¨Ø§
ĠØ§ÙĦØ¬ Ø§Ø±ÙĬØ©
Ø¤ Ùĩ
ĠØ§ÙĦÙħØŃ ÙĦ
ĠÙħØ³ÙĦÙħ Ø§
ĠØ¨ÙĤ ÙĬØ©
ĠÙĬ ÙģÙĬØ¯
ĠÙģÙĬ ØŃ
ĠÙĥ Ø§ÙĦ
ĠØ§ÙĦÙħ Ø±Ø¶
ĠØ§ÙĦÙħ ØŃØª
ĠØ§ÙĦ ÙĨÙĩØ§ÙĬØ©
ĠÙĦØ§ Ø¨ÙĨ
ĠØ´ Ø§Ø©
ĠØµ ØŃØª
ĠØ§ÙĦØ¹ ÙĪØ¶
ĠØ§ÙĦØ® Ø±ÙĪØ¬
ĠØ·ÙĦÙĤ ÙĩØ§
ÙĨ Ø¬
Ø§Ø± Ø¹
ĠØ´ Ø§ÙĩØ¯
ĠØ§ÙĦØ¹ Ø§
ĠØ§ÙĦÙĨ ÙģØ³
ĠØ§ÙĦØ® Ø¨Ø±
ĠÙĪØ¹ Ø¯
ĠÙĪØª Ø±Ùĥ
ĠÙĤØ¨ ÙĪÙĦ
ĠØ¨Ùĥ Ø³Ø±
ĠØ¹Ùħ ÙĦÙĩ
Ø¬ ØªÙĩØ§
Ø· ÙĨ
ÙĪØ§ Ùħ
Ø¹Ø§ Ùĩ
ÙĤØ§ ÙĦÙĩ
ĠØ°ÙĥØ± ÙĨØ§
ĠÙĤØ· Ø¹Ø§
ĠØºØ§ÙĦØ¨ Ø§
ĠØ¹ Ø±Ø¶
ĠØ¹ ÙĤØ¨
Ø¬ ÙĨØ¨ÙĬ
ÙĦÙĬ Ø§
ĠØ§ÙĦÙħ ÙĪØ§Ø²
ĠØ¥ Ø²
Ø® Ø§Ø±ÙĬ
ĠØŃ Ø¶Ø±
ĠØ³ Ø±ÙĤ
ĠØ³ Ø¨ÙĬÙĦ
ĠØ§ÙĦØ¨ ÙĦÙĤÙĬÙĨÙĬ
ĠØ§ÙĦØ¥ Ø°ÙĨ
ĠÙĥØ§ÙĦØ Ń
ĠØ§Ø«ÙĨ ÙĬÙĨ
ÙĦØ° Ø§
ĠØ£ Ø¹ØªÙĤÙĩ
ĠØ¹ Ø¬
Øµ ÙĬÙĦ
Ø§Ø± Ø¨
ÙĪÙĤ Ø¹
ĠÙħØ± Øª
ÙħØª Ø¹
ĠØŃØµ Ø©
ĠÙĨ Ø§
Ø¤ ÙĦØ§Ø¡
Ø¹ Ø¯Ø©
ÙĤ ÙĬØ©
ĠÙĥ Ø§Ùģ
Ø· Ø£
ĠØŃ ÙĥÙħØ§
ĠØµ ÙĪØ±
ĠØ¬ ÙĨØ§
Ø±Ø¨ Ø©
ĠØ² Ø§ÙĦ
Ø¬Ùĩ ÙĪÙĦ
ĠØ§ÙĦÙĨØ³ Ø§Ø¡
ÙĪ Ø±ÙĬ
Ø¯ ÙĬÙĨ
Ùģ ÙĬÙĨ
ĠØ§ÙĦÙĪ Ø¯
ĠØ§ÙĦØ® ÙħØ³
ÙħØ³ ØŃ
ÙĪØ§ÙĦØ ª
ĠØ§ÙĦØ· Ø¹Ø§Ùħ
Ø¹ ÙħÙĦ
Ùĥ Ø§ÙĦØ©
ĠØª ØµØ¯ÙĤ
Ø¸ Ø§ÙĩØ±Ùĩ
ĠÙĦÙĦØ ²ÙĪØ¬
ĠÙĪØ¹ Ø¯Ùħ
ĠÙģÙĦÙĬØª Ø£ÙħÙĦ
Ø¯ Ø®
Ø¶ Ø±Ø©
ĠÙĩ ÙĥØ°Ø§
ĠØ¬ Ø§Ø¨Ø±
ĠÙĥØ§ÙĨ ÙĪØ§
ØŃØ¯ Ø©
Ø§Ø¦ ÙĬ
ÙĪÙĬ Ùĩ
ĠÙħØ³ Ø¹ÙĪØ¯
ĠÙĥØ¹ Ø¨
ĠÙģ Ø·
Ùĥ Ø§Ø±
ĠØ§ÙĦÙħ Ø¹ØªÙĤ
ĠÙĩ Ø¨Ø©
ĠØ§ÙĦØ£ Ø±Ø¨Ø¹Ø©
Ø§Ø¨ Ùĩ
ĠØ§ÙĦØ¹ ÙħØ±Ø©
ÙĥØ± Ø±
ĠÙĪÙĤ Ø¹Øª
ÙħØ§ÙĨ Ø©
ĠÙĪØµ ÙĬØ©
ĠØ£Ø®Ø° ÙĩØ§
ĠÙĪ ÙĦØ£ÙĨÙĩ
Ø§ÙĦØ µ
ĠØ£Ø® Ø°Ø§
ĠØ§ÙĦØ° ÙĬÙĨ
ĠÙģØ£ ÙĥØ«Ø±
Ø³ÙĨ ÙĪÙĬ
ĠÙĨØ³ Ø®
ÙĪ Ø§Ø±
ĠÙĤ Ø¶ÙĬ
ĠÙģÙĬ Ø¬Ø¨
ĠÙĥ Ø£ÙĨÙĩ
Ø±ÙĬ Ø¶Ø©
ĠØ§ÙĦÙĪ ÙĤ
Ø¨ÙĬÙĨ Ø©
ĠØ¨Ø§ÙĦ ÙĦÙĩ
ĠÙĪØ¬Ùĩ Ùĩ
ĠÙĦØ¨ Ø³
ĠÙĪØ® ÙħØ³
ĠØ±Ùĩ ÙĨ
ĠØ§ÙĦØµØ¯ ÙĤØ©
Ø£ ÙĦÙĩ
ĠÙħÙĨ Ø¹Ùĩ
ĠØŃ ÙĦÙĤ
ĠÙĦØ ¶
ĠØ¨Ø§ÙĦØ ·
Ø±Ø¶ Ø§Ø¹
ĠÙĪÙĬ ØŃØªÙħÙĦ
ĠØ¯ÙĬÙĨ Ø§
ĠØ§ÙĦØ¶ Ø±Ø±
Øª Ø§
ĠÙħ ÙĤØ§
ĠÙħ Ø³ØªØŃ
ĠÙħ Ø¶Ùī
ĠÙĬ ÙģØ±ÙĤ
ĠØª ÙģØ³
Ø§ÙĨ Ø©
ĠØ³ ØŃÙĨÙĪÙĨ
ØªÙĩ ÙħØ§
Ø¨ÙĬ Ø¹Ø©
Ø§Ø¦ ÙĩØ§
ĠØ§ÙĦØª Ø£
ÙĪØ± Ø¯ÙĬ
ĠÙĪØ¹ ÙĨØ¯
ĠØ§ÙĦØ² Ø±Ø¹
ĠÙģØ§Ø³ Ø¯
Ùĩ Ø±ÙĬ
Ùħ ÙĦÙĥ
ĠÙħ Ø²
Øµ Ùĩ
Øµ ÙĪÙĦ
ĠÙĩ Ùħ
ĠØ§ÙĦØ£ Ø®Ø±Ùī
ĠØ¯ Ø®ÙĪÙĦ
ĠØ· Ø§ÙĦØ¨
ĠÙĬØª Ø¹ÙĬÙĨ
ĠØ¶ Ø±
ĠÙĪØ¹Ø´Ø± ÙĬÙĨ
ÙĪ ÙĪØ¬Ùĩ
ĠÙĪ ÙĪÙĦØ¯
ĠÙģ Ø´
Ùĥ Ø«
Ø° Ø§ÙĨ
ĠØ§ÙĦØ¹ Ø¯ÙĦ
Ø§Ø¦ Ø¶
ĠØ§ÙĦÙĩ Ø¯ÙĬ
ØŃØ¯Ø« ÙĨÙĬ
ĠØ§Ø«ÙĨ Ø§ÙĨ
ÙĨØ§ÙĨ ÙĬØ±
Ø§ Ø¯Ùĩ
Ø£ Ø®Ø¨Ø±ÙĨØ§
Ø· Ùģ
ÙĦÙĪ Ùĩ
ĠØ§ÙĦØ¹ Ø±Ø¨
Øº ÙĦ
ĠØ· Ø¹Ø§Ùħ
ÙģØ§ ÙĤØ§
ÙĪÙĥ ÙĬÙĦ
ĠØ¶ Ø±ÙĪØ±Ø©
ĠÙĨØµ Ø±
ĠÙĪÙħ ØŃÙħØ¯
ĠØ¥ÙĦÙĬÙĩ Ùħ
Ø§ ÙĦÙĥ
ĠÙĪ Ø®Ø±Ø¬
ĠØ£ÙĨ Ø«Ùī
ÙĪÙĦØ§ ÙĨ
ĠÙĦØŃ ÙĤ
ĠØ¹Ø¯ Ø¯
ÙĪ ÙĦÙĥ
ĠÙħ Ø®ØªÙĦÙģ
Ø³ Ø£ÙĦØ©
ĠÙĬ ØŃØ¯
Ø® ÙĬ
ĠØ§ÙĦ Ø±Ø¨ØŃ
ĠÙĨ Ø¹
Ø±ÙĬ Ùģ
ÙģØ¹ ÙĬ
ĠØ§ÙĦØ¬ ÙĨØ©
ĠØ§ÙĦÙħØ¯ Ø¨Ø±
Ø³ Ø§Ø¯
ĠØ§ÙĦØµ ØŃ
ĠØº ÙĦØ¨
ĠØ§ÙĦØ· Ø±ÙĬÙĤ
Ø§Ùģ Ø¸
ĠØªØ³ Ø¹Ø©
ĠØ§ÙĦÙħØ°Ùĥ ÙĪØ±Ø©
ĠÙħØ¹Ø§ ÙĪÙĬØ©
ĠØ§ ÙĦÙĬØ³
Ø¯ Ø¹
ĠÙĬ Ø·ÙĦÙĤ
Øµ Ø§
ÙĦÙĬ ÙĩØ§
ÙģØ§ ÙĬØ©
ĠØ¨ÙĬÙĨ Ø§
ĠØ§ÙĦØ¢ ØªÙĬ
ĠÙĦÙĦØ¨ Ø§Ø¦Ø¹
ĠØ±Ø§Ø¬ Ø¹
ĠÙħ ÙģÙĩÙĪÙħ
ĠØ¨Ø§ Ø·ÙĦ
ĠØ±Ø¬ ÙĪØ¹
Ø³Ø§ ÙħØ©
ĠÙĪ Ø¨Ø¹
ĠØ¨ ÙĪØ§
ĠØ® Ø±ÙĪØ¬
ÙĤØª ÙĩØ§
ĠØ§ÙĦØ§ Ø³ØªØŃ
ĠÙĪÙĨ ØµÙģ
ÙĪÙĩÙĪ Ø¨
ØŃÙĦ ÙĦ
ĠÙĪØ·Ø¦ ÙĩØ§
ĠØ®Ø§Øµ Ø©
ÙĪ ÙĦØ£ÙĨÙĩ
ĠØ£ ÙĦØ§
ĠØ£ Ø¨Ø¯Ø§
ĠÙĨ ÙĤØ¶
ĠØ¬ Ø§ÙĨ
ĠØ¬ ÙĨØ§ÙĬØ©
Ø§Ø¦ ÙĨ
ĠØ§ÙĦÙģ Ø§Ø³
ĠØ§ÙĦØµ ÙĬØ¯
ĠÙĨØµ Ø§
Ø¬Ø§Ø² Ø©
ÙĬ Ø£ØªÙĬ
Ø° Ø¨ØŃ
ĠØ§ÙĦØŃ Ø§
ĠÙĪØ£ Ø¨ÙĪ
ĠÙĪÙĤ Ø¨ÙĦ
ÙģØ£ ÙħØ§
ĠØŃØ§ ÙĦÙĩ
ĠØ¨ÙĬÙħ ÙĬÙĨÙĩ
Ùħ ÙĪÙħ
ĠÙħ ØºÙĨÙĬ
Ø¬ Ø¹ÙĦ
Ø° Ø±Ùĩ
Ø® ÙĦÙģ
Ø² ÙĨ
ĠØ§ÙĦØ¹ Ø²
ĠØ§ÙĦØŃ ÙĦ
ÙģÙĬ Ø¹
ĠÙĪÙĦØ§ ÙĬØ©
ĠØ§ÙĦØ¬ ÙĪØ§Ø¨
ĠØ· ÙĩØ±
ÙĦØ® ÙħÙĬ
ĠØ§Ø³Øª Ø£Ø¬Ø±
ĠÙħØ³ ØŃ
ĠÙħØ¬ ÙĦØ³
Ø¶ØŃ ÙĬØ©
ĠÙĬ Ø¨ÙĬÙĨ
ĠÙĬ Ø¨ÙĬØ¹
ĠØ¥ ÙĬØ§Ùĩ
Ø² Ø¹
ĠØ® Ø±
ĠØ§ÙĦÙĤ ÙĬØ§Ø³
ĠØ§ÙĦØ¥ Ø³ÙĨÙĪÙĬ
ĠÙĦÙĦÙħ Ø³ÙĦÙħ
ĠÙĪØµ Ùģ
Ø¹Ø¯ Ø¯
ĠØ¬Ø¹ ÙĦÙĩ
ĠÙħÙĪØ³ Ùī
ÙĪ Øº
Ø¯ Ø¨ÙĬØ±
Ùģ ÙħÙĨ
ĠÙĥ Ø«Ø±
ĠØª ÙĦØ²ÙħÙĩ
ĠØ¨ÙĨ ØŃÙĪ
ĠÙĬÙĤ Ø±
ĠØ§ÙĦÙģ ØªØŃ
ĠÙĨØµ Ø§Ø¨
ĠØ¨ØŃ ÙĥÙħ
Ø§ÙĤ ÙĦØ©
ĠÙĬØ¶ Ø±Ø¨
ĠÙħ ÙĥØ§ÙĨ
Ø§Ø± Ùĥ
ĠÙĨ Ùģ
ĠØ³ Ø§ÙĦÙħ
ĠØ° Ø§
ĠØ° ÙħØ©
ĠØºÙĬØ± ÙĩÙħØ§
ĠØ§ÙĦØ¬ ÙĨØ³
ĠØ§ÙĦØ° ÙĥØ±
Ø¹ÙĬ Ø¨
ÙĬÙĩ ÙĤÙĬ
ĠØŃÙħ ÙĦÙĩ
ĠÙĬ ØµÙĦ
ĠÙĨ ÙĥÙĦ
ĠØ¬ ÙĦØ¯
ĠØ§ÙĦÙĪ ÙĦØ§Ø¡
ĠØ§ÙĦØª Ø±ÙĥØ©
ĠÙĦÙĦØ ¶
ĠØ£ØŃ Ø³ÙĨ
ĠÙħØ³ Ø¬Ø¯
ĠØ§ÙĦÙħØ³ ØŃ
Ø§ÙĦØ¨ Ø©
ĠØªØ£ ÙħÙĦ
ĠØªØ£ Ø®ÙĬØ±
ĠØ±Ùĥ Ø¹ØªÙĬÙĨ
ĠØ£ÙĪÙĦØ§ Ø¯
ĠØŃÙħØ§ Ø¯
ĠÙĥ ÙģØ±
ĠØ¥ Ø¬Ø§Ø±Ø©
ÙĦÙĪ Ø³
ĠØ§ÙĦÙĨ Øµ
ĠØ§ÙĦØ¬ Ø§ÙĨÙĬ
ĠØ¹ÙħØ± Ø©
ĠØ£Ø¹ Ùħ
ĠØ¯ÙģØ¹ Ùĩ
ĠØ¹Ø· Ø§Ø¡
ĠÙĬÙħÙĦÙĥ Ùĩ
Ùģ ÙĤØ¯
Ùģ ÙĦÙħØ§
ÙĦØ§ Ø¦
ĠØµ Ø±Ùģ
Ø±Ø§ Ùģ
ĠØ¨ÙĨ ØµÙģ
Ø¨Ø¯ ÙĦ
ĠÙĬØª Ø±Ùĥ
ĠØ¸ Ø§Ùĩ
ĠÙĤØ§ ÙĦÙĪØ§
ĠÙĨØ³ Ø¨Ùĩ
ĠØ§ÙĦÙħØ§ ÙĪØ±Ø¯ÙĬ
Ø¨ÙĤ Ùī
ÙĬ ØŃÙĩ
ÙĪ ÙĤÙĩ
ĠÙģ ÙģÙĬÙĩ
Ùģ ÙĦÙħ
Ùĥ ÙĦÙħ
Ùĥ Ùī
ĠÙĥ Ø§Øª
ÙĦÙĪ Ùħ
ĠØ§ÙĦ ÙĨØ§
ĠØ§ÙĦØŃ Ø§Ø¬Ø©
ÙģØ¹ ÙĪÙĦ
ÙĪØ¹ ÙĨØ¯
ĠÙĪØ¬ Ø¨Øª
ĠÙĬÙħ ÙĥÙĨÙĩ
ĠÙĪØ¬Ùĩ ÙĬÙĨ
ĠÙĪ ÙĪØ¬Ùĩ
ĠØ£ ÙĥØ±Ùĩ
ĠÙģ Ø°ÙĥØ±
Ø³ Ø¹
ĠØ§ÙĦÙħ Ø«
ĠØ§ÙĦÙħ ÙĪØµÙī
Ø· Ø§
Ø±Ø§ Ø¨Ø©
ÙĪØ§ ÙĦÙĤ
ĠØ§ÙĦØ¨ Ø§Ø¨
Ø§Ùħ Øª
ĠÙĬÙĤ Ø¶ÙĬ
ĠØ§ÙĦÙģ ÙĤÙĩ
ØµØ¯ Ø±
ĠÙĪÙħ Ø«ÙĦÙĩ
ĠÙĬØ£ Ø®Ø°Ùĩ
ĠÙħÙĤ Ø§Ùħ
ĠØ´Ø± ÙĪØ·
ĠØ£Ùĥ ÙĦÙĩ
Ø¨ Ø±Ø§
ÙĤ Ø¶Ø§Ø¡
ĠØ¨ ÙĤÙĪÙĦ
ĠØ¹ ÙĥØ³Ùĩ
ÙĪÙĦÙĩ Ø°Ø§
ĠÙĦØ§ Ø²Ùħ
ĠÙĦ ÙĦÙĥ
ĠØ§ÙĦØ¹ Ø´Ø±
ĠØ® ÙĪÙģ
ĠØ§ÙĦØ¨ Ø®Ø§Ø±ÙĬ
ÙĤÙĬ ÙĬØ¯
ĠØ§ÙĦÙģ Ø¶ÙĦ
ĠØ§ÙĦØµ ÙĦØŃ
Ø§Ø¸ Ø±
ÙĬ Ø´
Ùħ ÙĦØ©
ÙĤ ÙĬÙĨ
ĠÙħ Ø¬Ø±Ø¯
ĠØ¨ ØµØŃ
Ùĥ Ø±Ø§Ùĩ
ĠÙĤ ÙĬØ³
ĠØŃ Ø°Ùģ
ĠÙĦØ ¢Ø®Ø±
ĠÙĦØ§ ØŃØªÙħØ§ÙĦ
ØªÙĩ Ø¯
ĠØ´ Ø¦Øª
ĠØ§ÙĦØ¹ ÙĦØ©
ĠØºÙĬØ± ÙĩÙħ
ĠÙĬÙĤ Ø³Ùħ
ĠØ§ÙĦÙģ Ø·Ø±
ĠØ§ÙĦÙĥ Ø¹
Ø£Ø® ÙĪØ°
ĠÙĪ Ø¨Ø§
ĠÙĪ Ø´Ø±
ÙħØ§ ÙĦÙĩ
ĠØŃ Ø§ÙĥÙħ
Ø² Ø±
ĠØ³ ÙĩÙħØ§
ÙĪØ§ ÙĦÙĩ
Ø¨Ø¯ Ø£
ĠØ§ÙĦØµ ÙģØ©
ĠÙĬØª Ø¹
ĠÙĬÙĨ ÙģØ°
ÙĦØŃ Ùħ
ĠØ§ÙĦÙĩ Ø¯Ø§ÙĬØ©
ĠØ¹Ø¯ ØªÙĩØ§
ĠÙħ Ø£Ùħ
ĠÙħ ÙĪÙĦØ§Ùĩ
ĠØ¨ ÙģØ¹ÙĦ
Øµ ÙĦÙĩ
ĠØ£ÙĨ ÙĥØ±
ĠØ³ ÙħØ§
ĠØ³ ÙĪÙī
Ø§Ø¨ ÙĦ
ĠØ« Ø§ÙĨ
ĠØ§ÙĦÙĪ ÙĦØ§
Ø¤ Ø§ÙĦ
ĠÙĪÙħ ØºÙĨÙĬ
ĠØ¥Ø® Ø±Ø§Ø¬
ÙĪ ÙĦØ©
ĠÙĬ Ùĩ
ĠØµ Ø¯Ø§ÙĤ
ĠØ¶ Ùħ
Ø¯Ø§ Øª
ĠØ§ÙĦØ± Ø£Ø³
ĠÙĤØ§ ÙĦØ§
ĠØ´Ø±Ø· Ùĩ
ĠÙĬØ¨ ÙĤ
ĠØ£Ø¯ Ø±Ùĥ
ĠÙħ ÙĪÙĦÙī
ĠØ¨ Ø¨ÙĬÙĨØ©
ĠÙĬ Ø±Ùī
ÙĦÙĬ Ùģ
ĠÙĥ ÙĨ
ĠØ§ÙĦÙħ Ø±ÙĬØ¶
ĠÙĦØ °
ĠØ¯ Ø§Ø¨Ø©
ĠÙĪØ§ ÙĦØ§
Ø¨Ùĩ Ùħ
ĠÙĪØª Ø¹
ĠÙĪ Ø¸Ø§ÙĩØ±
ĠØ£ ÙĤÙĪÙĦ
ĠÙģÙĬ Ø¬ÙĪØ²
ĠÙĥ ÙĪÙĨÙĩØ§
ĠØª Ø®Ø±Ø¬
ĠØ³ Ø¬Ø¯
ĠØ® Ø´
Ø§Ùħ ÙĦØ§
ĠÙĪÙĬ Ø¤
ÙģØ§ Øª
ÙĥØ§ Ùģ
Ø§Ø¯ Ø±
Ø±Ø§Ø¬ Ø¹
ĠØ§ÙĦÙĤØ¨ ÙĦØ©
ĠØ§ÙĦØ¹ÙĦÙħ Ø§Ø¡
ĠÙĬØ± ÙģØ¹
ĠÙĬÙħØª ÙĨØ¹
ĠØ£ Ø²
Ø£ Øª
ÙĨØ§ ÙĪÙĦ
ĠØ§ÙĦØ£ Ø¯Ø§Ø¡
ĠØ® Ø§ÙĦØ¯
ĠÙĦØ£ Ùħ
ĠØ£ØŃØ¯ ÙĥÙħ
ĠØ§ÙĦØº Ø§Ø¦Ø¨
ĠÙģØ§ Ø³Øª
Ø·Ø¹ Ùħ
ĠÙĥØ§ÙĦØ ¨
ĠØªØŃ ÙĦ
ĠÙĦØ² ÙĪØ¬
ĠØ§ÙĦØ¢ ÙĨ
ØŃ Ø´
ĠØ§ÙĦÙħ Ø³ÙħÙī
ĠØ¯ ÙĪÙĨÙĩ
ĠÙĪÙĬ Ø³Øª
ĠØ§ÙĦÙģ ØµÙĦ
ĠÙĬØ¹ ÙĤ
Ø§Øµ ÙĦÙĩ
ĠØ§Ø®Øª ÙĬØ§Ø±
ĠØ§ÙĦØ¢ ÙĬØ©
ĠØ¨Ø¬ ÙħÙĬØ¹
ĠØ§ÙĦØ±Ø§ ÙģØ¹ÙĬ
ÙĪ ÙĤØª
ÙĪ Ø¸Ø§ÙĩØ±
ÙĤ Ø¶ÙĬ
ĠÙĬ Ø±Ø¶
Ø±Ø§ Ø¹
Ø±Ø§ ØŃ
ĠØ§ÙĦØŃ ÙĪÙĦ
ĠØ§ÙĦØ´ ÙħØ³
ÙĬØª ÙĬÙĨ
ĠØ¨Ø· Ø±ÙĬÙĤ
ØŃØ§ ÙĨÙĩ
ĠÙģ ÙĤÙĦØª
Ùģ ÙĥØ§ÙĨ
ĠÙĬ Ø³ÙħØ¹
ĠÙĤ Ø°Ùģ
ĠØ§ÙĦÙħ Ø§Ø¯Ø©
Ø¶ Ø¨
ĠØ° ÙħÙĬ
ĠØ§ÙĦØ¥ ÙĨØ³Ø§ÙĨ
ĠØ§ÙĦØ´ Ø±ÙĥØ©
ĠÙĪØ¬ ÙĪØ¯Ùĩ
Ø±Ùħ Ø°ÙĬ
Ø§Ø¯ Ø«
ĠØ¨ØŃ ÙĤ
Ø§Ø´ ÙĬØ©
ĠÙĦØ² ÙĪÙħ
ĠÙĬØ· ÙĦØ¨
ĠÙĬÙĨØª ÙģØ¹
ĠØ¨Ø§ÙĦØ« ÙħÙĨ
Ø§ Ø¶ÙĬ
Ø± Ø§Ø²
ĠØ¹ Ø¯Ø§
ÙħØ§ ÙħÙĩ
ĠÙĥ ÙĤÙĪÙĦÙĩ
ĠØª Ø¤
ĠØª Ø·ÙĦÙĤ
ĠÙĨ Ø²ÙĦ
ĠØ§ÙĦØ£ Ø¸ÙĩØ±
ĠØ§ÙĦØŃ ÙĨ
Ø¹Ø§ Øª
ĠØ£ØŃØ¯ Ø§
ØªÙĬ Ø¨
Ø¹ÙĬ ÙĬÙĨ
ĠÙĪÙĦØ¯ ÙĩØ§
ĠÙĪØºÙĬØ± ÙĩÙħØ§
ĠØ¨Ø¥ Ø°ÙĨÙĩ
Ø§ÙĦØª Ùĩ
ĠØ§ÙĦØŃØ± ÙħØ©
ĠÙĬØ¬Ø² Ø¦
ĠØ£ØµØŃØ§Ø¨ ÙĨØ§
ĠØŃÙĬØ§ ØªÙĩ
Ø¹ Ø§Ø±
ĠÙħ ÙĤØµÙĪØ¯
Ø³ ÙĪØ§Ø¡
Ø¨ÙĬ ØŃ
ĠØ§ÙĦÙĤ ÙĬØ§Ùħ
ĠØ§ÙĦÙĪ ÙĥØ§ÙĦØ©
ĠØ§ÙĦØ¥ ÙĨ
ÙĨÙĬ ÙħØ©
ÙĤØ§ Ø¯
ÙĪØ§ÙĦØ «
ĠÙĬØ® Ø§ÙĦÙģ
Ø§Ø´ Ø±
ĠØ¥Ø³ ÙħØ§Ø¹
ĠØ±Ø¯ ÙĩØ§
ĠØ´Ø±ÙĬ Ùĥ
ÙĨ ÙĬØ§
ÙĪ Ø±Ùĩ
ĠØ£ Ø¯Ø§Ø¡
ĠØ§ÙĦÙħ ÙĤØ¯
Ø« ÙĨÙĬ
ĠØ§ÙĦØ¹ Ø´Ø±Ø©
ÙĪØ§ ÙĦÙĪ
ĠÙħØ¹ Ø±ÙģØ©
ĠØ§ÙĦÙĤ Ø§ØªÙĦ
ĠØ§ÙĦØ¨ Ø¯ÙĦ
ĠÙĪØ¬ ÙĩØ§ÙĨ
ĠØ§ÙĦÙĥ ÙģÙĬÙĦ
ĠØ§ÙĦØº ØµØ¨
ĠØ¨Ø®ÙĦØ§Ùģ Ùĩ
ĠÙĪÙĦÙĩ Ø°Ø§
ĠÙĥØ§ ÙĦÙĪ
Ø¯ Ø¹Ùī
Øª ÙģØ§ÙĤ
ĠØ£ Øº
ĠÙħ ÙĪØ¬
ĠÙħ Ø±Ùģ
Ø³ Ø¬Ø¯
ĠÙĦØ «
ĠØ¬ Ø±
Ø¦ ÙĩØ§
ĠØ§ÙĦØ³ ÙĦØ·Ø§ÙĨ
Ø¯ÙĬ ÙĤ
ÙģØ§ ÙĪØª
ÙĪÙĦØ§ Ø¯
ÙĪØ§ÙĦØ ¨
ĠØªØ¹ ÙĦÙħ
ÙĦØŃ ÙĤÙĩ
ĠÙĪØ¨ ÙĤÙĬ
ĠÙĪØ« ÙĦØ§Ø«
ĠØ¯Ø¹ ÙĪØ§Ùĩ
ĠÙĤ ÙĬØ§
ĠØª Ø¨Ø¹
ĠØª Ø¬ÙĪØ²
ĠØµ ØŃÙĬØŃØ©
ĠØ® Ø§ÙĦÙģ
ĠÙħØ¹ ÙĩÙħ
ĠÙĦØ£ ØŃØ¯ÙĩÙħØ§
ĠØ§ÙĦØ´ Ø§ÙĩØ¯
ĠØ³Ø¨ ØŃØ§ÙĨÙĩ
ÙħØ±Ø£ Ø©
ĠØ¨Ùĥ Ø°Ø§
ĠØªØ³ ÙĤØ·
Ùĩ ÙĨ
Ø¯ Ø®ÙĦ
ĠÙħ Ø§ÙĨØ¹
ĠØµ Ø±ÙĬØŃ
ÙĪÙĨ ÙĤÙĦ
ĠØ§ÙĦØŃ Ø±Ø©
ĠÙĬØª ÙĪÙĤÙģ
ÙĪÙĩ ÙĦ
ĠØ§Ø´Øª Ø±Ø·
ĠÙĦÙĦØ£ Ø¨
ĠØ´Ø±ØŃ Ùĩ
ĠØ§ÙĦÙħØ¤ ÙħÙĨ
Ø¶ ÙĪØ±
ĠÙĨ ÙĤÙĪÙĦ
ĠØ§ÙĦØ¹ Øµ
ĠØ§ÙĦØŃ ÙĦÙģ
ĠØ§ÙĦØ¥ Ø·ÙĦØ§ÙĤ
ĠÙĬÙĨ ÙĤØµ
ĠÙĪÙĤ ÙĪÙĦ
ĠÙģØ§ ÙĦÙĤÙĪÙĦ
ĠØ¨Ùħ ÙĪØª
Ø¬Ø² Ø§Ø¡
ĠØ§Ø¹Øª Ø¨Ø±
ĠØ§Øª ÙģØ§ÙĤØ§
ĠØ£Øª ÙĦÙģ
ĠÙĦÙģ ÙĦØ§ÙĨ
ĠÙĬÙĨØ§ ÙģÙĬ
ĠØ§ÙĦÙĪØ¯ ÙĬØ¹Ø©
ĠØ¥Ø³ÙħØ§Ø¹ ÙĬÙĦ
Ø§ ÙĦÙĪ
Ùģ Ø¶
ĠØ§ÙĦÙħ Ø´ÙĬ
ĠØ§ÙĦÙħ ØºÙĨÙĬ
ÙĨØ§ Ø¨Ø©
ĠÙĦ Ø±
ĠØ§ÙĦØ¥ Ø¨ÙĦ
ĠÙĬÙĤ Ø¨
ĠØº Ø³ÙĦÙĩ
ÙĪØ§ÙĦØ ¬
ĠØ¹Ø¯ ÙħÙĩ
ĠØ¹Ø± ÙĪØ©
ĠØ§Ø´ØªØ±Ø§ Ø·
ĠÙģ ØµÙĦ
ĠÙģ Ø§Ø¦Ø¯Ø©
ĠÙĤ ØµØ§Øµ
ÙĦÙĬ Ø¯
ĠÙĥ Ø¥
ĠØ¥ Ø·ÙĦØ§ÙĤ
ĠÙħÙĨ Ø§
ĠÙĩ Ø¯ÙĬ
ĠØ§ÙĦØ£ Ø¦ÙħØ©
ĠØµ Ø§Ø¯
ĠØ¨ÙĨ ÙĬØ©
ĠÙĥØ§ÙĨ Ø§
ĠØ§ÙĦØ¬ ÙĪØ§Ø²
Ø¹Ø§ ÙĬØ©
ĠØ£Ø³ ÙĤØ·
ĠØ·ÙĦÙĤ Øª
ĠØ§ÙĦØ¬Ùħ ÙĦØ©
Ø¨ØªØ¯ Ø£
Øª Ùģ
ĠÙĪ Ø¨Ø¹Ø¯
ĠÙħ Ø¶ÙĬ
Ø³ Ø§Ùħ
Ø° ÙĪÙģ
ĠØª Ø«Ø¨Øª
ĠØ³ Ø¬
Ø±Ø§ Ø¯Ùĩ
ĠØ£ÙĨÙĩ ÙħØ§
ÙĪØ£ ÙĨÙĩ
ĠÙĪÙħ ÙĨÙĩ
ĠĠ Ġ
ĠØ§ÙĦÙĤØ¨ ÙĪÙĦ
ĠØ¨Ø§ÙĦØ¨ ÙĬØ¹
Ùĩ Ø±Ùĩ
ĠÙĬ ÙħÙĨ
ĠØ± Ø´
ĠØ§ÙĦÙĤ Ø±Ø§Ø¡Ø©
ĠØ§ÙĦØª Ø±
ĠÙĪØ§ÙĦØ ²
ĠÙģÙĬÙĩ Ùħ
ÙĪÙĬ Ø§
ÙĦØª ÙĩØ§
ÙĥÙħ ÙĦ
ĠØ· Ø±ÙĬ
ĠØ§ÙĦØ² Ø¨ÙĬØ±
ØªÙĬ ÙĤ
Ø³Ø¨ ÙĤ
ĠÙĬØ¤ Ø«Ø±
ĠØ«ÙĦØ« Ùĩ
ĠÙģÙĬÙĨ Ø¨ØºÙĬ
ĠÙģ Ø±Ø¹
ĠÙĤ ÙĦØ¹
ĠÙĥ ØŃ
ĠØ§ÙĦÙħ Ø±Øª
ĠØ§ÙĦÙħ Ø£Ø°ÙĪÙĨ
Ø· ÙĪØ¹
ĠØ± Ø¨ØŃ
ĠÙĩ Ø¤ÙĦØ§Ø¡
ĠØ§ÙĦØ£ Ø±Ø´
ÙĪØ§ Ø³Øª
ĠØ§ÙĦØª Ø²
ÙĬØ¹ ÙĨÙĬ
ĠÙģÙĦØ§ ÙĨØ§
ĠÙĪØ¬ ÙĪØ¨Ø§
ÙģØ§ Ø¯Ùĩ
Ø¶Ø§ ÙģØ©
ĠØ§ÙĦØ± ÙĤÙĬÙĤ
ĠØ¹ÙĨØ¯Ùĩ ÙħØ§
ĠØµØ¯ ÙĤÙĩ
ĠØµØ§Ø± Øª
ĠÙĨØ¬ Ø³
ĠØ§ÙĦÙħØº ØµÙĪØ¨
ĠØ§ÙĦØ¹Ø¯ Ø¯
ÙĪ Ø®Ø±Ø¬
ÙĤ ÙĪÙħ
ĠÙĬ Ø´Øª
ĠÙĬ Ø³ØªØŃ
Ø° ÙĪØ±
Øµ ÙĨ
ÙħØ§ ÙħØ©
ĠÙħÙĨ ØµÙĪØ±
Ø§ÙĦØ ¥
ĠØ£ÙĬ ÙĪØ¨
ĠÙĪÙĬ Ø¬ÙĪØ²
ØŃÙĬ Ø·
ĠØ¨ØŃ Ø±
ĠÙĥØ« ÙĬØ±Ø§
ÙĪ ÙĤÙĬ
Ø¨ Ø²
ĠÙħ ÙĤØª
ĠÙħ Ø®Ø±Ø¬
ĠÙģ Ø®
Ùģ Ø§Ø±
ÙħØ§ Øª
Ø¶ Ø·Ø±
ÙĦÙĪ ÙĦ
ĠØ§ÙĦØŃ ÙĨØ«
ĠØ« Ø§ÙĦØ«
ĠØ² Ø±Ø¹
ĠÙĬØ¬ ÙħØ¹
ĠØ§ÙĦØµ Ø¯Ø§ÙĤ
Ø¤ ÙĩØ§
ĠÙĬØ¶ ÙħÙĨÙĩ
ĠÙģÙĥ ÙĬÙģ
ĠØ§ÙĦØŃØ± ÙĬØ©
ĠØªÙĤØ¯ ÙĬÙħ
ĠÙĪ ÙĩÙħØ§
ÙĤ Ø§Ø±
ĠÙĬ Ø³ÙħÙī
ĠØª Ø§Ø¨
Ø§ÙĦØ ®
ĠÙĨ Ùĥ
ĠØµ ÙĬØ¯
ÙħØ± ÙĪ
ĠÙħÙĨÙĩ ÙĨ
ÙģØ¹ ØªÙĩ
ÙĬØ§ Ø¶
ĠØ§ÙĦØ³ Ø¯Ø³
ĠÙħØŃ Ø±ÙħØ§
ĠØ§ÙĦØ¯ Ø§Ø¨Ø©
ÙĬØª ÙĩØ§
ĠÙĪØª ÙĤØ¯Ùħ
ĠÙģØª Ø£ÙħÙĦ
ĠØ§Ø®Øª ÙĦØ§Ùģ
ĠØ£ÙĦÙģ Ø§
ĠØªØ²ÙĪØ¬ ÙĩØ§
ĠØ¥ØŃØ¯ Ùī
Ø¯ Ø¹ÙĬ
ĠÙģ ÙĤÙĪÙĦÙĩ
ĠÙĬ Ø³Ùħ
Ø· Ø§ÙĨ
ĠØ± ÙĤÙĬÙĤ
ÙĩÙĪ Ø©
ĠØ§ÙĦÙĤ ÙĬØ§
ĠØ§ÙĦØ¥ Ø´
ĠØ¨Ø¹Ø¯ ÙħØ§
ĠÙĬÙĤ Ø¨Ø¶
ĠØ§ÙĦØ² ÙĨØ§
ĠÙĪØ§ÙĦÙħ Ø±Ø§Ø¯
ĠÙĪØŃ ÙĬÙĨØ¦Ø°
ĠØ¹ÙĨØ¯Ùĩ Ùħ
ĠØ§Ø®Øª Ø§Ø±
ÙĪØ§ÙĦÙħ Ø±Ø§Ø¯
ĠØ£Ùģ ØªÙī
ÙĬ ÙĩØ§
ĠØ§ ÙħØª
ĠÙĪ ÙĦØ¹
ĠÙģ Ø¶
ĠÙģ Ø°ÙĦÙĥ
ØŃ Ø«
ĠÙĥ Ø±Ø§ÙĩØ©
Ø´ Ùģ
ĠÙĨ ÙģÙĤØªÙĩ
ĠØ³ Ùĥ
ĠØ¬ Ø²Ùħ
ÙĬØ¯ ÙĬ
ĠØ§ÙĦÙĨ ØŃØ±
ĠØ² Ø±
ĠØ· Ø§ÙĩØ±
ÙĪØ± ÙĪÙī
ĠØ§ÙĦØ¯ ÙģØ¹
ĠØ§ÙĦÙħØª ÙĤØ¯Ùħ
ĠØªØŃ ÙĤÙĤ
ĠÙĦØŃ Ø¯ÙĬØ«
ĠØµØŃ ØªÙĩ
ĠÙĤØ±ÙĬ Ø¨
ĠØ§ÙĦØ¹Ø¯ ÙĪ
ĠØ¥ÙħØ§ ÙħÙĩ
ĠØ¥ØŃØ¯ Ø§ÙĩÙħØ§
ĠØ§ÙĦØ£ÙĨ ØµØ§Ø±
ĠÙĬØªØŃ ÙĤÙĤ
ĠØ§ÙĦÙĤÙĬØ§ ÙħØ©
ÙĬ Ø§Ø±Ùĩ
Ùĩ Ø©
Ùĩ ÙħØ©
ÙĪ ØºÙĬØ±
Ø¬ ÙħØ¹
Ø£ ØŃØ¯ÙĩÙħØ§
ĠÙĤ ØµØ±
ĠØ± ÙĤÙĬ
ĠØ§ÙĦØª Ùģ
ĠÙĪØ§ÙĦØ ·
ĠÙĪØ£ Ø¨ÙĬ
ĠÙĦÙĦØ ²
ĠÙĬØ¹ ÙĪØ¯
ĠØ§ÙĦØ² ÙĩØ±ÙĬ
Ø¨Ø¹ Ø«
ÙĪØ§ÙĦØ ¥
ĠØ§ÙĦÙħØ¬ ÙĦØ³
ĠØ§ÙĦÙħØ¤ ÙĦÙģ
Ø¬ØªÙĩØ§ Ø¯
Ø§ Ø¹Ùĩ
ĠÙħ ÙĤØªØ¶Ùī
ĠÙĬ Ø¨Ø±Ø£
Ø¬ ÙĬØ¨
ĠÙĤ Ø±Ø£
Ø· ÙĪÙģ
ÙĩØ§ Øª
ĠÙĦØ ·
ĠØ§ÙĦØ£ ÙĬ
ĠÙĦØ£ Ø¨ÙĬ
ĠÙĬÙĤ Ø±Ø£
Ø§Ø² Ø¹
ÙĪÙĥ ÙĦÙĩ
ĠØ£ØŃØ¯ ÙĩÙħ
ĠØªØ¹ ÙĦÙĬ
ĠÙĦØ² ÙĬØ¯
ĠØ¨ÙĬ ØªÙĩ
ĠØªØ£ Ø®Ø±
ĠØ§ ÙĥØª
ĠØ¹ Ø¨Ø±
ĠÙĬ Ø³ØªØŃØ¨
Ø¬ ÙĬØ²
ĠØ§ÙĦÙħ Ø¨
ĠØ³ Ø§
ĠØ§ÙĦØ¹ Ø±Ùģ
ĠØ¨Ø¹ ÙĤØ¯
ĠØ§ÙĦÙĨ Ø°Ø±
ÙĦØª ÙĬÙĨ
Ø±Ùĥ Ø§
ĠÙĬØª Ø¨Ø¹
ĠØ§ÙĦÙĥ Ø±Ø§ÙĩØ©
ĠØº Ø§Ø¨
ĠØ¨Ùħ Ø«ÙĦ
ØªØ§Ø¨ Ø©
ĠØ£ÙĤ ÙĪÙī
ĠÙħÙĥØ± ÙĪÙĩ
Ø§ ÙĬØ®
Ø¨ Ø´
Ø¨ Ø¯Ùĩ
ĠØ¹ ÙĤÙĬÙĦ
ĠÙĬ ÙĦØª
ĠÙĬ Ø¯ÙĬ
Ø¬ ÙħØ©
ĠØ§ÙĦ ÙĦÙĬÙĦ
ĠØ° ÙĪ
ĠÙĦÙĩ Ø°Ø§
ĠÙĪØ§ÙĦØ °ÙĬ
ĠØ§ÙĦØ¥ Ø¹
ÙĪÙĬ Ø¬ÙĪØ²
ÙĬØ§ Ø©
ĠÙĬØŃ Ø¬
ĠØº Ø±Ùħ
Ø´Ø± ÙĪØ·
ĠÙĬØ¯ Ø¹
ĠØ§ÙĦØŃØ± Ø¨ÙĬ
ĠÙĦÙĦ ÙĨ
ĠØ§ÙĦØ§ÙĨØª ÙģØ§Ø¹
ĠØ¹ Ø¯ÙĬ
ĠÙĬ ÙģÙĬ
ĠÙĬ ÙĦØŃÙĤ
Ùĥ ÙĦÙĩ
Ùĥ ÙħÙĩ
Ø· Ø¦
ĠØŃ Ø¸
ĠØ£ÙĨ ÙģÙĤ
ĠÙĨ ÙģØ¹
ĠØ¨ÙĨ ÙģØ³
ĠØ§ÙĦØ¹ ØµØ±
ĠØ§ÙĦÙĤ ÙĪÙħ
ÙĪÙĬ ØŃØªÙħÙĦ
ĠØ² ÙĪØ§ÙĦ
ĠØ· Ø¹Ø§
ĠÙĬØª ØµÙĪØ±
ĠØ§ÙĦØ± ÙĤØ¨Ø©
ĠØ¨Ùħ ÙĥØ©
ĠØ¹Ø±Ùģ Ø§
ĠØ´Ø¹ Ø±
ÙĥÙģ ÙĪÙĦ
ĠØ§ÙĦØ±ÙĪØ§ ÙĬØ©
Ùĩ ÙĬØ±
ĠØ§ ÙģØª
ĠÙĪ ÙĦÙĬÙĩ
ĠÙħ Ø¨ÙĨÙĬ
ĠÙĬ Ø®ØªÙĦÙģ
ĠØ§ÙĦÙħ ÙĪÙĤÙĪÙģ
Ø· ÙĦØ§ÙĨ
ĠØ£ÙĪ ÙĦÙĩ
ĠÙĨ Ø¯
ĠÙĨ Ø§Ø¦
ĠØ³ Ø¦ÙĦ
ĠØ´ Ø¨Ùĩ
Ø±ÙĬ ÙħÙĩ
ĠØ§ÙĦÙĤ Øª
ĠÙĬÙĥ ÙģØ±
Ø±Ùĥ Ø¨
ĠØ§ÙĦØµ ÙĪØ±
ĠÙĪÙĤ ÙĪØ¹
ĠØ§ÙĦØ§ ØŃØª
ĠØŃÙĬ ÙĪØ§ÙĨ
ĠÙĦÙĤ ÙĪÙĦ
ĠÙĦØ¨ Ø¹Ø¶
ĠÙĥØ³ Ø¨Ùĩ
ĠÙĤØ±ÙĬ Ø´
ĠØ£ØµØŃØ§Ø¨ Ùĩ
ĠØ§ÙĦÙĤ Ø³Ùħ
ĠÙĪØ§ÙĦØ ¢Ø®Ø±
ĠØ§ÙĦØ° ÙħÙĬ
ĠØ¶ ÙħÙĨÙĩ
ĠØ¨Ùħ ÙĦÙĥ
ĠÙĬØ¤ Ø¯ÙĬ
ĠÙģÙĥ Ø£ÙĨÙĩ
ĠØµØŃÙĬØŃ Ø§
ÙĪÙĬÙĨ Ø¨ØºÙĬ
ĠØ¬ÙĨØ³ Ùĩ
ĠÙĦÙĦØ¥ ÙħØ§Ùħ
ĠÙĨØ¸ ÙĬØ±
ĠØªÙĤØ¯ ÙĬØ±
ĠÙħ Ùĩ
ĠØ¨ ÙĤØ±
ĠØ¹ ÙħÙĨ
Ø¬ ÙĬÙĦ
ĠÙĤ Ø±Ø§Ø¡Ø©
ĠÙĤ Ø¨ÙĬÙĦ
Øµ ÙĦÙĬ
ĠØ§ÙĦØ£ Ø¹Ùħ
ĠØ° Ùħ
Ø±Ø§ ÙħÙĩ
ÙĦØ¯ Ùĩ
ĠØ§ÙĦØ¯ Ø±Ø§ÙĩÙħ
Ø¨Øª Ø§Ø¹
ĠÙĪØ¹ Ø¨Ø¯
ÙĪØ§ÙĦØ ®
ÙĪÙĤ ÙĪÙĦ
Ø§Øµ Ùħ
ÙĨÙģ ÙĤØ©
Ø§Ø´ Ø±Ø©
ĠØ¹Ø´Ø± ÙĬÙĨ
ĠÙĪØ¹Ø´Ø± ÙĪÙĨ
ĠÙĬØ¹ÙĤ ÙĪØ¨
Ø¨ Ø±ÙĬ
ĠÙħ ÙĤØµ
Ø³ Ø¨Ùĩ
Ø° ÙĬÙĨ
ÙĦÙĬ ÙĦØ©
ĠØª Ø±Ø¬
ÙĪØ§ ÙģÙĤ
ĠØ§ÙĦÙĤ ÙĪØ¯
Ø¹Øª ÙħØ¯
Ø¨Øª ÙĩØ§
ĠÙĪØª Ø¹Ø§ÙĦÙī
ĠÙĬÙģ ÙĩÙħ
ÙĨØ¨ ÙĬØ©
ĠØ£Ø®Ø±Ø¬ Ùĩ
ĠÙħÙĤØ¯ Ø§Ø±
ĠØ§ÙĦØµØŃ Ø§Ø¨Ø©
ĠÙĪ Ø³Øª
ĠÙģ Øº
ĠÙĬ ÙģØª
ĠÙĬ Ø¨Ø§Ø¹
ØŃ ÙĥÙħ
ĠÙĤ Ø³ÙħØ©
ĠÙĨ Ø§Ø³
ĠØ§ÙĦØ£ ÙĤÙĦ
ĠØ¬ Ø¯Ùĩ
ĠØ¥ÙĨ ÙĬ
ĠØº Ø±
ÙĦØ¨ Ø©
ĠØ£Ùħ ÙĬØ©
ĠÙĦÙĥ Ùħ
ĠÙģØ§ ÙĦÙĪ
ĠÙħÙĦÙĥ Ø§
Ø·Ø¹ Ø§Ùħ
ĠÙħØ¹ÙĦÙĪ ÙħØ©
ĠØ§ÙĦØ³Ø¨ ÙĥÙĬ
ĠØ³ÙĬØ¯ ÙĩØ§
ĠØ§ÙĦØ¨Øº ÙĪÙĬ
ĠØ§ÙĦØ¹Ø² ÙĬØ²
Ùĩ Ø¯Ø©
ĠÙĪ ÙĤØ§
ĠØ¥ Ø¬
ĠÙĨ ÙĤ
ĠØ³ ÙĤÙĪØ·
ĠØ¨Ø¹ Ø«
ĠÙĦÙĪ Ø¬ÙĪØ¯
ĠØ¶ ÙħØ§ÙĨÙĩ
ÙĪØ³ Ø·
ĠÙħØ§Øª Øª
ĠØ¢ Ø®Ø±Ùĩ
ĠØ¨Ø« ÙĦØ«
ĠØ¯Ø® ÙĪÙĦÙĩ
ĠØ¯Ø® ÙĦØª
ĠØ¨Ø§ÙĦØ¯ ÙĬÙĨ
ĠØ²ÙĬØ§ Ø¯ØªÙĩ
ÙĬ Ø¶
Ø± ØªØ¨
Ø¯ Ø§Ùħ
ĠÙĪ ØµÙĦ
ĠÙħ ÙģØ±
ĠØ¨ ÙĪØ¬Ùĩ
ĠÙģ Ø§Ø±
ĠÙĥ Ø³Ø¨
ĠØ§ÙĦÙħ ÙĪØµÙĬ
ĠØ§ÙĦÙħ ØŃÙĬØ·
Ø« Ø±Ø©
ĠÙĨ Ø¨ÙĬ
ĠØ³ ÙĩÙĪ
ĠØ¨Ùĩ Ø°Ùĩ
ĠØ§ÙĦØ¬ Ø±ØŃ
ĠØ£Ø® Ø±
ĠØ§ÙĦÙģ Øª
ĠØ¨Ø£ ÙĥØ«Ø±
ĠÙĪÙĤ ØªÙĩ
ĠØ£Ø¬ Ø§Ø²
ĠÙĥØ§ÙĦØ ¥
ĠØ¥Ø³ ÙĦØ§ÙħÙĩ
ĠÙĦÙĦØ£ ÙĪÙĦ
ĠØ§ÙĦÙĥÙģ Ø§ÙĦØ©
ĠØªØµØŃ ÙĬØŃÙĩ
ĠØ§ÙĦÙħØ· ÙĦÙĪØ¨
ĠØ®Ø± ÙĪØ¬Ùĩ
Ø¯ Ø¨Ø±
ĠÙģ Ø£ÙĨ
ĠØ§ÙĦÙħ ÙĪÙĩÙĪØ¨
ĠØŃ Ø±Ø¨
ĠØ§ÙĦ ÙĦØ®ÙħÙĬ
ĠØ± ÙĤ
ĠØ¬ Ø¨ÙĬØ±
Ø¨ÙĬ Øª
ĠØ« ÙĪØ¨Ùĩ
ÙĬØ§ ÙĨÙĩ
ĠØ§ÙĦØ³ Ø¬ÙĪØ¯
ĠÙĪÙĬ Ø¬Ø¨
ĠÙĬØª Ø²ÙĪØ¬
ØºÙĬØ± Ø©
ĠØ¨Ø¯ ÙĦÙĩ
ĠØ¸ ÙĨÙĩ
ØŃÙĬ Ø§Ø¡
ĠØ¨Ùħ ÙĪØªÙĩ
ĠÙħØ§ÙĦÙĥ Ø§
ÙħÙĬ ÙĬØ²
ĠØŃØ± Ø¨ÙĬ
ĠØªÙģ Ø±ÙĬ
ĠØ§ÙĦØ¹Ø¨Ø§ Ø³
ĠØ§ÙĦÙħØ¶Ø§Ø± Ø¨
ĠØªÙģØ³ ÙĬØ±
ÙĬ Ø¨Ø§
Ùģ Ø¹Øª
Ø¬ Ùħ
ĠÙĤ ÙĪØ©
Ø§ÙĨ Ø¸Ø±
ĠØ§ÙĦØ£ ÙĥÙĦ
ĠÙħØ¹ ÙĬÙĨØ§
ĠØ§ÙĦÙĤ ØµØ±
ĠØ¨Ø§ÙĦØ ²
ĠØ§ÙĦØ¬ ÙĨ
ĠÙĪØ£ Ø®
ĠÙĪØ£ ÙĨØ§
ĠÙĦÙĦØ «
ÙĪØ± ÙĪÙĬ
ĠØ±Ø¬ ÙĦÙĬÙĨ
ĠØ¹ÙĦÙĬ ÙĥÙħ
ĠÙĤØ§ Ø¶
ĠØ£Ø¬Ø² Ø£Ùĩ
ĠØ§ÙĦÙħØ£Ùħ ÙĪÙħ
ĠØ£ ÙħÙĨ
ĠÙħ Ø³ØªØŃÙĤ
ĠØ¨ Ø¨ÙĬØ¹
ĠØ¹ Ø¸
ĠØ¹ ÙģØ§ÙĨ
Ø³ ÙĤ
ĠÙĤ ÙĬØ§Ø³
Ø® ÙĦÙĩ
Ø« Ø§
ĠÙĦØ§ Ø³Øª
ĠØ´ ÙĩØ±Ø§
ĠÙĬØ¹ ÙĬÙĨ
ÙĪØ§ÙĦØ °ÙĬ
ĠÙĪØµ Ø§Ø±
ĠÙĬØ´ ÙħÙĦ
ĠÙĦØº Ø©
ÙĬÙĤ ÙĨ
Ø¹ Ø¨
ĠÙģ Ø¶Ø©
Ø³ ÙħÙĩ
ĠÙĬ ÙģØ³Ø¯
ĠÙĤ ÙĬØ§Ùħ
ĠØ± ÙĤØ¨Ø©
Ø±Ø§ Øª
ĠØ¨Ø§ Ø·
ĠØ§ÙĦÙĨ ÙĤØµ
ĠÙĪØ¹ ÙĦÙħ
Ø§Ùĩ Ø¨
ĠÙĬØ³ Ø¬Ø¯
ĠØ¨ÙĬØ¹ ÙĩØ§
ĠÙĦÙĦØ¹ Ø¨Ø¯
Ø¹Ø· Ø§Ø¡
ĠØ§ÙĦÙħÙĨÙĩ Ø¬
ÙĬ ÙĪÙĨ
ĠÙĪ ÙĦØ
ĠØ£ Ø±Ø¯
Ø£ ÙĤÙĪÙĦ
ĠÙħÙĨ ÙĥÙħ
Ø¥ ÙĦØ®
ĠØ³ Ø§Ø¨
ĠØ§ÙĦØ£ ÙĤ
ĠØ° Ø§Øª
ĠØµ ÙĪÙħÙĩ
ĠØ¬ Ø±Ùī
ĠØ§ÙĦØŃ Ø§ÙģØ¸
ĠØ¯ Ø§Ø±Ùĩ
ĠÙĪØ§ Ø¶ØŃ
ĠØ² ÙĨØ§
ĠÙĪØ£ Ø±Ø§Ø¯
ÙĪØ¹ Ø©
ĠØ§ÙĦØ® Ùģ
ĠÙģØ¥ÙĨ ÙħØ§
ÙĪØ§ÙĦØ ©
ĠØ£ØŃ ÙĥØ§Ùħ
ĠØ¨ÙħØ§ Ø¦Ø©
ĠÙĬØ® ÙĦÙĪ
ĠØªØŃ Ø±ÙĬÙħ
ĠÙĪØºÙĬØ± ÙĩÙħ
ĠÙĦØŃ Ùħ
ÙĤØ¨ Ø¶Ùĩ
Ø®Øµ ÙĪØµ
ĠÙĬØ· Ø£
ĠØ¹ÙĬÙĨ Ø§
ĠØ£Ø±Ø¶ Ùĩ
ĠÙģØ¬ Ø§Ø¡
ĠØ§ÙĦÙħØ· ÙĦØ¨
ĠÙĪ Ø¶ÙĪØ¡
ĠØ£ Ø¨Ø±Ø£
ĠÙħ ÙĤØ¨
ÙĦØ§ Øª
ĠØ§ÙĦÙħ ÙĪØ¶Ø¹
ĠØ¥ ÙħØ§Ùħ
ĠØ¥ Ø«Ø¨Ø§Øª
ĠØ§ÙĦØ£ ÙĤØ±Ø¨
ĠØ§ÙĦØ¹ ÙħØ¯
ĠØ§ÙĦØŃ Ø§Ø¬Ø¨
ĠØ§ÙĦÙĤ Ø±Ø¶
ÙħÙĩ Ø±
ÙĪØ§ÙĦØ ´
ĠÙģØ£ ÙħØ§
ÙĦØ¹ ÙĬ
Ø§ØŃ Ø¨Ùĩ
ÙĪÙĦÙħ Ø§
ĠØªØ³ ÙĦÙĬÙħ
ĠØŃØµ ÙĪÙĦ
ĠÙĪÙĬÙĨ Ø¨ØºÙĬ
ĠØŃÙĨ Ø·Ø©
ĠØ§ÙĦØ£ØŃ ÙĥØ§Ùħ
ĠØ§ÙĦØ±Ùħ ÙĦÙĬ
Ø ¢Ø®Ø±
ĠØ¥ ÙĤØ§ÙħØ©
ĠØ´ Ùĩ
ĠØ§ÙĦØª Øµ
ÙĦØ£ÙĨÙĩ Ùħ
ĠØ§ÙĦÙĥ ÙģØ±
ĠÙĬÙĨ ÙĪ
ĠÙĪØª ØŃ
ĠØ§ÙĦØº Ø§ÙĦØ¨
ĠØ·ÙĦØ¨ Ùĩ
ĠØ§ÙĦÙĪÙĦÙĬ Ø¯
ĠØ§ÙĦØ¬Ø² ÙĬØ©
ĠÙħÙĥØ§ Øª
ĠØ§ÙĦØŃØ³ ÙĬÙĨ
ĠØ§ÙĦÙĥØ¹ Ø¨Ø©
ÙĬ Ùĥ
ÙĬ ÙĦØ¹ÙĬ
Ø³ Ø¯
ĠÙĬ Ø®ØªØµ
ĠÙĥ Ø¨ÙĬØ±
ĠØŃ Ø³Ø¨
ĠØ§ÙĦØª Ø¬Ø§Ø±Ø©
ĠØ· ÙĦØŃØ©
ĠÙĦÙĦØ °
ĠÙĦÙĬ ÙĦØ§
ØµØŃ Ùģ
ÙģØ§ Ø©
ĠÙĪÙĩ Ø°Ùĩ
ĠÙĪÙĨ Øµ
ĠÙĬØ³ ÙĨ
ĠÙĦØµ Ø§ØŃØ¨
Ø§ Ø¹ÙĦ
ĠÙĪ Ø¢
ĠÙģ ÙĩÙħ
Ùĥ Ø§ÙĦ
ĠØ§ÙĦÙħ ÙĦØª
ĠØ§ÙĦÙħ ÙĥØ±Ùĩ
ØªÙĩ ÙĦÙĥ
ĠØ§ÙĦØ¨ Ø°Ø±
ĠØ² ÙģØ±
Ø¨Ø§ Ø¯Ø±
ĠØ¨Ø£ ÙĨÙĩØ§
ĠÙĤØ¨ ÙĪÙĦÙĩ
ĠØ¨Ùħ Ø«ÙĦÙĩ
ĠÙĪÙħØ§ Øª
ĠØ®ÙħØ³ ÙħØ§Ø¦Ø©
ĠØ§ÙĦÙħØº Ø±Ø¨
ĠØ°Ùĥ Ø±Ø§
Ø§ ØŃØ¯
ĠÙĪ ÙħØ±
ĠÙģ Ø§ÙĦ
ØŃ ÙĦÙĩ
ĠØŃ ÙĤØ§
ĠØŃ Ø§Ø¬
ĠØ¨Ø¹ Ø´Ø±Ø©
ĠØ§ÙĦØŃ Ø±Ø§Ùħ
Ø¹Øª Ø¯
ĠØ¨Ø§ÙĦØ °
ĠØ¨Ø§ Ø³Øª
ĠÙĪØ¬ ÙĪØ¨Ùĩ
ĠÙĦÙĦØ ¯
ĠØ§ÙĦØº ÙĦØ©
ĠÙħØª ÙģÙĤ
ĠØ£Ø®Ø° Øª
ĠØ¨Ø± Ø¦
ĠÙħØ±Ø¶ Ùĩ
ĠØ§ÙĦÙĤØ¯ Ø±Ø©
ÙĪ Ø¶Ø§
ÙĦÙĪ Ùģ
ĠØ£ÙĪ Ø¬Ùĩ
ĠØ§ÙĦØ£ ÙĪØ¬Ùĩ
Ø³Øª Ø£Ø¬Ø±
ĠØ§ÙĦØ¹ ÙģÙĪ
ĠØ® ÙĦÙĬÙĦ
ĠØ§ÙĦØ¨ ÙĬÙĩÙĤÙĬ
ĠØ¨Ø§ÙĦØ ¶
ĠØ§ÙĦÙĨ Ø§Ø±
Ø¨Ø§ Ùĩ
ĠÙĪØ£ Øµ
ĠØ£Ø® Ø¨Ø±Ùĩ
ĠØ¶ Ø§ÙħÙĨ
ĠÙħØª Ø¬Ùĩ
ĠÙħÙĦÙĥ ÙĩØ§
ĠØ§ÙĦÙĬ ÙħÙĨ
ĠÙĪØ¬Ø¯ Øª
Ø¨Ø³ ÙĪØ·
ĠÙģÙĤ Ø§ÙĦØª
ĠÙĪØ§ÙĦØ« Ø§ÙĨÙĬ
ĠÙħØ±Ùģ ÙĪØ¹Ø§
Øª ÙħØ¹
ĠÙħ ÙĪÙĤ
Øµ Ø·
ĠØ¥ Ø´
Ø´ Ùī
Ø² ÙĬØ¯
ĠÙĦØ§ ÙĨØª
Ø±Ùĩ ÙĪÙĨ
Ø¯ÙĬ Ùħ
ØªÙĤ Ø¶
ĠÙħØ³ Ø§Ø¦ÙĦ
ĠÙĬØ£ Ø°ÙĨ
ĠØ¨ØŃ Ø³Ø¨
ÙĤØ¨ ØªÙĩ
ĠØ¢ Ø¯Ùħ
ĠØ§ÙĦÙĥÙģ Ø§Ø±
ĠØ¨Ø§ÙĦÙģ Ø¹ÙĦ
ĠØ´ÙĩØ§ Ø¨
ĠÙĨØ¸ Ø±Ø§
ĠÙħÙĬØª Ø©
ĠÙĪØ±Ø« ØªÙĩ
Ø§ Ø¹Ø§
ÙĪ ÙĬØ¯
ÙĦØ ¸
ĠÙĪ Ø±Ø¨
ĠØ¨ Ø¨Ø¹Ø¶
ĠØ¹ ÙĪÙģ
ĠÙģÙĬ ÙĦØ²ÙħÙĩ
Ø² ÙĦÙĩ
ĠÙħØ¹ ÙĬÙĨØ©
ĠÙĦØ£ ÙĩÙĦ
ĠØ¨Ø§ ÙĤ
ĠØ§ÙĦØµ ÙĪØ±Ø©
ØµØ¯ ÙĤÙĩ
ĠØ§ÙĦØŃÙĬ ÙĪØ§ÙĨ
ĠÙĦØ® Ø¨Ø±
ĠØµØºÙĬØ± Ø©
ĠØ§ÙĦØªØ³ ÙĦÙĬÙħ
ĠÙħÙĤØ§ ÙħÙĩ
ĠØ£ ÙģØ§Ø¯Ùĩ
ĠØ§ÙĦÙħ Ø¹Ø§
ĠØ£ÙĪ Ø¬Ø¨
ĠØ³ Ø£ÙĦ
ĠØ§ÙĦØŃ Ø§ÙĦÙģ
ĠØ§ÙĦØ´ ÙģØ¹Ø©
ĠÙĬØª Ø£
ĠØ§ÙĦØ° Ø¨ØŃ
ĠØ¹Ø¨Ø§ Ø¯Ø©
ĠØ§ÙĦØ£Ø³ ÙĪØ¯
ĠÙħ Ø®Øª
ĠØ§ÙĦÙħ Ø§ÙĨØ¹
ĠØª ÙĪÙĤÙģ
ÙĦÙĪ Ø©
ĠØ± Ø¨ÙĬØ¹Ø©
ĠØµ ÙĨØ¹
ĠØ§ÙĦØŃ ÙĬØ§Ø©
ĠØ¯ ÙĨØ§ÙĨÙĬØ±
Ø±Ø¬ ÙĪØ¹
ÙĪÙħ Ø¹
ĠØ· Ø±Ùģ
ĠØº Ø§ÙĬØ©
ÙĪØ§ÙĦØ µ
Ø§Øª Ùħ
ĠØ´Ø±Ø· Ø§
ĠØ¨Ø§ÙĦØ£ ÙĪÙĦÙī
ĠØ§ÙĦØ¸ ÙĨ
ĠØ¹Ùħ ÙĦØ§
ĠÙĪØ´ Ø±Ø·
ĠØ§Ø³ØªØŃ ÙĤØ§ÙĤ
ĠØ£Ø±Ø¶ Ø§
ĠØ¨Ø« ÙħÙĨ
ĠØ§ÙĤØª ØµØ±
ĠØ§ÙĦÙĨÙĩ ÙĬ
Ø³ÙĨØ§ Ø¯
ĠÙħ Ø¶
ĠÙģ ÙĪØ¬Ø¨
Ùĥ Ø¨Ø±
Ø£ ÙħÙĨ
ĠÙĥ ÙĦØ¨
ĠÙĥ Ø°Ø¨
ĠØª Ø³ÙħØ¹
Ø§ÙĦØ ´
ĠØ³ ÙĥØª
ĠÙħØ¹ Ø±ÙĪÙģ
ĠØ§ÙĦÙģ Ø±Ø¬
ĠØ§ÙĦØ® ÙĦØ¹
ÙĪØ± Ø¯
ĠØ£ØŃØ¯ Ø«
ĠØ§ÙĦØ± ÙĤ
ĠÙĦÙĦÙħ ÙĪÙĦÙī
Ø®Ø±Ø¬ Ùĩ
ĠØ£Ø±Ø¨ Ø¹ÙĬÙĨ
ĠØ¨Øµ ÙģØ©
ĠÙĨØ¬ Ø§Ø³Ø©
ĠÙħÙĥØ§ ÙĨÙĩ
ĠÙĦÙĦÙħØ³ÙĦÙħ ÙĬÙĨ
ÙĬ Ø¦Ø©
Ùħ Ø«
Ùħ Ø¯Ùĩ
ĠÙħ ØµØ±
ĠÙĬ ÙģØ³Ø®
ĠÙĤ Ø§Ø±
ÙĦÙĬ Øª
ÙĦÙĬ ÙĦØ§
ĠÙĥ Ø³Ø±
ĠÙĨ ÙĬØªÙĩ
ĠØ³ ÙģØ±
ĠØ§ÙĦÙĤ Ø°Ùģ
ĠØ§ÙĦÙģ Ø±Ø¹
ÙĤØ· Ø§Ø¹
ĠÙĬÙĨ ÙĤØ¶
ĠØ±Ø¬ ÙĪØ¹Ùĩ
ĠØ¨Ø£ ÙħØ±
ĠØ¹ÙĦÙĬ ÙĨØ§
ÙĦØ¹ Ø§ÙĨ
ĠØ¥Ø³ ÙĤØ§Ø·
ĠØŃØ§ ÙĦØ§
ĠÙħÙħÙĦÙĪ Ùĥ
Ø± Ø¨ÙĬ
Ùħ Ùĥ
ĠÙħ ÙĥÙĦÙģ
ĠÙģ ÙĪÙĦØ¯
ĠØ¹ ÙĩØ¯
Ø³ Ø§Ø¨
ØŃ ÙħÙĦ
Ùĥ Ø³Ø±
ĠÙĤ Ø¶ÙĬØ©
ÙĦÙĬ Ø«
ĠØª ÙĪØ¶Ø£
ÙĩØ§ Ùħ
ĠØ± ÙĤØ¨ØªÙĩ
ĠÙĩ Ø°ÙĬÙĨ
ĠØ§ÙĦØ£ Ø®Øª
ĠØ§ÙĦØ¹ Ø§Ùħ
ĠØ§ÙĦØŃ ÙĦÙĤ
ĠØ§ÙĦØŃ Ø§ÙĦØ©
Ø±Ø¨ Ùĩ
Ø±Ø¨ Ø¹ÙĬÙĨ
ÙĪÙĬ Ø¬Ø¨
ĠÙĪØ¬ Ø¯Ùĩ
ĠØ§ÙĦØ§ ÙĤØª
ĠØªØ¹ ÙħØ¯
ĠÙĪÙĦØ¯ Ø§
ĠØ£Øµ Ø¨Øº
ĠØ§ÙĦÙħØ¹ ÙĦÙĤ
Ø¨Ø§Ø± ØªÙĩ
ĠÙħØ³ÙĦÙħ Ø©
ĠØ£Ùĩ ÙĦÙĩØ§
ĠØ§ÙĦØªØ¹ ÙĦÙĬÙĤ
ĠÙĬØ± Ø¯Ùĩ
ĠÙĤØ±ÙĬ Ø¨Ø§
Ø§ÙĦØ¬ ÙĪØ§Ø¨
ĠØ²ÙĬØ§ Ø¯
ÙĬ Ø§Ø¡
ĠØ§ Ø´ØªØ±ÙĬ
ĠØ¨ Ø±Ø¯
ĠØ¨ ÙĪØ·
ĠØ¨ ÙĦÙĪØº
ÙĦØ§ ØµØ©
ĠÙĤ ÙĪÙĦØ§ÙĨ
ĠØª ØºÙĬØ±
ĠØ§ÙĦ ÙĦØ¨ÙĨ
ÙĨØ§ ÙĩØ§
ĠØ° Ø§Ùĥ
ĠØ« ÙħØ±
ĠØ® Ø§
ĠØ§ÙĦØ´ ÙĩÙĪØ¯
ĠØ§ÙĦØ« ÙħØ±Ø©
ĠØ§ÙĦØ§ Ø®Øª
ĠØ§ÙĦØº Ø±ÙĬÙħ
ÙĪØ§ÙĦØ ¯
ĠÙģØ£ Ø®Ø°
ĠØ¨Ø¥ ÙĤØ±Ø§Ø±Ùĩ
ĠØ¨ÙĤÙĬ ÙħØªÙĩ
Ø±Ø§Ø¬ ØŃ
ĠÙĬØ· Ø§ÙĦØ¨
ÙĬØ§ÙĨ Ø©
ĠÙĪÙĬØ± Ø¬Ø¹
ĠØ§ÙĦÙħÙģ ÙĦØ³
ĠÙĤØµ Ø¯Ùĩ
ĠØ§ÙĦÙħØ´Øª Ø±Ùĥ
Ùĥ ÙģÙĬ
ĠÙģÙĬ ØµØŃ
Ø· ÙĦØ¨
ĠØª ÙĨØ§
ĠØ« ÙĬØ§Ø¨
ĠØ¯ Ø§Ùħ
ĠØ§ÙĦØª ÙĨ
ĠØ§ÙĦÙĨ Ø³Ø®
ĠØ· ÙĦØ§
ĠØ§ÙĦØ³ Ø±
ĠØ£Ø® ÙĬÙĩ
ĠÙĪÙĥ ÙĬÙĦ
ØªÙĬ Ø§ÙĨ
ĠØ¨Ø§ÙĦØŃ Ø¬
ĠÙĦØ¬ ÙĪØ§Ø²
ĠØ§Ø¬Øª ÙħØ¹
ĠØ«Ø§ÙĨ ÙĬØ§
ĠÙĪ ÙĦØ£
ĠØ¨ Ø«Ùħ
ĠÙģ Ø§Ø´Øª
ĠØª Ø±Ø¯
ĠØµ Ø§Ø¹
Ø¨ÙĬ Ø¯
ĠØ¨Ø¹ ÙĬØ¨
ĠØ« ÙĤØ©
ĠØ§ÙĦÙĦÙĩ Ùħ
ÙĪØ§ Ø¯
ĠØ® ÙĬØ±Ø§
ÙĪØ¬ ÙĪØ¨
ĠØ§ÙĦØª Ø´
ĠØ§ÙĦØ¥ Ø±Ø«
ÙĪÙĬ ÙĥØ±Ùĩ
ÙĦØ£ÙĨÙĩ ÙħØ§
Ø±Ùħ ÙĬ
Ø¹ÙĬ Ø§ÙĨ
ĠØ§ÙĦØ· ÙĪØ§Ùģ
ĠØ£Ø´ ÙĩØ¯
ĠÙĤØ§Ùħ Øª
ÙĨØ² ÙĬØ±
ĠØ§ÙĦØŃÙĨ Ø·Ø©
ĠÙģ Ø²
ĠÙģ Ø®Ø±Ø¬
Ùģ ÙĦØ©
ĠÙĬ Ø¨ÙĬØ¹Ùĩ
Ø° Ùī
ĠØ§ÙĦÙħ ÙĥÙģÙĪÙĦ
ĠØ§ÙĦØŃ Ø¨Ø³
ĠÙĤÙĪÙĦÙĩ Ø§
Ø§Ø¦ Ùģ
ĠÙĦÙĦØ ¢Ø®Ø±
ĠÙĬØª ØµØ¯ÙĤ
ÙĪØ± ÙĪØ§Ùĩ
ĠÙĤØ¯ ÙħÙĩ
ĠØ§ÙĦØ± Ø²
ØŃÙĬ Ø¶
ĠØ§ÙĦÙħØ³ ÙĬØ¨
ĠÙĪØ³ ÙĪØ§Ø¡
ĠØ¨Ø§ÙĦØ¹ ÙĤØ¯
ĠØªÙħ ÙĦÙĥ
ÙĤØ¶ Øª
Ø§ÙĦØº Ø©
ĠØ¥ØŃ Ø±Ø§ÙħÙĩ
ĠØ§ÙĦØ´Ø±ÙĬ Ùĥ
ĠÙĪØ¹Ø¯ ÙħÙĩ
ÙĪ ÙĪÙĬ
ÙĪ ØµØŃ
ÙĪ ÙĤØ§
ĠØ£ Ø¸ÙĩØ±
ĠÙħ ÙĪØ¬Ø¨
ĠØ¨ Ø±ÙĤ
ĠÙģÙĬ ÙĤÙĪÙĦ
ĠØ§ÙĦÙħ ÙĥØ§ÙĨ
ĠØ§ÙĦÙħ Ø®ØªØ§Ø±
ĠØª ÙĥØ±
Ø±Ø§ Ø¬Ùĩ
ĠØ¬ ÙĦØ³
ĠÙĪØ§ Ø¹Øª
Ø§Ø¦ ÙģØ©
ÙģÙĬ ÙĥÙĪÙĨ
Ø¡ ÙĪØ³
ĠØ· ÙĪØ§Ùģ
ĠÙĬÙĨ ÙĪÙĬ
ĠØ§Ø³Øª Ø¦
ĠØ¨Ø¯ Ø§Ø±
ĠÙĪØŃ ÙĥÙħ
ĠÙĦÙĦØ£ Ùħ
ĠØªÙĤ Ø¹
ĠØ£Ø®Ø¨Ø± ÙĨÙĬ
Ø§Ø¤ ÙĩØ§
ĠØ±Ùĩ ÙĨØ§
ĠØ§ÙĦÙģØ± ÙĪØ¹
Ùħ ÙĨÙĩØ§
ĠÙģ Ø§Ø¯
ĠÙģ ÙĤÙĬÙĦ
Ø³ ÙĦÙĬÙħ
ĠÙĬ Ø±Øª
ØŃ ÙĤ
ĠÙĤ Ø¶
ĠØ¥ Ø±Ø«
ĠØ´ Ø±ÙĥØ©
Ø±Ø§ Ø³
ĠØ¨ÙĨ Ùī
ĠØ¬ Ø¯Ø§
ÙĪØ§ Ø¹
Ø¹Øª ÙĤØª
ĠØ§ÙĦØ´ Ø®Øµ
ÙĪØ± ØªÙĩ
ĠÙĪÙĥ ÙĬØ¹
ĠÙĬÙĨ ÙĥØ±
ĠØ§ÙĦØ¶ Ø±Ø¨
ĠØ§ÙĦØ¢ Ø¯ÙħÙĬ
ĠÙĪÙĥØ§ÙĨ Øª
ĠØªØµØ±Ùģ Ùĩ
ĠØ¨Ø§ÙĦØ® ÙĬØ§Ø±
ÙĪØ¡ Ø©
ÙĪØ§ÙĦÙģ Ø±ÙĤ
ÙĨ ØªÙĩ
ĠÙĬ Ø¨Ø¹Ø¯
ĠÙĤ Ø§Ø¦Ùħ
ĠØ§ÙĦÙħ Ø§Ø¦
ĠÙħÙĨ Ø§ÙģØ¹
ĠÙĨ Ø¯Ø¨
ĠØµ ÙĨ
ĠØ® Ø§Ùģ
ĠÙħØ¹ Ø¯
Ø±ÙĬ Ùĥ
ÙĪØ± Ø«Ùĩ
ĠÙĪÙħ Ø«ÙĦ
ÙĪØ³ ÙĪØ§Ø¡
ÙĪØ³ Ø¦ÙĦ
ĠØ§ÙĦÙħØª Ø£Ø®Ø±
ĠÙĬØ³ Ø£ÙĦ
ĠÙĬØ¤ ÙĥÙĦ
ÙĪØ§Ø¨ ÙĨ
Ø®Øµ ÙĬØµ
ĠØ§ÙĦØ¢ ÙħØ±
ĠÙĥØ³ Ø§Ø¦Ø±
ĠØ§ÙĦÙĪØ¬Ùĩ ÙĬÙĨ
ĠØ¬Ùħ Ø¹Ø©
ÙģØµ ÙĬÙĦ
ĠØ§ÙĦÙĨÙĩ Ø±
ĠØ§ÙĦØ®Øµ Ùħ
ĠÙħÙĤØ§Ø¨ ÙĦØ©
ÙĦØ ¥
ĠÙħ Ø¨Ø§ØŃ
ĠÙħ Ø¨ØªØ¯Ø£
ĠØ¨ Ø®Ø±
ĠÙĤ ÙĦÙĬÙĦ
ĠÙĥ Ø§ÙĦÙĤ
ĠÙħÙĨ Ø°
Ø§Ø± Ø¹Ø©
ĠÙĨ ÙģØ°
ĠØ´ Ø¯
ÙģØ¹ Ø§ÙĦ
ĠÙĦÙĦØ ·
ĠØº Ø²
ÙĤÙĦ ÙĨØ§
ĠØªØ¹ ÙĦÙĬÙĤ
ÙĪØ³ ÙĬ
ĠØ§ÙĦØ· ÙĦØ¨
ĠÙĪØ§ÙĦ Ø±
ĠÙĪØ³ ÙĬØ£ØªÙĬ
ĠÙģÙĥ Ø°Ø§
ĠØ¨Ø§ÙĦØ¹ ÙĬØ¨
ĠÙĦÙĨ ØŃÙĪ
ĠÙĥÙĦÙĩ Ùħ
ĠØ§ÙĦÙħØ´ ÙĩÙĪØ¯
ĠÙĥØ« ÙĬØ±Ø©
ĠÙĪØ§Ø±Ø« Ùĩ
ĠØ§ÙĦÙĪÙĤ ÙĪÙģ
ĠØ¸Ø§Ùĩ Ø±Ø§
Ø¯ ÙĦØ©
Øª Ø³ÙĦ
ĠÙĪ Ø¨Ø¹Ø¶
ĠÙģ ÙĦØ£ÙĨ
ĠØ¹ Ø¶ÙĪ
Ùģ ÙħØ§
Ùģ Ø§Ø¦Ø¯Ø©
ĠÙĬ Ø±Ø¬
ĠØ§ÙĦÙħ ÙĪØ¯Ø¹
ĠØ¥ ØªÙĦØ§Ùģ
ĠØŃ ÙģØ±
ĠØ§ÙĦØ£ Ø®ÙĬØ±
ĠØ¨Ø¹ Øª
ĠØ¨Ø¹ ØªÙĤ
ĠÙĦÙĬ Øª
ĠØ§ÙĦØ® ÙħØ³Ø©
ÙĦØ§Ùħ Øª
ĠØ¨Ø¯ ÙĨÙĩ
ĠÙħØª Ø¹
ĠÙħØª Ø¹Ø¯
ĠÙģØ¹ ÙĦØª
ĠÙĦØª Ø¹
ĠØ¨Ø· ÙĦØ§ÙĨ
ĠÙģØ± Øº
ĠØ¨Ø§ÙĦØ¥ Ø¬ÙħØ§Ø¹
Ø±Ø§Ø¨ ØŃØ©
ĠØŃØ¨ Ø³Ùĩ
ĠØ¹Ø§ÙĦÙħ Ø§
Ø¨ Ùī
Ø¯ Ø±Ø©
ĠÙħ ÙĪØ¬ÙĪØ¯
ĠØ¨ ÙĤØ¯
Ùģ ÙģÙĬ
ĠÙĬ ÙģØ¹ÙĦÙĩ
ØŃ Ùħ
ØŃ Ø¨
Ø° ÙģÙĩ
Øµ ÙĦØ©
ĠØ¥ Ø´Ø§Ø±Ø©
Ø® Ø§ÙĦÙģ
Ø´ ÙĪÙĨ
ĠØ¬ Ø§ÙħØ¹
Øº Ø³ÙĦ
ĠØ§ÙĦØ¨ ÙĬØ§ÙĨ
ĠØ§ÙĦØª Ùĥ
ĠØ§ÙĦØª Ø¯Ø¨ÙĬØ±
ÙĪÙħ ÙĨÙĩ
ÙĤØª Ø¶ÙĬ
ĠØº Øµ
ĠÙĪÙĥ ÙĦÙĩ
ĠÙĬÙĨ Ø²ÙĦ
ĠØ§ÙĦØ° ÙĩØ¨
Ø¯Ø§ Ùĩ
ĠØ¨Ø¥ Ø³
ĠÙħØ¤ Ø¬
ĠØŃÙħ ÙĬØ¯
ĠØŃÙħ ÙĦÙĩØ§
ĠÙĦÙĦÙĪ Ø±Ø«Ø©
ĠØ§ÙĦØ±Ùĥ ÙĪØ¹
ĠØ¬Ø§ÙĨ Ø¨
ÙĬ Ø¶Ø§
Ø± ÙĪØ§Ùĩ
ĠÙħ Ø¸
ÙĦØ§ Ùĩ
Ùĥ Ø±ÙĬ
ĠØª Ø¬Ø¯
ĠØª Ø°ÙĥØ±
Ø´ ÙħÙĦ
ĠØ§ÙĦØ£ Ø±Ø¨Ø¹
ĠØ§ÙĦØ¹ Ùħ
ĠØ§ÙĦØŃ Ùħ
ĠØ« ÙĪØ§Ø¨
ĠØ® ÙħØ±
ĠØ¨Ø§ ÙĦØ§Ø³Øª
ÙĪÙĬ ÙĥÙĪÙĨ
ÙĦØ² ÙĪÙħ
Ø³Ø¨ Ø¨Ùĩ
ĠÙħØ§ÙĦÙĥ Ùĩ
ĠØ¨ØŃ Ø§ÙĦ
ĠÙĬÙĪÙħ Ø¦Ø°
ĠØ§ÙĦÙħØŃ Ø±Ø±
Ø¶Ùħ ÙĨÙĩ
ĠØ¨Ø§ÙĦØ¨ ÙĬÙĨØ©
ĠÙĦÙĦÙĤ Ø§Ø¶ÙĬ
ĠÙĪÙĨØŃÙĪ ÙĩÙħØ§
ĠÙĤØ± ÙĬÙĨØ©
ĠÙħÙĬØª Ø§
ÙĪ ØŃØ©
Ø¨ Ø¨
Øª ÙħØ§Ùħ
ĠØ§ÙĦÙħ Ùĩ
ĠØ¥ Ø¹Ø§Ø¯Ø©
Ø« ÙĦØ©
ĠØ§ÙĦ ÙĦÙĤ
ĠØ´ Ø¹ÙĬØ¨
ĠØ¬ Ø±ÙĬØ¬
ĠØ§ÙĦØª Ø±ÙħØ°ÙĬ
ĠØ§ÙĦØ³ ÙĨ
ĠØ§ÙĦÙĥ ÙĦØ¨
Ø®Øª Ø§Ø±Ùĩ
ĠÙĤØ¯ Ø±Ùĩ
ĠØ§ÙĦØ± ÙģØ¹Ø©
ĠÙĪÙĤ Ø¨
ÙĬØ¨ ØªÙĩ
ĠØ§ÙĨ ÙĤØ¶Ø§Ø¡
ÙĦØ¹ Ø¯Ùħ
ĠØ¨ØŃ Ø«
ĠØ¨ØŃ Ø«Ùĩ
ĠÙĪÙĤØª ÙĩØ§
ĠÙĬØ¬Ø² Ø¦Ùĩ
ĠÙħÙħÙĨ ÙĪØ¹
ĠØ£Ø³ÙĦÙħ Øª
ĠØ§ÙĦØ£ÙħØ± ÙĬÙĨ
ĠØ§ÙĦØ®Ø· Ø£
ĠØ¬Ø§Ø¡ Øª
ĠÙĬØ¹Øª ÙĤØ¯
ĠØªÙĦÙģ Øª
ĠÙĦÙĦØ³ ÙĬØ¯
ĠØ£Ø± Ø³ÙĦ
ĠÙĨÙĩ Ùī
ĠØ§ÙĦØ¯Ø¹ ÙĪÙī
ĠÙĬÙħÙĨ Ø¹Ùĩ
Ùħ ØŃ
Ùħ Ø¹Ø©
Ø¨ ÙĪØªÙĩ
Ø¯ Ø±Ø§Ùĥ
ĠÙģ Ø§ÙĦØŃ
ĠØ¹ Ø§ØµÙħ
ĠÙĥ Ø¨Ø±
ĠÙħÙĨ Ø¯
Ø§ÙĨ ØªÙĩÙī
ĠØ§ÙĦ Ø±Ø¶Ø§
ĠØ§ÙĦ Ø±Ø¶Ø§Ø¹
ĠØ£ÙĨ ÙģØ³
ĠØ¯ ÙĦ
ĠÙħØ¹ ØµÙĬØ©
ĠÙĪØ§ ÙĦØ§Ø³Øª
ĠØ¨Ø§ ÙĤÙĬ
ĠØ§ÙĦÙĨ ÙĪÙĪÙĬ
ĠÙĥÙħØ§ ÙĦ
ĠØ§ÙĦÙĥ Ø¨ÙĬØ±
ĠØ§ÙĦÙĥ ÙħØ§ÙĦ
ÙĥØ§ ØªØ¨Ø©
ĠÙĬÙĨ Ø¹ÙĤØ¯
ÙĪØª ÙĤØ¯Ùħ
ĠÙĤØ¨ ÙĦØª
ĠÙħØ± ØªÙĬÙĨ
ĠØ£Ø´ Ø¯
ĠÙĤØ§ Ø¶ÙĬ
Ø§Ø´ Ùħ
ĠØ³Ø¨ Ø¨Ùĩ
ĠØ§ÙĦØ±Ø¬ Ø§ÙĦ
ĠÙĨØµÙģ ÙĩØ§
ĠØ¨Ø§ÙĦÙĤ ÙĬÙħØ©
ĠØ±Ø¨ ÙĩØ§
ĠØ´Ø± Ø¹ÙĬ
ĠØ§ÙĦØªØ¹ ÙĦÙĬÙĦ
Ø¶Ø§ÙĨ Ø©
ĠØ¥Ø¨ Ø·
ĠÙĪØ¶ Ø¹Ùĩ
Ùħ ÙĨØ§
Øª Øª
Ø¹ ØªÙĩ
ĠÙĪ Ø±Ø¬
ĠÙħ ÙĪØµ
ĠÙħ ÙĬØ±Ø§Ø«
ĠØ¨ ÙĪÙĦØ¯
ĠÙģ ÙĪØª
ĠÙģ ÙĤØªÙĦÙĩ
Ùĥ ÙĨÙī
Ø° Ø±Ø§
Øµ ÙĪÙħ
Ø® Ø±Ø©
ĠØŃ Ø±Ùģ
Ø² ÙħØ©
ĠÙĨ Ø§Ùģ
ĠØ¹ÙĨ ÙĬ
ĠØ§ÙĦØ¹ ÙĤÙĦ
ĠØ§ÙĦÙĪ ØµÙģ
Ø¸ Ø©
ĠÙĪØ£ ÙĤØ§Ùħ
ÙĬØ§ Ø·
ÙģØ§ Ø³
ĠÙĪÙĤ ÙĪØ¹Ùĩ
ĠÙĦÙĥ ÙĪÙĨ
ĠØ§ÙĦÙħØ³ Ø§Ø¦ÙĦ
ĠÙĬØ´ Ø¨Ùĩ
ĠØ¨ÙĤÙĬ ÙħØ©
ĠÙĬØº Ø³ÙĦ
ĠØ§ÙĦØ®Ø· Ø¨Ø©
ĠØ¬Ø§Ø¦Ø² Ø©
ĠÙģØ§Ø³ Ø¯Ø§
Ø§Ø· Ø¨
ÙĪ ÙĦØ¹ÙĦ
ÙĤ Ø±Ø©
ĠÙģ Ø£ÙĪ
Ø³ Ø±Ø§
Ø¬ ÙĦØ³
Ø£ ÙĨØ§
Ø§ÙĦØ ·
ĠØ§ÙĦØ¹ Ø¨Ø§Ø¨
ĠØ§ÙĦØ´ Ùĥ
ĠØ§ÙĦØ´ ÙģÙĬØ¹
ĠØ´ÙĬ Ø¨Ø©
ĠÙĪÙĥ Ø³Ø±
ÙĪØ§ÙĦØ ¸Ø§ÙĩØ±
ĠÙĬØ® Ø§Ùģ
Ø§Øª ØŃØ©
ĠØ§ÙĦÙĩ Ùħ
ĠØ®ÙħØ³ ÙĬÙĨ
ĠÙģØ± Ø§Øº
ÙĬØ³ Ùī
ĠØ§ÙĨØª ÙĤÙĦ
ĠØ§ÙĦÙĨØ¬ Ø§Ø³Ø©
Ø§ ÙħØ©
ÙĬ Ø³Ø±
Ùħ ØŃÙħØ¯
ĠÙĬ Ø¸ÙĨ
ØŃ Ø³ÙĨ
Ø¬ Ø±Ùĩ
ĠØ§ÙĦ Ø±Ø¨Ø¹
ĠØ³ ÙħÙĬ
ÙĦÙģ Ø©
ĠØ§ÙĦØ¹ ÙĪØ¯
ĠØ§ÙĦØ¹ Ø¨Ø§Ø±Ø©
ĠØ¨Ø¹ ÙĬÙĨ
ĠØ¯ Ø¨Ø±
ĠØ§ÙĦÙĤ Ø¨Ø±
ĠÙĦØ£ ÙĤÙĦ
ĠØ§ÙĦØ¨ ÙĨØª
ÙģØ¹ ÙĦÙī
Ø§Ùħ Ø³
ÙĪØ¹ Ø¨Ø§Ø±Ø©
ĠØ· Ø±Ø£
ĠÙĪÙĬ ØµØŃ
ĠØ§ÙĦÙģ ÙĤØ±Ø§Ø¡
Ø³Ùħ Ø¹Øª
ÙĤØ§ ÙĤÙĩ
ÙģØ§ Ùĩ
ĠØ¨Ø£ Ø¬Ø±Ø©
ĠÙĬØ£ Øª
Ø±Ø£ Ø³
Ø²ÙĪØ¬ Ø©
Ø¨Ø§Ø± Ùĥ
ĠØ£Ùģ Ø·Ø±
ĠÙħØ¹Ø§ Ø°
ĠÙĪØ¯ ÙĬØ¹Ø©
ĠÙĪÙĦ ÙĦÙħ
ĠÙħØ¹Øª Ø¨Ø±
ĠÙħØŃØª ÙħÙĦ
ĠØ£ ØµØŃ
ĠÙģ ÙĦÙĩØ§
ĠÙģ Ø±Ø¯
Ø¬ Ø¨Ø±
ĠØ§ÙĦÙħ Ø§Ø¬
ĠØ§ÙĦÙħ ÙĥÙĦÙģ
ĠØŃ ÙĪÙĦ
ĠØ£ÙĨ Ø¨Ø£
ÙĦÙĤ Ø¯
ĠØ³ ÙĩÙĦ
ĠØ´ ÙħØ³
ĠØ¯ Ø±Ø¬
ĠØ§ÙĦÙĤ Ø±Ø§Ø¶
ÙĪÙħ Ø«ÙĦÙĩ
Ø¨Ø± Ø¦
ĠØ§ÙĦØ¬ ÙĨØ§Ø¨Ø©
ĠØ§ÙĦÙģ Ø³Ø§Ø¯
ĠØ§ÙĦØµ Ø±Ùģ
ĠÙĦØ£ÙĨÙĩ Ùħ
ĠÙĦÙĦÙħ ÙĬØª
ĠÙĬØ¯ Ø±Ùĥ
ĠÙĦØ¹ ÙĦ
ĠØªØŃ ØªÙĩ
ĠØªØŃ Ø±Ùħ
ĠÙĪØµ ÙĬ
Ø´ÙĬ Ø§Ø¡
ĠØ¨Øª Ø±Ùĥ
ĠØ¢ Ø¯ÙħÙĬ
ĠØ§ÙĦÙħØ¬ ÙĨÙĬ
ĠØ§ÙĦÙħØ´ Ø±Ùĥ
ĠÙģØ¬ Ø¹ÙĦ
Ø§ÙĦØ£ ÙĪÙĦ
ĠØŃÙĨ Ø¨ÙĦ
ÙĪ Ø§Ø±Ø«
ĠÙĪ Ø§Ø´Øª
ĠÙħ Ø±Ø§Ø¯
ĠØ¨ Ø¦Ø±
ĠÙģ ÙĪØ¬Ø¯
Ø³ ÙĪØ©
Øµ ÙĦØŃØ©
ĠÙģÙĬ ØµÙĬØ±
ÙĦÙĬ ÙħÙĩ
ĠØ£ÙĨ ÙĬ
ĠÙĨ ÙģÙĦØ§
ĠØ³ Ø±
ĠØµ ÙĦØŃ
ĠØ¨Ø¹ ÙĪØ¶
ĠØ§ÙĦÙĤ ÙĪÙĦÙĬÙĨ
ÙĥØ± ÙħØ©
ĠÙĬØª ØºÙĬØ±
ĠÙĬØª Ø¨ÙĬÙĨ
ĠÙĬØª ÙħÙĥÙĨ
ĠÙĪÙĥ ÙĬÙĦÙĩ
ÙĪØ¨ ØªÙĩ
Ø§Ø¬ ÙĬ
ÙĨØ¹ ÙĤØ¯
ĠØ§ÙĦÙħØ¯ ÙĬÙĨ
ĠÙĨØ³ ÙĬ
ĠØ§ØŃØª ÙħØ§ÙĦ
ĠÙĬÙĨØª ÙĤÙĦ
ĠØ§Ø®ØªÙĦÙģ Ø§
ĠÙģÙĦ ÙĦÙħ
ĠØ§ÙĦÙħØ§Ø¬ Ø´ÙĪÙĨ
Ø§ Ø¬Ø±
Ø§ ÙĤÙĩ
ÙĬ ÙĤØ§Øª
Ùĩ ÙĨØ§
ĠØ£ Ø«Ø¨Øª
ĠÙģ ÙĥÙĦ
ĠÙģ Ø§Ø±ÙĤ
Øµ ÙĦØ§ØŃ
ÙħØ§ Ø¯
ĠÙĥ Ø´
ĠØ± Ø¤ÙĬØ©
ĠØ¬ Ø§Ùĩ
ĠØ§ÙĦØŃ Ø¨
ĠØ§ÙĦÙĤ ÙĨ
ĠÙĬÙĤ Ø¶Ùī
ĠØ«Ùħ ÙĨÙĩØ§
ÙģØ± Øº
ĠØº Ø§Ø¦Ø¨
ÙĪÙĩ Ø°Ùĩ
ĠØ±Ø¬ ÙĦÙĬÙĩ
ĠØ¨Ø£ ÙĤÙĦ
ĠØªØ¹ ÙĬÙĬÙĨ
ĠÙģØ§ ÙĦÙĤ
ĠØ§ÙĨ Ø¹
ĠØ°ÙĥØ± ÙĩØ§
ĠØŃÙĤ ÙĩØ§
ĠØªØ±Ùĥ ÙĩØ§
ĠØ§Ø¯ Ø¹Ø§Ùĩ
ĠÙĦØ³ ÙĬØ¯Ùĩ
ĠÙĪØ± ÙĪÙī
ĠÙħØ±Ø§ Ø¯Ùĩ
ĠØ¨Ø² ÙĬØ§Ø¯Ø©
ĠØ¹Øµ Ø¨Ø©
ĠØ§ÙĦÙĪØ§ØŃØ¯ Ø©
ĠÙĤØ§Ø¦ ÙħØ§
ĠØ§ÙĦÙģØ§Ø³ Ø¯
ĠØ§ÙĦÙģÙĤÙĩ Ø§Ø¡
ĠØ§ÙĦÙħØ¤ÙħÙĨ ÙĬÙĨ
ĠÙĨØ¯ Ø¨Ø§
ĠØ¥Ø¬ ÙħØ§
Ø§ ÙĦØ§
ÙĪ Ø¶ÙĬ
Ø± ÙģØ¹
ĠØ§ ØºØª
Øª ÙĨ
ÙĤ Ø±Ø¶
ĠÙħ ÙĤØ¯Ùħ
ĠØ¨ Ø±Ùĥ
Ø¬ ÙĨ
ĠØ§ÙĦÙħ ÙĬØ±Ø§Ø«
ĠØ§ÙĦÙħ Ø±ÙĩÙĪÙĨ
ĠÙħÙĨ ÙĥØ±
Ø® ÙĦØ©
ĠØª ÙĬÙħÙħ
ĠÙĤÙĪÙĦÙĩ ÙħØ§
ĠØ§ÙĦÙĪ Ø¶Ø¹
ĠÙĪØ§ÙĦØ ¸Ø§ÙĩØ±
ĠØ§ÙĦØ¥ ÙĤ
ĠØ§ÙĦØ¥ ØŃ
ĠÙĪÙĬ Ø³
ĠØ§ÙĦÙģ Ø±Ø³
ĠÙħØŃ Ø¶
ĠØ§ÙĦÙĥ Ø§Ùģ
ĠØ¸ ÙĩÙĪØ±
ĠÙĬØ³ Ø§Ø±
ĠÙĬÙĪÙħ ÙĬÙĨ
ĠØ£Ø±Ø¨ Ø¹Ø§
ĠØªØ±Ùĥ ØªÙĩ
ĠÙģØ³ Ø§Ø¯
ĠÙģÙĥ Ø³Ø±
ĠØ³Øª Ø±
ĠØ§ÙĦØ§Ø³Øª Ø¨Ø±Ø§Ø¡
ĠÙĨÙĥØ§ØŃ ÙĩØ§
ĠØ£Ø¨Ø§ Ùĩ
ĠØ±Ùħ Ùī
ĠØ®Øµ ÙĪØµ
ÙĬÙĦØ§ Ø¯
ĠØ§ÙĦØ§Ø³ØªØŃ ÙĤØ§ÙĤ
Ø¹ ÙĦÙĬÙĩ
ĠÙħ Ø¨Ø§
Ùģ ÙĦÙĬØ³
ĠØ§ÙĦÙħ Ø¹ØªØ¨Ø±
ĠØ§ÙĦÙħ Ø¨Ø³ÙĪØ·
Ø« ÙĦÙĩØ§
ĠØª ÙĤÙĬ
ĠØ± ÙĪØŃ
ĠØ³ ÙħØ§Ø¹
ĠØ§ÙĦØ£ Ø°Ø§ÙĨ
ĠØ´ Ø§Ùĩ
ĠØ´ Ø£ÙĨÙĩ
Ø±Ø§ Ø·
ĠØ¬ Ø§Ø±
ĠØ® ÙģÙĬ
ĠØ§ÙĦØª Ùħ
ÙĩÙħ ÙĦØ©
ĠØ· Ø±
ÙģØ± ÙĤØ©
Ø¯ÙĬ ÙĪÙĨ
ĠØ§ÙĦØ® Ø±Ø§Ø¬
ÙĬØª Ø§ÙĨ
ĠÙĨØµ Ùĩ
ĠÙĬÙħ ÙĪØª
ÙĨÙģ Ø°
ĠØ¨Ø§ÙĦÙħ ÙĦÙĥ
ĠØ¨Ø§ÙĦÙħ Ø§ÙĦ
ĠØ§ÙĦÙħØŃ ÙĦÙĪÙģ
ĠØ§ÙĦØ²ÙĪØ¬ ÙĬÙĨ
ĠØ¨Ùĥ ÙĪÙĨÙĩ
ĠÙģØ± Ø§Ø´
ĠØµØ¯ Ø±
ĠØ§ÙĦØŃØ± Ø²
ĠÙĬØº Ø±Ùħ
ĠØ§ÙĦÙħØ¤ Ø¬Ø±
ĠØ¨Ø§Ø¹ ÙĩØ§
ÙĪØ§ÙĦØŃ Ø§ØµÙĦ
ĠØ§ÙĦØ¨Ø¯ ÙĨ
ĠØ¹ÙĬ Ø¨Ø§
Ø§ Ø¶
ĠÙĪ Ø±Ø§Ø¡
ĠØ£ ÙĦÙĤ
ĠØ£ ÙħØ§ÙĨØ©
ĠÙħ Ø°Ùĩ
ĠÙħ ÙĤØ±
ĠÙħ Ø¬ÙĩÙĪÙĦ
Ø£ Ø©
Ø£ Ø®ÙĬØ±
ÙĦÙĬ ÙģØ©
ĠÙĥ ØºÙĬØ±Ùĩ
ĠØª Ø³Ø§
Ø¥ÙĨ ÙħØ§
ĠØ³ ÙĦØ¹Ø©
ĠØ§ÙĦØ¹ ÙĬØ¯
ĠØ¨Ø¹ ÙĬØ¯
ĠØ§ÙĦØŃ ÙĤÙĬÙĤØ©
ÙĪØ§ ÙĦÙĥ
ĠØ§ÙĦØª ÙĦÙģ
ĠÙĪØ§ÙĦØ °
ĠÙĪÙĦØ§ Ø¡
ĠØ§ÙĦÙĨ ÙģÙĬ
ĠØ² ÙĨÙī
ĠØ£Ø® Øª
ĠØº ÙĨÙħ
ĠØ§ÙĦØ§ ÙĨ
ĠØ§ÙĦØ· ÙĩØ±
ÙĨÙģ ÙĦ
ĠÙĥØ§ÙĦØ ®
ĠÙĥØ§ÙĦØ µ
ĠÙĪØ³ Ø¨Ø¹
ĠÙĨØµÙģ ÙĬÙĨ
ĠØ¨Ø· ÙĦØ§ÙĤ
ĠØ¨Ø§ÙĦØ¹ ØªÙĤ
ĠÙģØ§ÙĦØ ¹
ĠÙħØ´ ÙĥÙĦ
ĠÙħØ¤ ÙĨØ©
ĠÙĤØ±Ø¨ Ø©
ĠØ§ÙĦÙħØ£Ùħ ÙĪØ±
ĠØ§ÙĦÙħØ¶Ø§Ø± Ø¨Ø©
ĠØ±ÙĤÙĬ ÙĤØ§
ÙĤ ÙĦØ¨
ĠÙħ Ùĥ
ĠØ¨ ÙĤØ¨Ø¶
ĠÙģ Ø¨Ø§
ĠÙĬ Ø²ÙĪØ¬
ØŃ ÙĦÙģ
Ø¬ ÙĨÙĪÙĨ
ÙħØ§ Ø±Ø©
ĠØ¥ ØŃØ±Ø§Ùħ
ĠØ§ÙĦ ÙĦØŃÙħ
Ø°Ø§ Ø¨
ĠØ± Ø®Øµ
ĠØ³ Ùĩ
ĠØµ Ø±ÙģÙĩ
ĠØ§ÙĦØ¥ ÙĤØ§ÙħØ©
ĠÙĬÙĥ Øª
ĠØ§ÙĦØ³ ÙĦÙģ
ĠÙĦÙĦØ ¢
ĠØ§ÙĦØº ÙĨÙĬÙħØ©
ÙģÙĩ Ø°Ø§
ĠÙĥØ§ÙĦØ ª
ĠÙĥØ§ÙĦØ ¬
ĠØªØŃ ÙħÙĦ
ĠÙĦÙĤ Ø¯
ĠØªØ³ Ø¹
ÙģÙĩÙĪ ÙħÙĩ
ĠØ§ÙĦØªØŃ Ø±ÙĬÙħ
ĠØ§ÙĦØ«Ø§ÙĦØ« Ø©
Ø£Ø¬ Ø±Ùĩ
ĠØ§ÙĦØ±Ùħ ÙĬ
ĠØ§ÙĦÙħÙĤØª ÙĪÙĦ
ĠØªØ¹Ø¯ Ø¯
ĠØ§ÙĦØŃØ§ Ø¶Ø±
ĠÙģÙĪÙĦØ¯ Øª
Ø§ ÙĩØ§
Ø¯ Ø±ÙĬ
ĠØ¹ ÙģØ§
ĠØ¹ ÙĥØ³
ĠÙĬ Ø±Ø§Ø¯
ÙħØ§ Ùĩ
ĠÙĥ Ø®
ĠØ§ÙĦÙħ ÙĬÙħ
ĠØª Ø¨Ø±
ÙĩØ§ ÙĦØ©
Ø´ ÙĥÙĦ
ĠÙħØ§ ÙĦÙĬ
Ø±Ø§ ÙĬØ©
ĠØ® ÙĦØ¹
ĠØ® ÙĦÙģÙĩ
ĠØ§ÙĦÙĤ ØµØ¯
ĠØ§ÙĦØ¨ Ø§ÙĤ
ĠØ§ÙĦØª Ø®
ĠØ§ÙĦØª Ø³ÙħÙĬØ©
ĠØ§ÙĦØ´ Ø¹Ø±
ĠØ§ÙĦØ³ ÙĦØ¹Ø©
ĠØ§ÙĦÙĥ Ø±
ĠÙĪÙĩ ÙĥØ°Ø§
ĠØ¹ÙħØ± Ø§ÙĨ
ĠÙĦÙħØ§ ÙĦÙĥ
ĠØ£Ø¬ ÙħØ¹
ĠØ¬ÙħÙĬØ¹ Ùĩ
ĠØ¥Ø³ ÙĦØ§Ùħ
ĠÙĪØ£ÙĨ Øª
ĠØŃØ¯Ø« Ùĩ
ĠØªØ¨ ÙĦØº
ĠØ¨Ø® ÙħØ³
ĠØªÙĥ ÙĦÙħ
ĠÙĪØ§ÙĦÙģ Ø±ÙĤ
Ø£ÙĦØª ÙĬÙĨ
ĠØªØ² ÙĪÙĬØ¬
ĠØ¨Ø§ÙĦØ· ÙĦØ§ÙĤ
ĠØ§ÙĦÙħØ±Øª Ø¯
ÙĦØ§ÙħØª ÙĨØ§Ø¹
ĠØ£ ÙħØ³
ĠØ£ Ø«ÙĨØ§Ø¡
Ùģ ÙĤØ§
ĠÙĬ Ø«
Ùĥ Ø¯
Ø¶ Ø±Ùĩ
ĠØª ÙħÙĨØ¹
ÙĩØ§ Ø¯ØªÙĩ
ĠØ§ÙĦ ÙĦØº
ĠØ³ Ø§ÙģØ±
ĠØ¬ ÙĪØ²
ĠØ¯ ÙĦØ§ÙĦØ©
ĠØ® ÙĬ
Ø¨ÙĨ Ø§Ø¡
Ø£ÙĨ Ùģ
ĠØ· Ø§ÙĦ
ĠÙĬØ¬ Ø±ÙĬ
ĠÙĬØª Ø¬Ùĩ
ĠÙĬØª ØµØ±Ùģ
ÙģØ§ ÙĦÙħ
ĠÙĪÙĩ ÙĨØ§
ĠØ§ÙĦÙħØª ÙĪÙĦÙĬ
ĠØ£Ø´ ÙĬØ§Ø¡
ĠÙģØ³ Ø¯
ÙĪÙĦÙĬ Ø©
ĠØ§ÙĦØ£Ø¬ ÙĬØ±
ĠØ§ÙĦØ¬Ø² Ø¡
ĠØ°Ø¨ØŃ Ùĩ
ĠØ§ÙĦØ£Ø¹Ùħ Ø´
Ùĩ ÙĬ
ĠÙĪ ÙħØ³
ĠÙĪ ÙĦÙĩØ§
ĠØ£ Ø±ÙĬØ¯
ÙĤ ÙĬØ±
Ùģ Ø±Ùĩ
Ùģ ÙĩÙĦ
ÙħØ§ Ø³
ĠØ§ÙĦ Ø±Ø¨
ĠÙĦÙħ Ø³ÙĦÙħ
ĠØ§ÙĦØ¹ Ø°Ø±
ĠØ§ÙĦØŃ Ø§Ø¦Ø·
Ø±ÙĬ ÙĥÙĩ
ÙĪÙĬ ØŃØ±Ùħ
ĠÙĬØ¬ Ø§Ø¨
ĠØ§ÙĦØ³ Ø¤Ø§ÙĦ
ĠØ§ÙĦÙģ Ø§ØªØŃØ©
ĠÙĬØ¹ Ø·ÙĬ
ĠØ§Ø³Øª ÙĬÙģØ§Ø¡
ĠØ§ÙĦØ² Ø§Ø¦Ø¯
ĠØ£Ø¨ ÙĪÙĩ
ĠØ¨Ø¯ Ø±ÙĩÙħ
ĠØ§ÙĦØº ÙĦØ§Ùħ
ÙĪØ§ÙĦØ ³
Ø§Ùĩ ÙĨØ§
ÙĦØŃ Ø¯ÙĬØ«
ØªÙĤ Ø§ÙĨÙĬ
ĠÙĬØ® Øµ
ĠÙħØ·ÙĦÙĤ Ø©
ØµØŃØ§Ø¨ Ùĩ
ĠÙĪØ® ÙħØ³Ø©
ĠØµØ§ØŃØ¨ ÙĩØ§
ĠÙģØ±Ø¶ Ùĩ
ĠÙĥØªØ§Ø¨ Ø©
ĠÙĪÙĦ ÙĦØ£
ĠÙĪØ² ÙĨ
ĠØ¹Øª ÙĤØª
ĠØ£Ø¹Ø· Ùī
ĠÙĥØ§Ùģ Ø±Ø§
ĠØ§ÙĦÙĤØª Ø§ÙĦ
ÙĨ Ø¨Ùĩ
ĠÙĪ Ø±Ø«Ø©
ĠÙĪ ÙĦØ¹ÙĦ
ĠÙħ ÙĥØ§ØªØ¨
ĠØ¹ Ø³
ĠØ¹ Ø§ÙĤ
ĠØ¹ ÙĬØ³Ùī
ĠÙĬ Ø®Øª
ĠÙĤ ÙĪØ¯
Øµ ÙĦÙī
ĠÙģÙĬ Ø³Øª
ÙĦÙĬ ÙħÙĬÙĨ
ĠÙĥ Ø°Ø¨Ùĩ
ĠØ§ÙĦÙħ ÙĪØ¶
Ø· Ø±Ø©
ĠØª Ø¨Ø±Ø¹
ÙĦÙĪ ÙĤ
ĠØŃ ÙĦØ§ÙĦ
ĠÙĦØ ¸
ĠØ± ÙģØ¹Ùĩ
ĠÙĩ Ø§Ø´Ùħ
Ø±Ø§ Ø¯Ø©
ÙĤØ¯ ÙĬÙħ
ĠØ§ÙĦÙĤ Ø±Ø¨
ĠÙĪØ§ ÙĦÙĩ
ĠÙĪØ§ Ø¯Ø¹Ùī
Ø§Ø¦ ÙĩÙħ
ĠØ§ÙĦØ¨ Ùĩ
ĠØ§ÙĦØª Ø¹ÙĬÙĬÙĨ
ÙĪÙħ Ø«ÙĦ
ĠØº ÙĦØ©
ĠØº ÙĦØ·
ĠØ£Ùħ ÙĬ
ĠØ¨Ø¯ Ø±
ĠÙĬØ® ÙĬØ±
ĠØ§ÙĦÙħÙĨ ÙĥØ±
ĠÙģÙĦÙĩ Ø°Ø§
ĠØ£Ùĥ Ø«
ĠÙħØ±Ø§ Øª
Ø²Ø§ ÙĦÙĬ
ĠØ¬Ø²Ø¡ Ø§
ĠØ¨Ø§Ø¦ Ø¹Ùĩ
Ø·ÙĦØ§ ÙĤÙĩ
ĠØ§Ø³ ÙħÙĩ
ĠÙĨØ³Ø® Ø©
ĠÙĤØ¶ÙĬ ØªÙĩ
ĠØ§ÙĦØ±Ø² Ø§ÙĤ
Ø§ ÙĦÙĩØ§
ĠÙĪ Ø¸
ĠÙĪ Ø¹ØªÙĤ
ĠØ¹ ÙĥØ±ÙħØ©
Ùģ Ø§Ø±Ø©
Øµ ØªÙĩ
ĠÙĥ ÙģØ§ÙĬØ©
ĠØ§ÙĦÙħ ØºÙĬØ±Ø©
ĠÙħÙĨ ÙģØ±
Ø· ÙĤ
ĠØ± Ø²
ĠØ± Ø¢
ĠØ§ÙĦØ£ Ø²
ĠØ§ÙĦØ£ Ø´ÙĬØ§Ø¡
ĠØ´ Ø§Ø³
ĠØ° Ø±
ĠØ¬ ÙĨÙī
ĠØ® Ø·Ø±
Ø§Ø¦ ØŃØ©
ĠØ§ÙĦØ¨ Ø²
ĠØ§ÙĦØ¨ Ø¦Ø±
ĠØ§ÙĦØ¥ Ø¬ÙħØ§Ø¹
ĠØ§ÙĦÙĨ ÙĤÙĦ
ĠØ§ÙĦØµ ÙĪØ§Ø¨
ÙĥØ§ ØªÙĩ
ĠØ§ÙĦØº Ø±Ø¶
ÙĪÙģ Ùĩ
ÙĤØµ ÙĬØ±
ÙĨÙģ ÙĤ
ĠØ«ÙĦØ§Ø« ÙĬÙĨ
ĠÙĪØµ ÙĬØªÙĩ
ĠØ¢ ÙĦØ§Ùģ
ĠØªØ±Ùĥ Ø©
ĠØªÙģ ØµÙĬÙĦ
ĠÙĬØ¹Øª Ø¯
Ø°ÙĬ ÙģØ©
ĠØ³Ùģ Ø±Ùĩ
ÙĦ ÙĦÙĩ
ÙĬ ÙĬØ±
ÙĪ ØºÙĬØ±Ùĩ
Ùħ Ø±Ø§
Ùħ ÙĦÙĩØ§
Ùħ Ø«ÙĦ
ĠÙĬ ÙĪØ±Ø«
ĠÙĥ ÙĬ
ĠØ§ÙĦ Ø±Ø§Ø¬ØŃ
ĠØ³ ÙĦÙģ
ĠØ§ÙĦØ£ ÙĪÙĦØ§Ø¯
ĠØ° Ùĩ
ĠÙĦÙĩ ÙĨ
ĠÙĪØ§ ØŃØª
Ø¹Øª ÙĩØ§
ĠÙĬÙĥ ØªØ¨
Ø±Ø¶ ÙĬ
ĠÙĬØª ÙĪÙĩÙħ
ĠØ§ÙĦØ® ÙĪÙģ
ĠØ§ÙĦÙĥ Ø³Ø¨
Ø¶ÙĬ ØªÙĩ
ÙĪÙĦÙĪ ÙĨ
ĠÙĪÙħ ØŃÙĦ
ĠØ¨ÙħØ§ Ø¡
ĠØ§ÙĦÙħØª Ø§Ø¹
ĠÙĦØŃ Ø§Ø¬Ø©
ĠØ¨Øª Ø¹
ĠØ§Ø¹Øª ÙĤØ¯
ĠØ±ØŃ Ùħ
ĠØ¨Ø· ÙĨ
ĠØ§ÙĦÙħØ³ÙĦÙħ ÙĪÙĨ
ĠÙĬÙģ Ø·Ø±
ĠØ´ÙĩØ¯ Øª
ĠØ§ÙĦÙĪØ§ ÙĪ
ĠØµØºÙĬØ± Ø§
ĠØ§Ø´ØªØ±Ø§ ÙĩØ§
ĠØ§ÙĦØªØ£ Ø®ÙĬØ±
ĠÙĦÙĦØ¶ Ø±ÙĪØ±Ø©
ĠØ¥Ø¬ÙħØ§ Ø¹Ø§
ÙĤ Ø±Ùĩ
Ùģ ÙĤÙĩ
ĠØ§ÙĦÙħ Ø¶Ùħ
ĠÙħÙĨ Ø²ÙĦØ©
ĠØª ÙħØ±
ĠØª ÙĤÙĪÙĦ
ÙĦÙĪ Ø¹
ÙĦÙĤ ÙĪÙĦÙĩ
ĠØµ Ø±ÙĬ
ĠØ§ÙĦØ¹ Ø¬Ø²
ĠØ§ÙĦÙĪ Ø¬
ĠÙĪØ§ÙĦØ ¶
ĠØ§ÙĦØ¥ Ø¬Ø§Ø²Ø©
ĠØ§ÙĦÙĨ ØµØ§Ø¨
ĠÙĪØ£ ÙĪÙĦÙī
ĠÙĬØ¬ ÙĦØ³
ÙħØ³ Ø§Ùĥ
ĠØ¶ Ø¹Ùģ
ĠØ§ÙĦØº ÙĨÙħ
Ø´Ø± Ø¹
ĠÙģØ£ Ø±Ø§Ø¯
ĠÙĪØ§ÙĦÙħ ØºÙĨÙĬ
ĠØ§ÙĨ ÙĤØ·Ø¹
Ø§ÙĦÙħ Ø³Ø£ÙĦØ©
ĠØ§ÙĦÙħØ¹ ÙĤÙĪØ¯
ĠÙĥØ§ÙĦØ ´
ĠØ³Ø¨ Ø¨Ø§
ĠÙĦØŃ ÙĤÙĩ
ĠØ¨Ø´ Ø¨ÙĩØ©
ĠØ¥ÙĦÙĬ Ùĥ
ĠØ£ÙĪÙĦØ§ Ø¯Ùĩ
Ø¶Ø§Ø± Ø¨Ø©
ĠØ§ÙĦÙħØ· Ø§ÙĦØ¨Ø©
ĠØ£ØµØ§Ø¨ Ùĩ
ĠÙħÙĪØ³ Ø±Ø§
ĠÙĦÙĦØµ ÙĦØ§Ø©
ĠØ§ÙĦØ´Ø± Ø¹ÙĬ
ĠØ§ÙĦØ¥Ø® Ø±Ø§Ø¬
ĠÙĨØ§Ø³ ÙĬØ§
Ø± ÙĪÙī
ĠØ¨ ÙħØ³
ĠØ¨ Ø¢
Ùģ Ø±Ø§Ø¯
ØŃ Ø±ÙĬÙħ
Ùĥ Ø¨
Ø£ ØŃØ¯
ĠÙĤ ÙĦØ¨
ĠÙģÙĬ Ø±Ø¬Ø¹
ĠØ§ÙĦÙħ ÙħÙĦÙĪ
ĠØ¥ ÙħÙĥØ§ÙĨ
Ø® ÙĪØ©
ĠØ± Ø³
ĠØ³ Ø¬ÙĪØ¯
ĠØ³ Ø¯Ø³
ĠØµ Ø§Ùħ
ĠÙĦ ÙĦØ§Ø³Øª
ĠØ® ÙĦØ§
ĠÙħØ¹ Ø·ÙĪÙģ
Ø±ÙĬ ØªÙĩ
ĠØ§ÙĦÙĨ ÙĤØ¯
ÙĪÙĬ ØµØŃ
ĠÙĪØ¬ Ø¹ÙĦ
ĠØ§ÙĦÙĥ Ø°Ø¨
ĠØ§ÙĦØ¯ ÙĨÙĬØ§
ÙĤØ· ÙĨÙĬ
ĠØ§ÙĦØ² ÙĬÙĦØ¹ÙĬ
ĠÙĪØª Ø³
Ø³Ø¨ Ø§Ø¨
ĠÙģØ£ ÙħØ±
ĠØ¨Ùħ ØŃÙĦ
ĠÙħØ³ Ø§ÙģØ©
ĠØ£Ø¹ Ø¸Ùħ
ĠØ£Øµ Ø¨Ø¹
Ø¬Ø² Ø£
ÙĪØ§Ø¨ Ùĩ
ĠÙĬØ´ Ø±Ø¨
ĠÙĨØ³ Ø§Ø¡
ĠØ£Ø¯ Ø®ÙĦ
ĠØ¹Ùħ ÙĬØ±
ĠØ§ÙĦÙħÙĬØª Ø©
ĠØ§ØŃØª Ø±Ø§Ø²
Ø¨ÙĤ Ø§Ø¡
ĠÙĤØ¨Ø¶ ÙĩØ§
ĠØ¹Ø¨ÙĬ Ø¯Ø©
ĠÙĬØ¹Ø· Ùī
ĠÙĦØ§ÙĨØª ÙģØ§Ø¡
Ø¹ Ø¨Ø¯
ĠØ¨ Ø±Ø§Ø¡Ø©
ĠØ¨ ÙģØ¹ÙĦÙĩ
ĠÙģ ÙģØ¹ÙĦ
ĠÙĬ Ø¨ÙĨÙĬ
Øµ ÙĨÙģ
ĠÙģÙĬ ØŃØ±Ùħ
ĠØ¥ ÙĬØ§
ĠØ³ ÙĦØ§Ùħ
ØªÙĩ ÙĨ
ĠØ¯ ÙĬØªÙĩ
Ø¸ Ø±Ùĩ
ĠØ§ÙĦØª ÙģØµÙĬÙĦ
ĠÙĦÙĪ Ø§ØŃØ¯
ĠØ· ÙĪÙĦ
ĠØ· ÙĩØ§Ø±Ø©
ĠØ§ÙĦÙģ Ø¯ÙĬØ©
ĠÙĬØŃ ÙģØ¸
Ø¯ÙĬ ÙĦ
ÙħØ§ÙĨ ÙĬØ©
Ø§Ø¬ Ø¯
ĠÙĬÙħ ÙĬÙĨØ§
ĠØ¨Ùħ ØŃ
ĠÙĬØ£ ÙħØ±
ĠØ§ÙĦØ· Ø§ÙĦØ¨
ĠØ¨Ø§ÙĦÙħ ÙĪØª
ĠÙĬØµ Ø±ØŃ
ĠÙĦØ² ÙħØªÙĩ
ĠØ§ÙĦÙĩ ÙĦØ§Ùĥ
ĠØ¨Ùĥ ÙĬØ±
Ø¶Ø± Ø±
ĠØ¨Ø´ ÙĩØ§Ø¯Ø©
ĠØªÙĤ ÙĪÙħ
ĠØ§ÙĦØ§Ø³Øª Ø«ÙĨØ§Ø¡
Ø£Ùħ ÙĦÙĩ
ĠÙĦØµ Ø§ØŃØ¨Ùĩ
ĠØ³ÙĤØ· Øª
ĠÙħØ´Øª Ø±
ĠÙĨØ² Ø¹
ĠÙĪØ§Ø¬ Ø¨Ø§
ĠØ·Ø¹Ø§ ÙħØ§
Ø§ Ø°
Ùĩ ÙĦÙĩ
ÙĪ ØµÙĦ
ĠÙħ ÙĤØ¯Ø±
ĠÙĬ Ø°ÙĩØ¨
Ùĥ Ø°ÙĦÙĥ
ĠÙĤ Ø±Ø±
ÙĦÙĬ ÙĦÙĩ
ĠÙĥ Ø§ÙħÙĦØ©
ĠØ§ÙĦÙħ ÙĤØ¨
Ø´ ÙĩÙĪØ±
ĠÙĩ Ø§ÙĩÙĨØ§
ÙĦÙģ Øª
ĠØ§ÙĦØ¹ Ø±Ø¶
ÙĦØ£ ÙĨØ§
ĠÙħØ¹ ÙħØ±
ĠØ§ÙĦÙĤ Ø§Ø¦ÙĦ
ĠØ§ÙĦÙĪ Ø§ÙĦØ¯
ĠØ§ÙĦÙĥ Ø±Ø§Ø¡
ĠØº Ø±Ø¶
ĠØ¨Ø£ ØŃØ¯
ĠØ£Ùħ ÙĬÙĨ
ĠÙģØ§ ØªÙĩ
ĠÙĪØ§ÙĦÙħ Ø¹ÙĨÙī
ĠÙģØª Ø§
ĠØ§ÙĦÙħØ¹ Ø¬ÙħØ©
ĠÙĬØµ Ø±Ùģ
ĠØŃØ± Ø²
ĠØ¨ÙĤÙĬ Ø¯
ĠÙģØ±Ø¶ Ø§
ĠÙħØ¹Ø§ ÙĪØ¶Ø©
ĠÙĤØ¯Ùħ ÙĨØ§Ùĩ
ĠØ¨ÙĦØº Øª
ĠØªØ¯ Ø¨ÙĬØ±
ĠØ§ÙĦÙħÙĨØ§ Ø³Ø¨
ĠÙĨØ§ ÙĤØµ
Ø§ ØªÙĩ
Ø± ÙĪÙĤ
ĠØ§ ÙĦØ§Ø«
Ø¯ Ø¯
ĠÙĪ ÙģØ§Ø¡
ĠØ¨ Ø¨Ø¯
ĠØ¨ Ø°ÙĥØ±
ĠÙģ ÙĪØ¬
ØŃ ÙĤÙĤ
Ùĥ Ø£ÙĨ
ÙĨÙĩ ÙħØ§
Øµ ÙĪØµ
ĠÙĥ Øµ
Ø® Ø±Ø§Ø¬
ĠØŃ Ø¶ÙĪØ±
Ø´ Ø£
ĠØ± Ø§ÙģØ¹
ĠØ± Ø¡ÙĪØ³
ĠØ³ Ø§Ø¹Ø©
Øº ÙģØ±
ĠØ§ÙĦØ¥ Ø³
ÙĪÙĬ ÙĤØ§ÙĦ
ĠÙĬÙĤ Ùģ
ĠÙĪØ£ Ø®Øª
ĠÙĪÙĬ ÙĥØ±Ùĩ
ĠÙĪÙĥ ØªØ¨
ĠÙĬÙĨ ÙģÙĤ
ĠÙĬÙĨ ÙĤØ·Ø¹
ĠØ±Ø¬ ÙĦÙĩ
ĠÙĦÙĦÙħ Ø±Ø£Ø©
ÙĦØŃ Ø§ÙĤ
ĠÙħØ³ Ø¬
ÙĥÙĨ Øª
ĠØ§ÙĦØ¶ ÙħÙĬØ±
ĠØ¬Ø§Ø² Øª
ĠØ§ÙĦØ£Ùħ ÙĪØ±
ĠØ¯Ø§Ø± Ø§
ĠÙħØµ ÙĦØŃØ©
ĠÙĪÙĬØ± Ø¯
ĠØ¥Ø² Ø§ÙĦØ©
ĠØ£ÙĨØ¨Ø£ ÙĨØ§
ÙĪ Ø¨ÙĬ
ÙĪ Ø§Ø¦
Ø¨ ÙĬØ©
ĠØ¨ Ø¶
ĠØ¨ Ø±ÙĬ
ÙĦØ§ Ø¯
ĠØ§ÙĦÙħ ÙĤØ§
ĠØª ÙĪÙģÙĬ
ĠØª Ø´ÙĩØ¯
ĠØŃ Ø§ÙħÙĦØ§
ĠØ± Ø¨Ø§
ĠØ± ÙħÙĬ
ĠØ§ÙĦØ¹ Ø§ÙĤÙĦØ©
ĠØ§ÙĦØŃ ÙĪØ§ÙĦØ©
ĠØ§ÙĦÙĤ ÙĦØ¨
ĠØ§ÙĦÙĪ Ø§ÙĩØ¨
Øº ÙĨÙī
ĠØ² ÙħØ§ÙĨ
ĠØ§ÙĦØ´ Ø¨ÙĩØ©
ÙĤØª ØµØ±
ĠØ¨ÙĬÙĨ ØªÙĩ
ĠØ£Ùħ ÙĥÙĨÙĩ
ĠÙĨØµ Ø¨
ĠÙĪÙĤ ÙģÙĩ
ĠÙģØ£ Ø´Ø¨Ùĩ
ĠÙģØª ÙĥÙĪÙĨ
ĠØ¨ØŃ Ø¬Ø©
Ø±Ø« ØªÙĩ
ĠÙĥØ§ÙĦØ ³
ĠÙĪØ· Ø¤ÙĩØ§
ĠÙĦØ¨ ÙĨ
ĠÙĪØ§ÙĦØ¹ Ø¨Ø¯
ĠÙĬØŃØª Ø¬
ĠØŃØ§ ØµÙĦ
ĠØŃÙħ ÙĦØª
ĠØªØ²ÙĪØ¬ Øª
ĠØŃØ³ ÙĬÙĨ
ÙĦØ§Ø¦ ÙĥØ©
Ø§ ÙħÙĩ
Ø± Ø¯Ùĩ
ÙĤ ÙĦØ©
ĠÙħ ÙĤÙĬ
ĠÙģ ØªÙĤ
ĠÙģ Ø§ÙĦØª
Ùģ ØŃ
ĠÙĬ ÙĤÙĬØ¯
ĠÙĬ ÙĤÙĬÙħ
ĠÙĬ ÙĦØ¨Ø³
ĠÙĤ ÙĦØ¨Ùĩ
ÙĨÙĩ ÙĬ
ĠÙģÙĬ ÙĦØ²Ùħ
Ø· Ùī
ĠØª Ø±Ø¬Ø¹
Ø°Ø§ Ø±
ĠØ± Ø§Ùĥ
ĠÙĨ ØŃ
ĠØ³ ÙĬØ±
ĠØ³ Ø¨ÙĬ
ĠØ¬ Ø±Øª
ĠØ¯ ÙħØ§
ĠØ® Ø²
Ø±ÙĬ Ø§ÙĨ
ĠØ§ÙĦØª ØµØ¯ÙĤ
ĠÙĪÙĦØ§ ÙĬØªÙĩ
ÙĬØ§ ÙĦÙĩ
ĠØ¨Ø£ ØŃØ¯ÙĩÙħØ§
ĠÙĪÙĤ Ø¨Ø¶
ĠØ§ÙĦØ· ÙĩØ§Ø±Ø©
ĠÙĦØ¹ Ø°Ø±
ĠØ¨Ø¥ ÙĤØ±Ø§Ø±
ĠÙĬØ¤ ÙħØ±
Ø±Ø§Ø¬ Ø¹Ùĩ
ĠØ£Ø³ ÙĪØ¯
Ø±Ø³ Ø§ÙĦ
ĠØ¨Ø§ÙĦÙĤ Ø¨Ø¶
ĠØ±Ø¨ ÙħØ§
ĠØ´Ø¹ Ø±Ùĩ
ĠÙĪÙĦÙĬ ÙĦØ©
ĠØ£Øª ÙĦÙģÙĩ
Ø¹Ø± ÙĪÙģ
ĠØ£Ø¬Ø² Ø§Ø¡
ĠØ§ÙĦØ±Ùĥ Ø¹Ø©
ĠØ§ÙĦÙĪÙĦØ§ ÙĬØ©
ĠØµØ§Ø¯ ÙĤ
ĠØ°Ùħ ÙĬØ§
Ø§ Ø³Øª
ÙĪ Ø£ÙĪ
Ø¨ Ø«
Ø¨ ÙĪÙĦ
ĠÙĪ ÙĦØ°Ø§
ĠÙĪ Ø¸Ø§ÙĩØ±Ùĩ
ĠÙħ ÙģØ³
ĠÙħ ÙģØª
ĠÙħ ÙĤÙĬØ¯
ÙĦØ§ Ø²Ùħ
Ø· Ø§Ø±
ÙĦÙĤ Ø©
ĠØ§ÙĦØŃ Ø§ØµÙĦ
ÙģÙĬ Ùģ
ĠÙĦÙĪ Ø¬ÙĪØ¨
ĠØ§ÙĦÙĨ Ø®ÙĦ
ĠÙĪØ£ Ø´
ĠÙħØŃ Ø¬ÙĪØ±
ĠÙĬØŃ Ø¶Ø±
ĠØ§ÙĦØ® ÙĬØ±
ĠØ§ÙĦØ± Ø¯Ø©
ĠØŃØ¯ ÙĪØ«
ĠØ§ÙĨ Ø¹ÙĤØ¯
ĠÙĬØ³ Ø§ÙĪÙĬ
ĠÙĦØ¹ Ø¨Ø¯Ùĩ
ĠØ§ÙĦÙħØŃ Ø¬ÙĪØ±
ĠØ¨ÙĬ ÙĪÙħ
ĠÙģØ³ Ø¯Øª
ĠÙģÙĦÙĬ Ø±Ø§Ø¬Ø¹
ĠÙĪØ£ÙĨ ÙĥØ±
ĠØ¬Ùĩ ØªÙĩ
ĠÙģØ§Ø³ Ø¯Ø©
ĠÙģØµ ÙĦÙī
ĠØ£Ø¹Ø· Ø§Ùĩ
ĠÙĬÙĤØ¨ Ø¶Ùĩ
Ø§ ÙģÙĬ
Øª ÙĨÙĬ
ĠØ£ Ø¶
ĠØ£ Ø±Ùī
ĠÙħ Ø¶Øª
ĠÙħ Ø¶Ø§Ùģ
ĠÙħ ÙĪÙĥÙĦÙĩ
ĠÙģ Ø¨Ø§ÙĨ
ĠØ¹ Ø¨Ø§Ø±ØªÙĩ
Ø£ Ø°ÙĨ
ĠÙĤ Ø±Ø¶
Ø° ÙĬØ¨
Øµ ÙĦØ§
ĠØ§ÙĦÙħ ÙĥØ§ØªØ¨Ø©
ÙĦÙĥ Ùħ
ĠØŃ Ø°ÙĬÙģØ©
ĠØ£ÙĨ Ùĥ
ĠØ± Ø¶
ÙĪØ§ ÙĩØ§
ĠÙĦØ£ Ø¬
ĠØ§ÙĦØ¨ Øµ
ÙĪÙħ ÙĨÙĩÙħ
ĠØ§ÙĦÙĨ ÙģÙĦ
ĠØ§ÙĦØ¬ Ø§ÙħØ¹
ĠØ§ÙĦØ¬ ÙĩØ©
Ø¹Ø§ Ø©
ĠÙħØŃ Ø¬
ĠÙħØŃ ÙħÙĪÙĦ
ÙĥØ§ Ùĩ
ĠÙĬÙĨ Ø¹
ĠØ¨Ø¯ ÙĪÙĨÙĩ
ØµØ¯ ÙĤØ©
ÙĦØ¹ ÙĦÙĩ
ÙĨÙģ ÙĬØ©
ĠØ¨ØŃ Ø¶Ø±Ø©
ĠØ¨Ø§ÙĦÙħ Ø¯
ĠØ§ÙĦÙħØµ ÙĦØŃØ©
ĠØ¹Ø´Ø± ÙĪÙĨ
ĠØ§ÙĦÙħØ³Øª Ø¹ÙĬØ±
ĠÙħØ´ ÙĤØ©
ĠÙĬØº ÙĦØ¨
ĠØ§ÙĦØ±ØŃ Ùħ
ĠÙĪØ± ÙĪØ§Ùĩ
ĠØªØµ ÙĬØ±
ĠØ§ÙĦÙħØ·ÙĦÙĤ Ø©
Ø¯Ø® Ø§ÙĦ
ĠØ§ÙĦÙħØªØ£Ø®Ø± ÙĬÙĨ
Ùĩ Ø¯Ùĩ
ÙĪ Ø§Ø¦Ø¯
ĠØ£ ØªÙħ
ĠØ£ Ø¹Ø§Ø¯
ĠÙħ ÙĦØª
ĠØ¨ ÙĨØ§
ĠØ¨ ÙĪØµ
ĠÙģ Ø¸Ø§ÙĩØ±
ĠÙĬ ÙĦÙĤ
Ø£ Ø®Ø°Ùĩ
ĠÙĤ ÙĨ
ĠÙģÙĬ Ø¶ÙħÙĨ
ĠØª Ø±Ø¯Ø¯
ĠØŃ Ø§ÙħÙĦ
ĠØŃ Ø§Ø¦Ø·
Ø² Ø§Ùħ
ĠÙĩ ÙħØ§
ĠÙħØ§ Ø¬Ùĩ
ĠØ£ÙĬ ÙĩÙħØ§
ĠØµ ÙĬØ¯Ø§
ÙĪÙĨ ÙĬ
ĠØ§ÙĦØ¹ Ø´Ø§Ø¡
ĠØ® Ø§ÙĦØ¹
ĠØ§ÙĦØ¥ Ø¹Ø§Ø¯Ø©
ĠØ§ÙĦØ¥ ÙĥØ±Ø§Ùĩ
ĠØ§ÙĦÙĨ Ø§Ø¸Ø±
ĠØ² Ø¹Ùħ
ĠØ§ÙĦØ¬ ÙħØ§Ø¹
ĠØ§ÙĦÙģ Ø±ÙĬØ¶Ø©
ĠØº ÙĨ
Ø§Ø² ÙĬØ©
ÙĪØ¨ ÙĬÙĨ
ĠØ¨Ø¯ Ø¹
ĠÙĪØ¥ ÙĦÙī
ĠØ§ÙĦØ§ Ø³Ùħ
Ø§Ùĩ Ø±Ø©
ÙĪÙģ ÙĤ
ĠÙĪØ§ÙĦÙħ Øª
ĠÙĬØ³ ÙĬØ±
Ø¬Ø² Ø¦
ĠÙĪØ· ÙĦØ¨
ĠÙĦØ¨ ÙĤØ§Ø¡
ĠØ£ÙĤ ÙĪØ§ÙĦ
ĠÙħØ¬ Ø§ÙĨØ§
ĠÙĥÙģ Ø§Ø±
ĠØªÙħ ÙĬÙħ
ĠÙĤØ± ÙĬØ©
ĠÙĪØ¹ÙĨ Ø¯ÙĩÙħØ§
ĠØ§ÙĦÙģØ± ÙĤØ©
ĠÙĪØ¨Ùĩ Ø°Ø§
ĠØ£Ø¬Ø² Ø£
ĠÙĬØ¹Ø· ÙĬÙĩ
ĠØªØ¬Ø² Ø¦
ĠØ¨Ø¨ ÙĦØ¯
ĠØ§ÙĦÙĪÙĦØ§ Ø¯Ø©
ĠØ§ÙĦØªØ± ØªÙĬØ¨
Ø§ Ø®
Ø§ Ø«
ÙĬ ØºØ©
Ø¯ ÙĬØ§
ĠÙĪ ÙģØ±
ĠÙĪ ÙħØ¯
ĠÙĪ Ø±ÙĤ
ĠØ£ Ø±Ø³
ĠÙħ Ø´ØªØ±ÙĬ
ĠØ¨ ÙĤØªÙĦ
ĠÙģ ÙĦØ³
ĠÙģ Ø±Ø§Ø¬Ø¹Ùĩ
ĠØ¹ Ø§ÙĤÙĦØ©
Ùģ Ø§ÙĦ
Ø£ ÙĨÙĩØ§
ĠØ§ÙĦÙħ ÙĨÙĬ
ĠØ§ÙĦÙħ Ø£Ø®ÙĪØ°
ĠØ§ÙĦÙħ Ø¨ØªØ§Ø¹
Ø® ÙĦØ§
Ø· ØŃ
ĠØª ÙĨØ¹ÙĤØ¯
ĠØ§ÙĦ ÙĦØ§Ùħ
ĠØ§ÙĦØ£ Ø¶ØŃÙĬØ©
ĠØ° Ø±Ø§Ø¹
ĠÙħØ¹ ØªÙĤ
ĠÙħØ¹ ØªØ¨
ĠØ§ÙĦØª ÙĪÙĥÙĬÙĦ
ĠØ§ÙĦØ¥ Ø¹ØªØ§ÙĤ
ĠØ¨Ø§ ÙĦÙĩ
ĠØ² ÙĬÙĨ
ĠØ§ÙĦØ¬ Ø¹ÙĦ
ĠØ· Ø¨
ĠØ§ÙĦØ³ ÙħØ§Ø¡
Ø±Ùĥ Ø¹
Ø±Ùģ ÙĤ
ĠÙĦÙĦØ °ÙĬ
ĠØ¶ Ø¹
ĠÙĪÙĦÙħ Ø§
Ø¹ÙĬ Ùĩ
ĠØ¨ÙħØ§ ÙĦÙĩ
ĠÙĦØ¹ Ø¨Ø¯
ĠØ¨ÙĬÙĨÙĩ Ø§
ĠØ§ÙĦÙĬ Øª
ĠÙĪØ§ÙĦ ÙĨØ³
ĠÙĦØª Ø¹Ø°Ø±
ĠÙĬØ¤ ÙħÙĨ
ĠÙĬØ´ Ø¹Ø±
ĠÙĦØ¨ Ø³Ùĩ
ĠØ§ÙĦÙħÙĨ Ø°Ø±
ĠØ±ØŃÙħÙĩ ÙħØ§
ĠØ§Ø³ØªØŃ Ø³Ø§ÙĨ
ĠØ£Ùĥ Ø¨Ø±
ĠØ´ÙĩØ± ÙĬÙĨ
ĠØ§ÙĦÙĪØ§ÙĤ Ø¹
ĠÙħØ¶Ùħ ÙĪÙĨ
ĠÙĬØªØ¹ Ø±Ø¶
ĠÙĤÙĬØ§ Ø³Ø§
Ø¯ Ø±Ùĥ
ĠÙĪ Ø±Ø¬Ø¹
ĠÙĪ ÙģØªØŃ
ĠØ¨ ÙĬØ§ÙĨÙĩ
ĠÙģ Ø°ÙĥØ±Ùĩ
ĠÙĤ Ø§Ø¨
Øµ Ø§ÙĨ
Øµ Ø§Ø¯
ĠÙĥ Ø§ÙħÙĦ
ĠÙħÙĨ Ùī
Ø® ÙĬØ±Ø©
Ø² ÙĪÙĦ
ÙĨØ§ Ùģ
ĠØ´ ÙĩÙĪØ¯
ÙĪÙĨ Øµ
ĠØ§ÙĦØŃ Ø§ÙħÙĦ
ÙĪØ§ Ø¬
ĠØ® ÙĦØ·
ĠØ§ÙĦØ´ Ø±ØŃ
ĠØ§ÙĦØ¬ ÙĦØ¯
ĠØ· Ø§Ùģ
ĠÙĪØ¬ Ø§Ø²
ĠÙĬØ¬ ØªÙħØ¹
ĠÙĪÙĬ Ø£Ø®Ø°
ÙģØ³ Ø§Ø¯
ÙĤØ± Ø£
ØŃØª Ø§Ø¬
ĠÙĦÙĦÙħ ÙĪÙĥÙĦ
ØªÙĬ Ùĩ
ĠÙħØ³ Ø§
ĠØŃÙĤ ÙĪÙĤ
ĠÙĬØ¶ Ø¹
ĠØ¨ÙĤ ØµØ¯
ĠÙģÙĩ Ø°Ùĩ
Ø§ÙĦØ« Ø§ÙĦØ«
ĠØ§ÙĦØŃØ¬ Ø©
ĠÙĦÙĦØ¹ Ø§ÙħÙĦ
ĠÙĦÙĦ Ø±Ø¬ÙĦ
ĠØ§ØŃØª Ø§Ø¬
ĠØ¯Ø§ Ø®ÙĦ
ĠØŃÙĬØ§ Ø©
ĠÙħØ´Øª Ø±Ùĥ
ĠÙĪØ§Ø¬ Ø¨Ø©
ĠÙĥØ§Øª Ø¨
ĠØ¨ØµØŃ Ø©
ÙĬ Ø¬
Ø¨ Ø§Ø±Ùĩ
Ø¯ ÙħÙĩ
ĠÙĪ ÙĦØ°ÙĦÙĥ
ĠÙħ Ø±Ø¯
ĠÙħ ØŃØ¯Ø«
ĠÙģ ÙĪÙĤÙĩ
ĠÙĬ ÙħØ³
ĠÙĬ Ø¨Ø¯Ø£
Ø¬ ÙĬØ±
Ø¬ Ø§Ø¬
ĠØ§ÙĦÙħ ÙĦØ§
ĠØŃ Ùģ
ĠØŃ Ø¨Ø§ÙĨ
Ø² ÙĪ
Ø² Ø§ÙĦØ©
ĠÙĨ ÙĥØŃ
ÙĤØ¯ ÙħØ©
ĠÙħØ¹ Ø±Ùģ
ÙģÙĬ ÙĩØ§
ĠØ§ÙĦØ¨ ÙĤØ±
ĠØ§ÙĦØª ÙĤ
ĠØ§ÙĦØª Ø²Ùħ
ĠÙĬÙĥ ÙĦÙģ
ÙĪÙĬ Ø³Øª
ĠØ§ÙĦØ¬ ÙĩÙĦ
ÙĨÙĬ Ùĩ
ĠÙĬØŃ Ø¨
ĠÙĬØŃ Ø¨Ø³
Ø¤ Ø¬Ø±
ĠÙĬØ¹ ÙĬØ¯
Ø¨Øª Ø¯Ø§Ø¡
ĠØ£Ø¨ ÙĪÙĬÙĩ
ĠÙģØ£ Ø¹Ø·
ĠÙħØ³ Ùĥ
ĠØ§ÙĦÙħØª Ø¹Ø©
Ø³ØªØŃ ÙĤØ§ÙĤ
ĠÙģØ¹ ÙĦÙĩØ§
ÙħØª Ø§Ø¹
ÙģÙĤ ÙĪØ¯
ĠØ§ÙĦØ±Ø¬ Ø¹Ø©
ĠØ¹Ø¯ ÙĦØ§
ĠÙĪØ§ÙĦØ£ ØµÙĦ
ĠØ¹Ø¨ Ø±Ø©
ĠØ¨Ø§ÙĦÙĤ Ø±
ĠÙħØ¤ ÙħÙĨ
ĠØªÙħ ÙĦÙĬÙĥ
ĠÙĪØ¯ ÙģØ¹
ĠØ±Ùĩ ÙĨÙĩ
ĠÙĦØ¯ ÙģØ¹
ĠØ¨Ø¹ÙĬÙĨÙĩ Ø§
ĠØ§ÙĦØ´Ø± ÙĪØ·
ĠØ§ÙĦØ¹Ø§ ÙĤØ¯
ĠÙĨÙģ ÙĤØªÙĩØ§
ĠÙĦØ²ÙĪØ¬ ØªÙĩ
ĠÙħØ°Ùĩ Ø¨Ùĩ
ĠÙģØªØ§ ÙĪÙī
ĠÙħ Ø´Ø±
ĠÙħ ÙĥØª
ĠØ¹ ÙħÙĩ
ĠØ¹ Ø²ÙĦ
Ùģ ÙĪØ¹
ĠÙĬ Ø±Ø§Ùĩ
ĠÙĤ Ø¨ÙĬ
ĠÙĥ Ø±Ø§Ø¡
ĠØ§ÙĦÙħ ØµØ±
Ø· ÙħØ©
ĠØŃ Ø§ØµÙĦÙĩ
Ø² ÙĬØ±
ĠÙĨ ØŃÙĨ
ĠØ¨ÙĨ ÙĤØµ
ĠØ® Ùģ
Ø¸ ÙĩØ§Ø±
Øº Ø§Ø±
Øº Ø±Ùħ
ĠØ§ÙĦØ¨ Ø±Ø§Ø¡Ø©
ĠØ§ÙĦØª Ø·ÙĪØ¹
ÙĤÙĬ Øª
ĠØ§ÙĦØ¥ Ø¨Ø±Ø§Ø¡
Ø§Ùħ Ø³Ø©
ĠØ² Ø§Ø¦Ø¯
ĠØ§ÙĦØ¬ ÙĪØ²
ĠÙĪØ£ Ø¹
ÙĪØ¹ Ø¨
ĠØ§ÙĦØ³ ÙĩÙĪ
ĠØº Ø³
ĠØº ÙĬØ¨Ø©
Ø¶ÙĬ ÙĦØ©
ÙĤØ§ Ø¹
ĠÙĪØ¹ ÙħØ±
ĠØ§ÙĦØ· Ø±Ùģ
ĠØ§ÙĦÙħØ¹ Ø±ÙĪÙģ
ĠØ¨Ø§ÙĦØ¹ ÙĬÙĨ
ĠØ£Ø³ ÙĩÙħ
ĠÙĤØ· Ø¹Ùĩ
Ø¶Ø±Ø¨ Ùĩ
ĠØ§Ø¨Øª Ø¯
ĠÙħØ¹Øª ÙħØ¯
ĠØªØ· ÙĪØ¹
ĠÙĪÙħØ¹ ÙĨÙī
ĠØ§ÙĦØ¹Ø¨Ø§ Ø¯Ø©
ĠÙħÙĤØ§Ø¨ ÙĦ
ĠÙĪÙĦÙĥ ÙĨÙĩ
ĠÙĪØ¨Ø¹ Ø¯Ùĩ
ĠØ³ÙĩÙħØ§ ÙĨ
ĠØ³ÙĩÙĪ Ø§
ĠÙĪ Ø°
ĠØ£ ÙĦØŃÙĤ
ĠÙģ ÙĦØ°ÙĦÙĥ
ĠØ¹ Ø´
ĠÙĬ ÙħØ±
ĠÙĬ Ø°ÙĥØ±Ùĩ
Ø£ ÙħØ±
ĠÙĤ Ø§Øª
ĠÙĤ Ø§Ø¨ÙĦ
ĠÙĥ ÙĦÙħ
ĠÙĥ Ø¨ÙĬØ±Ø©
ĠØ§ÙĦÙħ ÙĥØª
ÙĦÙĥ ÙĦ
Ø· Ø§Ø¨
ĠØª Ø±Ø«
ĠÙĩ Ø§Ø±
ĠØ´ Ø¬Ø±
ĠØ´ Ø¬Ø±Ø©
Ø§Ø¨ Ø¹Ø©
ÙĪØ§ ÙĬØ©
ĠÙħØ¹ Ø³Ø±Ø§
ĠØ§ÙĦÙĪ ÙģØ§Ø¡
ĠØ§ÙĦØ¨ ÙĦÙĪØº
ÙĪÙħ ØŃÙĦ
ĠØ§ÙĦØ¬ ÙĨÙĬÙĨ
ĠÙĬØŃ Ø³ÙĨ
Ø¯ÙĬ ÙĨÙĩ
ÙģØ§ Ùģ
ÙģØ§ ØªÙĩ
ĠØ£Ùħ ÙĬØ±
ĠØ§Ø³Øª ÙħØ±
ÙĪØ£ Ø®Ø°
ĠÙĦÙĥ ÙĪÙĨÙĩØ§
ĠØ§ÙĨ ÙĤØ¶Øª
Ø®ÙĦ ÙĦ
ĠÙĦØ¹ ÙĦÙĩ
ĠÙĪÙĦØ¯ ØªÙĩ
ĠØ§ÙĦÙħØµ ÙĦÙĬ
Ø§Ø´ ÙĬ
Ø±Ø¹ ÙĩØ§
ĠÙĬØ´ ÙĥÙĦ
ØŃØ± Ø±
ĠØŃÙĦÙģ Ùĩ
ĠÙģØ§ÙĦØ ¸Ø§ÙĩØ±
ĠØªÙĨ Ø²
Ø§Ùĥ ÙĬÙĨ
ĠØ§ÙĤØª Ø¶Ø§Ùĩ
ĠØ¨Ø§ÙĦØ´ Ø±Ø·
ĠÙħØ· Ø±Ùģ
ĠØ§ÙĦÙĬØ³ Ø±Ùī
ĠÙĨØµØ§Ø¨ Ø§
ĠØ¨Ø§Ø· ÙĦØ©
ÙĬ ÙĩÙħØ§
ÙĬ ÙģØ©
Ùħ ÙĩØ§
Ø¨ ÙĦØº
ĠÙģ Ø¯ÙĬØ©
ĠÙĬ Ø¸
ĠÙĬ Ø²ÙĦ
Øµ Ø§ÙĦ
ĠØ§ÙĦÙħ ÙĪØ·
ĠÙħÙĨ Øª
ĠØª Ø¹ØªØ¨Ø±
ÙĦÙĪ Ø§Øª
ĠØ§ÙĦ ÙĦÙĬØ«
ĠØ± Ø·
ĠØ± ÙĥÙĨ
ĠØ± Ø¶Ø§Ùĩ
ĠÙĨ ÙĩØ±
ĠØ³ Ø¯
ĠØ¬ Ø³
ĠØ§ÙĦØ¹ Ø·Ùģ
ĠØ§ÙĦØŃ ÙģØ¸
ÙĪØ§ ÙĦÙĩÙħ
ĠØ® Ø¯Ùħ
Ø¨ÙĨ Ùī
ĠØ§ÙĦÙĨ ÙĪØ¹
ĠØ§ÙĦØ´ Ø§Ø±Ø¹
ĠØ§ÙĦÙģ Ø§Ø¹ÙĦ
ĠØ§ÙĦØµ Ùģ
ĠØ§ÙĦØ® Ø§ÙĨÙĬØ©
ÙĤØ± Ø±
Ø§Ø² ÙĬ
ÙĤØ· ÙĪØ¹
Ø¯Ø§ Ø¹
ÙĪØ£ Ø®Ø¨Ø±ÙĨØ§
Ø§Ø¬ Ø²
ĠØ£Ø¹ ÙĨÙĬ
ĠØ£Ø¹ Ø·ÙĬ
Ø§Øª Ø¨
Ø§Øª ÙĬÙĨ
ĠÙģØ¹ ÙĦÙħ
ĠØ¨Ø§ÙĦÙħ Ø§Ø¡
ĠÙĬØµ ÙĪÙħ
ĠÙĪØ³ Ø·
ĠÙĦØª Ø¹ÙĦÙĤ
ĠØ¹Ø· ÙĬØ©
Ø±Ø§Ø¨ Ø¹Ø©
ĠØ§ÙĦØ¬Ø² Ø§Ø¡
ÙĪØ´ Ø±Ø·
ĠØ¬ÙĨØ§ ÙĬØªÙĩ
ĠÙĨØ§Ø¦ Ø¨Ùĩ
ĠØ¨Ø«Ùħ ÙĨÙĩ
Ø§ Ø®Ø°
Ø§ Ø¶Ø©
ÙĬ ÙħÙĩ
ÙĪ Ø¸Ø§ÙĩØ±Ùĩ
Ø± ÙĤÙĬ
Ø¯ ÙĪÙĨ
ĠÙĪ Ø¨ÙĬØ¹
ĠØ£ Ø³Øª
ĠØ£ Ø³Ø±
ĠÙħ Ø®ØªØ§Ø±
ĠÙħ ÙĪØ±Ø«Ùĩ
ĠÙĬ Ø¨Ø±
ĠÙĬ Ø¨Ø§ØŃ
ÙĦÙĩ ÙħØ§
ĠÙĥ Ø¬
Ø· ÙĦØ¹
ĠÙĩ ÙĦØ§ÙĦ
ĠØ§ÙĦØ£ ÙģØ¶ÙĦ
Ø¸ ÙĬÙħ
ÙģØ¹ ÙĦÙĬÙĩ
ĠØ¨Ø§ Ø®Øª
ÙĪÙĬ Ø§ÙĨÙĬ
ÙĪÙĬ Ø¤Ø®Ø°
ĠÙĪØ¬ Ø²Ùħ
ĠØ§ÙĦÙģ ÙĤÙĬÙĩ
ĠÙĪØ¹ ÙĥØ³Ùĩ
Ø¯Ø§ ÙħØ©
ĠØ§ÙĦØ± Ø¤ÙĬØ©
ĠØ§ÙĦØ² ÙħØ§ÙĨ
ĠØ§ÙĦØ§ Ø¬ØªÙĩØ§Ø¯
ĠØªØ¹ Ø¨ÙĬØ±
ØªØ§Ø¨ Ø¹
ĠØªØŃ ØµÙĦ
ĠÙĪØµ ÙĦÙī
ĠØ§ÙĦÙħØŃ Ø§ÙĦ
ÙĪØ§ÙĦ ÙĨ
ÙĪØŃ ÙĬÙĨØ¦Ø°
ĠØ£Ø¯ ÙĨÙī
ĠØ¹ØªÙĤ ÙĩØ§
ĠÙħØ´ Ø§ÙĬØ®
ĠØ§ØŃØª ÙĬØ§
ĠÙģÙĥØ§ÙĨ Øª
ĠØ¨Ø« ÙĦØ§Ø«Ø©
ĠÙĨÙĥØ§ØŃ Ùĩ
ĠÙĨÙĩØ§ Ø±Ø§
ĠÙĦØ£Ø¨ ÙĪÙĬÙĨ
ĠØ§Ø±Øª Ø¯
ĠØ¨Ø§ÙĨ Øª
ĠÙģØ¯ Ø®ÙĦ
ĠØ¬Ø± ÙĬØ±
ĠØ£Ø±Ø¯ Øª
ĠØŃØ§Ø¬ ØªÙĩ
ĠØ§ÙĦÙĬÙħÙĨ Ùī
ĠØ§ÙĦÙħØ§Ø¦ Ø©
Ø§ ÙĩÙĦ
Ø± ÙĪØ¨
Ø¹ ÙħØ§ÙĦ
ĠØ£ Ø¨Ø¹Ø¯
ĠÙĬ ÙĪÙĥÙĦ
ĠÙĬ ÙĦØŃÙĤÙĩ
Ùĥ ØªØ¨
ĠÙĤ ÙĦÙĬÙĦØ§
ĠÙĥ ÙĨØ§ÙĬØ©
ĠØ¥ Ø«
ĠÙħÙĨ Ø³
ĠØª Ø¸ÙĩØ±
ĠØ£ÙĨ Ø²ÙĦ
ĠØ± Øº
ĠØ³ Ø±Ø§
ĠØ´ Ø±Ùĥ
ĠØ£ÙĬ Ø¯ÙĬ
ĠØ¨ÙĨ ÙĪ
ĠØ¨Ø¹ Ø±ÙģØ©
ĠØ® ÙĨØ«Ùī
Ø§Ø¦ ÙĤ
ĠØ¥ÙĨ Ø§Ø¡
ĠØ§ÙĦØª ØŃÙĦÙĦ
Ø§Ùħ ÙĨØ§
ĠØ§ÙĦÙĨ Ø¹
ĠØ§ÙĦØ´ Ø±Ùĥ
ĠÙĪÙĬ ÙħÙĥÙĨ
ĠÙĪÙĬ Ø¤Ø®Ø°
ĠØ§ÙĦÙģ Ø¶
Ø¤ ÙħÙĨ
ÙĤØ§ Ø¯Ùĩ
ĠÙĬÙĨ Ø¯Ø¨
ÙĦØ¨ Ø³Ùĩ
ĠØ£Ùħ ÙĩØ§
ĠÙĤØ¯ Ø±Ø§
ĠØ§ÙĦØ± Ø§Ø¡
ÙĦØ² ÙĪØ¬
ĠÙĦÙĦÙħ Øª
ĠÙģØ£ Øª
ĠÙĪÙĨ ÙĤÙĦ
ĠÙģØª Ø£ÙħÙĦÙĩ
ĠØ§ÙĦÙħØ³ Ø£ÙĦØªÙĬÙĨ
ĠÙĤØ§ Ø¹Ø¯Ø©
ĠÙĪØµ Ùī
ĠÙĪØ³ ÙĤØ·
ĠØ±Ø£ Øª
ĠØ³Ùħ Ùī
ĠÙħØ¯ Ø¨Ø±Ø§
ĠØŃØ§ Ø¶Ø±
ĠØ§Ø¯ Ø¹Øª
ĠÙĪØ§ÙĦØ¨ Ø§ÙĤÙĬ
ĠÙĪØ² Ø§Ø¯
ĠÙĦÙģØ¸ Ùĩ
ĠØ¨Ø§ÙĦØ´ ÙģØ¹Ø©
ĠØ®Øµ ÙħÙĩ
ĠÙħØŃØª Ø§Ø¬
ĠØ§ÙĦØ±Ø§ Ø¨Ø¹
ĠØ§ÙĦÙħÙĨØ§ ÙģØ¹
ĠØµØ¨ÙĬ Ø§
ĠÙĬÙģÙĬ Ø¯Ùĩ
ÙĪØ¶ÙĬ ØŃ
ĠØ®ÙĬ Ø¨Ø±
Ø§ Ø¹ÙĬ
Ø± Ø³ÙĦ
ÙĦØ ´
Ø¨ Ø§Ø¡
Ø¨ Ø§Øº
ĠØ£ Ø¸
ĠÙħ Ø±ÙĬ
ĠÙħ ÙħØªÙĨØ¹
ĠØ¨ Ø¯Ø§
ĠØ¹ ÙĤÙĦÙĩ
ĠØ¹ ÙĤØ¨Ø©
ĠØ¹ ÙĪØ¶Ø§
Ùĥ ÙħØ©
ĠØ¥ ÙĨÙĩØ§
ĠÙħÙĨ Ø§Ùģ
Ø· Ø´
ĠØª ÙĬÙħ
ĠØª ÙĤØªØ¶ÙĬ
ĠØ§ÙĦ ÙĦØ¹Ø§ÙĨ
ĠØ´ Ø§ÙħÙĦ
ĠØµ ÙĨÙģ
Ø±Ø§ ØŃØ©
ĠØ§ÙĦØ¹ Ø±
ĠØ§ÙĦØŃ ÙĨÙģÙĬØ©
ĠØ¯ Ø¨Ø±Ùĩ
ÙĪØ§ Ø¹Øª
ĠØ® Ø§ÙĨ
ĠØ® Ø¨Ø±Ùĩ
ĠØ§ÙĦÙĤ ÙĨÙĬØ©
ĠÙĦØ£ Ø¨ÙĬÙĩ
ĠØ§ÙĦØª ÙĤØ¯ÙĬØ±
ĠØ§ÙĦØ¥ Ø´Ø§Ø±Ø©
ĠØ§ÙĦØ³ ÙĩÙħ
ĠØ£Ø® Ø·Ø£
ĠÙĬØ¹ Ø±Ø¶
ĠØº Ø§Ø¦
ĠØ§ÙĦØ¯ Ø±ÙĩÙħ
ĠÙĬÙĨ ÙĤÙĦ
ĠÙĬÙĨ ÙģØ³Ø®
ÙĪØ² ÙĨ
ĠØ§ÙĦØ± ÙģØ¹
ĠØ¹ÙĦÙĬ Ø§
ĠÙĪÙĩ Ø¨Ùĩ
ĠØ§ÙĦØº Ø²Ø§ÙĦÙĬ
ĠØªØ¹ ÙĬ
ĠØªØ¹ Ø±Ø¶
ĠÙĪÙħ ÙĨÙĩØ§
ĠÙħØ³ Ø£ÙĦØª
ĠØ¨ØŃ Ø¬
ÙĩØ¯ Ùī
Ø¹ÙĨ Ø¯
ĠÙĬØ³Øª ÙĦØ²Ùħ
ĠØ¨Øª Ø³
ÙħØ±Ø£ ØªÙĩ
ĠØ³ÙĬ ÙħØ§
ĠÙĬØ² ÙĪÙĦ
ĠÙĥØªØ§Ø¨ ØªÙĩ
ĠØ§ÙĦØ«ÙĦØ« ÙĬÙĨ
ĠÙĦØµ ØŃØ©
ÙĪØ§ÙĦØ£ ØµÙĦ
ĠØªØ¯ Ø®ÙĦ
Ø³ÙĨØ§ Ø¯Ùĩ
Ø®ÙĬ ÙĬØ±
ĠØ§ÙĦØ¬ÙĨ Ø§Ø²Ø©
ĠØ§ÙĦÙħÙĦØª ÙĤØ·
ĠØ¨ÙĪØ· Ø¡
ĠØ§ÙĦÙĬØª ÙĬÙħ
ÙĬ Ø¯Ø©
ÙĪ Ø¯ÙĬ
ĠÙĪ ÙĪÙĤØ¹
ĠÙħ Ø±Ø¬
ĠÙħ ÙģØ¹ÙĪÙĦ
ĠØ¨ Ø§Ø¦Ø¹
ĠÙģ ÙĪØ§
ĠÙģ Ø³Ø±
ĠÙģ Ø§ÙĦØ¨
ĠÙĬ ÙģØ³
Ø¬ ÙĬ
ĠÙĥ ÙĨØ§
Ø« Ø§ÙĦ
Ø· ÙĬØ©
Ø§Ø± Ùħ
ĠØ± ÙĬØŃ
ĠÙĨ ÙģØ±
ĠÙĨ Ø¹ÙĦÙħ
ĠØ³ Ø£ÙĦØª
ĠØ³ Ø±ÙĤØ©
ĠØ³ ÙĨØªÙĬÙĨ
ĠØ§ÙĦØ£ Ø«
ĠØ§ÙĦØ£ ÙĬØ§Ùħ
ĠØ¨ÙĨ Øµ
ĠØ¬ ØŃØ¯
ĠØ§ÙĦØŃ Ø§Ø¯Ø«
ĠØ® Ø¯ÙħØ©
ĠØ§ÙĦØ¨ Ø§Ø¡
ĠØ§ÙĦØª Ø±Ùĥ
ĠØ§ÙĦØª Ø´ÙĩØ¯
ĠØ§ÙĦØª ÙħØªØ¹
ĠØ§ÙĦØª ÙĤÙĬÙĬØ¯
ÙĥØ± ÙĪÙĩ
ĠØ§ÙĦØ¬ Ø§ÙĨ
ĠÙĪØ£ Ø¨
ĠÙĪØ£ ØŃ
ÙĬØ§ Ø¯
ĠØ§ÙĦØ® ÙĦØ§ØµØ©
ÙĤØ§ Ø©
ĠØ¨Ø£ ÙħØ±Ùĩ
ĠØ§Ø³Øª Ø£Ø¬Ø±Ùĩ
ĠØ¨Ø¯ Ø£
ĠÙĪØ§ÙĦÙħ Ø±Ø£Ø©
ĠØ§ÙĦÙħØ³ Ø§ÙģØ±
ĠØ±Ø¶ÙĬ Øª
ØµØ±Ùģ Ùĩ
ĠÙħØ¬ ÙħÙĪØ¹
Ø±Ø´ Ø§Ø¯
ĠÙĬÙģ ÙĪØª
ĠØ§Ø³ØªØŃ ÙĤØ§ÙĤÙĩ
ĠÙĨÙģØ³ ÙĬ
ĠØŃÙĥ ÙĪÙħØ©
ĠÙĤØ· Ø¹Øª
ĠÙĬØ¹Øª ÙħØ¯
ĠØ·ÙĦØ§ÙĤ ÙĩØ§
ÙģÙĥ Ø°ÙĦÙĥ
ĠØ£Ø« ÙĦØ§Ø«
ĠØ§ÙĦØ¥Ø® ÙĪØ©
Ø£Ùĥ ÙĪÙĦ
ĠÙħÙĪØ¶ Ø¹Ùĩ
ĠØ´Ùĩ Ø¯Ø§
ĠÙĬØªØ£ ØªÙī
ĠØ§ÙĦÙĩÙħ Ø²Ø©
ĠÙħÙĨÙģØ± Ø¯Ø§
ĠØ§ ÙĦØ§ÙħØªÙĨØ§Ø¹
Ùħ ÙĦØª
Ø¯ ÙĨ
ĠÙĪ ÙĤØ¯Ùħ
ĠØ£ Ø¹ØªÙĤØª
ĠÙħ ØµØ¯Ø±
ĠØ¨ Ø³Øª
ĠÙģ ÙħØ¹
ĠÙģ ÙĤÙĪÙĦ
ĠØ§ÙĦÙħ Ø®Øª
ĠÙĦÙĩ ÙĬØ¹Ø©
ĠØ§ÙĦØ¹ Ø§Ø±ÙĬØ©
ĠØ§ÙĦØ¹ ÙĩØ¯Ø©
ĠØ§ÙĦØŃ ÙħØ¯
ĠØ« ÙħØ±Ø©
ĠÙĦØ£ ÙĥØ«Ø±
ĠØ§ÙĦØ³ Ø±ÙĤØ©
ĠÙĪÙĬ ÙĤØ§ÙĦ
ĠÙĪÙĬ ÙĤÙĪÙĦ
ĠÙĪØ¹ Ø¨Ø§Ø±Ø©
ĠØ§Ø³Øª ÙĪÙģÙī
ĠØ§ÙĦØ² ÙĪØ§ÙĦ
ĠØ§ÙĦØ§ Ø®ØªÙĦØ§Ùģ
ĠÙģØ£ ÙĤØ±
Ø®ÙĦØ§Ùģ Ø§
ÙĦØ¹ Ùĩ
ĠØ£Øµ ÙĦÙĩØ§
ĠÙĪØŃ ÙĦÙģ
ĠÙĪØ§ÙĦØ£ ÙĪÙĦ
ĠØ¨ÙĤÙĬ Øª
ÙĪÙĦÙĬ Ø§
ĠØ§ÙĦØ£Ùħ ÙĪØ§ÙĦ
ÙĪÙĦØ¯ Ø©
ĠØ¨Ø¬ ÙĪØ§Ø²
ĠØªØµ ÙĪØ±
ĠØ¹Øª Ø¨Ø©
ĠÙħØ¹ÙĦÙĪ ÙħØ§
ÙĪØ§Ùģ ÙĤÙĩ
Ø§Ø±ÙĬ Ø®
ĠØ¨ÙĦØ¯ Ùĩ
ĠÙĪØ¨ÙĨ Øª
ĠÙħØ³Ø¬ Ø¯Ø§
ÙĬ Ø¬ÙĪØ²
ÙĪ ÙĦØ°ÙĦÙĥ
ĠØ§ Ø«
ÙĦØ ¤
ĠÙħ ÙĦÙĬ
ĠÙħ Ø¬Ø±
ĠÙħ Ø£Ø®ÙĪØ°
ĠØ¨ Ø¥ÙĨ
ĠØ¨ Ø¦
ĠØ¨ ÙĨØ§Øª
ĠØ¨ Ø³Ø¨Ø¨Ùĩ
ĠÙģ Ø«
ĠÙģ Ø·Ø±
ĠÙĬ ØºÙĨÙĬ
ĠÙĬ ÙħØ³ØŃ
Ø£ Ø¨ÙĪ
ĠØ§ÙĦÙħ ÙĪØ¬ÙĪØ¯
ĠØ§ÙĦÙħ Ø¯ÙĬÙĪÙĨ
ĠØ¥ Ø·ÙĦØ§ÙĤÙĩ
ĠØª Ø±Ø¶
Ø§Ø± ÙĤØ©
ĠÙĨ ÙĤÙĦØ§
ĠØ§ÙĦØ£ ÙĪÙĦÙĬÙĨ
Ø±Ø§ Ø¹Ø©
ĠØ§ÙĦØ¹ Ø§ÙĦÙħ
ĠØ§ÙĦÙĤ ÙĦÙĬÙĦ
ĠØ§ÙĦÙĤ Ø±ÙĬØ¨
ĠØ§ÙĦØª ÙħØ±
ĠÙĦÙĪ Ø±Ø«ØªÙĩ
ĠØ§ÙĦØ¬ ÙĩØ§Ø¯
ĠØ§ÙĦØ¬ ÙĦÙĪØ³
ĠØ£Ø® ØªÙĩ
ĠÙĦÙĬ ÙĥÙĪÙĨ
ĠÙħØŃ Ø°ÙĪÙģ
Ø¯ÙĬ Ø¯Ø©
ĠØ§ÙĦÙĥ ÙģØ§ÙĬØ©
ĠÙĪØ¹ ÙĦÙĬ
Ø§Ø² Ùħ
ĠÙĦØ£ÙĨÙĩ ÙħØ§
ĠÙĪØ¥ ÙħØ§
ĠÙĦÙĦÙħ ÙĪØµÙī
ÙĪÙĤ Ø¶ÙĬØ©
ĠÙĬØ® Ùģ
ÙģÙĩ ÙĬ
ĠØŃÙĤ ÙĩÙħ
ĠØ§ÙĦÙħØ¹ ØµÙĬØ©
ĠØ¨Ø§ÙĦÙħ Ø¹Ø±ÙĪÙģ
ĠØ§ÙĦÙħÙĨ ÙĤÙĪÙĦ
ĠÙħØ¬ ÙħØ¹
Ø¶Ø¹ Ùģ
ĠØ¯ÙģØ¹ Ø§
ĠØ§ÙĦØ£Ùħ ÙĬØ±
ØµÙĬ Ø¨Ùĩ
ĠÙĦÙĦØ¹ ÙĦÙħ
ĠØ¹ÙħØ§ Ø±Ø©
ĠØ¨Ø§ÙĦÙģ ØªØŃ
ĠØ¶Ø±Ø¨ Ùĩ
Ø¹Ø· Ùī
ĠÙħØŃØª Ø±Ø²
ĠØ§ÙĦØ³Ø§Ø¨ ÙĤØ©
ĠØ§ÙĦØ£Ø´ ÙĩØ±
ĠØ§ÙĦÙħØ® Ø§ÙĦÙģ
ĠØ§Ø³ØªØ¹ ÙħØ§ÙĦ
ĠÙĨÙĤØ¯ Ø§
ĠØ§Ø¬Øª ÙħØ§Ø¹
ĠØ§ÙĦØ¥Ø´ ÙĩØ§Ø¯
ĠØªØ±Ø¬ ÙĬØŃ
ĠØ¥Ø¨Ø· Ø§ÙĦ
ĠØ±Ø¢ Ùĩ
ĠØ£ ÙģØ³Ø¯
ĠÙħ ÙĪÙĤÙĪÙģ
ĠØ¨ Ø³Ø±
ĠÙģ ØµØŃ
ĠÙģ ÙĪØ±Ø§
ĠØ¹ Ø¶
Ø£ ÙĥÙĦ
Øµ Ø§ÙĦØŃ
ĠÙģÙĬ Ø£Ø®Ø°
ÙĦÙĬ ØªÙĩ
ĠÙĥ ÙĦÙħØ©
ĠØ§ÙĦÙħ ÙĪ
Ø¶ Ø·
Ø· ÙĩØ±
ĠØª ÙĪØ¬Ø¯
ĠÙĨ Ø°Ø±Ùĩ
ĠØ´ ÙģØ¹Ø©
ĠØ§ÙĦØ¹ Ø§Øµ
Øº Ø±ÙĤ
ĠØ§ÙĦØ¨ ÙĪÙĦ
ĠØ§ÙĦØª Ø±Ø§Ø¨
ĠØ§ÙĦØª ÙĩÙħØ©
ĠÙĦÙĪ ÙĦØ§
ĠØ§ÙĦÙĨ ÙĪÙħ
ÙĪÙĬ Ùħ
ÙĪÙĬ Ø³ÙĨ
ÙĪÙĬ Ø´ØªØ±Ø·
ĠØ² Ø§Ø¦Ø¯Ø©
ĠØ§ÙĦØ¬ Ø§Ùĩ
ĠÙĪØ£ Ø±Ø¨Ø¹
ÙĪØ¹ ÙĦÙħ
ĠØ§ÙĦÙģ Ø¯Ø§Ø¡
ĠØ§ÙĦØµ Ø¨ØŃ
ĠÙħØŃ Øµ
ĠØº Ø§ØµØ¨
ĠØº ÙĬØ¨ØªÙĩ
ÙĪØ£ Ø¬ÙĬØ¨
ĠÙĪÙĤ ÙģØ§
ĠØ§ÙĦØ§ ÙĥØª
ĠÙĪØ§ÙĦÙħ ÙĨ
ĠØ§ÙĨ ÙģØ±Ø¯
ĠØ§ÙĦÙħØª Ø¹ÙĦÙĤ
ĠØ§ÙĦÙħØµ Ø§ÙĦØŃ
ĠØŃÙĥÙħ ÙĩØ§
ĠØ£ÙĤ Ø³Ø§Ùħ
ĠÙħØ¬ Ø§Ø²
ĠÙģØ§ÙĦØ ¬
ĠØ¨Ø§ÙĦØª Ø¹
ĠÙħØ¯ Ø¨Ø±
ĠÙĬØ®Ø±Ø¬ Ùĩ
ĠØ§Øª ÙģÙĤ
ĠØ«Ø¨Øª Øª
ÙĪØ§ÙĦØ£ ØµØŃ
ĠØ¨Ø´Ø±Ø· Ùĩ
ĠØ¹Ø² ÙĦÙĩ
ĠØ§ÙĦØ£Øµ ÙĬÙĦ
ĠØ§ÙĦØ£Øµ ØºØ±
ĠØ§ÙĦØ£Øµ Ø§Ø¨Ø¹
ĠÙĨØ¸ ÙĬØ±Ùĩ
ĠØ£ØµØ§Ø¨ Ø¹
ĠØ¨Ø´Ø± Ø§Ø¡
ĠØ¨ÙĦÙĪØº Ùĩ
ĠÙĩØ§Ø± ÙĪÙĨ
Ø¯ ÙĤØ©
Ø¹ Ø±Ùģ
ĠÙĪ Ø§Ø¨
ĠÙĪ Ø±Ø³
ĠÙĪ Ø¢Ø®Ø±
ĠØ£ ÙĥØ§ÙĨ
ĠØ¨ Ø£ÙĪ
Ùģ ØªÙī
ĠÙĬ Ø¯Ø§
ÙĦØ§ ÙĪØ©
Ùĥ ÙĪÙħ
Ø° Ø¨Ø§
Øµ Ø§Ùģ
Øµ Ø§Ø¨Ø©
ĠØ§ÙĦÙħ Ø®Ø±Ø¬
Ø® ÙĪÙĦÙĩ
ĠØª Ø³ÙĦÙħ
ĠØª Ø¹ØªÙĤ
ĠØª ÙĦØ²Ùħ
ĠØª ÙĪÙĩÙħ
Ø´ ÙĤ
ĠØ³ ÙĦÙĬÙħ
ĠØ¹ÙĦÙĬÙĩ ÙĨ
ĠØ§ÙĦØ¹ ÙĤ
ĠØ§ÙĦØŃ Ø¶Ø§ÙĨØ©
ĠØ§ÙĦÙĤ Ø±Ø¨Ø©
ĠÙĦØ£ ÙħØ±
ĠÙĪÙĬ Ø£ØªÙĬ
ĠØ§Ø¨ÙĨ Ø©
ĠØ§ÙĦØ® Ø§Øµ
ĠÙĬØ¹ Ùħ
ĠØº Ø¯Ø§
ÙĪÙĥ Ø±Ùĩ
ĠØ¸ ÙĦÙħ
Ø§Ùĩ ÙĨ
ĠØ£Ø¹ ÙĦÙī
ĠØ£Ø¬ Ø±Ùĩ
ĠØ§ÙĦÙħØ³ Ø§
ĠÙĬØ³ Ø§Ø±Ùĩ
Ø±Ø£ Ùī
Ø±Ø§Ø¡ ØªÙĩ
ĠØ¢ ÙĬØ©
ĠØ§Ø¹Øª Ø±Ùģ
ĠØ§ÙĦÙħÙĨ Ø¨Ø±
ĠØ¨Ø§ÙĦØ¹ ÙħØ±Ø©
ĠÙĨØ³ Ø¨Ø©
ĠÙĬØ¬Ø² Ùĩ
Ø¶ÙĪ Ø±Ùĩ
ĠØ«ÙĦØ« ÙĬ
ĠØ¹ÙĤØ¯ Ùĩ
ĠÙĪØ¯ Ø®ÙĦ
ĠÙĦÙĦÙĪ ÙĥÙĬÙĦ
ĠÙģØŃ ÙĬÙĨØ¦Ø°
ĠÙĪØ¬ÙĪØ¨ ÙĩØ§
ĠØ§ÙĦØ´ÙĬØ® Ø§ÙĨ
ĠØ§ÙĦØ£Ø® ÙĬØ±Ø©
ĠØ³ÙħØ¹ Ùĩ
ĠØ´ÙĩØ§Ø¯ØªÙĩ Ùħ
ĠÙħØ®Ø§ÙĦÙģ Ø©
ĠØ§ÙĦØ¯Ø¹ Ø§Ø¡
ĠØ¨Ø¹Øª ÙĤÙĩ
Ø§ Ø¯Ùħ
ÙĬ Ø§Ø±Ø©
ÙĬ ÙĦØ§Ø¡
ÙĪ Ø±Ø¨
ÙĪ ÙģØ±ÙĤ
Ø¹ Ø«
ĠÙħ Ø±Ø§Ø¨ØŃØ©
ĠÙģ Ø¨Ø§Ø¹
ĠØ¹ ÙĪØ¯
ÙĦØ§ ÙĥÙĩ
Ùĥ ÙģØ±
Ùĥ ÙĪÙħØ©
ĠÙĤ Ø³
ĠØ§ÙĦÙħ ÙĩÙħÙĦØ©
ĠØ¥ Ø¹Ø·Ø§Ø¡
Ø· ÙĬØ¹
ĠØª Ø¶Ùħ
ĠØŃ Ø§Ø¯Ø«
Ø§ÙĦ ÙĨ
ĠØ§ÙĦ ÙĦØŃ
ĠØ£ÙĪ Ø¬
Ø§Ø± Ø¯
Ø§Ø± ÙĩØ§
Ø§Ø± ÙĥÙĩ
ĠÙĨ Øª
ĠÙĦØ§ ÙĨ
ĠØ§ÙĦØ£ Ø°ÙĨ
ĠØ§ÙĦØ£ Ø¹ÙĬØ§ÙĨ
ĠØ´ ÙĤ
ĠØ´ ÙģØ¹ØªÙĩ
ĠØ¬ Ø¨ÙĦ
Ø³Øª Ø§ÙĨÙĬ
ĠØ« Ø¨ÙĪØªÙĩ
ÙĪØ§ Ø®ØªÙĦÙģ
ĠØ§ÙĦÙĪ ØªØ±
ĠØ§ÙĦØ¥ Ø¬
ĠØ§ÙĦØ¥ ØªÙĬØ§ÙĨ
Ø§Ùħ Ø¯
ĠØ² ÙĩÙĬØ±
ĠØ· Ø±ØŃ
Ø±Ùĥ Ø§ÙĨ
ĠÙĪÙĬ ÙĦØ²ÙħÙĩ
ĠØ§ÙĦØµ ÙĦØ§ØŃ
ĠØ§ÙĦØ® Ø¯ÙħØ©
ĠÙĬØ¹ Ø¬Ø²
ĠÙĪÙĥ ÙĦØ§Ùħ
ÙĥØ§ ÙĨÙĩ
ĠØ±Ø¬ Ø¹Øª
ĠØ§ÙĦØ§ ÙĦØª
ĠÙģØ£ ØµØ§Ø¨
ĠÙģØ§ Ø¹ÙĦ
ĠØ§ÙĨ ØªÙĩ
ÙĪÙģÙĬ ÙĩØ§
ĠÙĬØ¤ Ø°ÙĨ
Ø¹Ø¯ Ùī
ĠÙģÙĥ ÙħØ§
ÙĪÙĦÙĬ Ø§Ø¡
ĠØ§ÙĦÙħØ¬ ÙĨÙĪÙĨ
ĠØªØ³ ÙĦÙĬÙħÙĩ
ĠÙģÙĩ ÙĦÙĥ
ĠØ§ÙĦØ´ÙĬ Ø·Ø§ÙĨ
ÙĦÙĪØ§ ÙĪ
ĠÙĪØ§ÙĦØŃ Ø§ÙĦ
ĠÙĥØ« Ø±Ø©
ĠØ£Øª Øª
ĠØ¨Ø§ÙĦÙĨ Ø¸Ø±
ĠØ§ÙĦØ£Øµ ÙĦÙĬ
²ÙĪØ¬ Ø©
ÙĪÙĬØª Ø¬Ùĩ
ĠØ§ÙĦØ£Ø¹ Ø¶Ø§Ø¡
ĠØµÙģ ØªÙĩ
ĠÙĤØ§Ø¦ ÙħØ©
ĠØ¬Ø±ØŃ Ùĩ
ĠØ¥ÙĬ Ø¬Ø§Ø¨
ĠØ·ÙĦØ§ ÙĤØ§
ĠØ§Ø³ØªØ¦ Ø¬Ø§Ø±
ÙĬ ÙĦØ©
Øª ÙĬØ©
ĠØ£ ÙħØ§ÙĨ
ĠÙħ Ø±ÙĬØ¶
ĠØ¹ Ø¬ÙĦ
ØŃ ÙĬØ©
ØŃ Ø§Ø¯
ĠÙĤ ÙĪÙĦØ§
ĠØ§ÙĦÙħ ÙĪØ¬Ø¨
ĠØ¥ ÙĤ
ĠØª ÙĩÙħØ©
Ø§ÙĦØ °ÙĬ
Ø°Ø§ Ùĥ
ĠØ± Ø¤
ĠØ³ Ø£ÙĦÙĩ
ĠØ§ÙĦØ£ Ø¹ÙĦÙī
ĠØ¬ ÙĨÙĬÙĨ
ĠØ¬ ÙĨØ¨
ĠØ§ÙĦØ¹ ÙĩØ¯
ÙĪØ§ ÙĦÙĬ
ÙħØ± Ø¶
ÙģÙĬ Ø²
ĠØ¥ÙĨ Ùĥ
Ø±Ø¬ ÙĬØŃ
Ø±Ø¨ ÙĬØ©
Ø¦ ÙĬÙĨ
ĠÙĪØ¬ ÙĪÙĩ
ĠÙĬØ¬ Ø¹ÙĦÙĩ
ĠÙĪÙĬ Ø´ØªØ±Ø·
ĠÙĦÙĬ ÙĦÙī
ĠÙĬØª ÙĥØ±Ø±
ĠÙĬØª ÙĥÙĦÙħ
ĠÙĬØª Ø±ØªØ¨
ÙĦØ® Ø¨Ø±
ÙĦØ¨ ÙĬ
ĠØ¶ Ø§ÙħÙĨØ§
ĠØ£Ùħ ØªÙĬ
ĠØ§Ø³Øª Ø±
ĠØ¨Ø¯ Ø¹Ø©
ÙĦØ² Ø§Ùħ
ĠØ§ÙĦØ§ Ø´Øª
ĠÙĦÙĦÙħ Ø§ÙĦÙĥ
ĠÙĦÙĦÙħ Ø¯Ø¹ÙĬ
ĠÙģØ£ ÙĥÙĦ
ĠØ£Ø¬ ÙĨØ¨ÙĬØ©
ĠÙĪØ§ÙĦØ£ ØµØŃ
ĠØªØ£ Ø®Ø°
ĠÙģØ§ÙĦØ ¥
ĠØªÙĨ ÙģØ³Ø®
ĠØ¹Ùħ ÙĪÙħ
ĠÙĬØ· ÙĦØ¹
ĠÙħØ¤ Ø¬ÙĦ
ĠØ±Ø¬Ø¹ ÙĬØ§
ĠØ¥ÙĦÙĬ ÙĨØ§
ĠØ¬Ø¹ ÙĦØª
ĠØ£Ùĩ ÙĦØ§
ĠÙĨÙĤØµ Ø§ÙĨ
ĠØ§ÙĦÙģØ± Ø§Ø¦Ø¶
ĠØ´ÙĩØ§Ø¯ØªÙĩ ÙħØ§
ĠØ§ÙĦÙĨÙĩ Ø§Ø±
ĠØ§ÙĦÙĪÙĤ ÙĪØ¹
ĠØ¸Ø§Ùĩ Ø±Ø©
ĠØµØ¯Ø§ÙĤ ÙĩØ§
ĠØ§ÙĦÙĪØ¬ ÙĪÙĩ
ĠØ¬Ø³ Ø¯Ùĩ
Ùĩ Ø³ØªØ§ÙĨÙĬ
ÙĪ ÙĦÙĬÙĩ
ÙĪ ÙĦØ£
Ø± ÙĪÙĬ
Øª ÙģØ±
ĠÙĪ Ø«Ø¨Øª
ĠÙħ ÙĪÙĦØ§
ĠÙħ ÙģÙĩÙĪÙħÙĩ
ĠØ¨ ÙĪÙĤØª
ĠØ¹ Ø¸Ùħ
ĠÙĬ Ø¨Ø¹Ø«
ĠÙĤ ÙĨØ§
ĠÙĤ Ø§ØªÙĦ
ÙĨÙĩ Ùī
Øµ Ùħ
ĠØ§ÙĦÙħ ØµØŃÙģ
ĠØ§ÙĦÙħ ÙĬÙĤØ§Øª
ĠØ§ÙĦÙħ ÙĦØ§Ø¦ÙĥØ©
Ø® Ø³ÙĬ
ĠØª Ø¶ÙħÙĨ
ĠØŃ ÙģØµ
Ø§ÙĦ ÙĦÙĩÙħ
ĠØ£ÙĨ ÙģÙĩ
ĠÙĦØ ¢
ĠØ§ÙĦØ¹ Ø²ÙĦ
ĠØ¨Ø¹ ÙħØ±Ø©
ÙĪØ§ Ùĥ
ĠØ® ÙĬÙģ
Ø§Ø¦ ÙħØ§
ĠÙĦÙĪ Ø§Ø±Ø«
ÙĬØ¯ ÙĩØ§
Ø¨Ø§ ÙĬØ¹
ĠÙħØŃ Ø±ÙħØ©
ĠÙĬØª ÙĤØ¯Ùħ
ĠØ§ÙĦØ® Ø´
Ø¨Øª ÙĬÙĨ
ĠÙĪÙĥ Ø£ÙĨÙĩ
ĠØªØ¹ Ø¯Ùī
ĠÙĬØ³ Ø¹
ÙħÙĬ Øµ
ÙĦØ³ Ø§ÙĨ
ĠØ¢ ÙĨ
ĠØ¢ ÙĦØ©
ĠØ¨ÙĬ ÙĤÙĬÙĨ
ĠÙģØ³ Ø§Ø¯Ùĩ
ĠØ§ÙĦØ¶ Ø±ÙĪØ±Ø©
ĠÙĪØ§ÙĦØ£ Ùħ
ĠÙĬØ² Ø¯
ĠØ§ÙĦÙħØ´ Ø§ÙĬØ®
ØµÙĬ ÙĦÙĩ
ĠÙĬÙģ ØµÙĦ
Ø®Ø¨Ø± ÙĨÙĬ
ÙĪÙĬÙĨ Ø§
ĠØ´Ø±ÙĬ ØŃ
ĠÙĦØº ÙĪ
ĠÙĪØŃØ¯ ÙĩØ§
ĠÙħÙĩØ± ÙĩØ§
ĠÙħÙĥØ± ÙĩØ§
ĠÙĦÙĦØ® Ø¨Ø±
ĠØ§ÙĦØ§Ø¹Øª ÙĥØ§Ùģ
ĠÙħÙĥØ§Øª Ø¨Ø§
ĠØ§ÙĦØ§Ø®Øª ÙĬØ§Ø±
ĠØ§ÙĦØ³Ø± Ø®Ø³ÙĬ
ĠØºØµ Ø¨Ùĩ
ĠØ§ Ø«ÙĨÙĬ
ĠÙĪ ÙĤØ·Ø¹
ĠØ£ Ø³ÙħØ¹
ĠÙħ Ø§ÙĨ
ĠÙħ Ø®ØµÙĪØµ
ĠØ¨ ØŃØ¯
ĠØ¨ ÙĪØ¬ÙĪØ¨
Ùģ Ø±ÙĬ
Ø¬ Ø§
ĠÙģÙĬ Ø«Ø¨Øª
ĠØ¥ Ùħ
ĠÙĨ ÙģÙĬÙĩ
ĠÙĨ ÙĪØ§Ùĩ
ĠØ³ ÙĪØ±Ø©
ØªÙĩ ÙĬ
ØªÙĩ Ø±
ÙĦÙģ ÙĩØ§
ĠØ¨ÙĨ ÙĥØ§ØŃ
ÙĪÙĨ ØŃÙĪ
Ø§Ø¨ Ø¶
ĠØ§ÙĦØ¹ ÙĤØ§Ø±
ÙĪØ§ ØŃØª
ĠØ® Ø±Ø§Ø¬
ĠØ§ÙĦÙĤ Ø³Ø§ÙħØ©
ĠØ§ÙĦÙĪ Ø³Ø·
Ø¹Øª Ùĥ
ĠØ§ÙĦØ¨ ÙĬ
Ø¨ÙĨ ÙĬØ©
ĠØ¨Ø§ ÙĤÙĬØ©
ÙĪÙĬ Ø¤
Ø¨Ø§ ØªÙĩ
ĠØ«Ùħ ÙĨØ§
ĠÙĪÙĬ ØŃØ±Ùħ
ĠÙĪÙĬ Ø¶ÙħÙĨ
ĠÙĬØª ÙĨØ§ÙĪÙĦ
ĠØ§ÙĦØ¯ ÙĬÙĪÙĨ
ĠÙĬÙĨ Ø³Ø¨
ĠØ±Ø¬ Ø§ÙĦ
ĠØ¶ ÙĬØ§
ĠÙĪØ¥ Ø³
ĠÙĬØ¯ Ø±ÙĬ
ĠØ¨ØŃ ØµØªÙĩ
ĠÙģØ¥ÙĨÙĩ Ùħ
ÙĤØ¨ Ø§ÙĦ
ĠØ£Ø±Ø¨ Ø§Ø¹
ĠØ±ÙĪØ§ ÙĬØªØ§ÙĨ
ĠØªØ£ ÙĪÙĬ
ĠØ£Ø³ ÙģÙĦ
ĠØ²ÙĬØ¯ Ø§
ĠÙħØ¯ Ø¹
ĠØ¨Ø§Ø¨ Ùĩ
ĠØ²Ø§Ø¯ Øª
ĠÙħØ¹Øª Ø¯Ø©
ĠØ¬ÙĪØ§Ø² Ùĩ
ĠØ§ÙĦØµØŃÙĬØŃ ÙĬÙĨ
ÙħÙĨÙĩ Ùħ
ĠØ§ÙĦØ®Øµ ÙĪÙħØ©
ĠØ§ÙĦØ¬Ø¯ Ø§Ø±
ĠÙĪØ§ÙĨ Ø¸Ø±
ĠØ¹ÙĬ ÙĬÙĨØ©
ĠÙĪØ¨ÙĬ ÙĨÙĩ
ĠÙĪØµØŃ ØŃÙĩ
ĠØ¶Ø± Ø±Ø§
ĠØ§ÙĦØ¥ÙĨ ÙģØ§ÙĤ
ĠÙĪØ«ÙĦØ§Ø« ÙĬÙĨ
ĠØ§ÙĦØ£ÙĨØµØ§Ø± ÙĬ
ÙĪØºÙĬØ± ÙĩÙħ
ĠØ¨Ø±ÙĤ Ø¨ØªÙĩ
ĠØ£ÙĨÙģØ³ ÙĩÙħ
ĠØ§ÙĦÙħØ´Ø±Ùĥ ÙĬÙĨ
ĠØ§Ø³ØªØŃØ³Ø§ÙĨ Ø§
ĠØ£Ø«ÙĦØ§Ø« Ø§
ÙĦØ ¦
Ùħ Ùī
ĠØ¨ ÙħÙĩØ±
ĠÙģ Ø§Ø¦
Ùģ ÙĦÙĬ
ØŃ ÙģØ¸
Ùĥ ÙĪØª
ĠÙĤ ÙĪÙĬ
ĠÙĤ ÙĪÙħÙĩ
Ø° Ø§Ø¡
ÙĦÙĬ ÙģÙĩ
ĠÙĥ Ø§ÙħÙĦØ§
ĠØ§ÙĦÙħ Ø¨Ø§ØŃ
Ø® Ø¨Ø§Ø±
Ø´ Ùĩ
ĠÙĨ Ø¨Ùĩ
ĠÙĦØ§ Ø¨
ĠØ³ Ø§Ø¦
ĠØ³ ÙĥØ±
ĠØ¨Ø¹ Ø¶Ø§
ĠØ« Ø§ÙĨÙĬØ©
ÙĪØ§ Ø¹ÙĦÙħ
ĠØ§ÙĦÙĤ ÙĦØ¹
ÙģÙĬ Ø°
ĠØ§ÙĦØ¨ ÙĬÙĨ
ĠÙĬÙĥ ÙģÙĬÙĩ
ĠÙĬÙĤ ØµØ±
ĠØ§ÙĦØ¬ ÙĪÙĩ
ĠÙĪØ£ ÙħØ±
ĠÙĪØ£ ÙĩÙĦ
ĠÙĪØ£ Ø±Ø¨Ø¹ÙĬÙĨ
ĠØ§ÙĦØ³ Ø§Ø±ÙĤ
ĠÙħØŃ ÙĦÙĩØ§
ÙĤØª ÙĬÙĨ
ĠØ§ÙĦØ® ÙĦÙĤ
ĠØº Ø±ÙĬÙħ
ĠØº Ø±ÙħØ§
ĠØ§ÙĦØ« ÙĬØ§Ø¨
ĠØ¹Ø¨Ø¯ ÙĬ
ÙĪØ¶ Ø¹Ùĩ
ĠÙĪØª ÙĨ
ĠÙħØ« Ø§ÙĦ
ÙĪØ£ Ø¨ÙĪ
ĠØ¨Ø¯ ÙĨØ©
ĠÙģØ£ ÙĤØ§Ùħ
ĠØ§ÙĨ ØŃ
ĠØ§ÙĦÙħØª ÙĤØ¯ÙħØ©
ÙĪØ¥ ÙħØ§
ĠÙĬØ¤ Ø®Ø±
ĠØ§ÙĦØ¢ ØªÙĬØ©
ĠØ£Ø³ ÙħØ§Ø¡
ĠØ§ÙĦÙħØ³Øª ÙĤØ¨ÙĦ
ĠØ§ÙĦØ¸ ÙĩØ§Ø±
ĠØ¯ÙģØ¹ ÙĩØ§
ĠØ´Ø¹ ÙĬØ±
ĠØ´Ø¹ Ø¨Ø§ÙĨ
ĠÙĥÙģ ÙĦ
ĠÙĥÙģ Ùī
ĠÙĪØ§ÙĦØŃ ÙĥÙħ
ĠØ§Øª ØŃØ¯
ĠØ§ÙĦØ¬Ùħ ÙĩÙĪØ±
ÙĪØ§ÙĦØ£ ÙĪÙĦ
ĠØ§ÙĦÙĪØ§ Ø·Ø¦
ĠÙĦØº Ø±Ø¶
ĠÙĦØ´ ÙĬØ¡
ĠØ¹Ø§ ÙħØ©
ĠØ¨Ø§ÙĦÙĥ Ø³Ø±
ĠÙħØ· Ø§ÙĦØ¨
ĠØ§ÙĦØ±Ùĥ ÙĨ
ĠØ±Ø£ÙĬ ØªÙĩ
ĠÙĥØ§ÙĦØ¨ ÙĬØ¹
ÙĪØ§ÙĦØ« Ø§ÙĨÙĬ
ĠÙĪÙĦØ¹ ÙĦÙĩ
ĠØµØ±ÙĬ ØŃØ§
ĠØ§ÙĦØ¬Ø§Ùĩ ÙĦÙĬØ©
ÙĨ Ùĥ
ÙĬ ÙĤÙĪÙĦ
ÙĬ Ø§Ø¨Ø©
ÙĬ Ø¬Ø§Ø¨
Ùĩ Ø°Ùĩ
ÙĦØ ¢Ø®Ø±
Ø¨ ÙĦØ§
Ø¯ ÙĨÙī
Ø¹ Ø±Ø¶
ĠÙĪ ØŃÙĬØ«
ĠØ£ ÙĦØ¨
ĠØ£ Ø³Ø§ÙħØ©
ĠÙħ Ø³ØªØŃØ¨
ĠÙħ ÙħÙĬØ²
ĠØ¨ Ø±Ø¶Ø§
ĠÙģ ÙħÙĩ
ĠÙģ Ø±ÙĬØ¶Ø©
ĠØ¹ ÙĦØ§
ĠØ¹ ÙĤÙĦ
ĠØ¹ Ø§ÙħÙĦ
ĠØ¹ Ø±Ø¶Ø§
ĠÙĬ Ø°Ø¨ØŃ
ØŃ Ø§ÙĦ
Ø¬ Ø±ÙĬ
Ø¬ Ø¯Ø©
Øµ ÙĦØŃ
ĠØ§ÙĦÙħ Ø®Ø¨Ø±
Ø´ Ø±Ø·
Ø² ÙħØ§
ĠÙĨ ÙģÙĦ
ĠÙĦÙħ ØµÙĦØŃØ©
ĠØ§ÙĦØ£ Ùĩ
ĠØ¬ Ø§ÙĦØ³
ÙĪØ§ Ø¹Ø¯
ĠÙħØ¹ ÙĦÙĤ
ĠÙĦØ£ Ø¬ÙĨØ¨ÙĬ
ĠØ§ÙĦØ¥ ÙĨØ§Ø¡
ÙĪÙĬ ÙħÙĥÙĨ
ÙĪÙĬ Ø³ØªØŃØ¨
Ø¨Ùĩ ÙħØ§
ĠØ§ÙĦØ´ Ø§Ùħ
ĠØ· Ø§Ø¦ÙģØ©
ĠØ· ÙĦÙĪØ¹
ĠØ§ÙĦØ³ ÙĬØ±
ĠØ§ÙĦÙģ Øµ
ĠØ§ÙĦÙģ Ø¶Ø©
ĠÙħØŃ ÙĦØ§
ÙĤØª Ø¶Ø§Ùĩ
ĠØ§ÙĦØ® ÙĨØ«Ùī
ĠÙĬØ¹ ÙĤØ¯
ĠÙĬÙĨ ØªÙĤØ¶
ĠØ¨Ø¯ ÙĦØ§
ĠØ§ÙĦØ§ Ø¨ØªØ¯Ø§Ø¡
ĠÙĦÙĦÙħ ÙĤØ±
ĠÙĦÙĦÙħ Ø±ØªÙĩÙĨ
Ø´Ø± ÙĬÙĨ
ĠÙĬØ¯ Ø®ÙĦÙĩ
ĠÙĬÙħ Ø¶ÙĬ
Ø·ÙĦÙĤ ÙĩØ§
ĠÙĬØ® Ø¨Ø±
ĠÙħØ§ÙĦÙĥ ÙĩØ§
Ø¬Ø² Ùĩ
ĠÙĬØ¹ÙĦÙħ Ùĩ
ĠØ¨Ø´ ÙĩØ§Ø¯ØªÙĩ
ĠØ§ÙĦÙħØ³Øª ÙĪØ¯Ø¹
ĠØµØŃ ØŃÙĩ
ĠØ¨Ø§ÙĦÙĤ ØªÙĦ
ĠÙħØ´ Ùī
ĠÙĬÙĦØ²Ùħ ÙĩØ§
ĠÙĦÙĦØª Ø¹
ĠÙĬØ±Ø« Ùĩ
ĠØ¨Ø§Ø¦ ÙĨØ§
ĠØªØ± ØªØ¨
ĠØ§ÙĦØ£ÙĬ ÙħØ§ÙĨ
ĠØ¬Ø§Ùĩ ÙĦØ§
ĠØ²ÙĬÙĨ Ø¨
ÙĨ Ø¯ÙĬ
ÙĪ ÙĩØ±
ĠØ§ Ø¹ÙĦÙħ
Ø¹ ÙĨÙĩ
ĠÙĪ Ø²ÙĪØ¬
ÙĤ ÙĩØ§
ĠÙħ Ø§Ø´
ĠÙħ Ø´ÙĬ
ĠÙħ Ø¨ÙĬØ¹
ĠØ¨ Ø±Ø¬
ĠÙģ ÙĤØ§
ĠØ¹ Ùģ
Ùģ Ø·Ø±
ĠÙĬ Ø²ÙĪØ¬ÙĩØ§
Ùĥ ÙĬØ©
ĠÙĤ ØªÙĬ
Ø° ÙĦ
ĠÙĥ ÙĦÙħØ§
ĠØ§ÙĦÙħ Ø´Ø±
ĠØª Ø±Ø§
ĠØª ÙĨØ¨ÙĬÙĩ
ĠØª ÙĤÙĬÙĬØ¯
ĠØ§ÙĦ ÙĦØ°
ĠØ± Ø·ÙĦ
ĠØ§ÙĦØ¹ Ø¶ÙĪ
ĠØ§ÙĦØ¹ ÙĥØ³
ÙħÙĨ ÙĬ
ĠØ¯ ÙģÙĨ
ÙĪØ§ Ø©
ĠØ§ÙĦÙĤ ÙĬØ¯
ĠÙĦØ£ ÙĨØ§
ĠØ§ÙĦØ¥ Ø±Ø´Ø§Ø¯
ĠØ² Ø§ÙĦØª
ĠØ§ÙĦØ´ Ø¬Ø±Ø©
ĠÙĪØ£ ØŃÙħØ¯
ĠÙĪØ¬ Ø¹
ĠØ§ÙĦØ³ Ø¹ÙĬ
ĠØ§ÙĦÙģ Ùħ
ĠÙĬØŃ ÙħÙĦÙĩ
ĠÙĬØ¹ ÙĤÙĦ
Ø¯Ùħ ÙĩØ§
Ø§Ø² Ø±ÙĬ
ÙģØ§ Ø¯Ø©
ÙĥØ§ Øª
ÙĥØ§ ÙĦÙħ
ĠØ§ÙĦØ° Ø®ÙĬØ±Ø©
ĠØ§ÙĦØ² ÙħÙĨ
ĠØ§ÙĦØº Ø¯
ĠØªØ¹ ÙĦÙĬÙĦ
Ø´Ø± ØŃ
ĠØ°ÙĥØ± ØªÙĩ
ĠÙħØ± ÙĪØ§ÙĨ
ĠØ§ÙĦÙĤØ§ Ø¹Ø¯Ø©
ĠØ¨ÙĬØ¹ Ø§
ĠØ¨Ø§ÙĦ Ø±
ĠÙĬØ³Øª ÙĪÙģÙĬ
ĠØ¨Øª ÙĦÙĥ
ĠÙģØ³ ÙĤØ·
ĠØ£ÙĤØ± Øª
ĠÙĬØ² Ø§Ø¯
ĠØŃØµ ÙĦØª
ĠØ±Ùĥ Ø¹Øª
ĠÙĬØ· ÙĩØ±
ĠÙĪØ« ÙĦØ§Ø«Ø©
ĠØ¨Ø¬ ÙĨØ§ÙĬØ©
ĠÙĦÙĦ ÙĨØ§Ø³
ĠÙĤØ¯Ùħ Øª
ĠÙĨÙĤØµ Ùĩ
ĠÙĦÙĦØ¨ ÙĬØ¹
ĠØªØ· ÙĪØ¹Ø§
ĠØ¨Ø° ÙĦ
ĠØ§ÙĦÙħÙĨÙĩ Ø§Ø¬
ĠÙĦØ±Ø¨ Ùĩ
ĠÙħØ®ØªÙĦÙģ Ø©
ĠØ§ÙĦØ¹Øµ ÙħØ©
ĠÙģØ£ÙĨ ÙĥØ±
ĠØ¨Ø¥Ø³ ÙĦØ§ÙħÙĩ
ÙĬ ÙħØ§
ÙĪ ÙĦØ°Ø§
ĠÙĪ Ø±Ùĥ
ĠØ£ ÙĬÙĨ
ĠÙħ ÙĦØ§
ĠÙħ Ø·Ø±
ĠÙģ ÙĦØ£ÙĨÙĩ
ĠØ¹ Ø§Ø±
ĠÙģÙĬ Ø¹ØªÙĤ
ÙĦÙĬ Ø¨
ĠÙĥ ÙģÙĬÙĦ
ĠØ§ÙĦÙħ Ø¬Ø±
Ø® Ø§
ĠØª ÙħØª
ĠØª ÙĦÙģÙĩ
ĠØª Ø¤Ø®Ø°
ĠØª Ø³ÙħÙĬØ©
ĠØª ÙħÙĬÙĬØ²
ĠØŃ ÙĤÙĬ
ĠØŃ ÙĤÙĬÙĤ
Ø´ ÙĤØ©
Ø§Ø± Øª
Ø§Ø± Ùī
ĠÙĨ Ø§Ø¦Ø¨
ĠØ¹ÙĨ ÙĤÙĩ
ĠÙħØ¹ Ø³Ø±
ÙħÙĩ ÙħØ§
ĠÙĦØ£ ÙħÙĩ
ĠØ§ÙĦØ¨ Ø·ÙĨ
ÙĪÙħ Ø¹ÙĨÙī
ĠØ¨Ø§ ÙĦÙĬ
ĠØ§ÙĦØ´ Ø±Ø¨
ĠÙĪØ£ Ø³
ĠØ§ÙĦØ³ Ùģ
ĠÙĪÙĬ Ø¨ÙĤÙī
ÙħØ¯ Ø§
ĠØ§ÙĦÙĥ Ø§ÙģÙĬ
ÙĪØª Ø¹
ĠØ¨Ø£ Ø±Ø¶
ĠØ£Ùħ Ø±Ø§
Ø«ÙĨØ§ Ø©
ĠØ§ÙĦØ± Ø³ÙĪÙĦ
ĠÙĪÙĤ Ø¶ÙĬØ©
ĠØªØ¹ Ø±ÙĬÙģ
ĠÙĪÙĨ ÙĪÙī
ĠÙĪÙħ ØªÙī
ĠØ§ÙĦØ· ÙģÙĦ
ØŃÙĪ Ø§ÙĦ
Ø¬Ùĩ ÙĬØ²
ĠÙĥØ§ÙĦØ «
ĠÙĬØ¶ Ø±Ùĩ
ÙģÙĤ ÙĦØª
ÙĪØ· Ø¦ÙĩØ§
ÙĨØª Ø§ÙĨ
ĠÙĪÙħØ§ ÙĦÙĥ
ÙĤØ¨ ÙĦØª
ĠØ§ÙĦØ±Ø¬ ÙĦÙĬÙĨ
ĠØ®ÙħØ³ ÙĪÙĨ
ĠØ¨Ø´ ÙĬØ±
ÙĨØ¯ Ø¨
ĠÙĦÙĦØŃ Ø§ÙĦ
ĠÙĦÙĦÙĪ Ø§Ø±Ø«
ĠØ¹ÙħØ§ Ø±
ĠÙĦØ¬ ÙħÙĬØ¹
ĠØ£Ø¬Ø± ØªÙĩ
ĠÙħØ±Ø§ Ø¹Ø§Ø©
ĠØ§ÙĦØ¯Ø§Ø± ÙĤØ·ÙĨÙĬ
ĠØ§ÙĦÙĤØ¯ ÙĬØ±
ĠØµÙģ ÙĪØ§ÙĨ
ĠØ§ÙĦÙħØŃØª Ø§Ø±
ĠØ§ÙĦØ§Ø« ÙĨÙĬÙĨ
ĠÙĬÙĨØ¹ Ø²ÙĦ
ÙĨ ÙĤ
ÙĨ ÙĤÙĦ
ÙĬ ÙĪØ§ÙĨ
ĠÙĪ ÙĪØ§
ĠÙĪ Ø¨Ø¯
ĠÙĪ ÙģÙĤ
ĠÙħ Ø´Ø±ÙĪØ·
ĠÙħ Ø¶Ø§Ø±Ø¨Ø©
ĠØ¨ Ø¬Ø²
ĠØ¨ ÙĪØ¶Ø¹
ĠØ¨ ÙĤØ·Ø¹
ĠÙģ Ø¸ÙĩØ±
Ø³ ÙĨÙĩ
ĠÙĬ Ø¨Ø¹
ØŃ Ùī
ÙĦØ§ ÙĨÙĬ
Ùĥ ØªØ§Ø¨
ÙĨÙĩ Ø¯Ùħ
Øµ ÙĬØ¨
ĠÙĥ Ø¨ÙĬØ¹
Ø· ÙĬØ¨
ĠØª Ø³Ùħ
ĠØª ØŃÙĬØ¶
ĠØŃ Ø·
Ø´ Ø§
Ø² Ùĩ
Ø§Ø± Ø¦
ÙĨØ§ ÙģØ¹
ĠØ£ÙĬ Ø³Ø±
ĠØ¬ Ø°
Ø§Ø¨ Ø·
Ø§Ø¨ ØªÙĩ
ĠØ§ÙĦØ¹ ÙĪØ±Ø©
ĠØ« ÙĨØªÙĬÙĨ
ÙĪØ§ ÙĩØ±
ÙĪØ¬ Ø²Ùħ
ĠØ§ÙĦØ¥ ÙħÙĥØ§ÙĨ
ĠØ¨Ø§ Ø®ØªÙĦØ§Ùģ
ĠØ² Ø¹
ĠØ² ÙħÙĨÙĩ
ĠØ§ÙĦØ´ Ø¬Ø±
ĠÙĬÙĤ Ùħ
ĠÙĪØ£ ØµØŃØ§Ø¨Ùĩ
ĠÙģÙĦØ§ ÙĨØ©
ĠÙĬØª Ø®Ø°
ĠÙĬØª Ø£Ø®Ø±
ĠØº Ø±Ø³
ĠØ¶ ÙħÙĬØ±
ĠØ¨Ø£ Ùħ
ĠØ¸ ÙĦÙħØ§
ĠÙģØ§ ÙģÙĩÙħ
ĠØŃÙĬ Ø¶Ø©
ĠØ§Ø®Øª ØµØ§Øµ
ĠØ±Ø¯ Øª
ĠØ±Ùĥ Ø¹
ĠØ§ÙĦØ£Ø¨ ÙĪÙĬÙĨ
ĠØ¨Ø§ÙĦØ¨ ÙĨØ§Ø¡
ĠØ¨Ø« ÙĦØ§Ø«
ĠÙħÙĨØ¹ ÙĩØ§
ĠØ£Ø¹ØªÙĤ ÙĩØ§
ĠÙĦØ´ Ø±ÙĬÙĥÙĩ
ĠØ§ÙĦÙĬØ¯ ÙĬÙĨ
ĠÙģØ³Ø® Ùĩ
Ø¬Ø§Ø± ØªÙĩ
ĠÙĨØ² ÙĦØª
ĠØ§ÙĦØ£ÙĨ ÙĪØ§Ø±
ĠØ§ÙĦÙħØ² Ø§Ø±Ø¹
ĠØ§ÙĦØ´Ø±ÙĬ ÙĥÙĬÙĨ
ĠØ±Ø¶Ø§ Ø¹
ĠØ§ÙĦÙħÙĪØ§Ø² ÙĬØ©
ĠØ§ÙĦØ§Ø³ØªØŃ Ø³Ø§ÙĨ
ĠØ§ÙĦÙħØ« ÙĦÙĬ
ĠØ§ÙĦØ¥ÙĨ ÙĥØ§Ø±
ĠÙħÙĥØ§Øª Ø¨Ùĩ
ĠÙģØ§Ø´Øª Ø±Ùī
ĠØ¥ÙĬØ§ ÙĩØ§
ĠØ¢ÙĨ ÙģØ§
ÙĬ Ø¬Ø¨
Ø± ÙĩØ§
Ø± Ø¡
ĠÙħ ÙĥØ±Ùĩ
ĠÙħ Ø®ØªØµ
ĠÙģ Ø°ÙĩØ¨
ĠÙģ Ø´ÙĩØ¯
Ø³ Ø·Ø©
ØŃ ØªÙĩ
ĠÙĤ Ø§Ø¯Ø±
ĠÙģÙĬ ÙĤØ§ÙĦ
ĠÙĥ Ø¸ÙĩØ±
ĠØ§ÙĦÙħ Ø³ØªØŃ
Ø¥ ÙĦÙī
ĠØŃ Ø§Ø±Ø«
ĠØŃ Ø§Ø´ÙĬØ©
Ø§ÙĦ ÙĦÙĩ
Ø´ ÙģØ©
ĠØ£ÙĨ ÙĪØ§Ø¹
Ø² Ø§Ø¹
Ø§Ø± Ø³
ĠØ¬ ÙħØ§
ĠØ¬ Ø§ÙĪØ²
ĠØ¨Ø¹ Ø°Ø±
ĠØ® ÙĪÙģØ§
ĠØ® Ø§ÙĦØµ
ĠÙĪØ§ Øª
ĠÙĪØ§ ÙģÙĤ
ĠÙĪØ§ Ø®ØªÙĦÙģ
ĠØ§ÙĦÙĪ Ø²ÙĨ
Øº ÙĦØ¨
ĠØ§ÙĦØ¨ Ø·ÙĦØ§ÙĨ
ĠØ§ÙĦØª ÙĪØ¶ÙĬØŃ
ĠØ· ÙĦØ¹
ÙĬØ§ Ø·Ø©
ĠÙħØŃ Ùħ
ÙĥØ§ ÙĬØ©
ĠÙĬÙĨ Ø¯ÙģØ¹
ÙĪÙĥ ÙħØ§
ÙĪØ¨ ÙĤÙĬ
ĠØ¨Ø¯ ÙģØ¹
ĠÙĪØ¥ ÙĦÙĬÙĩ
ĠØªØ¹ Ø±Ùģ
Ø³Ø¨ ÙĪÙĤ
ĠÙĤØ¨ Ø±Ùĩ
Ø·ÙĦÙĤ Ø©
ĠØ§ÙĨ ØªÙĤ
ĠØŃÙĬ Ø¶Ø§
ÙĤØµ Ø±
ĠÙĦØ¹ ÙħÙĪÙħ
ĠÙĦØ¹ ÙħØ±ÙĪ
ĠØ§ÙĦÙħØŃ ÙĤÙĤ
ÙĨØª ÙĤÙĦ
ĠØŃØ± ÙĬØ©
ĠØ§ÙĦØ¢ Ø®Ø±Ø©
ĠÙħØ¬ ÙĨ
ĠÙħØ¬ Ø§ÙĩØ¯
ĠØªØ£ ÙĪÙĬÙĦ
ĠÙħØ³Øª Ø«ÙĨÙī
ĠØµØ¯ ÙĤØª
ĠÙĨØŃÙĪ ÙĩØ§
ĠÙħØ¯ Ø¹ÙĬ
ĠÙĦÙĦØŃ Ø§Ø¬Ø©
ĠØ¬Ø² Ø§Ø¡
ĠØ¨ÙĬØª Ø§
ĠØ¨Ø§ÙĦÙĪ Ø·Ø¡
ĠØ¥Ø® Ø±Ø§Ø¬Ùĩ
ĠÙģÙĪÙĤ Ø¹
ĠØ§ÙĦÙħØ² Ø§Ø±Ø¹Ø©
ĠØ§Ø¹ØªØ¨Ø§Ø± Ø§
ĠÙĤØµ Ø¯Ø§
ĠØ¬Ø¯ ÙĬØ¯
ĠÙħØ¶Ùħ ÙĪÙĨØ©
ĠØªØ£Ø®ÙĬØ± Ùĩ
ĠÙĦØ²ÙĪØ¬ ÙĩØ§
ĠØ¨ÙĤØ± ÙĬÙĨØ©
ĠØ§ÙĦÙģØª ÙĪÙī
ĠØ§ÙĦÙĨÙĤØµ Ø§ÙĨ
ĠØ¨ÙĤØ¯ Ø±Ùĩ
ĠÙħÙĨØ¯ ÙĪØ¨
ĠØ§ÙĦÙĦØº Ø©
ĠØ§ÙĦÙħÙĤØ¨ ÙĪØ¶
ĠÙħØ±Ø¯ ÙĪØ¯
ĠÙħØ´Ø§ÙĬØ® ÙĨØ§
ÙĨ ÙĤÙĦÙĩ
Ø¨ ÙĦØ©
ĠØ£ Ø¹Ø§
ĠØ£ ÙħØ³Ùĥ
ĠÙħ Ø¶Ø±
ĠÙħ ÙħÙĥÙĨ
ĠÙħ Ø£Ø°
ĠØ¨ Ø¸
ĠØ¨ ÙĤØªÙĦÙĩ
Ùģ ÙĬØ±
Ùģ Ø±Ø¶
Ùģ ÙĦØ³
ĠÙĬ Ø¨Ø¯
ĠÙĬ ÙĦÙĬÙĤ
ĠÙĬ Ø®ØªØ§Ø±
ØŃ Ø§ÙĨ
Ø¬ ÙĬØ¡
Ø£ ØªÙĤØ§ÙĨÙĬ
Øµ ÙĦÙĩØ§
ĠÙģÙĬ Ø¹
ĠÙģÙĬ Ø¤
ĠÙģÙĬ Ø®Ø±Ø¬
ĠÙģÙĬ Ø¨Ø·ÙĦ
ĠÙĥ ØºÙĬØ±
ĠÙĥ Ø§ÙĦÙģ
ĠØ§ÙĦÙħ ÙĤØ§Ùħ
ĠØ§ÙĦÙħ Ø´Ø±ÙĪØ·
Ø¶ Ø±Ø§
ÙĦÙĥ ÙĨÙĩ
ĠØª ÙĤØ·Ø¹
ĠØª Ø¹ØªØ¯
ĠØª Ø®ØµÙĬØµ
ĠØŃ Ø¯Ùĩ
ÙĩØ§ ÙĬ
ÙĦÙĤ ÙĬ
ĠØ³ Ø§ÙĤ
ĠØ§ÙĦØ£ ÙĥØ¨Ø±
ÙĪÙĦ ÙĦÙħ
ĠØ¯ Ùģ
Øº ØµÙĪØ¨
ÙģØ¹ Ø§
ĠØ§ÙĦÙĨ ÙĤØ¶
ÙĦØª Ùĥ
ĠØ§ÙĦØ´ ÙĩØ§Ø¨
ĠØ· ÙĪÙĬ
ĠØ· Ø±ÙĤ
ĠØ§ÙĦØ³ ÙģÙĬÙĩ
ĠØ§ÙĦÙģ ÙĪØ±
ĠØ§ÙĦÙģ ÙĤÙĬØ±
ĠÙħØŃ ÙĬØ·
ĠÙĬØª Ø¶ÙħÙĨ
ĠÙĬØª ÙĪØ¶Ø£
ĠØ§ÙĦÙĥ Ø«ÙĬØ±
Ø¶ÙĬ ÙĤ
ÙĤØ§ Ø·Ùĩ
ĠØ§ÙĦØ« Ø§Ø¨Øª
ÙĪØª ÙĩØ§
ÙĬÙĨÙĩ Ø§
ĠØ§Ø³Øª Ø·
ÙĪØ£ Ø·ÙĦÙĤ
ÙĪØ£ Ø´Ø§Ø±
ĠÙĪÙĤ ÙĦ
ĠÙģØ§ Ø·ÙħØ©
ĠØ£Ø¬ ÙĦÙĩ
Ø§ØŃ Ø©
Ø±Ø£ Ø³Ùĩ
ĠØ§ÙĦÙħØ¹ Ø³Ø±
ÙĪØµ Ùģ
ĠØ¨Ø¥ Ø³ÙĨØ§Ø¯
ĠÙĪØŃ ÙĤ
ÙĦØº ÙĪ
ĠØ¹Ø¯ ÙĪ
ĠØ¯ÙĬÙĨ Ø§Ø±Ø§
ĠØ§ÙĦØ¶ Ø§ÙħÙĨ
ĠÙĨØ³ ÙĪØ©
ĠÙĤØ·Ø¹ ÙĩØ§
ĠÙĪØ´ ÙĩØ¯
ĠØ¹Ø¨Ø§ Ø¯
ĠÙĦÙĦØŃ ÙĥÙħ
ĠÙĪÙĦÙĬ Ø³Øª
ĠØŃÙħ Ø²Ø©
ĠØ¯Ø¹ ÙĪØ©
ĠØŃÙĥ ÙĬÙħ
ĠØ´Ø®Øµ Ø§
ĠÙħØ´Øª Ø±ÙĥØ§
ÙĤØ±Ø§Ø¡ Ø©
ĠØ¹ÙĤ Ø¨Ùĩ
ĠØ§ÙĦØ¨Ø¯ Ø§Ø¦Ø¹
ĠÙĦÙĦØº Ø§ØµØ¨
ĠÙĥØ§ÙĦ ÙĨ
ĠØ£Ø¹Ùħ Ùī
ĠØ§ÙĦØ£ÙĤ ÙĪØ§ÙĦ
ĠÙĦÙĦØ° ÙĥØ±
ĠØªÙĥØ± Ø§Ø±
ĠÙħØ¤Ø¬ ÙĦØ§
ÙĨ Ø¹Ø©
ÙĪ ÙĤÙĬØ¯
ĠØ§ Ø¬
ĠØ§ ÙĦÙĬÙĩ
Ø¨ ÙħØ§
Ø¨ ÙĤÙĬ
Ø¯ ÙĦÙģØ©
Ø¹ ÙĬØ©
ÙĤ Ø¶Ùĩ
ĠØ¹ ÙĪØ±Ø©
ĠØ¹ ÙģÙĪ
Ùģ ÙĩØ§
Ùģ ÙĤØª
Ø³ Ø§Ø±
ĠÙĬ ÙĪÙĤÙģ
ØŃ Ø¬
ÙĦØ§ Ø¹ÙĨ
Ùĥ ÙĪØ±
Ø¬ ÙħÙĪØ¹
Øµ ÙĪØ¨Ø©
ĠÙģÙĬ Ø¡
ĠÙģÙĬ Ø¹ØªØ¨Ø±
ĠÙĥ Ùĩ
ĠÙĥ Ø¨
ĠÙĥ Ø¯
ĠØ§ÙĦÙħ ÙħÙĬØ²
ĠØ¥ Ø¨Ø§ØŃØ©
Ø® ÙĦÙĩØ§
Ø« Ø§Ø±
Ø· Ø§ÙĦØ¨
ĠØª ÙĬÙĤÙĨ
ĠØŃ Ø§Ø¦
ĠØŃ Ø²Ùħ
ĠØŃ Ø³Ø§ÙĨ
Ø±Ø§ Ø¶ÙĬ
ĠØ§ÙĦØ¹ ÙĦØ§ÙħØ©
ĠØ§ÙĦØ¹ ÙħÙĪÙħ
ĠØ« Ø¹
ĠØ¯ Ø¹Ø§
ÙĪØ§ ÙĦØ§
ĠÙħØ¹ Ø±
ĠÙĪØ§ ÙĦÙĬ
ĠÙĦÙĪ ÙĤ
ĠØ§ÙĦØ¥ Ø¬Ø²Ø§Ø¡
ÙĪÙĬ Ø£ØªÙĬ
ĠØ§ÙĦØ´ Ø¹
ĠØ§ÙĦØ´ Ø§Ø©
ÙĪØ¹ Ø¨Ø¯
ĠÙĬØ¹ ÙĦÙī
ÙĤØ§ Ùĩ
ĠØ§ÙĦØ¯ Ø§ÙģØ¹
Ø¶Ø§ Ø©
ÙĪØ¨ Ø¹Ø¯
ĠØ§Ø³Øª Ø®
ĠØ¹ÙĨØ¯ Ùĥ
ĠÙĪÙĩ Ø¨Øª
ĠÙĬØ¯ ÙģØ¹Ùĩ
ĠÙĬÙħ Ø´ÙĬ
ĠØ¥ÙĦÙĬÙĩ ÙħØ§
ĠØ°ÙĥØ± Øª
ĠØ°ÙĥØ± ÙĨØ§Ùĩ
ĠØ£Ø¹ Ø¶Ø§Ø¡
ĠØ¨ØºÙĬØ± ÙĩØ§
ĠÙĦØ² ÙĪØ§ÙĦ
ĠÙĪÙģÙĬ ÙħØ§
ĠÙĪØ§ÙĦØ£ ÙĪÙĦÙī
ĠØ¨Ø· ÙĦØ¨
ĠÙħØ¬ ÙĨÙĪÙĨ
ĠÙĪØ§ÙĦØ¹ ÙħØ±Ø©
ĠØ§ÙĦØŃØ¬ Ø§Ø¬
ĠØªØ¨ ÙĤÙī
ĠÙĦÙĦÙĪ ÙĦØ¯
ĠÙĨÙģØ³ Ùĥ
ĠÙĦÙģ ÙĪØ§Øª
ĠÙĬØ£Ø®Ø° ÙĩØ§
ĠÙĥØ§ ÙĦÙĥ
Ø¶Ø§Ø± Ø¨
ĠÙĬÙĤØªØ¶ÙĬ Ùĩ
ĠØ¹Ø§Ø¯ ØªÙĩ
ĠÙĬÙĨØ§ ÙģÙĬÙĩ
ĠØ§Ø³ØªØ¹ ÙħØ§ÙĦÙĩ
ĠØ´Ø±Ø¨ Ùĩ
ÙģÙĦÙĩ Ø°Ø§
ĠÙħØ³ØªØŃ ÙĤØ§
ĠØ§ÙĦÙĨØµ ÙĬØ¨
ĠÙĦØ« Ø¨ÙĪØª
ĠØ§ÙĦØªØ² Ø§Ùħ
ĠÙĦÙĦØ« Ø§ÙĨÙĬ
ĠØ§ÙĦØ§ÙĤØª Ø¯Ø§Ø¡
ĠØ§Ø´ØªØ±ÙĬ Øª
ĠØ§ÙĦØ¨Ø² Ø§Ø²ÙĬØ©
ĠØ§ÙĦÙħÙħÙĦÙĪ Ùĥ
ĠÙĪØ±Ø³ ÙĪÙĦÙĩ
ĠØ£ÙĦØ¨ ØªØ©
Ø§ ÙĬØªÙĩ
ÙĨ Ø¬Ø³
ÙĬ ÙĤØ§ÙĦ
Ø± ÙĪØ¹
Ùħ ØªÙĩØ§
Ø¨ ÙĪØ³
ĠÙĪ Ø³Ùħ
ĠÙĪ ÙģØ±ÙĤ
ĠØ£ ÙĦÙħ
ÙĤ Ø¨Ùĩ
ÙĤ Ø¹Ø©
ÙĤ Ø§ÙĦØª
ĠÙħ Ø®ÙĬØ±
ĠØ¨ Ø¨Ø§
ĠÙģ ÙĤÙĬ
ĠØ¹ ÙĬØ§Ø¶
ĠØ¹ ÙĬØ§ÙĦÙĩ
Ùģ ÙĤÙĪÙĦÙĩ
Ø³ ÙĥØ±
ĠÙĤ ØµØ©
ĠÙĤ Ø±Ø§Ø¨Ø©
Øµ Ø¨Ø¹
ĠØ§ÙĦÙħ Ø§Ø±
ĠØ§ÙĦÙħ ÙģØ§
ĠØ§ÙĦÙħ ÙĪÙģÙĤ
ĠØ¥ ÙĤØ§Ùħ
ĠØª Ø±Øª
ĠØª ØªÙħ
ĠØª ÙĥØ±Ø±
ĠØŃ ÙĦØ§
ĠØŃ Ø¯Ø©
Ø² Ø§Ø¯
ĠØ± Ø¨ÙĬ
ĠØ³ ÙĪØ§Ùĩ
ĠØ³ Ø¤Ø§ÙĦ
ĠØµ ÙĬØ§Ùħ
ĠØ® ÙħØ±Ø§
ĠØ§ÙĦÙĤ Ø¯Ùħ
ĠÙĪØ§ ÙħØ±Ø£
Ø¸ ÙĬØ±Ùĩ
ĠØ§ÙĦØ¨ Ø§Ø¬ÙĬ
ĠØ§ÙĦØª ÙĨØ¨ÙĬÙĩ
ĠØ§ÙĦØª ÙĪØ¨Ø©
ĠØ§ÙĦØ¥ Ø¨Ø§ØŃØ©
ÙĪÙĬ Ø¶
ĠØ² ÙĥØ§ØªÙĩ
ĠØ§ÙĦØ¬ Ø¨Ø±
ĠÙĪØ£ ÙĤØ±
ĠÙĪØ£ Ø¬ÙĬØ¨
ĠØ§ÙĦØ³ Ùħ
ĠØ§ÙĦØ³ Ø¨Ø¹
ĠØ§ÙĦØ® Ø±ÙĤÙĬ
ĠØ§ÙĦÙĥ ØªØ¨
ĠØ§ÙĦØ± ÙĪÙĬØ§ÙĨÙĬ
ĠÙĦÙĦÙħ ÙĥØ§ØªØ¨
ĠÙĦÙĦÙħ ÙģØ¹ÙĪÙĦ
ĠÙĬØ¯ ÙĩØ§
ĠÙģØ£ ÙĤÙĦ
ĠØ§ÙĦÙħØª Ø¨Ø§Ø¯Ø±
ĠÙĬØ£ ÙħØ±Ùĩ
ØªØ¨ ÙĬØ©
ĠØ§ÙĦÙĤØ§ Ø·Ø¹
ĠÙĥØ§ÙĦØ ¯
ĠÙĥØ§ÙĦØ ²
ĠÙĬØ¶ Ùħ
ĠØªØŃ ØµÙĬÙĦ
ĠÙĪØ³ ÙĥÙĪÙĨ
ĠÙĦØŃ Ø§Ø¬
ĠØ¢ Ø¬Ø±
ØŃØ± Ø§Ø²
ĠØ¹Ø±Ùģ Øª
ĠØ³Ùħ ÙĬØª
ĠÙĤØ¯Ø± ØªÙĩ
ĠØ±Ùĥ Ø¹Ø§Øª
ØµÙĬ ØºØ©
ĠÙĪØ§ÙĦØŃ Ø§ØµÙĦ
ĠØ§ÙĦÙħØ¤ Ø°ÙĨ
ĠØ¬Ø² ÙħØ§
ĠØ§ÙĦÙħØ¹Øª Ø§Ø¯
ĠÙĪØ± Ø¯Ùĩ
ĠÙĪØ± ÙĪÙĬ
ĠÙĨÙĤØµ Øª
ÙĪØ« ÙĤ
ĠØ§ÙĦÙĤØ± ÙĬØ©
ĠØ§ÙĦÙĤØ± Ø¹Ø©
ĠØ¨Ø§ÙĦØ´ Ø±Ø§Ø¡
ĠØ¨ÙĦØº Ùĩ
ĠÙĬÙĨØª Ø¸Ø±
ĠÙħØ· Ø§ÙĦØ¨Ø©
ĠÙħÙĪØª ÙĬ
ÙĪØ±Ø§ Øª
ĠÙħÙĪØ§ ÙģÙĤ
ĠÙĪÙĦÙĥ ÙĦ
ĠÙĥØ± Ø¯ÙĬ
ĠÙĪÙĤÙĬ ÙħØ©
ØºØª Ø³ÙĦ
ĠØ§ÙĦØ¹Ø§ ÙħØ©
ĠÙĪØ®ÙħØ³ ÙĬÙĨ
ĠÙĥØ§Øª Ø¨Ùĩ
ĠÙĬØ®Ø§ÙĦÙģ Ùĩ
ĠÙħÙĪÙĤ ÙĪÙģØ©
ĠÙģØ§Ø¯ Ø¹Ùī
ĠØ³ÙĬØ± ÙĬÙĨ
ĠØ§ØŃØªÙĬØ§ Ø·Ø§
Ø§ ÙħØ§
ÙĪ ÙĤØ¯Ùħ
ĠØ§ Ø´
Ø¹ Ø§Ø±Ø©
ĠÙħ ÙĦØŃ
ĠÙħ Ø³ÙħÙī
ĠÙħ ÙĪÙĦÙĬØ§
ĠØ¨ ØŃÙĬ
ĠØ¨ Ø¨Ø·
ĠÙģ ÙĩÙħØ§
ĠÙģ Ø®Ø°
ĠÙĬ ÙĤÙĬ
ĠÙĬ Ø±ÙĥØ¨
Ø£ Ø´Ø¨Ùĩ
ĠÙĤ Ø±Ø§
ĠØ§ÙĦÙħ Ø·Ø±
ĠØ§ÙĦÙħ ÙģÙĩÙĪÙħ
ĠØ§ÙĦÙħ Ø¶Ø§Ùģ
ĠØª ÙĥÙħ
ĠØª ÙģØ³Ø¯
ĠØŃ Ø¬Ùĩ
ĠØ§ÙĦ ÙĦÙĬÙĦØ©
Ø² ÙĬ
ĠÙĦØ§ Ø¹Øª
ĠÙĦØ§ Ø®ØªÙĦØ§Ùģ
ĠØ¹ÙĨ Ùĥ
ĠØ¬ Ø¨Ø±ÙĬ
Ø¨ÙĬ Ø§ÙĨ
ĠØ§ÙĦØŃ Ø§ÙĪÙĬ
ĠØ¯ ÙħÙĩ
ĠØ¯ ÙĪÙĨÙĩØ§
Øº ÙĬØ¨
ĠØ§ÙĦØ¨ ØŃØ«
Ø±Ø¨ Øª
ÙĪÙħ ØªÙī
ĠØ§ÙĦÙĨ Ø¶Ø±
ĠØ² Ø§Ø¦
ĠØ² ÙĪØ§ÙĦÙĩ
Ø¨Ø§ Ø¯Ø©
ĠÙĪØ£ Ø±Ø¨Ø¹Ø©
ĠÙĪÙĬ Ø³ÙĤØ·
ĠØ§ÙĦØµ ÙģÙĤØ©
ĠÙħØŃ Ø±Ø²
ĠØ§ÙĦØ® ÙĦØ·
ĠØº ÙĨÙĬÙħØ©
Ø¶ÙĬ ÙĦ
ĠØ§ÙĦØ« ÙħØ±
ĠØ§ÙĦØ¯ Ø§ÙĦ
ĠÙĬÙĨ ÙĤØ³Ùħ
ÙĪÙĥ ÙĬÙĦÙĩ
ÙĪØª ØµØŃ
ĠØ£ØŃØ¯ ÙĩØ§
ĠÙħØ« ÙĤÙĦØ§
Ø§Ø¯ Ø³
ĠØ§ÙĦØº Ø±Ø±
ĠÙĦÙĦÙħ ÙĨ
ĠÙĪÙĨ ÙĤÙĦÙĩ
ĠÙĤÙĪÙĦ ÙĨØ§
ĠØ§ÙĦØ· ÙĬØ¨
ĠÙĦØ¹ ÙħØ±
ĠØ¹ÙĦÙħ Ø§
ĠÙĪØŃ Ø±Ùħ
ĠÙĦØŃ ØµÙĪÙĦ
ĠÙĬØ³Øª Ø¹ÙħÙĦ
ÙĦØ³ Øª
ĠØ¨Ùĥ Ø±Ø§
ĠØ¨ÙĤ Ø±Ø¨
Ø³Ø§ ÙĪÙĬ
Ø³Ø§ ÙĥÙĬÙĨ
ĠÙħØ¬ ÙĩÙĪ
ĠØ§ÙĦÙħØ¤ Ø¬ÙĦ
ĠØ§ÙĦØŃØ¯ ÙĪØ¯
ĠÙĤØ¯Ùħ ÙĨØ§
ĠØ§ØŃØª ÙħÙĦ
Ø±Ø§Ø¨ ØªÙĩ
ĠÙĪØ§ÙĦØ´ Ø§ÙģØ¹ÙĬ
ĠÙħÙĥØ§ ØªØ¨Ø©
ĠØ¨Ø§Ø¦ ÙĨ
ÙĤØ§Ø¨ ÙĦÙĩ
ĠØ¬ÙĨ Ø§Ø²Ø©
ĠØ§Ø³ ØªÙĩ
Ø£Ùĥ Ø¯
ĠØ§ÙĦØ¥ÙĬ ÙĦØ§Ø¡
ĠÙĨØ¹ ÙĬÙħ
ĠØ£Ø¨Ø±Ø£ Ùĩ
ĠØ§ÙĦØªÙħ ÙĦÙĬÙĥ
ĠØ§ÙĦØ¬Ø§ÙĨ Ø¨ÙĬÙĨ
ÙĦ ÙĦÙħ
Ø± ÙĨ
Ø± ÙħÙĩ
Ø¹ Ø§Ø¡
ĠÙĪ Ø³ÙĨ
ĠØ£ Ø°
ĠØ¨ Ø¶Ø±Ø¨
ĠØ¨ Ø¯ÙĬÙĨÙĩ
ĠÙģ Ø³ÙĦÙħ
ĠØ¹ ÙĩØ¯Ø©
Ùģ Ø¬
Ø³ ØŃ
Ø³ ØªÙĩ
ØŃ ØµÙĦ
Ø¬ ÙĨÙĬ
Ø£ ÙĦØªÙĩ
ĠÙĤ Ø¨Ø±
ĠÙĤ ÙĩØ±Ø§
ĠØ§ÙĦÙħ ÙĪØ³
Ø¶ Ø§Ø±Ùĩ
Ø¶ Ø§Ø¦Ùĩ
ĠØ¥ ÙĨØ§
ĠØ¥ Ø¬Ø§Ø²Ø©
ĠÙħÙĨ Ø²ÙĦ
ĠØª Ø¯ÙĦ
ĠØª Ø§Ø¨Ø¹
ĠØŃ Ø¶ÙĪØ±Ùĩ
ÙĬÙĨ Ø¨ØºÙĬ
ÙĬØ± ÙĬ
ĠÙĦØ§ Ø´Øª
Ø±Ø§ Ø©
ĠØ¬ Ø¨Ø±
ĠØ¬ Ø§Ø±Ùĩ
ĠØ§ÙĦØ¹ Ø¨Ø±Ø©
ĠØ¨Ø¹ ØªÙĥ
ĠØ« ÙĨØ§
ÙģÙĬ Ø§
ĠØ§ÙĦØ¨ Ø§ÙĦØº
ĠØ§ÙĦØ¥ Ø«Ùħ
ĠØ§ÙĦØ¥ Ø³ÙĨØ§Ø¯
Ø¨Ø± Ø§ÙĨÙĬ
ĠÙĬÙĥ ÙħÙĦ
ĠØ¨Ø§ Ø·ÙĦØ§
ĠØ² Ø§Ø¯Ùĩ
ĠÙĬÙĤ Ø¶
ĠÙĬÙĤ ÙĪÙĦÙĪÙĨ
ĠØ· ÙĬØ¨
ĠÙĪÙĬ Ø¹ØªÙĤ
ĠÙĪÙĬ ÙĦØ²Ùħ
ÙģØ³ Ø§Ø®
ÙĦØ¯ ÙĩØ§
ĠØ±Ø¬ ÙĦØ§ÙĨ
ĠØ£Ùħ ÙĪØ±
ÙħØ¹ ÙĨÙī
ĠØ¸ Ø±Ùģ
ĠØ¸ ÙĩØ±Ùĩ
ĠØ§ÙĦØº Ø±ÙĪØ¨
ÙĪØ§ÙĦØ º
ĠÙĦÙĦÙħ ØŃ
ĠÙģØ£ Ø¬Ø§Ø¨
ĠÙĪÙĨ Ø³
ĠØ§ÙĨ ØµØ±Ùģ
ĠØ§ÙĦÙħØª Ø¹
ĠÙģØª ÙĨØ©
ĠÙģØ¹ ÙĨØ¯
ĠØ§ÙĦÙħØ¹ ÙĦÙĪÙħ
ĠÙĥØ§ÙĦØ º
ĠØ¨Ø§ÙĦ Ø±Ø¯
Ø¨Øº Ùĩ
ĠØ¨ÙĬ Ø¹Øª
ĠØ§ÙĦÙħÙĨ Ùĥ
ĠØ¨Ø§ÙĦØ£ ÙĪÙĦ
ĠØŃØ¬ Ø§Ø¬
ĠØ±Ùĥ Ø¨
ĠØªÙħ ÙĥÙĨ
ĠØ¨Ø§ÙĦØ¥ Ø³ÙĦØ§Ùħ
ĠÙĪØ´ Ø¨Ùĩ
ĠØŃØ§ Ø¶Øª
ĠØªØª Ø¹ÙĦÙĤ
ĠÙĦÙĦØŃ Ø§ÙĥÙħ
ĠØ§ÙĦØªØ¹ Ø±ÙĬÙģ
ĠÙĪØ§ÙĦÙĤ ÙĪÙĦ
ĠÙĤØ± Ø±Ùĩ
ĠØ§ÙĨØª ÙģØ§Ø¡
ĠØ§ÙĦØ´ÙĬØ® ÙĬÙĨ
Ø´Ø¯ ÙĬØ¯
ĠÙħØµ Ø§ÙĦØŃ
ĠÙĨØ¸ Ø±Ùĩ
ĠØ§ÙĦÙģØ± Ø§Øº
ĠØŃØ±Ùħ ØªÙĩ
ÙĪÙĥØ§ÙĨ Øª
ĠÙĨØ² Ø§Ø¹
ĠØ¹ÙĦÙĤ Ùĩ
ĠØ¹ÙĦÙĤ ÙħØ©
ĠØªØ¬ Ø¹ÙĦ
ĠØ¨Ùģ Ø±Ø¶
ĠØ¨ÙĬÙħ ÙĬÙĨ
ØµØ§ ÙĬØ§
ĠÙĪØ´Ø± ØŃÙĩ
ĠØ¹Ø¸ ÙĬÙħ
ĠØ¥Ø´ ÙĥØ§ÙĦ
ĠØ§ÙĦØ´Ø±Ùĥ Ø§Ø¡
ĠØŃØ§Ø±Ø« Ø©
ĠØ¬Ø¨Ø±ÙĬ ÙĦ
Ø± Ø§Ø±
Ø± ÙĪØ±
ĠØ§ Ø·ÙĦØ¹
ÙĦØ ¦ÙĦØ§
Ùħ Ø·ÙĦØ¨
Øª ÙĥÙħ
ĠÙĪ Ø¶Ùħ
ĠÙħ Ø±ØŃ
ĠØ¨ ÙĪØ¬
ĠØ¨ ÙĪÙĦØ§
ĠØ¨ Ø³ÙĨ
ĠØ¨ Ø±ÙĩÙĨ
Ùģ ÙĤÙĬÙĦ
ÙĦØ§ Ø¨
ÙĦØ§ ÙħØ§
ĠÙģÙĬ Ø¨ÙĤÙī
ĠÙĥ ÙģØ§
ĠØ§ÙĦÙħ ÙĨÙģ
ĠØ§ÙĦÙħ ÙģØª
ĠØ§ÙĦÙħ Ø¬Ø¯
ĠÙħÙĨ ÙģØ¹ØªÙĩ
ĠØª ÙĥØ±Ùĩ
ĠØª ÙĪØ¬Ùĩ
ĠØª Ø¨Ø¹Ùĩ
ĠØª ÙĪÙĥÙĬÙĦ
ĠØŃ ÙĦØª
ĠØŃ Ø§Ø¦ÙĦ
ĠØ§ÙĦ ÙĦØ¨
Ø² Ø§ÙĦ
ĠØ§ÙĦØ£ ÙħØ§ÙĨ
ĠØ´ Ø¬
ĠØ¨ÙĨ Ø³
ĠØ§ÙĦØ¹ ÙĤÙĪØ¯
ĠØ§ÙĦØ¹ ØªØ¨ÙĬØ©
Ø±ÙĬ Ø¹
ÙĪØ¬ Ø§Ø²
ĠØ§ÙĦØ¨ Øª
ĠØ§ÙĦØª ÙħÙĥÙĨ
ĠØ§ÙĦØª Ø®ÙĬÙĬØ±
ĠØ¨Ø§ ÙĤÙĬÙĩ
ĠØ¨Ø§ ØªÙģØ§ÙĤ
ĠÙĪØ£ Ø·ÙĦÙĤ
ĠÙĪØ£ ÙĥØ«Ø±
ĠÙĪØ£ Ø´Ø§Ø±
ĠØ§ÙĦØ³ ÙĥØ±
ĠÙĪÙĬ Ø³ØªØŃØ¨
ĠÙĬØŃ Ø³Ø¨
ÙģØ§ Ø¶Ø©
Ø¶Ø§ Ø¹Ø©
ĠØ£Ùħ ÙĪØ§ÙĦÙĩÙħ
ÙĪÙĦÙĪ Ø¯
ĠØ¹ÙĨØ¯ ÙĩØ§
ĠÙĪØª ÙĥÙĪÙĨ
ĠÙģØ£ Ø®
ĠÙĪÙĨ ÙĤØµ
ĠÙģØ§ ØŃØ´
ĠØ¨Ùħ ÙĪØ¶Ø¹
ĠØ¨ØŃ ÙħÙĦ
ĠÙģØ¹ ÙĦÙĬ
Ø¨ÙĬÙĨ Ø§
ÙħÙĬ Ø³
Ø´ÙĬ Ø®
ÙĨØ« ÙĬÙĬÙĨ
ĠÙĬØ¤ Ø¬Ø±
ĠÙĬØ´ ÙĤ
ĠØ§Ø®Øª Øµ
ĠØ¨Ø§ÙĦØ¹ ÙħÙĦ
ØŃØ± Ø²
ĠØ±Ø¯ ØªÙĩ
ĠØ¨Ø§ÙĦØ£ ÙĤÙĦ
ĠÙĬÙģ Ø±Ø¶
ØŃØ§ ÙĪÙĬ
ĠÙĦÙĦØŃ Ø¬
ĠÙĦÙĦÙĪ ÙĦÙĬ
ĠØ®Ø· Ø¨Ø©
ĠÙģÙĤ ÙĬØ±
ĠØ¨Ø® Ø·
ĠØ¨Ø® ÙħØ³Ø©
ĠØªØ· ÙĦÙĬ
ĠØ¨Ø§ÙĦØ¬ ÙĨØ§ÙĬØ©
ĠÙħØ´Øª Ø±ÙĥØ©
ĠØ¨Ø§ÙĦØ« ÙĦØ«
ĠÙĪØ±Ø« Ùĩ
ĠØ£Ø¬ÙĨØ¨ÙĬ Ø§
ĠÙĪØ§ÙĨ Øª
ĠØ´Ø±Ø¹ ÙĬØ©
ÙĤØ§Ø¨ ÙĦØ©
ĠØ¨Ø§ÙĦØ§ ØªÙģØ§ÙĤ
ĠÙĪÙĤÙĬ ÙħØªÙĩ
ĠØŃÙģØ¸ Ùĩ
ĠÙħØ¶Ùħ ÙĪÙĨØ§
ĠÙĤÙĬØ§ ÙħÙĩ
ĠØ³Ø¬ Ø¯Ø©
ĠØ§ÙħØª ÙĨØ§Ø¹
ĠØ¨ÙĨÙģØ³ ÙĩØ§
ÙĥØ±ÙĬ Ø§
ĠÙĨØ§Ùģ Ø°
ĠØ§ÙĦÙĥØ± Ø®ÙĬ
ĠØ§ÙĦØ¬ÙĪØ² ÙĬ
Ø§ Ø¹Øª
ÙĨ Ø¸Ø±
ĠÙĪ Ø¨Ø±
ĠÙĪ Ø«Ùħ
ĠØ¨ ÙĪØ¬ÙĪØ¯
ĠÙģ ÙĤØªÙĦ
ĠØ¹ ØµØ±
ĠÙĬ ÙĪÙħÙĩ
ĠÙĬ Ø±ÙĥØ¹
Ùĥ ÙĪÙĦ
ĠÙĥ Ø¥ÙĨ
ĠØ§ÙĦÙħ ÙģØ±
ĠØ¥ Ø«Ùħ
ĠØ¥ Ø±Ø§Ø¯Ø©
ĠÙħÙĨ Ø²ÙĦÙĩ
ĠØª Ø¨Ø§Ø¹
ĠØŃ ÙĪÙĦÙĩ
ĠØŃ ÙĬØ©
ĠØŃ Ø¯Ø§
Ø² ÙĪÙĬØ¬
ÙĦÙĤ Ø§Ø¡
Ø§Ø± ÙĨ
ĠÙĦØ§ ÙħØ±Ø£ØªÙĩ
ĠØ³ ÙħØ±Ø©
ĠØ³ ÙĦØ·
ĠØ´ ÙĤØµ
ĠØµ ÙģÙĤØ©
Ø±Ø§ ÙĤÙĬ
Ø±Ø§ Ø¨Ø¹
ÙĪÙĦ ÙĨØ§
ĠØ¬ ÙĬØ¯
Ø§Ø¨ Ø§Ø©
ÙĤØ¯ Ùĩ
ĠØ§ÙĦØŃ Øµ
ĠØ§ÙĦØŃ ÙĦØ§ÙĦ
ÙĪØ¬ ÙĬÙĩ
Ø¸ Ø§Ø±
Ø±Ø¬ Ø©
Ø¦ Ø¨
ĠÙĬÙĤ Ø±Ø¨
ĠØ§ÙĦØ¬ Ø§Ø±
ĠÙĬØ¬ Ø±
ĠÙĬØ¬ Ø§ÙĪØ²
ĠÙĪÙĬ ÙĪÙħ
ĠÙĬØª ÙĨØ§
ĠØº Ø±ÙĬÙħÙĩ
ĠØ§ÙĦØ« ÙĪØ§Ø¨
ĠÙĪØ¹ ÙĨÙĩ
ÙĪÙĩ ÙĨØ§
ĠÙĬÙĨ ØµØ±Ùģ
ĠØ¶ Ø¹ÙĬ
ĠØ§Ø³Øª Ø«ÙĨØ§Ø¡
ÙĪØ£ Ø¬Ø§Ø¨
ĠØªØ¹ Ø§Ø±Ø¶
Ø§Ùĩ Ø¯Ø©
ĠØ¹ÙħØ± ØªÙĩ
ĠØ¨Ùħ Ø¶ÙĬ
ÙĪØ³ ÙĬØ©
ĠØ§ÙĨ ÙģØ³Ø®
ĠÙģØª ØµØŃ
ĠÙĬØ® Ø·Ø¨
ĠÙĬØ® ØµÙĩ
ĠÙħØ± ØªØ¨
ĠØ§ÙĦÙħØ¹ Ø±ÙģØ©
ĠØªØŃ Ø±ÙĬÙħÙĩ
ĠØ§ÙĦÙħØŃ ÙĬÙĦ
ĠØ²ÙĪØ¬ Ø§
ĠÙĪØ³ Ø§Ø¦Ø±
ĠÙĬØ³Øª Ø£Ø¬Ø±
ÙĤØ¨ ÙĦÙĩ
Ø°Ùĥ ÙĪØ±
ĠØ³ÙĦÙħ Ùĩ
ĠØªÙĨ Ø¬Ø³
ĠØ«ÙĦØ« ÙĩØ§
ØŃØ§ Ø¯ÙĬØ«
ĠØ¨Ø± Ø£ÙĬ
ĠØ§ÙĦØªØ¹ Ø¨ÙĬØ±
ĠØ¨Ø§ÙĦÙĨ ØµÙģ
ĠØ¨Ø§ÙĦØ´ Ùĥ
ĠØŃØ±Ùħ Øª
ĠÙĪÙģ Ø§Ø±ÙĤ
ĠÙĥØ£ ØµÙĦÙĩ
ĠÙĩØ´ ÙĬÙħ
Ø£Ø¬ ÙĬØ¨
ĠØªØ± ØªÙĬØ¨
ĠØ§ÙĦÙĨØ¬ ÙĪÙħ
ĠÙģÙĬØŃ ÙĦÙģ
ĠØŃÙĦÙĤ Ùĩ
ĠØ§ÙĦØ¹Øµ Ø¨Ø©
ĠÙĬØ³ØªØŃ ÙĤÙĩ
ĠØ§ÙĦÙģØª ÙĨØ©
ĠÙħÙĪÙĤ ÙĪÙģØ§
ĠØ±Ø®Øµ Ø©
ĠÙħØ¹ØªØ¨ Ø±Ø©
ĠØªÙĬÙħ ÙħÙĩ
ÙĪ ÙģØ±
ÙĪ ÙĤØ·Ø¹
ÙĪ ØŃÙĬØ«
Ùħ ÙĥÙĨÙĩ
Ø¨ Ùħ
Øª Ø¨Ø§Ø¹
Ø¹ ÙĪ
Ø¹ ÙĦÙĬ
ĠÙĪ ÙĥØ±
ĠØ£ ÙģØ§Ø¯
ĠÙħ Ø£Ø°ÙĪÙĨ
ĠÙģ ÙĤÙĩ
ĠÙģ ÙĪØ§Øª
ĠØ¹ Ø°Ø§Ø¨
Ùģ Ø§ÙĦØŃ
ĠÙĬ ÙĦÙĬ
ĠÙĬ Ø±Ùĩ
ĠÙĬ ØªÙĩÙħ
ĠÙĬ ÙĪÙĩÙħ
ÙĦØ§ Ø¯Ø©
Ùĥ ÙĨÙĩØ§
ĠÙĤ ÙĪÙĦÙĬÙĨ
ĠÙĥ Ø²
ĠØ§ÙĦÙħ Ø¨Ø§
ĠØ¥ Ø¹ØªØ§ÙĤ
ĠÙħÙĨ Ø²
Ø® Ùģ
Ø® ÙĦØª
ĠØª ÙĪØ¨ØªÙĩ
ĠØŃ ÙĪØ²
ĠÙĨ Ø§Ø¸Ø±
ĠÙĩ Ø¯Ùħ
ÙĨØ§ Ø³Ø¨
ÙĨØ§ Ø¹Ùĩ
ĠØ´ ÙĩÙĪ
ĠØ´ Ø¯Ø©
ĠØ´ ÙĩÙĪØ©
ĠØµ ÙĪØª
Ø±Ø§ ÙĩØ§
Ø³Øª Ø§ÙĨ
ĠØ§ÙĦØ¹ ÙĤØ¨Ø©
ÙĤØ¯ Ø§Ùħ
ĠØ¨Ø¹ Ø±Ø¶
ĠØ« Ø§ÙĨÙĬ
ĠØ® Ø°
ĠØ® ÙĬØ§Ø±Ùĩ
ĠÙħØ¹ Ø§ÙħÙĦØ©
ĠØ§ÙĦÙĤ Ø¯ÙĬÙħ
ÙģÙĬ Øª
ĠØ§ÙĦÙĪ ÙĩØ§Ø¨
ĠØ§ÙĦÙĪ ØµØ§ÙĬØ§
Ø¸ ÙĪØ±
ĠØ§ÙĦØ¨ Ø¹Ø¯
ĠØ§ÙĦØª Ø¨Ø±Ø¹
ĠØ§ÙĦØª ÙħÙĬÙĬØ²
ÙģØ¹ ÙĦÙĩØ§
ÙĥØ± Ø§Ø±
ĠØ§ÙĦÙĨ Ø¬Ø³
ĠØ§ÙĦØ¬ Ùĩ
ĠØ§ÙĦØ¬ ÙĬØ´
ÙĪØ¹ Ø¯Ùħ
ĠØ§ÙĦØ³ ÙĦØ§ÙħØ©
ĠÙĪÙĬ Ø¨Ø·ÙĦ
ĠØ§Ø¨ÙĨ ÙĬ
ĠØ£Ø® ÙĬ
ÙĤØª Øµ
ĠØ§ÙĦØ® ÙģÙĬÙĨ
ĠØ§ÙĦØ® Ø¨Ø²
ĠØ§ÙĦØ® ÙĦÙĪØ©
ĠÙĪÙĥ ÙħØ§
ĠØ£Ø¨ÙĬ Ø¶
ĠÙĬÙĨ Ø²
ĠÙĬÙĨ ÙģØ±Ø¯
ĠÙĬÙĨ ÙĥØŃ
ĠØ§Ø³Øª Ø¨Ø±Ø§Ø¡
ĠØ§ÙĦØ± Ø¨ÙĬØ¹
ĠØ¸ Ø§ÙĦÙħ
ĠÙģØ£ Ø³ÙĦÙħ
ØŃÙĬ ØªÙĩ
ĠÙħØª ØªØ§Ø¨
ĠÙĪÙħ Ø¤
Ø°Ø± Ø¹
ÙĤØµ ÙĬØ±Ùĩ
ĠÙģØª Ø¨ÙĬÙĨ
ĠØ§ÙĦØ· ØŃØ§ÙĪÙĬ
ĠÙĬØ® Ø´Ùī
ĠØ§ÙĦÙħØ¹ Ø¯
ĠØ¨Øª Ø±ÙĥÙĩ
ĠØ¹Ø¯ ÙĦÙĬÙĨ
ĠØ®ÙħØ³ Ø§
ĠØ§Ø¹Øª Ø±Ø§Ø¶
ĠØ¨Ø· ÙĨÙĩØ§
ĠØ£Ø³ Ø¯
ĠÙħØ³Øª ÙĨ
ĠØªÙĤ Ø³Ùħ
ĠØ§ÙĦÙħØ¬ Ø§Ø²
ĠÙģØ± Ø³
ĠÙĪØ¬Ø¯ ÙĩØ§
ĠØ§ÙĦÙħØ´ Ø§Ø±
ĠÙĬØ· ÙĪÙģ
ĠØ±Ø¬Ø¹ ÙĬØ©
ĠØ§Ø³ØªØŃ Ø¨Ø§Ø¨
ĠÙĦØ³ Ø§ÙĨÙĩ
ĠØ§ÙĦØŃÙĤ ÙĪÙĤ
ĠØ§ÙĤØª Øµ
ĠÙĤØ± ÙĨ
ĠØ§ÙĦØ£Øµ ÙĪÙĦ
ĠØªÙĥ Ø¨ÙĬØ±
ĠØ§ÙĦØ¹Ø¯ Ø§ÙĦØ©
ĠÙĪÙħØ¹ Ùĩ
ĠÙĪØ§Ø±Ø« Ø§
ĠØ³ÙĨ ÙĨ
ĠÙħÙĪØ³ Ø±
ĠÙħÙĤØ§Ø¨ ÙĦÙĩ
ĠØ£Ø« Ø±Ùĩ
ĠØ§Ø³ ØªÙĩÙĦÙĥ
ĠØ§ÙĦÙħØŃØª Ø§ÙĦ
ĠÙĦØ¶ Ø±ÙĪØ±Ø©
ÙĪÙĦÙĥ ÙĨÙĩ
ĠØ¨ÙĪØ§ ØŃØ¯
ĠÙĤÙĦØ¹ Ùĩ
ĠÙĨÙĤ Ø¶Ùĩ
ĠÙĬØ·Ø£ ÙĩØ§
ĠØ´Ø§Ùĩ Ø¯Ø§
ĠÙģØ¨Ø§ Ø¹Ùĩ
Ø£ØŃØ¯ ÙĩØ§
ÙĩØ§ÙĬ Ø£Ø©
Ø§ ÙĬØ±
Ø§ ÙģØ§
ÙĬ ÙĪÙħ
Ø¯ ÙĩØ§
Ø¹ Ø¯Ø§
ĠØ£ Ø«ÙĨ
ĠÙħ ÙĬÙħ
ĠØ¨ ÙĤØ¨
Ùģ Ùħ
ĠÙĬ ÙĦÙĬÙĩ
ĠÙĬ ØµØ±
ĠÙĬ Ø´Ø±Ø¹
ĠÙģÙĬ ÙĤØ¹
ĠÙĥ ÙģÙĬ
ĠØ§ÙĦÙħ ÙĤÙĬØ¯
ĠØ¥ Ø³Ø±
ĠÙħÙĨ ÙĤ
ĠØª ÙĤØ§
ÙĦÙĪ Ø«
ĠØŃ Ø¨ÙĬ
ĠØŃ Ø§ØªÙħ
ĠØŃ Ø§Ø²Ùħ
ĠØ£ÙĪ ÙĦÙĬ
ĠØ³ Ø¹Ø©
ĠØ³ ÙĪØ·
ĠØ§ÙĦØ£ ØŃÙĪØ§ÙĦ
ĠØ§ÙĦØ£ ÙĨØ«ÙĬÙĬÙĨ
ĠØ° ÙĪÙĬ
ĠØµ ÙĦØ©
Ø±Ø§ ÙģÙĩ
ĠØ§ÙĦØŃ Ø§Ø¬
ĠØ§ÙĦØŃ ÙħØ§Ùħ
ÙħÙĩ ÙĦ
ĠØ¥ÙĨ Ø´Ø§Ø¡
ĠØ§ÙĦØª Ø¨Ø¹
ÙĪÙħ ÙģÙĩÙĪÙħ
ĠÙĬÙĥ Ø«Ø±
ĠØ§ÙĦØ´ Ø§ÙģØ¹
ĠÙĪØ£ ÙĤØ±Ùĩ
ĠÙĪÙĬ Ø³ÙĦÙħ
ĠÙĦÙĦØ ºÙĬØ±
ĠÙĬØª Ø¬Ø²Ø£
ĠØ§ÙĦØ® Ø¯Ø±ÙĬ
ĠÙĪÙĥ ÙĬÙĦØ§
ĠÙĪØ¹ ÙħØ±ÙĪ
ĠÙĬÙĨ ÙģØ¹
ĠØ¨Ø£ Ø¬Ø±
ĠØ£Ø¨ ÙĦØº
ĠØ¨Ø¯ Ø±Ø§ÙĩÙħ
ĠØ§ÙĦØº Ø§ÙĬØ©
ĠØ§ÙĦØº ÙĬØ¨Ø©
ĠØªØ¹ Ø¬ÙĬÙĦ
ĠÙģØ£ Ø®Ø±Ø¬
Ø§Ùĩ Ø±Ø§
ØªÙĤ Ùī
ĠØ£Ø¬ Ø§Ø¨
ĠØ§ÙĦÙħØ³ Ø§ÙģØ©
ĠØ¨ØŃ Ø§ÙĦÙĩ
Ø§ÙĤ Ùģ
Ø¬Ùĩ Ø©
ÙģÙĩ Ø°Ùĩ
ÙĨØ³ Ø§Ø¡
ĠÙĪÙĤØ¯ Ø±
ĠÙĪÙģÙĬ ÙĩØ§
ĠØ¨Øª ÙĤØ¯ÙĬØ±
ĠÙĬØ´ Ø§Ø¡
Ø¹Ùħ ÙĦÙĩ
ĠØ¨ÙĤ Ø±Ø©
ĠØªØ£ Ùĥ
ĠÙĬÙĤØª ØµØ±
ĠÙģÙĤØ· Ø¹
ÙĪØ§ÙĦÙħ Ø°ÙĩØ¨
ĠØŃØµ ÙĬÙĨ
ĠØ±Ùĥ ÙĪØ¹
ĠØ§ÙĦØ§Ø³Øª ÙħØªØ§Ø¹
ĠØ±Ø¨ Ùĥ
ĠØ«ÙĦØ« ÙħØ§Ø¦Ø©
ĠÙħØ´ ÙĩÙĪØ±
ĠÙĦÙĦ ÙĨØ¨ÙĬ
ĠÙĦÙĦØŃ ÙħÙĦ
ĠÙĦØ³ Øª
ĠÙĥØªØ§Ø¨ Ùĩ
ÙĪØ¨Ùĩ Ø°Ø§
ĠØ¨Ø³ ÙĩÙħ
ÙĪØ§ÙĦØ£ ÙĪØ¬Ùĩ
ĠÙģØ¬ Ø§Ø²
ĠØªÙĥ ÙģÙĬ
ĠØ£ØµØ§Ø¨ Ø¹Ùĩ
ĠØ¥Ø® ÙĪØ©
ĠØªØ® ÙĦÙģ
ĠØ£Ø±Ø¨Ø¹ ÙĪÙĨ
ÙĪÙĬØª ÙĪØ¬Ùĩ
ĠØ¨Ø§ÙĦØµ ÙĦØ§Ø©
ĠØŃØ³ ÙĨØ©
ĠØ¨Ø° ÙħØªÙĩ
ĠÙĪØ¶ Ø¹Øª
ĠÙħÙĪØ§ ÙģÙĤØ©
ĠØ±Ø£ÙĬ Ùĩ
ĠÙħÙħÙĦÙĪ ÙĥØ©
ÙĨØ¬ Ø§Ø¡
ĠÙĪØ®ÙħØ³ ÙħØ§Ø¦Ø©
ĠØ§ÙĦÙĬØ³ ÙĬØ±
ĠÙħÙĪØ¬ ÙĪØ¯Ø©
ÙĪØ§ÙĦØ¬ ÙĪØ§Ø¨
ĠØ§ÙĦÙħØ¨ Ø§ÙĦØºØ©
ĠØ·Ø¹Ø§ ÙħÙĩ
ĠØ§ÙĦØµÙĪØ± ØªÙĬÙĨ
ĠÙĪØ£Øµ ÙĦÙĩØ§
ĠØ¨Ø®Ø± ÙĪØ¬
ĠØ³Ùĩ ÙĬÙĦ
ĠØªØ²ÙĪÙĬØ¬ ÙĩØ§
ĠØ°Ùĩ Ø¨Ø§
Ø§ ÙĨÙĩØ§
ÙĪ ÙĤØ§ÙĦÙĩ
ĠØ§ ØµØ·
Ùħ ÙħØ§
ĠÙĪ ÙĦØŃ
ĠØ¹ ÙĪÙĨ
ĠÙĬ Ø·Ø¹Ùħ
ÙĦØ§ ØªÙĩ
Øµ Ø¨Ø©
Øµ Ø±ÙĬØŃ
ĠÙĥ ÙĤ
ĠØª ÙĨØ§ÙĪÙĦ
Ø´ Ø±Ø¨
Ø² ÙħÙĩ
Ø§Ø± Ø¶Ø©
ĠÙĨ Ø¨Øª
ĠØ³ ÙĦØ§ÙħÙĩ
ĠØ§ÙĦØ£ ÙĨØ«Ùī
ĠØ§ÙĦØ£ ÙħØ§ÙĨØ©
ĠØ§ÙĦØ£ Ø¯ÙĦØ©
ĠØ´ Ø§Ø¦
ĠØ´ ÙħÙĦ
ĠØ¨ÙĨ ØªÙĩ
ĠØ§ÙĦØ¹ ÙĬ
ĠØ¨Ø¹ ÙĦÙħÙĩ
ĠØ¯ Ø§Ø¨ØªÙĩ
Ø±ÙĬ Øª
Ø±ÙĬ Ø¨Ø©
ĠØ¨Ùĩ ÙĨ
ĠØ§ÙĦØª Øª
ĠØ§ÙĦØª Øº
ĠÙĦÙĪ ÙĦØ¯Ùĩ
Ø¨Ø§ Ø³
ĠØ· Ø§
ĠØ§ÙĦØ³ ØªØ±
ĠÙĪÙĬ Ø¸ÙĩØ±
ÙģØ³ ÙĬØ±
ĠØ£Ø® Øµ
ĠØ§ÙĦØµ Ø§Ø¯
ĠÙĬØ¹ Ø°Ø±
ĠÙĬØ¹ Ø¯ÙĦ
ÙĪØ± ÙĪØ«
ÙĪÙĩ ÙĨ
ÙĦØ¨ ÙĬØ©
ĠØ¨Ø£ Ø±Ø¨Ø¹Ø©
ĠØ£Ùħ ÙĪØ§ÙĦ
ĠØ§Ø³Øª Ø¤Ø¬Ø±
ÙħØ¹ Ùĩ
ĠÙħØª ÙĤ
ĠÙĪÙħ ÙģÙĩÙĪÙħ
ÙĪØ³ ÙĬØ£ØªÙĬ
ĠØ£Ø¬ Ø¯
ĠÙģØ¹ ÙĦØ§
ÙĪÙģÙĬ ÙĤ
ĠÙĬØ³ ÙĬØ±Ø§
ĠØ£Ø´ Ø±Ùģ
ÙģÙĩ ÙħÙĩ
ĠØ£Øµ ÙĦÙĬ
ÙĪØµ ÙĪÙģ
Ø§Ø¹ Ø¯Ø§
ĠÙĦØŃ ÙħÙĩ
ĠØ§ÙĦÙĩ ÙĦØ§ÙĦ
ĠÙģØ³ ÙĤ
ÙĦÙģØ¸ Ùĩ
ĠØ¨ÙĤ Ø¶Ø§Ø¡
ĠÙĬÙĤØª ÙĦÙĩ
Ø«ÙĨ ÙĬÙĨ
ĠÙģÙĦÙĬ Ø³Øª
ĠØ«ÙĦØ« Ø§
ĠÙĥÙģ Ø±Ùĩ
ĠØ¬Ø¹ ÙĦÙĩØ§
ĠØŃØ§ ÙĦÙĩØ§
ĠÙĤØ¯Ùħ ÙĬÙĩ
ĠØªØµØŃ ÙĬØŃ
ĠØ®Ø· Ø¨
ĠØ§ÙĨØª ÙģÙī
ĠØ¨Ø§ÙĦÙĥ ÙĦÙĬØ©
ĠØ§ÙĦØ¨ØŃØ± ÙĬÙĨ
ĠØ§ÙĦØ£ÙĦÙģ Ø§Ø¸
ĠØ¬Ø¯ Ø§Ø±
ĠÙħØ¨ Ø§Ø´Ø±Ø©
ĠÙĪÙĪÙĦØ¯ Ùĩ
ĠØ³ÙħØ§ Ùĩ
ĠÙĬÙĩ ÙĦÙĥ
ĠÙħØ¸ ÙĨØ©
ĠØ¯Ø±Ø¬ Ø©
ĠÙĪØ³Ø¨Ø¹ ÙĬÙĨ
ĠØ§ÙĦØ¨Ø§ÙĤ ÙĬØ©
ĠØ§ÙĦØ·Ø±Ùģ ÙĬÙĨ
ĠØ®Ø¯Ùħ ØªÙĩ
ĠØºØ§Ø¦ Ø¨Ø§
Ø¯ Ø±Ø§
ĠÙħ ÙħÙĬ
ĠØ¨ ÙħØ¯
ĠØ¨ ÙĥÙĪÙĨ
ĠÙģ Ø±Ø¬Ø¹
ĠÙģ ÙĦØ°Ø§
ĠØ¹ Ø§Ø´
ĠØ¹ Ø§Ø±ÙĬØ©
Ùģ Ø±Ø©
ĠÙĬ Ø¹Ø§
Øµ Ø±Ø©
ĠÙģÙĬ ØŃØªÙħÙĦ
ĠÙģÙĬ Ø³ÙĤØ·
ĠÙĥ Ø§Ø¨ÙĨ
ĠØ§ÙĦÙħ Ø®ØªÙĦÙģ
ĠØ¥ Ø±
ĠØª Ø§Ùħ
ĠØŃ ÙĦÙĬ
ÙĩØ§ Ø¬Ø±
Ø² ÙĬØ©
ĠÙĩ Ø¨ØªÙĩ
ĠØ³ Ø§Ø±
ĠØ´ Ø£ÙĨ
ÙĤØ¯ ÙħÙĩ
ĠØ® Ø¨Ø²
ĠÙħØ¹ ÙĬ
ĠØ¥ÙĨ ÙĥØ§Ø±
Øº ÙĦÙĩ
ĠØ§ÙĦØ¨ Ùĥ
Ø¨ÙĨ Øª
ĠÙĪÙĦØ§ Ø¤Ùĩ
ĠÙĪØ£ ÙħÙĩ
ĠØ· Ø§Ø¹Ø©
ĠÙĪÙĬ ÙĤ
ĠÙĪÙĬ Ø®Ø±Ø¬
ĠØ£Ø® Ø§Ùĩ
ĠØ§ÙĦÙģ ÙĪØ§Øª
ĠØ§ÙĦØ® Ø²
ÙĤØ± ÙĬØ±
ĠØ´ÙĬ ÙĪØ®
ÙĪÙĥ ÙĦØ§Ùħ
ĠØ¨Ø£ ÙĬ
ÙĪØ² Ø¹
ĠØ£ØŃ ÙħØ±
ĠÙĪØ§ÙĦÙħ Ø³Øª
ĠÙĬØ£ Ø«Ùħ
ĠØ£Ø¬ Ø¨Ø±
ÙĩØ¯ Ø±
ĠÙħØŃÙħØ¯ Ø§
ØµØ± Ø§ÙĨÙĬ
ĠØ¨Ø§ÙĦÙħ Ø¹ÙĨÙī
ĠÙĪØµ Ø±ØŃ
ĠØ¨Øª ØŃ
ĠØ¢ ÙĦ
ĠØ¢ ÙħÙĨ
ĠÙĬØ´ ÙĬØ±
ĠØ§Ø¹Øª ÙħØ¯Ùĩ
Ø§Ø³ ØªÙĩ
ĠØŃÙĦÙģ Øª
ĠØ¨Ø§ÙĦØ£ ÙĦÙģ
ĠÙĪØ§ÙĦØ¹ ØªÙĤ
ĠØ§ÙĦÙħØ§ ÙĦÙĬØ©
ĠÙħØ¤ ÙĤØª
ĠÙĬÙģ Ø¶ÙĦ
ĠØªÙħ ÙĥÙĨÙĩ
ĠØŃØ¯Ø« ÙĨÙī
ĠØ¨Ø§ÙĦØ¨ ÙĬØª
ĠÙĦØ¥ ÙħÙĥØ§ÙĨ
ĠÙĬØ± ÙģØ¹Ùĩ
ĠÙģØŃ ÙĥÙħ
ĠØ¨Øµ Ø±ÙĬ
ÙģÙĪ Ø°
ÙĪØ¹ÙĨ Ø¯ÙĩÙħØ§
ĠÙģØµ Ø§Ø¹Ø¯Ø§
ĠØ§ÙĦØŃØ³ Ø§Ø¨
ĠØ§ÙĦØ¥Ø® Ø¨Ø§Ø±
ĠÙĬØ¯Ø¹ÙĬ Ùĩ
ĠÙĪÙĬØ¯ Ø®ÙĦ
ĠØºÙĦØ¨ Ø©
ĠØ¥Ø·ÙĦØ§ÙĤ ÙĩÙħ
ĠØ²Ø± Ø¹Ø©
ĠØ§ÙĦØªÙģ Ø±ÙĬÙĤ
ĠØ³Ø§Ø¨ ÙĤ
ĠØ§ÙĦØªØµ Ø±ÙĬØŃ
ĠÙĥØ¨ÙĬØ± Ø§
ĠØ£ÙĥØ« Ø±Ùĩ
ĠØ§Ø« ÙĨØªÙĬÙĨ
ĠØ¨Ø¦ Ø±Ø§
ĠØ§ÙĦØ§ÙĥØª ÙģØ§Ø¡
Ùħ Ùħ
Ø¯ ØªÙĩØ§
Ø¹ ÙĬØ§
ĠÙĪ ÙģØ§
ĠØ£ Ø¶ØŃÙĬØ©
ĠÙħ ÙģØ³Ø¯
ĠÙģ ÙĤØ¯Ùħ
ĠÙģ ÙĤØ±Ø§Ø¡
ĠØ¹ ÙĪØ¯Ùĩ
Ùģ Ø§ÙĦØ£
Ùģ Ø§Ø±ÙĤ
Ùĥ ÙĬÙģ
ĠÙĤ Ø§Øµ
Øµ Øª
ÙĦÙĬ Ø·
ĠØ§ÙĦÙħ ÙĪØ±Ø«
Ø® Ø©
Ø· Ø¹Ùĩ
ĠØª Ø§Ø±Ø©
ĠØª ÙĤØµÙĬØ±
ÙĩØ§ Ø±ØªÙĩ
Ø´ Ø¹Ø±
ĠÙĦØ ¤
Ø² Ø§Ø±
Ø² Ø§Ø¡
Ø§Ø± Ø¨Ùĩ
ĠÙĦÙħ Ø±Ø¶
ĠÙĦÙħ ÙĪÙĦØ§Ùĩ
ĠÙĩ Ø¯Ø±
ĠÙĩ Ø¯ÙĬØ§
ĠØ³ ÙĥÙĨ
ĠØ³ ØªÙĬÙĨ
ĠØ³ ÙģÙĦ
ĠØµ ÙĪØªÙĩ
Ø§Ø¡ Ø©
ÙĪÙĨ ØŃÙĪÙĩ
ĠØ§ÙĦØ¹ ÙħØ±
ĠØ§ÙĦØŃ ÙģØ±
ĠØ§ÙĦÙĤ ÙĬÙħ
ĠØ§ÙĦÙĤ Ø·Ø§ÙĨ
ĠØ§ÙĦÙĤ Ø§Ø¨Ø¶
Øº Ø±Ø¨
Ø±Ø¬ Ø§ÙĦ
ĠØ§ÙĦØ¨ ØµØ±
ĠØ§ÙĦØ¥ ØªÙħØ§Ùħ
Ø¨Ø¯ Ø¹
ĠØ§ÙĦØ¬ Ø±
ĠÙĪØ£ Ø®Ø±Ø¬
ĠØ· ÙĪÙĬÙĦ
ĠØ§ÙĦØ³ Ø§
ĠØ§ÙĦØ³ ØªØ©
ÙģØ³ Ø±
ÙģØ± ÙĤØ§
ĠØ§ÙĦØµ ØŃÙĬØŃØ©
ĠÙĬØ¹ Ø²Ø±
ĠØ§ÙĦÙĥ Ø³Ø±
ĠØ§ÙĦØ¯ ÙĦÙĬÙĦ
Ø¨Øª ÙĬÙĩ
ÙģØ§ ÙĦÙĤÙĪÙĦ
ĠÙĬÙĨ Ø²Ø¹
ĠØ§ÙĦØ° ÙĥÙĪØ±
Ø¯Ø§ ÙĪØ©
ĠÙĪÙĤ Ø³Ùħ
ĠÙĪÙĤ Ø¶Ùī
ĠÙĦÙĥ Ø«Ø±Ø©
ĠÙĪØ¥ ÙĨÙĩ
ĠÙĦÙĦÙħ ÙĦÙĥ
ĠÙħØª Ø§Ø¹
ĠÙĪÙħ Øª
ĠØ§ÙĨ ÙģØµÙĦ
ĠÙħØ³ ÙĥÙĬÙĨ
ĠØ§ÙĦÙħØª ÙĦÙģ
ĠØ§ÙĦÙħØª ÙĪÙģÙī
ĠÙģØª Ø¯Ø¨Ø±
ĠØ£Ø¬ ÙĬØ±
ĠÙĬØ³ Ø¹Ùī
ĠØ£Øµ Ø¨ØŃ
ĠØ§ÙĦÙħØ¹ ÙĦÙħ
ĠØ¨Ø§ÙĦÙħ ÙĨ
ĠÙĪØµ ÙģÙĩ
ĠØ¨Ø¥ Ø³ÙĦØ§Ùħ
ÙĪØ· Ø¡
ĠØ³Ø¨ ÙĤÙĩ
ĠÙĪØ¬Ùĩ ÙĩØ§
ĠØ¢ Ø¨
Ø¹Ùħ Ùī
ÙģØ¥ ÙĨÙĩØ§
ĠØ§Ø®Øª Ø§Ø±Ùĩ
ÙĪØŃ ÙĥÙħ
Ø³Ø§ ÙģØ±
ĠÙĪÙĤØª ÙĦ
ĠØ¬ÙħÙĬØ¹ ÙĩØ§
ĠØ§ÙĦÙħØ³Øª Ø£ÙħÙĨ
ÙĪØ§ÙĦÙħ ÙĨ
ĠØªÙĨ ÙĤØµ
ĠÙĤÙĦØª Ùħ
ĠÙĪØ§ÙĦØŃ Ø§ÙĥÙħ
ĠØªÙħ ÙĦÙĥÙĩ
ĠÙĬØº ØªØ³ÙĦ
ĠØ§Ø³ØªØŃ ÙĤØª
ĠØªØª Ø²ÙĪØ¬
ĠÙĦÙģØ¸ Ø©
ĠØ¨Ø§ÙĦÙĨ ÙĬØ©
ĠØªØµ Ø¯ÙĬÙĤ
ĠÙĦØ´ Ø®Øµ
ĠÙĪØ§ÙĦÙĪ ØµÙĬØ©
ĠØ¨Ø§ÙĦØ³ ÙĪÙĬØ©
ĠØ§Ø®ØªÙĦÙģ Øª
Ø¬Øª ÙħØ§Ø¹
ĠÙģØµ Ø§ÙĦØŃ
ĠÙĪØ§ÙĦØ« Ø§ÙĦØ«
ĠÙĦÙĦÙģ ÙĤØ±Ø§Ø¡
ĠÙģØ¨ ÙĤÙĬ
ĠÙĥØ§Ùģ Ø±Ø©
ĠÙĦØ¶ Ø¹Ùģ
ĠØ°Ø§ ØªÙĩ
ĠØ§ÙĦØ£ÙĬ ÙħÙĨ
ĠÙĬÙĦØª ÙģØª
ĠØ³Ø§Ø¨ ÙĤØ§
ĠÙħÙĪØ¬ÙĪØ¯ Ø§
ĠÙħØŃØ¬ ÙĪØ±Ø§
ĠØ¨Ø§ÙĦÙħØ¯ ÙĬÙĨØ©
ĠØ§ÙĦØ£Ø« Ø±Ùħ
Ø§ Ø³Ùĩ
Ø§ ÙĥÙĩ
ÙĨ ØŃÙĪ
ÙĪ Ø±ÙĩÙħ
ÙĪ ÙĦØ¹ÙĦÙĩ
ÙĦØ ¡
Ùħ ÙĦÙĥÙĩ
Ø¯ ÙĦØ§ÙĦ
ĠØ£ Ø±Ùĩ
ĠÙħ ÙĪØ·
ĠØ¨ ÙĤØ¨Ø¶Ùĩ
ØŃ ÙĩØ§
ÙĦØ§ ÙĨÙĩ
Ø¬ Ø§ÙĪØ²
ĠÙĤ ÙĪÙħØ§
ĠÙĤ Ø³ÙħÙĩ
ĠÙģÙĬ ÙĤØ¯Ùħ
ÙħØ§ ÙĦØ§
ÙħØ§ ÙĪÙĬ
ĠÙĥ Ø°
ĠÙĥ ÙĤÙĪÙĦ
ĠÙĥ Ø£Ùħ
Ø· Ø§Ø¡
ĠØª Ø¶Ø±Ø¨
ĠØª Ø³ÙħÙī
ĠØª ÙģØ§ÙĪØª
Ø§ÙĦØ ²
ĠØ£ÙĪ Ø¶ØŃ
Ø´ ÙĬØ©
ĠØ± Ø¨Ø¹Ùĩ
ĠÙĨ Ø§Ø±
ĠØ§ÙĦØ£ ÙģØ¹Ø§ÙĦ
ĠØ´ ØºÙĦ
ĠØµ ÙĬØºØ©
ĠØ¬ ÙħØ±Ø©
ĠØ¬ ÙĪÙģÙĩ
ĠØ§ÙĦØ¹ ØªÙĬÙĤ
ĠØ¨Ø¹ Ø¨Ø¯
ĠØ® Ø´ÙĬ
ĠØ§ÙĦÙĤ Ø±Ø§Ø¨Ø©
ĠØ§ÙĦÙĤ ÙĩØ³ØªØ§ÙĨÙĬ
ÙĪØ¬ Ø¨Ùĩ
ĠØ§ÙĦØ¨ ÙĨØ§Øª
Ø¦ Ø¬Ø§Ø±
ĠØ§ÙĦØ¥ Ø¶Ø§ÙģØ©
ĠØ§ÙĦØ¥ ÙħØ³Ø§Ùĥ
ĠØ¨Ø§ Ø·ÙĨ
ĠØ² ÙĥØ±ÙĬØ§
ĠÙĬÙĤ ÙĬÙĨØ§
ĠØ§ÙĦØ¬ ÙĨØ¨
ÙĬØ§ ÙĤ
ĠÙĬØ¬ Ø¯Ùĩ
ĠØ§ÙĦÙģ Ø·Ø±Ø©
ĠØ§ÙĦØµ Ø¨Øº
ĠÙĬØª ÙĬÙĤÙĨ
ĠØ§ÙĦØ® ÙĬÙĦ
ĠÙĬØ¹ ÙħØ±
Ø®Ø± ÙĤ
ĠÙĪØ¹ Ø«ÙħØ§ÙĨ
Ø±Ø· Ø¨
Ø¶Ø§ Ø¹
ĠØ¶ ÙħØ§
ĠØ¶ Ø¨Ø·
ĠØ¨Ø£ Ø®Ø°
ĠØ§Ø³Øª Øº
ØŃØª ÙĩØ§
ĠØ¸ ÙģØ±
ĠÙģØ£ Ø®Ø¨Ø±
ĠÙħØª ÙħØª
Ø·ÙĦÙĤ Ø§
ĠØ¨Ùħ ÙĦÙĥÙĩ
Ø±Ø¯ Øª
ÙĤØµ Ùī
ĠØ¨ØŃ Ø¶Ø±
Ø³ÙĨ Ø§ÙĨ
ĠÙĪÙħÙĨ Ø¹
ÙĨØ¨ÙĬ Ø§Ø¡
ĠØªØ±Ùĥ Øª
ĠÙĪØ¨ ÙħØ§
Ø¶Ø± Ø§Ø±
ÙĪØŃ Ø§ØµÙĦÙĩ
ĠØ¨Ø´ ÙĩØ±
ĠÙĬÙĤØª Øµ
ĠØ£ÙĤØ± Ø¹
ÙĬØ±Ø§ Ø«Ùĩ
ĠÙĦÙĨ ÙģØ³
ĠØ£Ùģ Ø±Ø§Ø¯
ĠØ´Ø§Ø¡ Øª
ĠØªÙħ ÙĦÙĬ
ĠØ§Øª ØŃØ§Ø¯
ĠÙĪØ§ÙĦØª Ø¹
ĠØ®Ø· Ø§Ø¨
ĠØ¬ÙħØ¹ Ùĩ
ĠÙĤØ· Ø¹Ø©
ĠÙĦÙģØ¸ Ø§
ĠÙģØ§Ø³ ÙĤ
ĠØ¹Øª ÙĤØ§
ĠÙħÙĪØª ÙĩØ§
ĠÙģÙĦ ÙĦØ£
ĠÙĪØ§ÙĦØ« ÙĦØ«
Ø¨ÙĩØ§ Ùħ
ĠÙĪØ§ÙĦØµ ÙĦØ§Ø©
ĠØ¨Ø§ÙĦØº Ø§
ĠØ§ÙĦØ¬Ø¯ ÙĬØ¯
ĠÙħÙĪØ§ Ø¶Ø¹
ÙĪÙĬØ± Ø¬Ø¹
ĠØ§ÙĦØ´Ø±Ø¹ ÙĬØ©
ĠÙĦÙĦØº Ø±ÙħØ§Ø¡
ĠØµØŃØª ÙĩØ§
Ø¬ØªÙĩØ§ Ø¯Ùĩ
ĠØµÙĪØ± ØªÙĩ
ĠØ§ÙĦÙĬØ³ Ø§Ø±
ĠØ±Ø´ ÙĬØ¯ÙĬ
ĠØ·Ø±ÙĬ ÙĤÙĩ
ĠØ·Ø±ÙĬ ÙĤØ©
ØªÙĬÙĤ ÙĨ
ĠØŃØ±Ø¨ÙĬ Ø§
ĠÙħØ®Øª ØµØ±
ĠØ§ÙĦÙħÙĩ Ø°Ø¨
ĠÙĦØ£Ø¬ ÙĦÙĩ
ĠØ¨Ø¬Ø² Ø¡
Ø± ÙĪÙĥ
Ø± ÙĪØ©
ĠØ§ ÙħØ±
ĠØ£ ÙģØ¹ÙĦ
ĠØ£ Ø±Ø£ÙĬØª
ĠØ¨ ÙĪÙĤ
Ø³ Ø§Ø¨Ùĩ
ĠÙĬ ÙĪØ¶Ø¹
ĠÙĬ ÙĪØ§ÙģÙĤ
ĠÙĬ ÙģØ±Øº
Ùĥ ÙĨØ§
Ø¬ Ø§Ø³Ø©
ĠÙĤ ÙĬØ¯Ùĩ
ÙĨÙĩ Ø§Ø±
ĠØ§ÙĦÙħ ÙħØ§
ĠØ§ÙĦÙħ ØªÙĤ
ĠØ§ÙĦÙħ ØµØ¯Ø±
ĠØ§ÙĦÙħ ÙģÙĤÙĪØ¯
ĠØª ÙĪØ¬Ø¨
ĠØª ÙħÙĬØ²
ĠÙĨ Ø§Ùħ
ĠÙĦÙħ Ø¬Ø±Ø¯
ĠØ³ ÙĪÙĤ
ĠØ§ÙĦØ£ ÙĪ
ĠØ´ Ø§Ø±ØŃ
ĠØ° Ø±Ø§
ºÙĬØ± Ùĩ
ĠØ¬ ÙĦÙĪ
ĠØ§ÙĦØŃ Ø·
ÙĪØ§ ÙĤ
Ø§Ø¦ ÙĬÙĦ
ĠØ§ÙĦÙĪ Ø¬ÙĬØ²
Ø¸ ÙĬØ±
Øº ÙħØ§Ø¡
ĠØ§ÙĦØª ÙħÙĦÙĥ
Ø£ÙĨ Ø¨Ø£
ĠØ¨Ø§ ÙĦÙĪØ§ÙĪ
ÙĬØ¹ Ùĩ
ĠØ§ÙĦØ´ ÙĤØµ
ĠØ§ÙĦØ¬ Ø±Ø§ØŃ
Ø±Ùĥ ÙĪØ¨
ĠÙĪÙĬ Ø«Ø¨Øª
ĠØ§Ø¨ÙĨ ØªÙĩ
ĠØ£Ø® ÙĪÙĩ
ĠØ£Ø® ØªÙĩØ§
ĠØ§ÙĦÙģ Ø§Ø¡
ĠÙĬØª ÙĬÙħÙħ
ĠÙĬØ¹ Ø¨Ø±
ĠØ§ÙĦÙĥ Ø§ÙħÙĦ
ĠÙģØ¥ÙĨ ÙĬ
ĠØº Ø±ÙħØ§Ø¡
Ø®Ø± ÙĪØ¬
ĠÙĪÙĥ Ø±Ùĩ
ÙĪÙĩ Ø¨
ĠØ±Ø¬ Ø¹Ø©
ĠØ¨Ø£ Ø¯Ø§Ø¡
ÙĪØ² ÙĪÙĨ
ĠÙĪØª Ø¹Ø°Ø±
ĠØ¨Ø¯ ÙĨ
ÙĪØ§ÙĦØ ¢Ø®Ø±
ĠÙĦÙĦÙħ Ø³Øª
ĠÙħØª Ø§Ø¹Ùĩ
ĠÙħØª ØµÙĦØ§
ĠÙģØ§ ÙĦÙģ
ĠÙĪÙħ ØŃÙĦÙĩ
ÙĪÙģ ÙĬØ©
ĠÙħØ³ ÙĥÙĨ
ĠØ§ÙĦÙħØ³ Ø§ÙĥÙĬÙĨ
ĠØ¨ØŃ Ø§ÙĦÙĩØ§
ĠÙĦØ¹ ÙĨ
Ø±Ø« Ùĩ
ĠÙĤØ§ Ø·Ø¹
ĠÙĤØ§ ÙĦÙĪÙĩ
Ø¬Ø¯ Ø¯
Ø§Ø¹ ØªÙĩ
ĠÙĪØŃ Ø¬
ĠÙĦØŃ ÙħØ§
ĠØ¹Ø¯ Ø¯Ø§
ĠÙĦØ¨ ÙĬÙĥ
ĠÙĪØ§ÙĦØ£ Ø®
ĠØ§ÙĦØ¢ Ø¨ÙĤ
ĠÙħØ¬ ØªÙĩØ¯
ĠØ¨Ø§ÙĦØ¹ ÙĦÙħ
ØŃØ± ÙĬØ±
ĠÙĬØ¬Ø² ÙĬÙĩ
ĠÙĪÙĦÙĬ ÙĩØ§
ĠØµÙĦØ§ ØŃÙĩ
Ø¨ÙĤ ÙĬØ©
ĠÙģØŃ ÙĥÙħÙĩ
ĠÙģÙĤ Ø¨ÙĦ
ĠØ§ÙĤØª Ø¶Ùī
ĠØªØµ ÙĪÙĬØ±
ĠÙĬØ¹Øª ÙĤÙĩ
ĠÙĪØ·Ø¦ Øª
ĠÙħØ±Ø§ Ø¯Ø§
ĠØ§ÙĦÙĤØ¯ ÙĪÙħ
ĠØ¹ÙĬÙĨÙĩ Ø§
ĠÙģØ¨ ÙĦØº
ĠØ®ÙĦÙĤ Ùĩ
ĠØ¬ÙĪØ§Ø¨ Ùĩ
ĠØ¥Ø² Ø§ÙĦØªÙĩ
ĠÙħØ±Øª Ø¯
ĠÙĦÙĦØ²ÙĪØ¬ Ø©
ĠÙĪÙĪØ¬Ùĩ Ùĩ
ĠÙħØ£Ùħ ÙĪØ±
ĠÙĪØ«ÙĦØ§Ø« ÙĪÙĨ
ĠØ·Ø±ÙĬ ÙĤØ§
ĠØªÙģØ±ÙĬ Ø·
ÙģØ¹Øª ÙĩØ§
ĠÙĪØ±Ø¨ ÙħØ§
ĠØ·ÙĦØ§ ÙĤÙĩ
ĠØ§ÙĦØªØ´ Ø¨ÙĬÙĩ
ĠÙĤØ¶ Ø§Ø¤Ùĩ
ĠÙħØ¤Ø¬ ÙĦØ©
ĠØ§ØºØª Ø³ÙĦ
ĠÙĪØ§ÙĦÙĨØ³ Ø§Ø¦ÙĬ
ĠØ¨Ø§Ø®Øª ÙĬØ§Ø±Ùĩ
ĠÙħØ±ÙĬ Ø¶Ø§
ĠØ¨Ø³Ø± ÙĤØ©
ĠØ§ÙĦØ¥Ø¬ Ø§Ø¨Ø©
ÙĨ ØµØ±
ÙĬ ØŃØªÙħÙĦ
ÙĪ ÙĦØª
Ø¨ Ø°
ĠÙĪ ÙĤØ±
ĠÙĪ Ø³Ø¨
ĠÙĪ ÙĪØ¬Ø¯
ĠÙĪ ÙģØ§Ø©
ĠØ£ Ø±Ø·
ĠØ£ ÙģØª
ĠØ£ Ø°Ùī
ĠÙģ ÙĪØ¶
Ùģ Ø§ÙĦØ©
Ø³ Ø±Ùĩ
ÙĦØ§ ÙĦÙĩ
ĠÙĤ ÙĦØ©
ĠÙĤ Ø±Ø´
ĠÙģÙĬ Ø±Ø¯
ĠØ§ÙĦÙħ ØŃØ¯Ø«
ĠØ§ÙĦÙħ Ø¨Ø§Ø±Ùĥ
ĠØ§ÙĦÙħ Ø§Ø²Ø±ÙĬ
ĠØ¥ ÙĦÙĩ
Ø® ÙĬÙĩ
ĠØª ÙĦØ¯
ĠØª Ø±Ø§Ø¨
ĠØª ÙħØ§ÙħÙĩ
ĠØŃ ÙĦÙĩ
ĠØŃ Ø±Ø¬
ĠØ£ÙĪ Ø³ÙĤ
Ø´ Ùħ
Ø´ ÙĩØ±
ÙĪÙĦÙĩ ÙħØ§
ĠÙĨ Ø¹Øª
ĠÙĦØ§ Ø²ÙħØ§
ĠÙĩ ÙĩÙĨØ§
ĠØ³ ÙĪØ§
ĠØ³ Ø¤
ĠÙħØ§ ÙĦÙĩØ§
ĠØ§ÙĦØ£ ÙĪÙĦÙĬØ§Ø¡
ĠØµ Øº
ĠÙĦÙĩ Ø°Ùĩ
Ø±Ø§ ÙħØ©
ĠØ§ÙĦØ¹ Ø¬
ĠØ§ÙĦØ¹ Ø¯Ùħ
ÙĤØ¯ ÙĬÙĨ
ĠØ¨Ø¹ ÙĬØ±
ØŃØ¯ Ø§ÙĩÙħØ§
ÙĪØ§ ÙģÙĩ
ĠØ® ÙĨØ²ÙĬØ±
ĠØ¨Ùĩ Ø²
ĠÙĪØ§ Ø³ØªØŃ
ÙģÙĬ ÙħØ§
Ø¹Øª Ø§ÙĤÙĩ
ĠØ¨Ø§ÙĦØ ¢Ø®Ø±
ĠÙĪØ§ÙĦØ ¸
ĠØ§ÙĦØ¥ ÙħØ§ÙħØ©
ĠØ§ÙĦØ¥ Ø·Ø¹Ø§Ùħ
ĠÙĬÙĥ Ùģ
ĠØ² ÙĬØª
ĠØ§ÙĦØ¬ ÙĨÙĪÙĨ
ĠÙĪØ£ ÙĬØ¶Ø§
ĠÙĪÙĬ ÙĤØ¹
ĠÙĬØª Ø£ÙħÙĦ
ĠØ§ÙĦÙĥ ÙĬÙĦ
ĠØº Ø¯
ĠÙĬÙĨ ÙģØ¹Ùĩ
ĠØ¨Ø£ ÙĩÙĦ
ĠØ¨Ø£ ÙħØ§ÙĨ
Ø¯Ø§ Ø©
ÙģØ¥ÙĨ ÙħØ§
ÙĪØ£ Ø®Ø±Ø¬
ĠØ§ÙĦØ§ Ø¹ØªØ¨Ø§Ø±
ĠØªØ¹ Ùħ
ĠÙĦÙĦÙħ Ø¹
ĠÙģØ§ Ø¹Øª
ĠÙĪÙħ ÙĨÙĩÙħ
ĠØ£ØŃ ÙĪØ§ÙĦ
ĠÙĪØ§ÙĦÙħ Ø¹
ĠØ§ÙĨ ÙĤØ·
ĠØ§ÙĦÙĤØ§ Ùģ
ĠØ£Øµ ØºØ±
ĠÙĬØ¶ ÙħÙĨÙĩØ§
ÙĥØ§ÙĨ Øª
ĠØ¨Ø§ÙĦÙħ Ø¹
ĠÙĤØª Ø§ÙĦ
ĠÙĦØ² ÙĪÙħÙĩ
ĠÙĬØ´ Ø±Ø·
ĠÙĦØ¨ ÙĬØª
ĠØ¨Ùĥ ÙĦØ§Ùħ
ĠÙħØ³ÙĦÙħ ÙĬÙĨ
ĠÙħØ³Øª ÙĤÙĦ
ĠØ§ÙĦÙħØ¬ ØªÙĩØ¯
ĠÙģØ± Ø¹Ùĩ
ĠØ§ÙĦØŃØ± ÙĬØ±
ĠÙĤØ¯Ø± ÙĩØ§
Ø«ÙĨ ÙĬØ©
ĠØªÙĨ ÙĤØ¶ÙĬ
ĠÙĪØ§ÙĦØ¹ ÙħÙĦ
ĠØ¨Ø§ÙĦÙĤ ÙĪÙĦ
Ø§ÙĦØ« Ø§ÙĨÙĬØ©
ĠØ¹Ø· ÙģØ§
ĠÙĪØ« ÙħØ§ÙĨ
ĠØ§Øª ÙģÙĤØ§
ĠÙĥØªØ§Ø¨ ÙĬØ©
ĠØŃÙħ ÙĦØ§
ĠØ¬Ø² Ø§ÙģØ§
ĠÙĬÙħÙĦÙĥ ÙĩØ§
ĠÙĪØ§ÙĦØ¨ ÙĬØ¹
ĠØªØŃØª ÙħÙĦ
ĠÙĬØ¹Ø±Ùģ Ùĩ
ĠØ¹Ø§Ø¯ Øª
ĠØ§ÙĦÙĨØ³ Ø§Ø¦ÙĬ
ĠØªØº ÙĦÙĬ
ĠØªÙĤØ± ÙĬØ±
ĠØ§ÙĦØ£Ø¹ ÙħØ§ÙĦ
ÙĪÙĬØ± Ø¯
ĠØ¹Ø§Ùħ Ø¯Ø§
Ø§ÙĪÙĬ Ø§
ĠÙĥÙĨØª Ùħ
ĠÙĨÙĩ ÙĬ
ĠÙħØ±Øª Ø¨Ø§
ĠØ¨ÙĪØ§ ØŃØ¯Ø©
ĠÙĬØ±Ø¶ Ùī
ĠØ§ÙĦÙħØ¹Ø§ ÙĪØ¶Ø©
ØªØª ÙħØ©
ĠØ§ØŃØªØ±Ø§Ø² Ø§
ĠØ¶Ø¹ ÙģÙĩ
ĠÙħØ´Ø± ÙĪØ¹
ĠØ£ÙĬØ¯ÙĬ ÙĩÙħ
ĠØ§ÙĦÙĨØ¹ ÙħØ§ÙĨ
ĠØ§ÙĦÙģØµ ÙĪÙĦÙĬÙĨ
ĠÙħØªÙħØª Ø¹Ø§
Ø§ Ø®ÙĦ
Ø§ Ø·ÙĦ
ÙĪ ÙĩÙħØ§
Ø¨ Ø§Ø¦Ø±
Ø¯ ÙĤ
Ø¯ ÙĬØ¯
Øª Ø§ÙĦ
Ø¹ ÙĪÙī
ĠÙĪ ÙĪØµ
ĠÙĪ ÙģØ³Ø®
ĠÙĪ ÙħØ³ØŃ
ĠØ£ Ø±ÙĤ
ĠÙħ Ø¯ØªÙĩ
ĠÙħ ÙģØ±Ø¯
ĠØ¨ ÙĪÙĦ
ĠØ¨ Ø±Ø¬ÙĦ
ĠØ¨ ØµÙĬØºØ©
ĠØ¹ ØµØ¨
Ùģ Ø®Ø±Ø¬
Ø³ Ø¹Ùī
ĠÙĬ ÙĩÙĪØ¯
ĠÙĬ ÙħØ³Ùĥ
ĠÙĬ ØµØ¯ÙĤÙĩ
ÙħØ§ ÙĨÙĬ
ĠÙĥ ÙħÙĦ
ĠÙĥ Ø´Ùģ
ĠØ§ÙĦÙħ ÙĨØª
ĠØ§ÙĦÙħ ÙĥÙĬ
Ø¶ ÙĦØ©
ĠØ¥ Ø¬ÙħØ§Ø¹
Ø® ÙĦØµ
Ø« ÙĦØ«
ĠØª ÙģØ±ÙĤ
ÙĦÙĪ Ùĥ
ÙĦÙĪ ÙĩØ§
ĠØŃ ÙĦÙĪÙĦ
ĠØ§ÙĦ ÙĦØ¨Ø³
ĠØ§ÙĦ ÙĦØ²ÙĪÙħ
ĠØ§ÙĦ Ø±Ø§Ø¨Ø¹Ø©
Ø´ Ø±Ùĩ
Ø² ÙĪÙħ
ÙĦÙĤ Ùī
ĠÙĨ ØŃØ±
ĠÙĦÙħ Ø³
ĠÙĩ Ø¯ÙĬØ©
ĠØ³ ÙĤÙĬ
ĠØ° ÙĨØ¨
Ø±Ø§ Ø¨ÙĬ
ĠØ¬ Ø§Ùħ
ĠØ¬ ÙĦÙĪØ³
ĠØ§ÙĦØ¹ ÙĤØ±
ĠØ§ÙĦØŃ Ø¶ÙĪØ±
ĠØ« ÙħØ©
ĠØ® Ø§Ø·
ĠØ® ÙĦÙĪØ©
Ø§Ø¦ Ø´Ø©
Øº Ø¨
ĠØ§ÙĦØ¨ ÙĥØ±
ĠØ§ÙĦØ¨ Ø§Ø·
ĠØ§ÙĦØ¨ ÙĤØ±Ø©
ĠØ§ÙĦØª Ø¹Ùħ
ĠÙĦÙĪ Ø±Ø«Ø©
ĠØ¨Ø§ Ø³Ùħ
ĠØ§ÙĦØ´ Ø§ÙħÙĦ
ĠÙĪÙĬ Ø²
ĠÙĪÙĬ ÙģØ±ÙĤ
ÙĨÙĬ ØªÙĩ
ĠØ§ÙĦØµ ÙĬØ§Ùħ
ĠÙĬØª ÙĤÙĬØ¯
ĠÙĬØª Ø¹Ø°Ø±
Ø¯ÙĬ ÙĤÙĩ
ĠØº ÙĦØ§Ùħ
ĠØº Ø±Ø¶Ùĩ
ĠÙĪØ¹ Ø±Ùģ
ÙĥØ§ ÙģÙĩ
ĠØ¨Ø£ ÙĪÙĦ
ĠØ£Ùħ ÙĬÙĨØ§
ĠÙħØ« ÙĦÙĬØ§
ĠØ£Ø¨ ÙĤ
ĠØ¨Ø¯ ÙĦÙĩØ§
Ø§Ø¯ ÙĬØ©
ÙĪØ§ÙĦØ °
ÙĪÙĤ Ø¶ÙĬØªÙĩ
ĠÙħØª ÙĤÙĪÙħ
ĠÙħØª ØµÙĦØ©
ĠØ¨Ùħ ÙĤØªØ¶Ùī
ĠÙĪØ§ÙĦÙħ ØŃ
ĠÙģØª Ø¬Ø¨
ĠÙģØ¹ ÙĦÙĬÙĩØ§
ÙĪØ¥ ÙĦÙī
ĠØ§ÙĦÙħØ¹ ÙĬØ±
ĠØ¨Ø§ÙĦ Ø±ÙĤ
ĠØ¹Ø¯Ùħ ÙĩØ§
ĠØ¨ÙĦØ§ Ø¯
ĠØ§ÙĦÙħÙĨ ØµÙĪØµ
ĠØ±ØŃ ÙħØ©
ÙĪØŃ Ø§
ĠÙħØ¬ Ø§ÙĪØ²
ĠØ¨Ø§ÙĦØ¹ Ø¨Ø¯
ĠØ¨Ø¹Ø¯Ùĩ ÙħØ§
ĠØ¨Ø§ÙĦØ£ Ø±Ø¶
ĠØ±ØŃÙħÙĩ Ùħ
ĠØ§ÙĦÙħØ¬ ÙħØ¹
ĠÙģØ§ÙĦØ °ÙĬ
ĠØ£ÙĦÙģ ÙĬÙĨ
ĠØ¨Ø§ÙĦÙĤ Ø±Ø¨
ĠØ¨Ø§ÙĦÙĤ Ø³ÙħØ©
ĠØ¨Ø¬ ÙĨØ³
ĠÙĦØ³ ØªØ©
ĠÙĪØ§ÙĦØª Ø±ÙħØ°ÙĬ
ĠØ£Ùĩ ÙĦÙĬØ©
ĠØ§ØŃØª Ø±Ø²
ÙģØ¸ Ùĩ
ĠÙĪØ² ÙĨÙĩ
ĠÙĪØ² ÙĬØ§Ø¯Ø©
ĠØªÙģ Ø±ÙĬÙĤ
ĠÙĪØ§ÙĦÙĪ Ø¬Ùĩ
ĠØªØ· ÙĩØ±
ĠÙĦÙĦØ³ ÙĩÙĪ
ĠØ¥Ø® Ø¨Ø§Ø±
ĠØ§ÙĦØªØŃ ÙģØ©
ĠØ§ÙĦØ£Ø³ ÙģÙĦ
ĠÙģÙĬØª Ø¹ÙĬÙĨ
ĠÙģØ§ÙĦØ£ ÙĤØ±Ø¨
ÙģÙĥ ÙĬÙģ
ĠØ¨Ø¯ÙĬÙĨ Ø§Ø±
ĠØŃÙĬØ¶ ÙĩØ§
ĠØ§ÙĦØ§ÙĨØª ÙĤØ§ÙĦ
ĠÙħÙħÙĦÙĪ ÙĥØ§
ĠØ¬ÙĨ Ø¨Ø§
ĠÙĪÙĬØ¯ ÙĦ
ĠÙĪÙĤÙĬ Ø§Ø³
ĠÙħØ¨ ÙĦØº
ĠØ§ÙĦØ¹Ø±Ø¨ ÙĬØ©
ĠØ³ÙħØ§ Ùĥ
ĠØ¥Ø®Ø±Ø§Ø¬ ÙĩØ§
ĠØ®Ø´ ÙĬØ©
ĠØ§ÙĦØªØ² ÙĪÙĬØ¬
ĠÙħÙĩ Ø¯ÙĬ
ĠÙĪÙĤØ§ ÙĦØ§
ĠÙĪØ¶ÙĪØ¡ Ùĩ
ĠØ§ÙĦÙĦÙĤ Ø·Ø©
ĠØ§ÙĦÙĦÙĤ ÙĬØ·
ĠØªØ³Ø§ ÙĪÙĬ
ĠØ¹Ø§ÙĤ ÙĦØªÙĩ
ĠÙħØŃØ¯Ø« Ø§
ĠØŃÙĤÙĬÙĤ ØªÙĩ
ĠØ«Ø¹ ÙĦØ¨Ø©
ĠØ²Ø§Ø¦ Ø¯Ø§
ĠØ¥Ø³Ø± Ø§Ø¦ÙĬÙĦ
ÙĪ ÙĦÙĤØ¯
Ùħ Ø·ÙĦÙĤØ§
Ø¨ Ø§ÙĦ
Ø¨ Ø·Ùĩ
Øª ÙĨØ§
Ø¹ Ø§ÙĨØ©
ĠÙĪ ÙĪØ¬Ø¨
ĠÙĪ Ø±Ø¨Ø¹
ĠØ£ Ø°Ø±Ø¹
ÙĤ Ø¨Ø§
ÙĤ ÙĪÙī
ĠÙħ Ø£ÙĥÙĪÙĦ
ĠÙģ Ø¶Ø±Ø¨
ĠØ¹ ÙĦØ§ÙħØ©
ĠØ¹ ÙĩØ¯Ùĩ
Ø³ ÙħØ§
Ø³ ÙĬÙĨ
ĠÙĤ ÙĪØª
ÙĨÙĩ Ø±
ĠÙģÙĬ ÙĤØ³Ùħ
ĠØ§ÙĦÙħ Ø¨Ø¹Ø¶
ĠÙħÙĨ ØªÙģ
Ø® Ùĩ
ĠØª Ø³ØªØŃÙĤ
ĠØª Ø±Ø§Ø¶
ĠØª ÙĬØ³Ø±
ĠØŃ Ø§ÙħØ¯
ÙĬØ± ÙħÙĬ
ĠÙĨ Ø§ØŃ
ĠØ§ÙĦØ£ ÙħÙĨ
ĠØ§ÙĦØ£ ÙħÙĬÙĨ
ĠØ§ÙĦØ£ ÙĨØ¨ÙĬØ§Ø¡
ĠØ° ÙĩØ§
ĠÙĦ Ø±Ø¬
Ø¨ÙĬ Ø¶
ÙĤØ¯ Ø§Ø±
ĠØ¨Ø¹ ÙħÙĦ
ÙĪØ§ Ø·
ĠØ® Ø±ÙĤ
ĠÙħØ¹ ÙĩÙħØ§
Ø±ÙĬ Ø¹Ø©
Ø±Ùĩ ÙħØ§ÙĨ
Ø§Ø¦ ÙħØ©
ÙĪØ¬ Ø¹ÙĦ
ĠØ§ÙĦÙĪ Ø§Ø¬
ĠØ§ÙĦÙĪ ØµÙĪÙĦ
Ø±Ø¨ Ø§
ÙĤÙĬ Ø¨
ÙĤÙĬ ÙĤÙĩ
Ø¦ ÙĬ
ĠØ§ÙĦØ¥ ØŃÙĬØ§Ø¡
Ø¨Ø¯ Ø§ÙĦ
ÙĬØ¯ Ø§Ø¹
ĠØ¨Ø§ ÙħØ±Ø£Ø©
Ø±Ø¶ Ø§Ùĩ
ĠØ§ÙĦØ´ Ø±Ø§ØŃ
ĠØ§ÙĦØ¬ ÙĬÙħ
ĠÙĪØ£ Ø®Ø°Ùĩ
ĠÙĪÙĬ Ø³ÙĨ
ĠØ£Ø® Ùģ
ÙĨÙĬ Øª
ĠÙĦÙĬ Ø«
ĠØ§ÙĦØµ Ø§ÙĨØ¹
ĠÙĬØŃ Ø¬Ø±
ĠÙĬØ¹ ÙģÙī
ĠØº Ø±Ø±
ĠØº ÙĨÙĬØ§
ĠÙĪØ¹ ÙĦÙĬÙĩØ§
ÙģØ§ Ø°
ÙĪÙĦØ§ Ø¤Ùĩ
ÙĥØ§ ÙħÙĩ
ĠØ¨ÙĬÙĨ ÙĨØ§
ÙĪØª Ø±
Ø¯Ø§ Ø³
ĠØ§ÙĦØ± Ø´
ĠÙĪØª Ø¨Ø¹Ùĩ
ĠÙĦÙĦÙħ Ø³ØªØ£Ø¬Ø±
ĠÙģØ£ ÙĨØ§
ĠÙģØ£ Ø¹ØªÙĤ
ĠÙĪÙħ Ø«ÙĦÙĩØ§
ÙĪÙģ ÙĦ
Ø±ØŃ Ø§Ùħ
ĠØ¨Ùħ Øª
ĠÙĪØ§ÙĦÙħ Ø´ØªØ±ÙĬ
ĠØ§ÙĨ Ùģ
ĠØ§ÙĨ ØªÙĤØ¶
ĠØ§ÙĨ ÙĤØ·Ø§Ø¹
ĠØ§ÙĦÙħØª ÙĥÙĦÙħ
ĠØ¨ØŃ ÙĤÙĩ
ĠØ£Øµ ÙĪÙĦ
ĠØ§ÙĦÙħØ¯ ÙģÙĪØ¹
ĠØ¨Ø§ÙĦÙħ Ø³Ø¬Ø¯
ĠÙĪØŃ ÙħÙĦ
ĠØ³Ø¨ Ø¹Ø§
ĠÙĬØµ ÙĨØ¹
ĠÙĬØ¤ Ø¯
ĠÙĨØµÙģ Ø§ÙĨ
ĠØªØ£ Ø«ÙĬØ±
ĠØ¨Ø§ÙĦØ¹ ÙĥØ³
ĠÙĬØ² Ø±Ø¹
ĠÙģØ§ÙĦØ µ
ĠØ¹Ùħ Ø±Ùĩ
ĠØ§ÙĦÙħØ´ ÙĤØ©
ĠØ¨Ø§ÙĦÙĤ Ø¶Ø§Ø¡
ĠØ£ÙħØ± ÙĩØ§
ĠØ¯Ø±ÙĩÙħ ÙĬÙĨ
ĠÙħØ´ Øº
ĠØ¨Ø§ÙĦØŃ ÙĤ
ĠÙĪØ´ Ø±Ø¨
ĠÙĬØº ØªÙģØ±
ĠØ§ØŃØª Ø¬
ĠØ´ÙĩØ¯ ÙĪØ§
ĠØ¨ÙĨØª Ø§
ĠÙģÙĤ Ø§Ùħ
ĠÙĪØ¹ÙĨ Ø¯Ùĩ
ĠØªÙĤØ¯ ÙĬØ±Ùĩ
ĠØ§ÙĦØ³Ø¨ Ø¹Ø©
ĠÙĪØ§ÙĦØ¯ ÙĬÙĨ
ĠØ§ÙĦÙĨØ³ Ùĥ
ĠÙĪØ¬ÙĪØ¯ ÙĩØ§
ĠØ§ÙĦØªØŃ ÙĤÙĬÙĤ
Ø¬Øª ÙħØ¹
ÙĦØ° Ø°
ĠØ¹ÙĤ ÙĪØ¨Ø©
ĠØ§ÙĦØµØºÙĬØ± Ø©
ĠØ§ÙĦØªØ³ ÙĪÙĬØ©
Ø¨ØªØ¯ Ø¦
ĠÙĥÙĬÙģ ÙĬØ©
ĠØŃØ±Ø§ ÙħØ§
ĠÙĪØ¨ÙĬ ÙĨÙĩØ§
ĠÙĪÙĬØ¯ ÙģØ¹
ĠÙĥØ«Ø± Øª
ĠØ£ÙĥØ±Ùĩ Ùĩ
ĠÙĦØ± Ø³ÙĪÙĦ
ĠÙĬÙĤØ¨ ÙĦÙĩ
ĠØ³Ø¬ ÙĪØ¯Ùĩ
ĠØ§ÙĦØ¥Ø´ ÙĥØ§ÙĦ
ĠØªØ¹ÙĦÙĬ ÙĤÙĩ
ĠØ¨Ø§ÙĦØ² ÙĨØ§
ÙĪÙĬØ¯ ÙĦ
ÙħØ« ÙĦØ§
Ø®Ø§ÙĦÙģ Ø©
ĠØªÙĤÙĬ ÙĬØ¯Ùĩ
Ø§ÙĦØ«Ø§ÙĦØ« Ø©
ĠØ§Ø¨ØªØ¯ Ø£
ĠØ±Ø¤ ÙĬØªÙĩ
ĠØºØ±ÙħØ§ Ø¦Ùĩ
ĠÙħØ¬ÙĨ ÙĪÙĨØ§
Ø§ Ø¶Ø±
Ø± ÙĬØ±
Ø± Ø¹Ø©
Øª Ø¯
ĠÙĪ ÙĦØ¨
ĠÙĪ ØŃØ¯Ø«ÙĨØ§
ĠÙĪ Ø§Ø¦ÙĦ
ĠÙĪ ÙĦØ²ÙħÙĩ
ĠÙĪ ÙģÙī
ĠÙĪ Ø°ÙĥØ±Ùĩ
ĠØ£ ÙħØ¯
ĠØ£ ÙģØ¹Ø§ÙĦ
ĠÙħ ÙĩÙħ
ĠØ¨ Ø²ÙĪØ¬
ĠØ¨ Ø±Ø£Ø³
ĠÙģ ÙĦØª
ĠÙģ ÙĤØª
ĠØ¹ ÙĪØ±ØªÙĩ
Ùģ Ø¯
ĠÙĬ ÙĪØµÙĬ
Ùĥ Ø¨ÙĬØ±
Ø¬ Ø§ÙĦ
Ø£ Ø¹
Ø£ ÙĪÙĦ
ĠÙĤ Ø§Ø¦ÙĦ
ĠÙģÙĬ Ø¯Ø®ÙĦ
ĠØ¥ Øª
Ø· ÙĦÙĩ
Ø· Ø¨Ø©
ĠØª ÙģØª
ĠØª Ø¨Ø§Ø±Ùĥ
ĠØª Ø§Ø±ÙĬØ®
Ø¥ ÙħØ§
ĠØŃ Ø¨Ø©
ĠØŃ Ø§Øµ
Ø§ÙĨ Ø¨
Ø§ÙĨ ÙĬØ§
ĠØ£ÙĪ Øµ
ĠÙĨ Ø®
ĠÙĨ Ø§Ø¦Ùħ
ĠØ³ ÙģÙĬÙĩ
ĠØ´ ÙĬØ§Ùĩ
ÙĦÙģ Ø§
ĠØµ ÙĦØ¨
ÙĪÙĦ ÙĦØ£
ĠØ¬ Ø±ÙĬ
ĠØ¬ ÙħØ§Ø¹
ĠØ¬ ÙĨÙĪÙĨ
Ø§Ø¨ ÙĤØ©
ÙħÙĨ Ø¹Ùĩ
ĠØ§ÙĦØŃ Ø§Ø¡
ĠØ¯ Ø±
ĠØ¯ ÙĩÙĨ
ĠØ® Ø¨
ĠØ¨Ùĩ ÙĬÙħØ©
ĠØ§ÙĦÙĤ ÙĪØ©
ĠØ§ÙĦÙĤ ÙģØ§ÙĦ
ĠÙĪØ§ ÙħØªÙĨØ¹
ÙģÙĬ Ø¬ÙĪØ²
ĠØ§ÙĦØª Ø²ÙĪØ¬
Ø¦ ØªÙĩ
ĠØ§ÙĦØ¥ Ùģ
ĠØ§ÙĦØ¥ Ø±Ø³Ø§ÙĦ
ĠÙĪØ£ ØŃØ¯
ĠÙĪØ¬ Ø¹ÙĦÙĩ
ĠÙĬØ¬ ÙĬØ²
ĠØ§ÙĦØ³ ÙĬÙģ
ĠØ§ÙĦØ³ Ø¹Ø§ÙĬØ©
ĠÙĪÙĬ Ø¬Ø§Ø¨
Ø¹Ø§ Ø¯ØªÙĩ
ĠÙĦÙĬ Ø¹ÙĦÙħ
ĠÙĬØª Ø¨Ø¹Ùĩ
ĠØ§ÙĦØ® ÙĦÙģ
ĠÙĬØ¹ ÙĬØ´
ĠØ§ÙĦÙĥ Ø¨Ø±
ĠØº ÙĬ
ĠØº Ø±ÙĬØ¨
ĠØº ÙĦØ§ÙħØ§
Ø¶ÙĬ Ùģ
ĠÙĪÙĥ ÙĪÙĨÙĩ
ĠÙĪÙĥ ÙĬÙģ
ĠÙĪØ¹ Ø´Ø±Ø©
Ø§Ø² ÙĦ
Ø§Ø² Ø¹Ø©
ĠÙĬÙĨ Ø¬Ø³
Ø¶Ø§ ØŃ
ĠØ±Ø¬ Ø¨
ĠØ±Ø¬ ØŃÙĩ
ÙĬÙħ ÙĬ
ĠØ§Ø³Øª ÙĤØ±
ĠÙĤØ¯ ÙĪÙħÙĩ
Ø¨Ø¹ Ø¶Ùĩ
ĠØ¨Ø¯ Ø®ÙĪÙĦ
ĠØ§ÙĦØ§ ØŃØªÙħØ§ÙĦ
ĠÙħØª ØµÙĦ
ĠÙħØª Ø¹ÙĬÙĨ
ÙĦØŃ Ø§ÙĤÙĩ
ĠÙĦÙħØ§ ÙĦÙĥÙĩ
ĠÙģØª ÙĨ
ĠÙģØª Ø¹
ĠÙĬØ® ÙĦ
ĠÙħØ± Ø³
ĠÙĬØ³ Ø±
ĠØ£Ø´ Ø±Ùĥ
ĠÙĦØ¹ Ø§ÙĨ
ĠÙĪØµ ÙĬØ§
ÙħØª ÙģÙĤ
Ø¬Ø² Ø¦Ùĩ
ĠÙĤØª ÙĦÙĩØ§
ĠÙĪÙħØ§ ÙĦÙĩ
ĠÙĦØª ØŃ
ĠØ¢ Ø®Ø°
ĠØ£ÙĤ Ø¨ÙĦ
ĠØ¨Ø§ÙĦØ£ Ø¬Ø±Ø©
ÙĨØ¯ ÙĬØ©
Ø±Ø´ Ø¯
ĠØ¨ÙħÙĨ Ùī
ĠØ£Ùĩ ÙĦÙĬ
ĠØ§ÙĦÙħØ¹Øª Ø¯Ø©
ĠÙĪÙĦ ÙĨØ§
ĠÙĪÙĦ ÙĦØ¢Ø®Ø±
ÙĬØ³ Ø©
ĠÙĤØ· ÙĨ
ÙĪØ§ÙĦØ£ ÙĪÙĦÙī
ĠØ¸ÙĩØ± Øª
ĠÙģÙĤ ÙĬØ±Ø§
ĠÙģØ¬ Ø¹
ĠØ¨Ø§ÙĦÙĨ Ø°Ø±
ĠÙĪØ§ÙĦÙĪ ÙĦØ¯
ĠØªÙĤØ¯ ÙĬÙħÙĩ
ĠÙģØ§ÙĦÙħ Ø±Ø§Ø¯
ĠÙħØªØ¹ÙĦÙĤ Ø©
ĠÙĪØ§ÙĦØ¯ Ùĩ
ĠÙħØ¹ÙĬÙĨ ÙĬÙĨ
ÙĬÙĤ Ø¸
ĠØ¨ÙĬØ¯ ÙĬÙĩ
ĠØ«Ø§Ø¨Øª Ø©
ĠÙħÙĥØ§ ÙĨÙĩØ§
ĠØ§Ø¨ ÙĨØ§
ĠØ§Ø³ØªØ¹ ÙħÙĦ
ĠØ§ÙĦÙħØ± ÙĪØ±
ĠØŃÙģØ¸ ÙĩØ§
ĠØªÙģØ³ ÙĬØ±Ùĩ
ĠØ¨ÙĪØ§ Ø³Ø·Ø©
ÙĪØ§ÙĦØ« Ø§ÙĦØ«
ĠÙĬØ¯Ø¹ ÙĪ
ĠÙħÙĨØ§ÙģØ¹ Ùĩ
ĠØ´Ø¯ ÙĬØ¯
ĠØ§ÙĦØ¥ÙĤ Ø§ÙĦØ©
Ø¯Ø±ÙĬ Ø³
ĠØ¨Ø®ÙħØ³ ÙħØ§Ø¦Ø©
ĠØ±Ø² ÙĬÙĨ
ĠØ®Ø² ÙĬÙħØ©
ĠØŃÙģ ØµØ©
ĠÙĤØ§Øª ÙĦÙĩ
ÙĪØ§Ø¹Øª Ø±Ø¶
ĠÙĪØ§Ø¨ ÙĨÙĩ
ÙĬ Ø³Øª
ÙĬ ÙĤØ©
ÙĬ ÙĥØ±Ùĩ
Ùĩ Ø¯Ø§
ĠØ§ ÙĦÙĩØ§
ĠØ§ ÙĨÙĩØ¯Ùħ
Ùħ ÙĬØ©
Ø¯ Ø«
Ø¹ ÙĨØ©
ĠÙĪ Ø¶Ø±Ø¨
ĠÙĪ ÙĤÙĬØ¯
ĠØ¨ ÙħÙĨØ¹
ĠÙģ ÙĦÙĥ
ĠÙģ Ø±Ø·
ĠÙģ Ø¶ÙĬÙĦØ©
ĠØ¹ Ø³Ø±
ĠØ¹ Ø°Ø±Ø§
Ùģ Ø±ÙĬÙĤ
Ø³ ÙĪÙħ
ĠÙĬ Ø¨ÙĬØŃ
ĠÙĬ Ø³Ø¨ÙĤ
ÙĦØ§ Ø·
Ø¬ ÙĦØ©
ÙħØ§ Ø©
ĠØ§ÙĦÙħ ÙĨØ³
ĠØ§ÙĦÙħ Ø¬ÙĩÙĪÙĦ
Ø¶ ÙĦØ§
Ø« Ø©
Ø« ÙĦØ§Ø«Ø©
Ø· ÙĦØª
Ø² Ø¡
ĠÙĨ Ø®ÙĦ
ĠÙĦÙħ Ø¹ÙĨÙī
ÙĨØ§ Ø«
ĠØ³ ÙĩØ§
Ø±Ø§ Ø¨Ùĩ
ĠØ§ÙĦØ¹ ÙĨØ§ÙĬØ©
ĠØ§ÙĦØ¹ ÙĨØ¨
ĠØ§ÙĦØ¹ ÙĪØ§Ùħ
ĠØ§ÙĦØ¹ Ø¨ÙĬØ¯
ĠØ¯ ÙĪØ§Ùħ
ÙĪØ§ ÙĨÙĩ
ÙĪØ§ Ø¯Ø±
Ø¯Ùĩ ÙĨ
ĠØ§ÙĦØ¨ Ø¶Ø¹
ĠØ¨Ø§ Ø¹Øª
ĠØ¨Ø§ ÙĦÙĬØ¯
ĠØ§ÙĦÙĨ Ø®
ÙĪÙĬ Ø¹
ÙĪÙĬ ÙĦØ²Ùħ
Ø¨Ø§ ÙĤ
ĠÙĬÙĤ Ø§Ø¨ÙĦ
ĠØ§ÙĦØ¬ ÙĩØ±
ĠÙĪØ£ Ø¬
ĠÙĪØ£ Ø¬Ø±Ø©
ĠÙĪØ£ Ø®Ø±Ø¬Ùĩ
ĠØ· Ø§Ø¦
ĠÙĪÙĬ ÙħÙĬÙĨ
ÙģØ³ Ø®Øª
ĠÙĦÙĬ Ø®Ø±Ø¬
ĠØ§ÙĦØ® Ø§ÙħØ³
ĠØ§ÙĦÙĥ Ø³ÙĪØ©
ĠØ´ÙĬ Ø¦ÙĬÙĨ
ÙĪÙĥ Ø£ÙĨÙĩ
ĠØ¹Ø¨Ø¯ Ùĥ
ĠØ¹Ø¨Ø¯ ÙĬÙĨ
ĠØ§Ø³Øª Ø«ÙĨÙī
ĠØ£Ø¨ Ø·ÙĦ
ÙĪØ£ Ø±Ø§Ø¯
ĠÙĪÙĤ Ø¶ÙĬØªÙĩ
ĠØ§ÙĦØ§ ÙĨÙģ
ĠÙĦÙĦÙħ Ø³ØªØŃÙĤ
ĠÙĬØ¯ Ø±
ĠÙĪÙħ ØŃ
ĠÙħØ³ ÙĤØ·
ĠØ§ÙĦÙħØª Ø¹Ø§
ĠØ§ÙĦØ· Ø¨
ĠØ§ÙĦÙħØ³ Ø§Ø¬Ø¯
Ø§ØŃ Ùħ
ÙģØª Ø§Ø¡
ĠÙĤØ§ Ø³Ùħ
ÙĪÙĨÙĩ Ùħ
ÙħØª ÙĬÙĨ
ĠÙĦØ² ÙĬØ§Ø¯Ø©
ĠÙĪØ³ Ø¬Ø¯
ĠÙĬØ³Øª Ø±
ĠÙĬØ³Øª ÙĤØ¨ÙĦ
ĠÙĬØ´ Ø§Ø±ÙĥÙĩ
ĠØ§ÙĦØ²ÙĪØ¬ ÙĬØ©
ÙĪÙħØ§ Øª
ĠÙĦØ¨ ÙĬØ§ÙĨ
ĠØ§Ø¹Øª ÙħØ¯
ĠØ§Ø¹Øª ÙĥØ§ÙģÙĩ
ĠØ§ÙĦÙħÙĨ Ø²ÙĦ
Ø®Øµ Øµ
ĠØ§Ø®Øª ÙĦØ·
ĠØ¨ÙĤ Ø§Ø¦Ùĩ
ĠØ¥Ø³ ÙĨØ§
ĠÙĦÙĦØ£ Ø¬ÙĨØ¨ÙĬ
ĠÙģØ± Ø³Ùĩ
ĠØ§ÙĦØ´ÙĬ ÙĪØ®
ĠØ³ÙĦÙħ Øª
ĠØ¹Ùħ Ø±Ø§
ĠÙĪØ® Ø§ÙĦÙģ
ÙĪØ§ÙĨ Ø¸Ø±
ĠØ¨Ø¬ ÙĬØ±ÙħÙĬ
ĠØ´Ø± Ø§Ø¤Ùĩ
ĠØŃØ¯ÙĬØ« Ùĩ
ĠÙĦØ³ Ø§ÙĨ
ĠÙĦØ³ ÙĩÙĪ
ĠÙĦÙģ ÙĤØ¯
ĠØ¨Ø§ÙĦÙĨ ÙĥØ§ØŃ
ĠØ§ÙĦØ£Øµ ÙĦÙĬØ©
ĠØªÙĥ Ø¨ÙĬØ±Ø©
ĠØªØµ Ø±ÙĬØŃ
ĠÙħØµ Ø±ØŃ
ĠÙĦØ® ÙĪÙģ
Ø¬Ø¹ ÙĦÙĩ
ĠØªØº ØªØ³ÙĦ
ĠØ£Ø¹Ø· ÙĬØª
ÙĪØ´ Ø¨Ùĩ
ĠØ¹Ø¬Ø² Ùĩ
ĠØ¹Ø± Ø¨ÙĬ
ĠÙĤÙĬØ¯ Ø§
ĠØ¨Ø´Ø± ÙĪØ·
ĠØ¥ØŃ Ø¶Ø§Ø±Ùĩ
ĠØ§ÙĦØ´Ø±ÙĬ Ø¹Ø©
ĠÙħØ®Ø§ÙĦÙģ Ø§
ĠØ§ÙĦÙħØ± Ø³ÙĦ
ĠØ§ÙĦØ§Ø¹Øª Ø±Ø§Ø¶
ĠÙħÙģ ÙĦØ³
ĠØ´Ø§ÙĩØ¯ ÙĬÙĨ
ĠØ¬ÙĨØ§ Ø¨Ø©
ĠÙĪÙĬØ¤ ÙĬØ¯Ùĩ
Ø¹Ø§Ø± Ùģ
ĠØ«Ø§ÙĦØ« Ø©
ĠÙĬØ³Ùħ Ø¹Ùĩ
ĠØ³Ø§ ÙĤØ·
ĠØºØ± ÙħÙĩ
ĠØ¨Ø§ÙĦØ¶ ÙħØ§ÙĨ
ĠÙģØ±Ø§Ø´ Ùĩ
ĠØ±Ø· Ø¨Ø§
ĠÙĦØ§Ø¨ ÙĨÙĩ
ĠØ§ÙĦØ£Ùĩ ÙĦÙĬØ©
ĠØ§ÙĦÙĬÙĩ ÙĪØ¯
ĠØ§ÙĦØ´Ø¹ Ø¨ÙĬ
ÙĬ ØµØŃ
Ø¨ Ø¥
Øª ÙģØ¹
ĠÙĪ ÙĪÙĤÙģ
ĠÙħ ÙĥÙĬ
ĠØ¨ Ø°ÙĩØ¨
ĠØ¨ Ø¨ÙĬØ¹Ùĩ
ĠÙģ Ø±Ø£Ùī
ĠØ¹ ÙĤØ±
ĠØ¹ ÙĦÙĦ
ĠÙĬ ÙģØ±
ØŃ ØµØ±
Ùĥ ÙħÙĨ
ĠÙĤ ØµÙĬ
Ø° Ø±Ø©
Øµ Ø¨Ùĩ
ĠÙģÙĬ ÙħØªÙĨØ¹
ĠØ§ÙĦÙħ ÙĤØ¯Ùħ
ĠØ§ÙĦÙħ ÙĤØ¯Ø±
ĠØ§ÙĦÙħ Ø±Ø§Ø¨ØŃØ©
ĠØ¥ Ø¶Ø§ÙģØ©
ĠØª ÙĪÙĦÙĬ
ĠØª ÙĪÙĦØ¯
ĠØª Ø®ÙĬØ±
ĠØŃ Ø²
ĠØŃ ØµØ±
ĠØŃ Ø§Ø¦Ø¶
Ø§ÙĦ ÙĦØ®ÙħÙĬ
ÙĩØ§ Ø±Ùĩ
Ø´ Ø·
Ø² ÙĦØª
ĠØ± Ø¹Ø§ÙĬØ©
ĠÙĦØ§ ÙĨØ¹
ÙĨØ§ Ø¨
ÙĨØ§ ÙĬØªÙĩ
ĠØ´ Ùħ
ĠØ° ÙĩØ§Ø¨
ÙĪÙĨ ÙĤÙĦÙĩ
Ø¨ÙĬ ØŃØ©
ÙĤØ¯ Ø©
ØŃØ¯ Ùĩ
ĠØ¯ ÙĬ
ĠØ¯ ÙģØ¹Ø©
ĠÙħØ¹ ØµÙĪÙħ
ĠØ§ÙĦÙĤ Ø§Ø¦Ùħ
ĠÙĪØ§ Ø¯
Øº Ø§ÙĦ
ĠØ§ÙĦØ¨ ÙĦØ§Ø¯
ĠØ§ÙĦØª Ø¨Ø±
ĠØ§ÙĦØª ÙĤØ·
ĠØ§ÙĦØª ØªØ§Ø¨Ø¹
Ø¦ ÙĪÙĦ
ĠØ§ÙĦÙĨ ÙĪÙĨ
ĠØ§ÙĦÙĨ Ø¸Ùħ
ÙĪÙĬ Ø¹ØªØ¨Ø±
ÙĬØ¹ Ø§Ø¨
ĠØ§ÙĦØ¬ Ø¹
ĠØ§ÙĦØ¬ Ø³Ø¯
ĠÙĪØ£ ÙĨÙĩØ§
ĠÙĪØ£ Ø¬Ø§Ø¨
ĠÙĪØ¬ Ø§Ø¡
ÙĬØ§ Ø¬
ĠØ§ÙĦØ³ Ø±Ø§Ø¬
ĠÙĪÙĬ Ø¬Ø¹ÙĦ
ĠØ§ÙĦØµ Ø¨Ø±Ø©
ĠÙĬØª Ø°ÙĥØ±
ĠØ§ÙĦØ® ÙĦÙĬÙģØ©
ĠØ§ÙĦØ® Ø§Ø¯Ùħ
ĠØ§ÙĦØ« ÙĪØ±ÙĬ
ĠÙĬÙĨ Ø¨Øª
ĠØ¨ÙĬÙĨ Ø§Ùĩ
ĠØ¶ Ø§ÙĤ
ĠØ¶ ÙĬÙĤ
ĠØ£Ùħ ÙĪØ§ÙĦÙĩ
ĠØ£Ùħ ÙĩØ§Øª
Ø¯Ø§ ÙĩØ§
Ø¯Ø§ Ø®ÙĦ
ĠÙĪØª Ø®
ĠÙĦÙĦÙħ Ø§ÙĦ
ĠÙĦÙĦÙħ ØµÙĨÙģ
ÙĪÙĤ Ø¨ÙĦ
ĠÙģØ£ Ø¹ØªÙĤÙĩ
ĠÙģØ§ Ø¹ÙĦÙĩ
ĠÙĪÙħ ÙĦÙĥ
ĠØ¨Ùħ ÙĪØ¬Ø¨
ÙĪØ³ Ø©
ĠÙħØ³ Ø§Ùģ
ĠÙģØª Ø±Ùĥ
ĠØ£Ø¬ ÙĪØ¯
ĠØ§ÙĦÙħØ³ Ø±ÙĪÙĤ
ĠÙħØ± Ø§Ø±Ø§
Ø§Øª Ø±
ĠÙĬØ³ Ø£ÙĦÙĩ
ĠØ«ÙĦØ§Ø« ÙĪÙĨ
Ø§ÙĦÙħ Ø§Ø¯Ø©
ĠØ¹ÙĦÙħ ÙĩØ§
ĠÙĥØ§ÙĦØ ·
ĠØªØŃ ÙĤÙĬÙĤ
ĠØªØŃ ÙĦÙĬÙģÙĩ
ĠÙĪØµ ÙĪÙĦ
ĠÙĪØµ ÙĬÙĩ
ÙħØª Ùĥ
ĠÙĤØª ÙĦØª
ĠØ¨ÙĬ Ø¶
ĠÙĪØ· Ø¦Ùĩ
ĠØªÙĤØ¯Ùħ Øª
ĠÙĪØ¨ Ø·ÙĦ
ĠØ§ÙĦØ¶ ÙĬØ§
ĠØ£ÙĤ ÙĦÙĩ
ĠØªØ£ ØªÙĬ
ĠØ§ÙĦÙħØ³ÙĦÙħ Ø©
ĠØ¨Ø¹Ø¯Ùĩ Ùħ
ĠÙĨØ³ ÙĬØ§ÙĨ
ĠØ§ÙĦÙħØ³Øª Ø«ÙĨÙī
ĠØ£Ø¯ Ø¨
ĠØ£Ø¯ Ø§Ø¦Ùĩ
ĠØ§ÙĦÙħØ´ Ø¨Ùĩ
ĠØ¬Ùĩ ÙĦØ§
ĠØ£ÙħØ§ ÙħØ©
ĠØ¨Ø§ÙĦØ¥ Ø°ÙĨ
ÙĤØ¶ ÙĬØ©
ĠÙĦÙĦÙĪ ÙĤÙģ
ĠÙĪØ² ÙĨØ§
ĠÙĪØ² ÙĬØ¯
ĠØ¯Ø§Ø± ÙĨØ§
ĠÙĤØ¨Ø¶ Øª
ĠÙħØ§Ø¦ ØªÙĬÙĨ
ÙĪØ« Ø©
ĠØ¨Øµ ÙĦØ§Ø©
ĠØ§ÙĦØ£Øµ Ø¨Ø¹
ĠØ£Ø®Ø±Ø¬ Øª
ĠØ®Øµ ÙħØ§
ĠØ§ÙĦÙģØ± Ø§Ø´
ĠØ£Ø°ÙĨ Øª
ÙĥÙģ ÙĬØ±
ĠÙĪÙĬØª Ø¬Ùĩ
ĠØ£Ø±Ø¨Ø¹ ÙħØ§Ø¦Ø©
ĠÙĦÙĦØ´ Ø§ÙģØ¹ÙĬ
ĠÙĪØº Ø³ÙĦ
ĠØµØ¯ÙĤ ØªÙĩ
ÙģÙĥ Ø£ÙĨÙĩ
ĠÙĥØª Ø¨Ùĩ
ĠØ§ÙĦØ´Ø± ÙĪØ¹
ĠØ±Ø¶Ø§ ÙĩØ§
ĠÙħÙĪØ¶ ÙĪØ¹
ĠÙħØ±Øª Ø¯Ø§
ĠÙģØ· Ø±Ùĩ
ĠÙĨØ¹ ÙħØ©
ĠÙĬØ·ÙĦÙĤ ÙĩØ§
ĠÙħØ¬ÙĦØ³ Ùĩ
ĠØ®Ø´ Ø¨Ø©
ĠØ§Ø®ØªÙĬØ§Ø± Ø§
ĠØ§ÙĦØŃÙĨ ÙģÙĬ
ĠÙħÙĤØµÙĪØ¯ Ø§
ĠÙħÙĪØ¬ Ø¨Ø§
ĠÙĪÙĨØµ ÙģÙĩ
ĠØ®Ø§ Ø¯Ùħ
ÙĪÙĤØ§ ÙĦØ§
ĠÙĪØ¨Ø¹Ø¶ ÙĩÙħ
ĠØ§ÙĦØªÙĥ Ø¨ÙĬØ±
ĠØ§ÙĦØ³ÙĨ ÙĨ
ĠØ±Ø³ ÙĪÙĦÙĩ
ĠØ§ÙĦÙħØ®Ø§ÙĦÙģ Ø©
ĠØªØ£ÙĪÙĬ ÙĦØ§ÙĨ
ĠØ§Ø¬ ØªÙħ
ĠÙĦÙĪÙĤ ÙĪØ¹
ĠØŃÙĦØ§ ÙĦØ§
ÙĪ ÙĪØ§
ÙĪ Ø¸
ĠØ§ Ø«ÙĨØ§
Ùħ Ø³Øª
Ø¨ ÙĪØ©
ĠÙĪ ÙĦØª
ĠÙĪ ÙĦØ²Ùħ
ĠØ£ Ø°Ø§
ĠØ£ Ø³Ø¨ÙĤ
ÙĤ ÙĨ
ÙĤ Ùħ
ĠØ¨ ÙĤØµ
ĠØ¨ Ø®Ø¨Ø±
ĠØ¨ Ø±Ø¨Ø¹
ĠØ¨ Ø¨Ø¯ÙĦ
ĠÙģ ÙĦØ£
ĠÙģ Ø¬Ø±
ĠÙģ Ø±ØŃ
ĠØ¹ ØªÙĬÙĤ
ÙĦÙħ Ø³
Ùģ ÙĪØ±
Ùģ Ø°ÙĥØ±
Ø³ Ø·Ùĩ
ĠÙĤ Ø§Ø¯
ĠÙĤ ÙħÙĬ
ĠÙĤ Ø¹Ø¯
ĠÙĤ Ø³Ø·
ĠÙĤ Ø±Ø§Ø¡ØªÙĩ
ĠÙģÙĬ ÙĤ
ĠÙģÙĬ ÙĥØ±Ùĩ
ĠÙĥ Ø²ÙĪØ¬
ĠØ§ÙĦÙħ Ø¸
ĠØ§ÙĦÙħ ÙģØ³Ø¯
ĠØ¥ Ø¬Ø§Ø²
ĠØ¥ ÙĥØ±Ø§Ùĩ
ĠØ¥ Ø¸ÙĩØ§Ø±
Ø® Ø¨
ĠØª Ùĩ
ĠØª Ø¬Ø§Ø±Ø©
ĠØª ØºÙĬØ±Ùĩ
Ø§ÙĨ Ø¦
ĠÙĦØ °ÙĬ
ÙĦÙĤ Ùĩ
Ø§Ø± Ø¬Ùĩ
ĠÙĦØ§ Ø²ÙħØ©
ĠÙĩ ÙĦØ§
ĠØ³ Ø§Ùĥ
ĠØ³ ÙĦØ·Ø§ÙĨ
ĠØ³ ÙĩØ§Ùħ
ØªÙĩ Ø¨
ĠØ§ÙĦØ£ Ø³ÙĨØ§ÙĨ
ĠØ´ ÙģØ¹
ĠØ¬ Ø¯Ø©
Ø§Ø¨ ÙĤ
ĠØ§ÙĦØ¹ ÙĦÙĪ
ĠØ§ÙĦØ¹ Ø±Ø§ÙĤÙĬ
ĠØ® Ø¨ÙĬØ±
ĠÙħØ¹ Ø¸Ùħ
ĠÙħØ¹ ÙĬØ¨Ø§
Ø±Ùĩ ÙĪÙĨØ©
ĠÙĪØ§ ÙħØ±Ø£Ø©
ÙĪØ¬ ÙĩØ§ÙĨ
ĠÙħÙĨÙĩ ÙĬ
ĠØ§ÙĦØ¨ Ø¹ÙĬØ±
ĠØ§ÙĦØª ÙģØ§ÙĪØª
ÙģØ¹ ÙĦÙħ
ÙĤÙĬ Ø³
Ø¦ ØªÙĬÙĨ
ĠØ§ÙĦØ¥ ØªÙĦØ§Ùģ
ÙĪÙĬ ØŃ
ÙĪÙĬ Ø¶ÙħÙĨ
ĠØ² ÙħÙĨØ§
ĠØ§ÙĦØ´ ÙĩÙĪØ©
ĠØ§ÙĦØ¬ ÙĨØ§
ĠØ§ÙĦØ¬ Ø¨ÙĦ
ĠÙĬØ¬ Ø¹
ĠØ§ÙĦØ³ Ø§Ø¹Ø©
ĠØ§ÙĦØ³ ÙĥÙĨÙī
ĠÙĪÙĬ Ø®
ĠÙĪÙĬ Ø¹ØªØ¨Ø±
ĠÙĪÙĬ Ø³Ø¬Ø¯
ÙģØ± Ø§Ø²
ĠØ§ÙĦÙģ ÙĦØ§ÙĨÙĬ
ĠØ§ÙĦØµ Ø¨Ø±
ĠØ§ÙĦØµ ÙħØ¯
ĠÙĬØª Ø³
ĠÙĬØª ÙģÙĤ
ĠÙĬØª Ø²ÙĪØ¬ÙĩØ§
ĠÙĬØª ØŃÙĦÙĦ
ĠÙĬØŃ Ø¬Ø¨
Ø¯ÙĬ Ø¨ÙĬØ©
Ø¤ Ø¬ÙĦ
ĠØ§ÙĦÙĥ ÙĪÙģØ©
ÙĩÙħØ§ Øª
ĠØº ÙĬØ¨
Ø®Ø± Ø³
ĠØ£Ø¨ÙĬ ÙĩØ§
ÙĤØ· Ø¹Ùĩ
Ø®Øª ÙĬØ§Ø±
ĠØ¨Ø£ ØµÙĦ
ÙĪØ¶ Ø¦
ĠØ§Ø³Øª Ø¯ÙĦ
ĠØ§Ø³Øª ÙĪÙĦØ¯
ĠÙĪØª Øª
ĠÙĪØª ØµØŃ
ĠÙĪÙĤ Øµ
ĠÙĪÙĤ Ø§ÙĦØª
ĠØ¨Ø¯ ÙĪ
ÙĪØ§ÙĦØ ·
Ø´Ø± Ø§Ø¡
ĠÙħØª Ø¨Ø±Ø¹
ĠÙĬÙħ ÙĬØ²
ĠÙĤØ¨ ÙĪÙĦÙĩØ§
Ø·ÙĦÙĤ Øª
ĠÙĪØ§ÙĦÙħ Ø³
ĠØ§ÙĨ Ø¯
ĠØ§ÙĨ ÙĥØ³Ø±
ĠÙħØ³ ØªÙĩÙĦÙĥ
ĠÙĬØ£ ÙħÙĨ
ÙĩØ¯ Ø§Ø¡
ĠØŃÙĤ ÙĩÙħØ§
ĠØ§ÙĦÙħØ¹ Ø§ÙħÙĦØ©
ĠÙĪØµ ÙĪÙĦÙĩ
Ø±Ø¹ Ùī
ĠØ§Ø¹Øª ÙĬØ¯
ĠØ¨Ø´ ÙĩÙĪØ©
Ø³Ø§ ÙĦÙĩ
ĠÙĨØ³ Ùĥ
ĠÙħØ³Øª ÙĤØ¨ÙĦ
ÙĪØ§ÙĦÙħ Øª
ĠÙģØ± Ø¯Ùĩ
ĠÙģØ§ÙĦØ ¶
ĠØªÙĨ ÙģÙĬØ°
Ø¶ÙĪ Ø¦Ùĩ
ĠØ¨Ø§ÙĦØŃ ÙĥÙħ
ĠØ¨Ø§ÙĦØŃ Ø¬Ø±
ĠÙĪØ´ Ùĥ
ĠÙĥØªØ§Ø¨ ÙĬ
ĠØ¨Ø³ Ø·
ĠØ§ÙĦØªØ¹ Ø²ÙĬØ±
ĠÙĪØ§ÙĦÙĤ ÙĬØ§Ø³
ĠÙĨØ¬ Ùħ
ĠÙĤØ±ÙĬ Ø¨Ø©
ĠØµØ±ØŃ ÙĪØ§
ĠØ¹Ø§Ø¯ ØªÙĩØ§
ĠÙĪØ§ÙĦØ¬ Ø¯
ĠÙĦÙĦØ³ ÙĨØ©
ĠØ¨Ø§ÙĦØ¬ ÙĪØ§Ø²
ĠØ§Ø®ØªÙĦÙģ ÙĪØ§
ĠØ³ÙĨ Ø§ÙĨ
ĠÙħØŃØª Ø±Ùħ
ĠÙģÙģÙĬ ÙĩØ§
ĠØ¹ÙĤ Ø§Ø±
ĠØªØ² ÙĬØ¯
ĠÙħÙĤØ¯ ÙħØ©
ĠØ§ÙĦÙħØ² ÙĨÙĬ
ĠØ§ÙĦØ¹Ø¨Ø§ Ø¯
ĠØ¨Ø° ÙĦÙĩ
ĠØ³Ø¨Ø¹ ÙĬÙĨ
ÙĤØ§Ø¨ ÙĦ
ĠØ¹ÙĪØ¶ Ùĩ
ĠÙĪØ«ÙĦØ« Ø§
ĠØ£Ø· Ø±Ø§Ùģ
ĠØ³Ùģ ÙĬÙĨØ©
ĠØ§ÙĦØ¥ÙĬ ÙħØ§ÙĨ
ĠØ§ÙĦØªØ£ ÙĪÙĬÙĦ
ĠÙĤØµØ§Øµ Ø§
ĠØªÙģØ±ÙĬ Ø¹
ĠØ¨Ø§ÙĦØ° ÙĥØ±
ĠÙĪØ£Øµ Ø¨Øº
ÙĪØ§ÙĦØµ ØŃÙĬØŃ
ĠÙĦØªØ¹ Ø¯ÙĬÙĩ
ĠÙĪÙĤØ¨ Ø¶Ùĩ
ĠØ§ÙĨØ¹ ÙĤØ§Ø¯
ĠØ§ÙĦÙħÙĪØ· ÙĪØ¡Ø©
ĠÙħØ®ØªØ§Ø± Ø§
Ø§ Ø¶ÙĦ
ÙĨ ÙģØ³
ÙĨ Ø§ÙĨÙĬ
ÙĨ ÙĪØ©
ÙĪ Ø±Ùĥ
ĠØ§ Ø¶Ø·Ø±
Ùħ ÙĦÙĬÙĥ
Ø¨ Ø³Ùĩ
ĠÙĪ ØµØ¯ÙĤ
ĠÙĪ ÙĨÙĩØ§ÙĬØ©
ĠÙĪ ÙħÙĩØ±
ĠØ£ Ø«Ùħ
ĠØ£ Ø°ÙĨÙĩ
ĠØ£ Ø³Ø¨Ø§Ø¨
ĠÙħ Ø¬Ø¨
ĠÙħ Ø±Ø§Ùĩ
ĠÙħ ÙĪØµÙī
ĠÙħ Ø¨Ø·ÙĦ
ĠÙħ ÙĥØ«
ĠØ¨ Ø°Ø±
ĠØ¨ Ø§Ø´Ø±
ĠØ¨ Ø®ØµÙĪØµ
ÙĦØ§ Øµ
Ùĥ ÙĤÙĪÙĦÙĩ
ĠÙĤ Ø¯ÙĬÙħ
ĠÙģÙĬ Ø¬Ø¹ÙĦ
ĠÙĥ Øº
ĠØ¥ Ø¨Ø±Ø§Ø¡
ĠØ¥ Ø¯Ø®Ø§ÙĦ
ĠØª ÙħØ§
ĠØª ÙĪØ¨Ø©
ÙĦÙĪ ÙĦØ©
ĠØŃ Ø§ÙĨ
Ø§ÙĨ Ùī
ĠØ£ÙĨ Ø¸Ø±
ĠÙĨ Ø³ÙĦÙħ
ĠÙĨ Ø¬Ø¯
ĠÙĦØ§ ÙħØ±Ø£Ø©
ĠÙĩ Ø§
ĠÙĩ ÙħØ§Ùħ
ĠÙĩ Ø§ØªÙĬÙĨ
ĠØ³ ÙĦØ§ÙħØ©
ĠØ§ÙĦØ£ Ø¯Ø¨
ĠØ´ Ø±Ùģ
ĠØµ Ø§Ø¦ÙħØ§
Ø§Ø¨ ÙĬ
ĠØ§ÙĦØ¹ ÙĦØ§Ø¡
ĠØ§ÙĦØ¹ Ø³ÙĥØ±
ĠØ§ÙĦØŃ ÙĦÙĪ
ĠØ§ÙĦØŃ ØµØ±
ĠØ¯ Ø§ÙħØª
ÙĪØ§ ØªÙĩ
ĠØ§ÙĦØª ÙĪÙģÙĬÙĤ
Ø±Ø¨ Øµ
ĠÙĦÙĪ ÙĦÙĬ
ÙĪÙħ ÙħØ§
ĠÙĬÙĥ Ø¨Ø±
ĠØ§ÙĦÙĨ ÙĬØ§Ø¨Ø©
ĠØ§ÙĦØ´ Ùĩ
ĠÙĪØ£ Øª
ĠØ£Ø® Ø§
ĠØ£Ø® ØµØ±
ĠÙħØŃ Ø¨ÙĪØ³
ĠÙĬØª Ø®ÙĬØ±
Ø°Ùĩ Ø¨Øª
ĠØº ÙĨÙĬ
ĠØ±Ø¬ ØŃ
ÙĪÙĥ Ø©
ĠØ¨Ø£ ÙĥÙĦ
ĠØ¨Ø£ Ø±Ø¨Ø¹
ĠØ¨Ø£ ÙĬØ¯ÙĬ
ĠØ§ÙĦØ± Ø¹Ø§ÙĬØ©
ĠÙĪØª Øº
ĠØ¸ ÙĩØ§Ø±
ĠØ§ÙĦØº Ø±Ø§Ø³
ÙĪØ§ÙĦØ ²
ĠØªØ¹ Ø±ÙĬ
ĠØªØ¹ ÙĬØ¨
ÙĪÙĤ ÙģÙĩ
ĠÙĪÙĨ ÙģÙĤØ©
ĠÙĪÙĨ ØŃÙĨ
ĠÙĪÙħ Ø¬ÙĨÙĪÙĨ
ĠØ§ÙĨ ÙģØµ
ĠÙħØ³ Ø§ÙģØ±
ĠØ§ÙĦØ· Ø¨Ø±ÙĬ
ĠØ£Ø¬ ÙĬØ¨
ĠÙħØ± ØªØ¨Ø©
ÙĪÙģÙĬ ÙħØ§
ĠÙĬØ³ ÙĥÙĨ
ĠÙĬØ³ Ø§ÙģØ±
ĠØ£Øµ Ø§ÙĦØ©
ĠØ§ÙĦÙħØ¹ ÙĬÙĨØ©
ĠØ¨Ø§ÙĦÙħ ØŃ
ĠØ¨Ø§ÙĦ Ø±ÙģØ¹
ĠÙĪØŃ ÙĦ
ĠÙĬØµ ÙĬØ¨
ĠÙĪÙħØ§ ÙĦ
ĠÙĦØŃ Ø±ÙħØ©
ÙĦØ³ Ø§ÙĨÙĩ
ĠÙĦØ¨ ÙĪÙĨ
ĠÙĦØ¨ ÙĨÙĩØ§
ĠØ¨Ùĥ Ø±Ø©
ĠØ§ÙĦÙħÙĨ Ø¯
ĠØ§ÙĦÙħÙĨ Ø°ÙĪØ±
ĠØ¨ÙĤ Ø§Ø¤Ùĩ
Ø³Ø§ Ø·ÙĬ
ĠÙħØ¬ ÙĪØ³ÙĬ
ĠØ£Ø³ ÙĩÙĦ
ĠØ£Ø³ Ø¨Ø§Ø¹
ĠÙħØ³Øª Ø£Ø¬Ø±
ĠØ¨Ø§ÙĦØ£ Ø®Ø°
ĠØ¨Ø§ÙĦØ£ Ø¯Ø§Ø¡
ĠØŃØ¬ ØªÙĩ
ĠØ£Ø¯ Ø±ÙĥÙĩ
ĠØªÙĨ ÙĥØŃ
ĠØ·ÙĦÙĤ ØªÙĬÙĨ
ĠØ¬Ùĩ ÙĦÙĩ
ØºÙĨÙĬ Ø§Ø¡
ĠÙħØ¤ ÙĨØªÙĩ
ĠÙĦÙĦØ¹ ØªÙĤ
ĠÙĤÙĦ ÙĨØ§Ùĩ
ĠØ£Øª ÙĬØª
ÙĬØ³ Ø±Ø©
ÙĪØ§ÙĦØ£ ÙĤØ±Ø¨
ĠØ§ÙĤØª Ø¯Ùī
ĠØ¨ÙĬØª ÙĩØ§
ĠÙħØµ Ø¹Ø¨
ĠØ¹Ø§ ÙħÙĩ
ĠÙħØ· ÙĦÙĪ
ĠØ¨Ø§ÙĦØ³ ÙĬÙģ
ĠØµØ§ÙĦØŃ Ø§
ĠØªØ¹ÙĦÙĤ Ùĩ
ĠØªØº ÙĬÙĬØ±
ĠÙĨØ² Ø¹Ùĩ
ĠØ§ÙĦÙĤØ¯ ÙĪØ±ÙĬ
ĠØ§ÙĦØ£Ø´ Ø¨Ø§Ùĩ
ĠÙħØº ØµÙĪØ¨
ĠØ¨Ø§ÙĦØµ ØŃØ©
ĠÙģØ§ÙĦØ£ ØµØŃ
ĠÙĩÙĦÙĥ Øª
ĠØ°Ø¨ØŃ ÙĩØ§
ĠÙģØ§Øª Øª
ĠØªØ´ Ø¨ÙĬÙĩ
ĠÙĦÙĦØ§ Ø¨ÙĨ
ĠØ§ÙĦØ¥ÙĬ Ø¬Ø§Ø¨
ĠÙģØ±Ø¬ ÙĩØ§
ĠØ§ÙĦØ¯Ø¹ ÙĪØ©
ĠØ´Ø§ÙĩØ¯ Ø§ÙĨ
ĠØ¶Ùħ ÙĨÙĩØ§
ĠÙħÙĤØª Ø¶Ø§Ùĩ
ĠØ±ÙĤÙĬ ÙĤÙĩ
ÙĪØ§ÙĦØ¯ ÙĦÙĬÙĦ
ĠØ«ÙĬØ§Ø¨ Ùĩ
ĠÙħØªØ¹ ÙħØ¯Ø§
ĠØ¨Ø±ÙĬ Ø¡
ĠØ£Ø±Ø³ ÙĦÙĩ
ĠÙħØ¹Ø±Ùģ ØªÙĩ
ĠÙħØ³Ø£ÙĦØª ÙĨØ§
ÙĪØ§ØŃØª Ø±Ø²
ĠÙħØ·Ø§ÙĦØ¨ ØªÙĩ
ĠÙħØ¬ÙĩÙĪ ÙĦØ§
ĠØ§ÙĦÙħÙĪØ³ Ø±
Ø§ ÙĬØ§
ÙĬ ÙĤÙĩ
ÙĬ ÙĦØ²ÙħÙĩ
ÙĪ ÙĦØ¨
ÙĪ Ø°ÙĥØ±Ùĩ
Ø¨ Ø±Ø§ÙĩÙĬÙħ
Ø¨ Ø§Ø´Ø±Ø©
ĠÙĪ Ø±Ø¶ÙĬ
ĠØ£ ØªÙĬ
ĠØ£ Ø«ÙħØ§ÙĨ
ĠØ£ Ø±Ø§Ø¯Ùĩ
ĠØ£ ÙĥÙħÙĦ
ĠØ¨ ÙħØ±
ĠØ¨ Ø§Ø¨ÙĨ
ĠØ¨ Ø¢Ø®Ø±
ĠÙģ ÙĦÙĥÙĦ
Ùģ ÙĪØª
Ùģ ÙĦÙĩØ§
Ø³ Ø§ÙĦØ©
ĠÙĬ ÙĪÙĦØ¯
Ø£ Ø¬Ø±Ø©
ĠÙĤ ÙģÙĬØ²
ĠÙĥ ÙĬÙĦ
ĠÙĥ Ø±Ø§Ùĩ
ĠØ§ÙĦÙħ ØªÙĬ
ĠØ§ÙĦÙħ ÙģØ¹ÙĪÙĦ
ĠØ§ÙĦÙħ Ø¨Ø¯Ø¹
Ø¶ ÙĪÙĨ
ĠØ¥ ØªÙħØ§Ùħ
ĠØ¥ Ø¯Ø±Ø§Ùĥ
ĠÙħÙĨ ÙĤØ·Ø¹
Ø® Ø±Ø§
ĠØª ØŃØ¯
ĠØª Ø¹Ø§
ĠØª Ø®ÙĦÙĦ
Ø§ÙĨ Øª
Ø§ÙĨ ÙħÙĬÙĨ
ĠØ§ÙĦ Ø±ÙĬØŃ
ĠØ§ÙĦ ÙĦØ§Ø²Ùħ
ĠØ£ÙĪ Ø±Ø¯
Ø´ ÙĬØ±
ĠØ± ÙĪÙĬÙĨØ§
ĠÙĨ ÙĤÙĬ
ĠÙĨ Ø§ÙĤ
ĠÙĨ Ø§Ø¯Ø±
ÙĨØ§ Ùħ
ĠØ³ ÙĨÙĩ
ĠØ³ ÙģÙĩ
ĠØ´ ÙĪØ§ÙĦ
ĠØ´ ÙĤÙĬÙĤ
ĠØ° Ø¨
ĠØµ Ø¯Ø§
Ø±Ø§ Ø¶Ùĩ
ĠØ¬ Ø¨Ùĩ
ĠØ§ÙĦØ¹ ÙħØ§Ø±Ø©
ĠØ§ÙĦØ¹ ÙĦÙĪÙĤ
Ø¨ÙĬ ÙĨÙĩ
Ø¨ÙĬ ÙĬÙĨ
ĠØ¯ Ø±ÙĩÙħØ§ÙĨ
ĠØ® ÙĦÙĪ
ĠÙħØ¹ Øµ
ĠØ§ÙĦÙĤ Ø·
ĠÙĪØ§ Ø®ØªØ§Ø±
ĠØ§ÙĦØª ØºÙĬØ±
Ø³ÙĦÙħ ÙĬÙĨ
ĠÙĦÙĪ Ø¬
Ø¨Ø¯ ÙĦÙĬÙĦ
ĠØ§ÙĦÙĨ Ø¯Ø¨
ĠØ² ÙħØ¹Ø©
Ø¨Ø§ Ø¹Ùĩ
ĠÙĬÙĤ Ø§ØªÙĦ
ĠÙĪØ£ ÙĦØŃÙĤ
ĠÙĪÙĬ ÙĤØ¨ÙĦ
ĠÙĪÙĬ ØµÙĬØ±
ĠÙĦÙĬ Ø¹
ĠØ§ÙĦÙģ ÙĤØ±
ĠØ§ÙĦØµ Ø¨Ø§Øº
ĠÙĬØ¹ ÙĨÙī
ĠØ§ÙĦÙĥ ÙĨØ²
ĠØ§ÙĦÙĥ Ø¨Ø§Ø¦Ø±
ÙĤØ± Ø¹
ĠØº Ø§ÙĬØªÙĩ
ĠÙĪÙĥ Ø³
ÙħØ³ Ø§ÙĥÙĩ
ĠØ±Ø¬ Ø¹Ø§
ĠØ¶ Ø§Ø¹
ÙĪØ¨ Ø¹Ø¶
ÙĪØª Ø±Ùĥ
ĠØ¹Ø¨Ø¯ ÙĪØ³
ĠØ§Ø³Øª ÙĪÙĬØ§
ĠÙĪØª ÙĦÙģ
ÙĪØ£ Ùħ
ÙĪØ£ ÙĬØ¶Ø§
ĠÙĪÙĤ ÙģØª
ĠÙĦÙĥ Ø§ÙģØ±
ĠÙĪÙĦÙħ ÙĨ
ĠÙĪÙħ Ø³ÙĦÙħ
ĠØ¨Ùħ ÙĤØ§Ø¨ÙĦØ©
ÙĪØ³ ÙĨ
ĠÙħØ³ ÙĨ
ĠÙĬÙĪÙħ ÙĩØ§
ĠØ£Øµ ÙĦØŃ
ĠØ¨Ø§ÙĦÙħ Øª
ĠÙĪØµ Ø§ØŃØ¨
ĠØ§ÙĦÙħØŃ Ø¨Ø³
Ø¬Ø² Ùħ
ĠÙĪØ³ Ø¹
ĠÙĪØ³ ÙĥØª
ÙĦØº Ø§Ø¡
ĠÙĬØ³Øª Ø«ÙĨÙī
ĠØ¨Øª ÙħØ§Ùħ
ĠØ´Ø±Ø· ÙĩØ§
ĠØ£Ø±Ø¨ Ø§Ø¨
ĠØ¢ ÙĥØ¯
ĠØ¨ÙĬ ÙĪØª
ĠÙĦØ¨ Ø·ÙĦØ§ÙĨ
ĠØ¨Ùĥ ØªØ§Ø¨
Ø§ÙĦØª ÙĩØ§
ĠØ§Ø¹Øª Ø¯
ĠØ§Ø¹Øª Ø±Ø¶
ĠØ±ÙĪØ§ ÙĬØªÙĬÙĨ
ĠÙĪØ§ÙĦØ£ Ø±Ø¶
ĠÙĪØ§ÙĦØ£ ÙĨØ«Ùī
ĠÙĪÙĤØª Ø§
ÙģÙĦØ§ ÙĨ
ĠØµØŃ ØŃ
ĠÙĬØ² ÙĬÙĦ
ĠØ±Ùĥ ÙĪØ¨
ĠØ§ÙĦØ§Ø³Øª Ø¹ÙħØ§ÙĦ
ĠØ£Ø®Ø¨Ø± ÙĨÙī
ĠØŃØ¯Ø« Øª
ĠØ¨Ø¬ Ø§ÙħØ¹
ĠØ´Ø± Ø§Ø¦Ùĩ
ĠØŃØ§ Ø¶Ø±Ø§
ĠÙĪÙĦÙĩ Ùħ
ĠÙĪØ± ÙĤØ©
ĠÙģØŃ ÙħÙĦ
ĠØ¬ÙĨØ³ ÙĩØ§
ĠØ¨Ø® ÙĬØ§Ø±
ĠÙĤØ±ÙĬ Ø¨Ùĩ
Ø¨Ø· Ø§ÙĦ
ĠÙĦØ¯ ÙĪÙĨ
ĠØ¨Ø§ÙĦØ¯ Ø®ÙĪÙĦ
ÙĨØµ Ø§Ùģ
ĠØ§ÙĦÙħÙģ Ø§Ø±ÙĤØ©
ĠÙĬØ¨ÙĦØº Ùĩ
ĠÙĤØ§Ø¦ ÙĦØ§
ĠØ¬ÙĨ ÙĪÙĨÙĩ
ĠÙģÙĬØŃ ÙħÙĦ
ĠÙĪØ®ÙħØ³ ÙĪÙĨ
ĠÙĬØ¨ÙĬØ¹ ÙĩØ§
Ø§ÙħØª ÙĨØ¹
ĠÙĪØ´Ø± ØŃ
ĠØ®Ø´ Ø¨
ĠØªØ§Ø¨ Ø¹Ø©
ÙĩÙĬØ± ÙĬØ©
ĠÙĦØ¨Ø¹Ø¶ ÙĩÙħ
ĠÙħÙĤØµ ÙĪØ¯Ø©
ĠØ£Ø¬Ø§Ø² Ùĩ
ĠÙģØ¬Ø§Ø¡ Øª
ĠØ§ÙĦØ¨Ø§ÙĤ ÙĬÙĨ
ĠØ§ÙĦÙħØ¶Ùħ ÙĪÙĨ
ĠØ¨ÙħØ³ Ø¬Ø¯
ĠØ¨Ø¢ ÙģØ©
ĠØ¥Ø« Ø¨Ø§ØªÙĩ
ĠØ¨ÙĨØµ ÙģÙĩ
ÙĦØ¦ Ùĥ
ĠÙħØ£Ø° ÙĪÙĨØ§
ĠØ§Ø´ ØªÙĩØ±
ĠÙĥÙģØ§ ÙĬØªÙĩ
ĠØ¨ÙĨØ³ Ø¨Ø©
¦ ÙĨ
ÙĦ ÙĨ
Ø§ ÙĦÙĬ
ÙĬ ØŃØ±Ùħ
ÙĪ ØŃØ¯Ø«ÙĨØ§
ĠØ§ ÙĦØ§Ùģ
Ùħ Ø¹Ø§
Ø¯ Ø¹Ø©
Øª Ø³
Ø¹ Ø±ÙĬ
Ø¹ Ø¨Ø©
ĠÙĪ Ø®Øµ
ĠÙĪ Ø¶ÙĪØ¦Ùĩ
ĠÙħ Ø°
ĠÙħ Ø±Ùĥ
ĠØ¨ ÙģØ³Ø®
ĠØ¨ Ø¨ÙĤØ§Ø¡
Ùģ ØµØ§Ø±
Ø³ ÙĤØ§Ø·
ĠÙĬ ÙĪØ§ÙģÙĤÙĩ
Ø£ Ø«Ùħ
Ø£ Ø®Ø±Ø¬Ùĩ
ĠÙĤ Ø¶Ø§Ùĩ
ĠÙĤ Ø°ÙģÙĩ
ĠÙģÙĬ Ø´ÙħÙĦ
ĠÙĥ Ø±Ø¨
ĠÙĥ ÙģÙĩ
ĠØ§ÙĦÙħ ÙĨÙģÙĤ
ĠØ§ÙĦÙħ ÙĥØ±ÙĪÙĩ
Ø¶ Ø¨Ø·
ĠÙħÙĨ Ø§Ø³
ĠØª Ø¬Ø±
ĠØª ÙģØ¹ÙĦ
ĠØª Ø®ØªÙĦÙģ
ĠØª Ø®ØªØµ
ĠØª Ø§ÙħØ©
ĠØŃ Ø°ÙģÙĩ
Ø² ÙĤ
ĠÙĨ ÙĪÙģÙĦ
ĠÙĩ Ø§ÙĨØ¦
ĠØ³ ÙĦØ¹
ĠØ³ ÙĨØ¯
ĠØ´ Ø¨
ĠØ£ÙĬ ÙħØ§
ĠØµ Ø§Ø¦Ùħ
ĠØµ Ø§Ø¹Ø§
Ø§Ø¡ Ùĩ
ĠØ¬ Ø±ÙĬØ§ÙĨ
ÙĤØ¯ Ø§
ĠØ¨Ø¹ ÙĬØ¯Ø©
ĠØ§ÙĦØŃ ÙĪØ²
ĠØ§ÙĦØŃ Ø§Ø¦Ø¶
ĠØ« ÙĪØ±
ÙĩÙĪ Ø±Ùĩ
ĠØ¯ ÙĪØ±
ÙĪØ§ ÙĦÙĩØ§
ÙĪØ§ ÙĦÙĤÙĪÙĦ
ĠØ® Ø§Øª
ĠÙħØ¹ Ø´Ø±
Ø±ÙĬ Ùĩ
ĠÙĪØ§ Ø¹ÙĦÙħ
ĠÙĪØ§ Ø®ØªØ§Ø±Ùĩ
ÙģÙĬ Ø¬Ø¨
ĠØ§ÙĦÙĪ ÙģØ§Ø©
ĠØ§ÙĦÙĪ Ø¯Ø§Ø¹
Øº Ùĩ
ĠÙĦØ£ ØµÙĦ
ĠÙĬÙĤ Ø§Ø¨
ĠØ§ÙĦØ¬ Ø¯Ø©
ĠØ§ÙĦØ¬ ÙĪØ§ÙĩØ±
ĠÙĪØ£ Ø´ÙĩØ¯
ĠÙĪØ£ Ø¹Ø·
ĠÙĪØ¬ ÙĩÙĦ
ĠÙĪÙĬ Ùħ
ĠØ£Ø® ÙĪØ§Øª
ĠØ§ÙĦØµ ÙĦÙĪØ§Øª
ĠÙĬØª Øº
ĠÙĬØŃ ÙĦÙĤ
ĠØ§ÙĦØ® Ø¨Ø±Ø©
ĠØ§ÙĦØ® Ø§ÙħØ³Ø©
ÙĪØ¯ Ø§
Ø³Ùħ Ø¹Ùĩ
ĠÙĪØ¹ ÙħØ±Ø©
ÙĪÙĩ ÙĥØ°Ø§
ÙģØ§ Ø³Øª
Ø¬Ø± ØŃ
ĠÙĬÙĨ ÙĤÙĦØ¨
Ø¶Ø§ ÙĩØ§
ÙĪØ¶ ØŃ
ĠØ§ÙĦØº ÙĦØ·
ĠØ§ÙĦØº Ø²ÙĪ
ĠÙĪÙĨ Ø¯Ø¨
ĠÙĪÙħ ÙĤØ§Ø¨ÙĦÙĩ
ÙĪÙģ Ø§Ø±ÙĤ
ĠØ¨Ùħ Ø¯Ø©
ĠØ¨Ùħ ØµØ±
ĠÙħØ³ ØŃÙĩ
ĠØ£Ø¹ Ø³Ø±
ĠÙģØª ÙĦÙģ
ĠÙģØª Ø¹ÙĬÙĨ
ĠÙģØª Ø¨Ø·ÙĦ
Ø·Ø¹ ÙħÙĩ
ĠÙĪÙĦØ¯ ÙĬ
ĠØ§ÙĦÙħØ¯ Ø§Ø±
ĠØ§ÙĦÙħØŃ Ø±ÙħØ©
ÙħØª Ø¹Ø©
ĠØ§ÙĦÙĬ Ø§Ø¡
ĠØ§ÙĦÙĬ Ø£Ø³
ĠØ¨Ø§ÙĦ ÙĨØ§Ø³
Ø¬Ø² Ø©
ĠÙĪØ³ Ø¹Ùĩ
ÙĤØ¨ ÙĦØ©
ĠØ¨Øª Ø³ÙĦÙĬÙħ
ĠØ¢ ÙĦÙĩ
ĠÙģØ³ Ø£ÙĦ
ĠÙĪØ¨ Ø£ÙĨ
ĠØ§Ø¹Øª ÙĤØ§Ø¯
ĠØ¨ÙĤÙĬ ÙħØªÙĩØ§
ĠØ§Ø®Øª ÙĬØ§Ø±Ùĩ
Ø³Ø§ Ø·
ÙĪÙĦÙĬ ÙĬÙĨ
Ø¨ØŃ Ø«
ĠØŃØ¬ Ø±Ùĩ
ĠÙģØ± ÙĪØ¹
ĠÙĦÙĨ ÙĤØµ
ĠÙģØ§ÙĦØ ®
ĠØ£ÙĦÙģ Ø§Ø¸
Ø±Ø³ Ø©
ĠØ£ÙħØ± ÙĬÙĨ
ĠØ¨Ø§ÙĦØŃ Ø±Ùħ
ĠÙĦÙĦØ¹ ÙĤØ¯
ĠØ§Øª Ø®Ø°
ĠØ¨Ø§ÙĦØ¥ ÙĤØ±Ø§Ø±
ĠØ¬Ø² ÙĬØ©
ĠÙĪØ§ÙĦØ¨ ÙĤØ±
ĠÙĪØ± ÙģØ¹
ĠÙĪØ² Ø¹Ùħ
ĠØ§ÙĦÙħØªÙĨ Ø¬Ø³
ĠØ£Ùĥ ÙĦØª
ĠØ£Ùĥ ÙĦÙĩØ§
ĠØªÙģ ÙĪØª
ĠØ¨Ø« ÙĪØ¨
ĠØ¨ÙħØ¹ ÙĨØ§Ùĩ
ĠØ¨Øµ Ø±Ùĩ
ĠØ§ÙĨØª Ø¸Ø±
ĠÙħØªØ¹ÙĦÙĤ Ø§
Ø§Ø¸ Ùħ
ĠØ£Ø·ÙĦÙĤ Ùĩ
ĠØ§ÙĦØ£Ø³ ÙĬØ±
ĠØ§ÙĦØ¨Ø± Ø¡
ĠØ§ÙĦØ¹Ø¨Ø§ Ø¯Ø§Øª
Ø£Ø¬ ÙĬÙĦ
ĠØ§ÙĦØŃØ§Ø±Ø« ÙĬ
ĠØ¨Ø§Ø¦ ÙĨØ©
ĠØ§ÙĦÙħØ¬ÙħÙĪØ¹ Ø©
ĠØ§ÙĦÙħÙĪØ§ ÙĤ
ĠØ§ÙĦÙħÙĪØ§ ÙģÙĤ
ĠÙĦÙĦØ§ ØŃØª
ĠÙĦØ±Ø¨ ÙĩØ§
ĠØ§ÙĦÙģØ§Ø³ ÙĤ
ĠØ§ÙĦÙģØ§Ø³ Ø¯Ø©
ĠØ§ÙĦÙħÙĤØ¯ Ø§Ø±
ĠØ§ÙĦØ£ÙĬ Ø³Ø±
ĠÙĪØ³Øª ÙĬÙĨ
ĠÙģØ§ÙĦÙĪ Ø¬Ùĩ
ĠÙĪÙĤØ§ Øµ
ĠÙĨÙĤ ÙĦÙĩØ§
ĠÙħØ¶ Ø·
ĠØµÙĨ Ø¹Ø©
ĠØºØ² ÙĪØ©
ĠØ§ÙĦØ¥ØŃ ØµØ§ÙĨ
ĠÙĪØ§ÙĦÙĩ Ø¨Ø©
ĠØ§ÙĦØ¨Ùĩ Ø¬Ø©
ĠÙģÙĪØ¬ ÙĩØ§ÙĨ
ĠØ¨Ø§ÙĦÙĤØ± Ø¹Ø©
ĠØ§ÙĦÙħØªØ¹ÙĦÙĤ Ø©
ĠÙħØ§Ø´ ÙĬØ§
ĠØ§ÙĦØ³Ùģ ÙĬÙĨØ©
ĠØ¯Ùģ ÙĨÙĩ
ĠÙħØ¹Ø± ÙĪÙģØ§
ĠÙĪØ§ÙħØ±Ø£ ØªÙĬÙĨ
ĠØ§ÙħØ± Ø¦
Ø§ ÙģÙĩ
ÙĬ Ø¦
ÙĬ ÙĥÙĪÙĨ
Ø± Ø§ÙĨ
Ø¨ ØºÙĬØ±
ĠÙĪ Ø°ÙĩØ¨
ĠÙĪ ÙħØ±Ø©
ĠØ£ ÙģØ¹
ĠØ£ Ø¨Ø±
ĠØ£ Ø·Ø¹Ùħ
ÙĤ Ø±Ø§Ø¶
ĠÙħ ÙĪ
ĠÙħ ØµØŃÙģ
ĠØ¨ ÙĥÙħ
ĠÙģ Ø§Ø¬
ĠØ¹ ØªÙĬ
ĠØ¹ ÙħÙĬ
ĠØ¹ Ø°Ø±Ùĩ
Ø³ ÙĨØ©
Ø³ Ø§Ø±Ùĩ
ĠÙĬ ÙĤØ¯
ĠÙĬ Ø·ÙĦ
ĠÙĬ Ø¨ÙĬØª
ØŃ Ø§Ùħ
ØŃ ÙĥØ§Ùħ
ĠÙĤ Ùħ
ĠÙĤ ÙĦÙħ
Øµ Ø±Ùĩ
ĠÙģÙĬ ØµØ¯ÙĤ
ĠÙģÙĬ Ø´ØªØ±Ø·
ĠÙĥ Ùĥ
ĠÙĥ ÙĨØ§ÙĨ
ĠØ§ÙĦÙħ ÙĪØ¬
ĠØ§ÙĦÙħ Ø±Ø¯
ĠØ§ÙĦÙħ ÙĩÙħØ§Øª
ĠØ¥ Ø¨ÙĦ
ÙĦÙĪ ÙĦÙĩ
ĠØŃ ÙĪ
ĠØŃ Ø±ÙĬ
ĠØŃ ÙħØ§Ùħ
ĠØ§ÙĦ Ø±Ø¶
ÙĪÙĦÙĩ Ùħ
Ø² ÙĬÙĨ
ĠØ± ÙĤÙĩ
ĠÙĨ ÙħØ§Ø¡
ĠÙĦÙħ ÙĦÙĥ
ĠÙĦÙħ ØŃÙĦ
ÙĨØ§ Ùĥ
ĠØ³ ÙĬÙģ
ĠÙħØ§ ÙĦÙĬØ©
ĠØ§ÙĦØ£ Ø¬Ø²Ø§Ø¡
ĠØ§ÙĦØ£ ØŃØ§Ø¯ÙĬØ«
ĠØµ ÙģØ±
ĠØµ ÙĪÙģ
ĠØ¨ÙĨ Ø§Ø¦Ùĩ
ĠØ¬ ØŃØ´
Ø§Ø¨ Ø³
ĠØ§ÙĦØ¹ Ø¸Ùħ
ĠØ§ÙĦØ¹ Ø±Ø¨ÙĬ
ĠØ§ÙĦØŃ Ø´ÙģØ©
ĠÙĪØ§ ÙģÙĤÙĩ
Ø§Ø¦ Øª
Ø§Ø¦ ØŃ
Ø§Ø¦ ÙĨØ§
ĠØ§ÙĦÙĪ Øµ
Øº ÙĬ
ĠØ§ÙĦØª Ø·
Ø¨Ø± Ø¦ÙĩØ§
ĠÙĪÙĦØ§ Ø¯ØªÙĩ
ĠØ§ÙĦÙĨ Ùģ
ÙĪÙĬ Ø¸ÙĩØ±
ÙĪÙĬ ÙĤØ¨ÙĦ
ĠØ§ÙĦØ¬ ÙĦØ§ÙĦ
ĠÙĪØ£ ØµÙĦ
ĠØ· Ø§ÙĩØ±Ø§
ĠØ§ÙĦØ³ Ø§Ø¦Ø¨
ĠÙĪÙĬ Ø¶Ø±Ø¨
ĠÙĪÙĬ Ø²ÙĬØ¯
ĠÙĪÙĬ ØºØ±Ùħ
ÙģØ³ ÙĩÙħ
ĠÙĦÙĬ Ø±Ø¬Ø¹
ØµØŃ ÙĬØŃ
ĠÙĬØª ÙĦÙģ
ĠÙĬØª ÙĬÙħ
ĠÙĬØª Ø¶Ø±Ø±
ĠØ§ÙĦØ® ÙĨØ²ÙĬØ±
ĠÙĬØ¹ Ø¬
Ø³Ùħ ÙĬ
ĠØ§ÙĦØ« Ø¨ÙĪØª
ĠØ§ÙĦØ¯ ÙĪØ±
ĠÙĪØ¹ Ùħ
Ø¬Ø± Ø§Ø¡
ĠØ§ÙĦØ± Ø£ÙĬ
ÙĪØ£ Ø¨ÙĬ
ĠÙĪÙĤ ØµØ¯
ĠØ¸ ÙĩØ±Ø§
ĠØ¸ Ø§ÙĨØ§
ĠØ§ÙĦØº ÙĨÙĬ
ĠÙĬØ¯ Ø®
ĠÙģØ§ ØŃØª
ĠÙĪÙħ Ø¬
ĠÙĪÙħ ÙĤØªØ¶Ùī
Ø±ØŃ Ùħ
ĠÙĪØ§ÙĦÙħ ÙĥØ§ØªØ¨
ĠÙħØ³ Ùĩ
ĠØŃÙĬ Ø§ÙĨ
ĠÙĬØ£ ÙĥÙĦÙĩ
ĠØ§ÙĦÙħØ³ Ùĥ
ĠØ£Ø¨ÙĪ Ø§Ø¨
ĠÙħØ± Ø³ÙĦ
ÙĪØ¥ ÙĨÙĩ
Ø¬Ø¨ Ø§Ø±
ĠØ§ÙĦÙħØ¹ Ø¯Ø©
ĠÙĪØµ Ø¨ÙĬ
ĠÙĬØµ ÙĦÙī
ĠÙĪØ³ Ø¯Ø³
ĠÙĦÙĤ ÙĪÙħ
Ø§ÙĦØ¨ ÙĬØ¹
ÙĪØ§ÙĦ Ø±
ĠÙģØ³ ÙĤÙĩ
ĠÙĪØ¨ ØŃØ«
ĠØ§ÙĦØ¶ Ø¹ÙĬÙģ
ĠØ§ÙĦÙħÙĨ ÙĬØ©
ĠÙģÙĥ Ø£ÙĨ
ĠØ¨ÙĤ ÙĦØ¨Ùĩ
ĠØ¨Ø· ÙĨÙĩ
ĠØ§ÙĦØ¢ Ø®Ø°
ĠØ§ÙĦØ¢Ø®Ø± ÙĬÙĨ
ÙĥÙħØ§ ÙĦ
ĠÙĦÙĦØ£ ÙħØ±
ĠØªÙĤ Ùħ
ĠØ§ÙĦØ¸ Ø±Ùģ
ĠØŃØµ ÙĪÙĦÙĩ
ĠØ§ÙĦØ§Ø³Øª Øº
ĠØ§ÙĦØ§Ø³Øª ÙĬÙģØ§Ø¡
ĠØ§ÙĦØ§Ø³Øª ÙĨØ¬Ø§Ø¡
ĠÙħØ´ Ø§Ø¹Ø§
ĠÙħØ¤ ÙĨ
ĠØªÙħ Ø±Ø§
ĠÙĬØ±Ø¯ ÙĩØ§
ĠØ¨Ø± ÙģØ¹
ĠÙĥØªØ§Ø¨ Ø§
ĠÙĪØ¯ Ø±ÙĩÙħ
ĠØ§ÙĦØ«ÙĦØ« Ø§ÙĨ
ĠØ£Ø³ÙĦÙħ Ø§
ĠØµÙĦØ§ ØªÙĩØ§
ĠÙħØ§Ø¦ ØªÙĬ
ĠØ¯Ø¹ ÙĪØªÙĩ
ĠØŃÙĥ Ùī
ĠØªÙģ ÙĪÙĬØª
ĠÙĥØ³ ÙĪØ©
ĠÙĦØº Ø§
ĠØªÙĥ ÙĦÙģ
ĠÙĥØ§ Ø°Ø¨Ø§
ĠØ¬Ùħ Ø¹Ø§
ĠÙĦÙĦØ´ Ø§Ø±ØŃ
ĠØ³ÙħØ¹ ØªÙĩ
ĠØ§ÙĦØ±Ùĥ ÙĪØ¨
ÙĨØ² Ø§ÙĦ
ĠØ§ÙĦÙĤØ¯ ÙĪØ©
ĠØ¨Ø§ÙĦØº Ø³ÙĦ
ĠÙģØ§ÙĦØ£ ÙĪÙĦÙī
ĠØ§Ø±Øª ÙģØ¹
ĠÙĪØ£Ùħ Ø±Ùĩ
ĠØŃÙħØ§ Ø±
Ø§ÙĪÙĬ Ùĩ
ĠØªØ± ÙģØ¹
ĠØ±Ø£ÙĬ ÙĬ
ĠØ§ÙĦØ±ÙĪØ§ ÙĬØ§Øª
ĠØ§ÙĦØ±ÙĪØ§ ÙĬØªÙĬÙĨ
ĠØ¥Ø¹ Ø§Ø±Ø©
ĠÙĥØ§ÙĦØŃ Ø±
ĠÙĨØµØ± Ø§ÙĨÙĬ
ĠÙĦÙĦØ¶ Ø±Ø±
ĠØ¨ØµØŃ ØªÙĩ
ĠØ¶Ùħ ÙĨØ§
ĠØ§ÙĥØª Ø±Ùī
ĠÙĬÙĦØª Ø²Ùħ
ĠØŃØ¸ Ùĩ
ĠØ§ÙĦÙĤØª ÙĬÙĦ
ĠÙħÙĤØµ ÙĪØ¯Ùĩ
ĠÙĬØ±Ø¬ Ùī
ĠØ§ÙĦØ¥ÙĤ ÙĨØ§Ø¹
ĠÙĬÙĥØª ÙģÙī
ĠØ§ÙĦØ±Ø¨ Ø§
ĠØ§ÙĦÙħÙĪØ¶ ØŃØ©
ĠÙĦØ¸ ÙĩÙĪØ±
ĠØ§ÙĦÙħÙĤØ§ ØµØ©
ĠÙħÙģØ³ Ø¯Ø©
ĠÙĪØ£Ø´ ÙĩØ¨
ĠØ§ÙĦØ¨Øµ Ø±ÙĬ
ĠØ§ÙĦÙħØ®Øª ØµØ±
ĠØ£ÙĪØ¬ Ø¨Ùĩ
ĠÙģÙĤØ§ ÙĦÙĪØ§
ĠØ·ÙĪÙĬ ÙĦØ©
ĠÙģØ£Ø® Ø¨Ø±Ùĩ
ĠØ§ÙĦØ¹ÙĬ ÙĪØ¨
ĠØ§ÙĦØ®Ø² Ø±Ø¬
ĠÙĨØ§ØŃ ÙĬØ©
ÙĦ ÙĦØ£
Ø§ ÙĪØ±
Ø§ ÙĦÙĩÙħ
ÙĨ ØµÙģ
ÙĬ ØŃØ§
ÙĪ ÙħØ±
ÙĪ ÙĪÙĦØ¯
Ø¨ Ø£ÙĨÙĩ
Ø¯ ÙĪ
Ø¹ ÙĪØ§
Ø¹ Ø¯Ùĩ
ĠÙĪ ÙĨÙĩ
ĠÙĪ ÙĦÙĤ
ĠÙĪ Ø¨Øª
ĠÙĪ ÙģØ¹ÙĦ
ĠÙĪ Ø±Ø¬ÙĦ
ĠÙĪ Ø¶ÙħÙĨ
ĠÙĪ ÙģØ§ÙĤØ§
ĠØ£ ÙĩÙħ
ĠØ£ Ø³Ø¨
ĠØ£ Ø³ÙĨ
ĠØ£ Ø¦ÙħØ©
ĠØ£ ÙĩØ¯Ùī
ÙĤ ÙĪÙģ
ĠÙħ ÙĩØ±Ø§
ĠÙħ ÙĩØ§ÙĬØ£Ø©
ĠØ¨ ÙģØ±
ĠØ¨ Ø¬ÙĩØ©
ĠÙģ Ùģ
ĠØ¹ ÙģÙĬ
ĠØ¹ Ø§Ø¬
ĠØ¹ Ø±ÙĤ
Ùģ Ø£ÙĨ
Ùģ ÙĦØ°ÙĦÙĥ
Ø³ ÙĪÙģ
ĠÙĬ Ø±Ùħ
ĠÙĬ ÙĦØº
ĠÙĬ Ø±ÙħÙĬ
ĠÙĤ ÙĪØªÙĩ
ÙĦÙĬ ÙħØ©
ĠØ§ÙĦÙħ ÙĤØ·ÙĪØ¹
ĠØ§ÙĦÙħ Ø³Ø¨ÙĪÙĤ
Ø¶ Ø¯
ĠØ¥ ØŃÙĬØ§Ø¡
ĠØ¥ Ø¬Ø§Ø±ØªÙĩ
ĠÙħÙĨ ÙģØµ
ĠØª ÙħØ³
ĠØª ÙĨØª
ĠØª ÙħØªØ¹
ĠØª ÙĨÙģØ°
ĠØª ÙĪØ¬ÙĬÙĩ
ÙĦÙĪ ÙĨÙĩ
ĠØŃ Ø¶
ĠØŃ ÙħØ¯
ĠØŃ ÙĥØ§Ùĩ
Ø§ÙĦØ ¸Ø§ÙĩØ±
ĠØ± Ø§
ĠØ± Ø¯ÙĬ
ĠØ± Ø³Ùħ
ĠØ± ÙĪØ¶
ĠØ± Ø§ØŃ
ĠÙĨ Ø´
ĠÙĨ Ø£Ø®Ø°
ĠØ³ ÙĪØ¡
ĠØ³ Ø·ØŃ
ĠØ§ÙĦØ£ Ùĥ
ĠØ§ÙĦØ£ Ø°Ùī
ĠØ§ÙĦØ£ Ø³Ø¨Ø§Ø¨
ĠØ§ÙĦØ£ Ø±ØŃØ§Ùħ
ĠØ£ÙĬ ÙħØ§ÙĨ
ĠØ° Ø¦Ø¨
ĠØµ Ø¨Ø±
ĠØµ ÙģØ§Øª
ĠØµ ÙĦÙĬØª
Ø±Ø§ ÙĤØ©
ĠØ§ÙĦØŃ Ø¶
ĠØ§ÙĦØŃ Ø¶Ø±
ØŃØ¯ Ùī
ÙĪØ§ ÙģÙĦ
ÙĪØ§ Ø®ØªØ§Ø±
ÙĪØ§ Ø®ØªØ§Ø±Ùĩ
ĠÙħØ¹ ÙĨØ§ÙĩØ§
ĠÙħÙĨÙĩ Ø¬
ĠÙĦØ£ Ø®ÙĬÙĩ
ĠØ§ÙĦØª Ø±Ø¯Ø¯
ĠÙĪØ§ÙĦØ ¢
ĠÙĪØ§ÙĦØ ²ÙĪØ¬Ø©
ĠØ§ÙĦØ¥ Ø«Ø¨Ø§Øª
ĠØ¨Ø§ Øª
ÙĪÙĬ ÙĦØ²ÙħÙĩ
ÙĪÙĬ ÙģØ±ÙĤ
ĠØ² Ø§ÙĨ
ĠØ¨Ø¹Ø¯ Ø¯
ĠÙĪØ£ ÙĪÙĦØ§
ĠØ§ÙĦØ³ ÙħØ¹
Ø±Ùģ Ø¶
ĠØ£Ø® ÙħØ§Ø³
ĠÙĦÙĦØ ¸
ĠØ§ÙĦØµ ÙĪØª
ĠÙĬØª ÙĪÙĦÙī
ĠÙĬØª Ø¹Ø¯Ùī
ĠØ§ÙĦÙĥ Ø§ØªØ¨
ĠØº Ø§Øµ
ĠØ§ÙĦØ¯ ÙĩØ±
ĠØ§ÙĦØ¯ ÙģÙĨ
ĠØ§ÙĦØ¯ Ø§Ø®ÙĦ
ĠÙĪØ¹ ÙħÙĦ
ÙģØ§ Ø¹Ùĩ
ĠÙĬÙĨ Ø³
ÙĬØª Ø©
ĠØ±Ø¬ Ø§Ø¡
ĠØ±Ø¬ ÙĪØ¹Ø§
ĠØ§ÙĦØ° ÙĨØ¨
Ø®Øª ÙĬÙĨ
ĠØ£Ùħ Ø±ÙĩÙħ
ĠØ£Ùħ Ø«ÙĦØ©
Ø¯Ø§ Ø¯Ùĩ
ĠØ§ÙĦØ± Øº
Ø¨Ø¹ ÙĩØ§
ĠÙĪØª Ø±
ĠØ§ÙĦØº ÙĨ
ĠØ§ÙĦØº Ø±Ùħ
ĠØªØ¹ Ø¬ÙĬØ²
ĠÙģØ£ ÙħØ±Ùĩ
ØµØ¯ ÙĤØª
ĠÙģØ§ Ø¶Ø±Ø¨
ĠÙĪÙħ ÙħØ§
ĠØ£ØŃ Ø¶Ø±
ĠØ£ØŃ Ø¶Ø±Ùĩ
Ø±Ø¯ Ø¨
ĠÙĦÙĬØ³ ÙĪØ§
ĠÙĪØ§ÙĦÙħ Ø¯
ĠØ°ÙĥØ± ÙĪØ§
ĠØ°ÙĥØ± ÙĪÙĩ
ĠØ§ÙĦÙħØª ÙĪØ³Ø·
ĠØ£Ø¹ Ø±Ø¶
ĠØ£Ø¹ Ø±Ùģ
ĠÙħÙĦÙĥ ÙĩÙħ
ÙĪÙģÙĬ Ø§
ĠÙĬØ³ Ø¹Ùĩ
ĠÙĦØ¹ ÙĦØ©
ĠØ£Øµ Ø¨
ÙĪØµ Ø±ØŃ
ĠØ¨Ø¥ ØŃ
ĠØ¨Ø¥ Ø³ÙĨØ§Ø¯Ùĩ
ĠÙĪÙħØ§ Ø¦Ø©
ĠÙĦØŃ ÙĬØªÙĩ
ĠÙĦØª Ø±Ùĥ
ĠÙĦØª ØŃÙĤÙĤ
ĠØ§Ø´Øª Ø¨Ùĩ
ĠØ§Ø´Øª ØºÙĦ
ĠØ¨ÙĦØ§ ÙĦ
ĠØ§ÙĦÙĩ Ø¬Ø±Ø©
ĠÙĬØ´ Ø§Ø±Ùĥ
ĠØ£ÙĤ Ùģ
Ø±Ø§Ø¬ Ø¹Ø©
ĠØ¨Ø§ÙĦØ£ ÙħØ±
ĠØ§ÙĦÙħØ¬ Ø¨Ø±
ÙĪØ§ÙĦÙħ Ø³Øª
ÙĪØ§ÙĦÙħ Ø¹ØªÙħØ¯
ĠÙĦÙĨ ÙģÙĬ
ĠØ§ÙĦØ¸ ÙĩÙĬØ±ÙĬØ©
ĠÙģØ§ÙĦØ ´
ĠÙĩÙĬ Ø¦Ø©
ÙĦØ§ÙĨ ÙĬØ©
ĠÙĬØŃØª Ø³Ø¨
ĠÙĬØŃØª ÙħÙĦÙĩ
ĠÙĬØ· ÙĪÙĦ
ĠØ±Ø¨ Ø·
ĠØ¹ÙĤØ¯ Ø§
ĠØ¹ÙĤØ¯ Ø©
ĠÙĥÙģ Ø¡
ĠÙĪØ« ÙħÙĨ
Ø£Ùħ ÙĪÙħ
ĠØ£Ø±Ø¶ Ø¹Øª
ĠÙĪØ¯ ÙĬÙĨ
ĠÙĦÙĦÙĪ Ø¬ÙĪØ¨
ĠØ®Ø· Ùĩ
ĠÙĨÙĤØµ ÙĩØ§
ĠØ§ÙĦØªØ¹ Ø¬ÙĬÙĦ
ĠÙĪØ§ÙĦØ³ ÙĨØ©
ÙĪØ« ÙĦØ«
ĠÙĦÙĦØª Ø¬Ø§Ø±Ø©
ĠØªÙĥ ÙĦÙĬÙģ
ĠÙĦØ¬ ÙĩØ©
ĠØ¨Ø§ÙĦÙĪ ÙĦØ§Ø¡
ĠØ¯Ø§ Ø®ÙĦØ©
Ø³ØªØŃØ¨ Ø§Ø¨
ĠØ§ÙĦØ£Ø¬ ÙĨØ¨ÙĬØ©
ĠØ§ÙĦØ£Ø® Ø¨Ø§Ø±
ĠÙģÙĨ ÙĤÙĪÙĦ
ĠØ¨Ø² ÙħÙĨ
ĠØ¨Ø§ÙĦØ¯ ÙģØ¹
ĠØ§ÙĦØ£Ø´ Ø¬Ø§Ø±
ĠØ§Ø¨ ÙĨÙĩØ§
ĠØ¹ÙĤ ÙĦØ§
ĠØªØ¬ Ø±ÙĬ
ĠÙģØ¯ ÙģØ¹
ĠÙĬØªÙħ ÙĦÙĥ
ĠØ§ÙĦØµØ¯ ÙĤ
ĠØ§ÙĦØµØ¯ ÙĤØ§Øª
ĠÙģÙħØ§Øª Øª
ĠÙģØ· ÙĦØ¨
ĠÙħØ³ØªØŃ ÙĤÙĩ
ĠØ¨ØµØŃ ÙĬØŃ
ĠÙĦØ° Ø©
ĠÙĬØ´Øª ØºÙĦ
ĠÙģØ¶ ÙĦØ§
ĠØ§ÙĦÙħØ¨ Ø§Ø´Ø±Ø©
ĠÙĨÙģØ¹ Ø§
ĠÙĪØ³Øª ÙĪÙĨ
ĠØ¨Ø¥Ø³ ÙĤØ§Ø·
ĠØ¨Ø§ÙĤÙĬ Ø§
ĠÙģØ±Ø§Øº Ùĩ
ĠÙħØ¨Ø§ ØŃØ§
ĠØ£ÙĥØ« Ø±ÙĩÙħ
ĠØ±Ø§Ùĥ Ø¨Ø§
ĠØªØ¹ÙĬ ÙĬÙĨÙĩ
ĠÙħÙĦÙĬ Ø¡
ĠÙĦÙĪØ§Ø±Ø« Ùĩ
ĠØ§ÙĦØ¬ÙĪÙĩ Ø±ÙĬ
ĠØ¬Ø§ÙĦØ³ Ø§
ÙĥØ§Øª Ø¨Ùĩ
ĠÙħÙĥØ±Ùĩ Ø©
ĠØ£Ø¹Ø§ Ø¯Ùĩ
ĠØ¨ØŃÙĬ Ø¶Ø©
ĠØ£Ø° ÙĨÙĬÙĩ
Ø± Øµ
Ø± Ø§Ø´
ĠØ§ Ø¬ØªÙĩØ§Ø¯Ùĩ
ĠÙĪ Ø¯ÙĬ
ĠÙĪ Ø§Ø¨Øª
ĠÙĪ ÙĦØµ
ĠØ£ ÙĤØ§
ĠØ£ ÙĤØµÙī
ĠÙħ ØµØ±Ùģ
ĠÙħ ÙĥØ³
ĠÙħ ÙĤØ§Øª
ĠÙħ ÙĦØ¡
ĠØ¨ Ø±Ø¨
ĠØ¨ Ø¯Ùħ
ĠØ¨ ØµÙģ
ĠØ¨ Ø±Ø£Ø³Ùĩ
ĠÙģ ÙĦÙĤ
ĠÙģ Ø±Ø§
ĠÙģ ØºÙĬØ±
ĠÙģ ÙĤØ±
ĠÙģ Ø¸ÙĨ
ĠØ¹ ÙĬØ¨Ùĩ
Ùģ ÙĬØ©
Ùģ ØªÙĬ
Ùģ Ø¯ÙĦ
ĠÙĬ Ø³Ø¨
Ø¬ ÙĬÙĨ
Ø£ Ø±Ùī
Ø° ÙĪØ±Ø©
ĠØ§ÙĦÙħ Ùĥ
ĠØ§ÙĦÙħ Ø±Ùģ
Ø¶ ØŃØ©
ĠØ¥ Ø±Ø§Ø¯
ĠØ¥ Ø¬Ø§Ø¨
ĠØ¥ Ø¹Ø§Ø¯ØªÙĩ
ĠØª Ø´Øª
ĠØª Ø¶Ø¹
ĠØª Ø´ØªØ±Ø·
ĠØª Ø¨Ø±Ø£
ĠØŃ Ø´
ĠØ£ÙĪ Ø¯
Ø¥ÙĨ ÙĬ
ĠÙĨ Ø§Ø¯
ĠÙĦÙħ ÙĥØ§ÙĨ
ĠØ³ Ø±Ùī
ĠÙħØ§ Ø¶
ØªÙĩ Ø¯Ø§
ĠØµ Ø¨
ĠØµ Ø¨Ø±Ø©
ĠØµ ÙĦÙĪØ§Øª
ĠØ¬ Ø¦Øª
Ø§Ø¨ ÙĦØ©
ĠØ§ÙĦØ¹ Ø±Ø§ÙĤ
ĠØ§ÙĦØŃ ÙĦÙĬ
ĠØ§ÙĦØŃ ÙħØ§Ø±
ĠØ® Ø¯ÙĬ
Ø±ÙĬ ÙħØ©
ĠÙĪØ§ ÙĤØªØµØ±
ÙĪØ¬ Ø¹
ĠØ§ÙĦÙĪ Ø¬ÙĪØ¯
ĠÙĦØ£ ÙħØªÙĩ
ĠØ§ÙĦØª ÙĪÙĦÙĬØ©
ĠØ§ÙĦØª ÙĥØ±Ø§Ø±
ĠØ¨Ø§ÙĦØ ²ÙĪØ¬
ĠØ§ÙĦØ¥ ØµØ§Ø¨Ø©
ÙĪÙħ ØŃÙĦÙĩ
ÙĪÙĬ ÙĤ
Ø¨Ø§ ÙĦÙħ
Ø¨Ø§ ÙĬÙĨ
ĠØ§ÙĦØ³ ÙħÙĥ
ĠØ§ÙĦØ³ Ø§Ø¯Ø³
ĠÙĪÙĬ ØªÙħ
Ø¹Ø§ Ùģ
ĠØ£Ø® ÙĪ
ĠÙĦÙĬ Ø´ÙħÙĦ
ĠØ§ÙĦÙģ Ø³ÙĤ
ĠÙĬØ¹ Ø¬ÙĦ
ĠØ´ÙĬ Ø¨Ø§ÙĨ
ĠØ§ÙĦØ¯ Ø¨Ø±
ĠØ§ÙĦØ¯ ÙĪØ§Ø¨
ĠØ§ÙĦØ¯ Ø±Ø¬Ø©
ÙĪÙĥ ÙĬÙģ
ĠØ£Ùħ Øª
ĠØ§ÙĦØ² Ø§ÙĨÙĬ
ĠØ§ÙĦØ² Ø±Ø§Ø¹Ø©
ĠÙĪØª ÙĤ
ĠÙĪØª Ø§Ø±Ø©
ÙĪØ£ ÙĨØ§
ĠØ§ÙĦØ§ ØµØ·
ĠÙĦÙĦÙħ Ø´
ĠÙģØ£ Ø®Ø°Ùĩ
ĠÙģØ£ Ø¨Ùī
ĠÙĤØ¨ Ø¶Ø§
ÙĦØ¹ Øª
ĠØ§ÙĦØ· Ø¨Ø±Ø§ÙĨÙĬ
ĠØ£Ø¬ ÙĦØ§
ĠÙĬØ® ÙĦÙģ
ĠÙģØ¹ Ø±Ùģ
ĠÙĬØ³ Ø±ÙĬ
ĠÙĬØ³ ÙĪØº
ĠØ«ÙĦØ§Ø« ÙħØ§Ø¦Ø©
Ø´ØªØ±ÙĬ Ùĩ
ĠØ§ÙĦÙħØ¹ Ø·ÙĪÙģ
ÙĨØ³ ÙĪØ©
ĠØ§ÙĦÙħØŃ ÙĥÙĪÙħ
ĠØ§ÙĦÙĬ ÙĤÙĬÙĨ
ĠØ¨Ø§ÙĦ ÙĨÙģÙĤØ©
ĠÙĦÙĤ Ø·Ø©
ĠÙĬØ³Øª Ø·Ø¹
ÙĪÙħÙĨ Ø¹
Ø¹Ùħ ÙĦØ§
ĠØ§Ø¹Øª ÙħØ§
ĠØ§Ø¹Øª ÙħØ±
ĠØ§Ø¹Øª ÙĥØ§Ùģ
ĠØ§Ø¹Øª ÙĤØ§Ø¯Ùĩ
ĠØ£Ø³ Ø¯Ø§Ø³
ÙĪØ§ÙĦÙħ Ø¹ÙĨÙī
ĠÙģØ§ÙĦØ «
ĠØ±Ùĥ ÙĪØ¹Ùĩ
ĠÙģÙĩ ÙħÙĩ
ĠØ£Ùģ ÙĦØ³
ĠØªÙĨ Ø§Ø²Ø¹
ĠØ³Øª ÙĪÙĨ
ĠÙĪØ§ÙĦØ¹ Ø´Ø±ÙĬÙĨ
ĠØ£ÙĦÙģ Ø§ÙĨ
ÙĦÙĪØ§ ØŃØ¯
ĠØ«ÙĦØ« Ø§Ùĩ
ÙĪØ§ÙĨ Ø¹
ĠÙħØ´ Ø¯
ĠÙħØ´ Ùĥ
ĠÙĬÙģ ØªÙī
ĠÙħÙĤ Ø§Ø±
ĠØ¨Ø¬ Ø¹ÙĦ
ĠØ§Ø³ØªØŃ Ø¨
ĠÙĦØ³ ÙĬØ¯ÙĩØ§
ĠØ´Ø±ÙĬ ÙĥØ§
ĠØ¯Ø¹ Ø§Ø¡
ĠÙģØŃ ÙĦÙģ
Ø§Ø¤ ÙĩÙħ
ĠØ§ÙĦØ®Ø· ÙĬØ¨
Ø°Ø¨ ÙĪØŃ
ĠØ§ÙĦÙħØ°ÙĥÙĪØ± ÙĬÙĨ
ĠØ¬Ø§Ø¡ Ùĩ
ĠÙĥØ§ ÙĦØ§
ØªØŃ Ø§Ø¯
ØªØŃ ÙĤÙĤ
ĠØ¨Ø§ÙĦÙĪ ÙĦØ¯
ĠØ¨Ø§ÙĦÙĪ ØµÙĬØ©
ĠØ¯ÙĬÙĨÙĩ Ùħ
ÙĪØ§Ùģ ÙĤØ§
ĠÙĪØ§ÙĦØ¯ ÙĦÙĬÙĦ
ĠØªØ® ÙĦÙĬ
ĠØ§ÙĦÙĨØ³ ÙĬØ§ÙĨ
ĠÙĪØ§ÙĦØ´ Ø±Ø·
ĠØ¨Ø² ÙĪØ§ÙĦ
ĠØ¥ØŃØ¯ Ø§ÙĩÙĨ
Ø²Ø§ Ø¹Ø©
ĠØ¹Ø¬Ø² Øª
ĠØ¹ÙĦÙĤ Ø©
ĠÙħÙĤØ¯ Ø±Ø©
ĠØ§ÙĦØ£ØŃ Ø³ÙĨ
ĠÙĪÙĬØŃ ÙĦÙģ
ĠÙĥØ§ÙĦØ¹ Ø¯Ùħ
ĠÙħÙĪØ¶ ØŃØ©
ĠØ§ÙĦØ¹Ø§ ÙĤÙĦ
ØªØ§ ÙĪÙī
ÙĪÙĪØ¬Ùĩ Ùĩ
ĠÙĪØ¨Ø¹ Ø¶Ùĩ
ĠØ£Ø³ÙĤØ· Øª
ĠØ§ÙĦØªØ² ÙħÙĩ
ĠÙħÙĤØª Ø¶
ĠØ§ÙħØª ÙĨØ§Ø¹Ùĩ
ĠØ²Ø± Ø¹Ùĩ
ÙĪØºÙĬØ± ÙĩÙħØ§
ĠØ§ÙĦØ§ØŃØª Ø±Ø§Ø²
ĠØ¨Ø§Ø· ÙĨØ§
ĠÙĪÙĦØ£ Ø¨ÙĬ
ĠÙħØªØ¹Ø¯ Ø¯Ø©
ĠØ§ÙĦØªÙĥ ÙĦÙĬÙģ
ĠÙģØ£ÙĪ ÙĦÙī
ĠÙħØ´ØªØ±ÙĬ Ùĩ
ĠÙĤØ¨ÙĬ ÙĦØ©
ĠØ¨ÙĨÙĤØµ Ø§ÙĨ
ĠÙħØ¬Ø§Ø² Ø§
ĠØ¥ÙĤØ§Ùħ ØªÙĩ
ĠØªÙĥÙħ ÙĦØ©
ĠØ´ÙĬÙĪØ® ÙĨØ§
ĠØ¨ØŃØ¶Ø± ØªÙĩ
ĠÙħØ±Ø³ ÙĦØ§
ÙĨ Ø·Ø©
ÙĬ Ø¤
Ø± ÙĪØ§
Ø± ÙĤØ§
Ø¨ Ø³Ùħ
Øª ÙĪÙģÙĬ
Øª ÙĨØ¨ÙĬ
ĠÙĪ Ø±ØŃ
ĠÙĪ ÙĪØ¶Ø¹
ĠÙĪ ÙģØ¹ÙĦÙĩ
ĠÙĪ ØµØ¯ÙĤÙĩ
ĠØ£ Ø¶Ø±
ĠØ£ Ø¯Ø§Ùĩ
ĠÙħ ØŃØ¯
ĠÙħ ØµÙĦ
ĠÙħ Ø³Ø¨
ĠÙħ ØµØ¯
ĠÙħ ÙĬØ²
ĠÙħ Ø±ÙĬÙħ
ĠÙħ Ø±Ø¬ØŃ
ĠÙħ Ø§Ø´ÙĬØ©
ĠÙħ ÙĤØ·ÙĪØ¹
ĠÙħ Ø°ÙĥÙĪØ±
ĠØ¨ ÙĦÙī
ĠØ¨ Ø³Ø¨
ĠØ¨ ÙĬØ§Ø¶
ĠØ¨ ÙĪØ²ÙĨ
ĠØ¨ Ø¨Ø¹Ø¶Ùĩ
ĠÙģ Ø±Ø¨
ĠÙģ Ø¯Ø§Ø¡
ĠÙģ Ø¯ÙĦ
ĠÙģ Ø§Øº
ĠÙģ ÙĦØ¨Ø³
ĠÙģ ÙĤØ¨Ø¶
ĠÙģ Ø°Ø§Ùĥ
ĠØ¹ Ø§Ø±Ø¶
Ùģ Ø¨
Ùģ ØµØŃ
ĠÙĬ Ø±Ø§
ĠÙĬ ÙĩØ¨
ĠÙĬ ØµØ¯Ø±
Ùĥ Ø±Ø©
Ùĥ ÙĬÙħ
Ø¬ ÙĬÙĦÙĩ
Ø£ ÙĪÙĬÙĦ
ĠÙĤ ÙĬ
ĠÙĤ ÙĦÙĪ
Øµ ÙĩØ§
Øµ Ø±ØŃ
ĠÙģÙĬ ÙħÙĨØ¹
ĠÙģÙĬ ØŃØªØ§Ø¬
ĠÙĥ ÙĦÙģ
ĠØ§ÙĦÙħ ÙĦØŃ
ĠØ§ÙĦÙħ ÙĨØ§Ø³
ĠØ§ÙĦÙħ Ø¸Ø§ÙĩØ±
ĠØ§ÙĦÙħ Ø¶Ø·Ø±
ĠØ¥ Ø¬Ø²Ø§Ø¡
Ø« ÙĦÙĬØ«
ĠØª ÙĤÙĦ
ĠØª ÙħØ³Ùĥ
ĠØª ÙĪÙĦÙĬØ©
ĠØª Ø¬ÙĩÙĬØ²
Ø§ÙĨ Ùħ
ĠØ§ÙĦ ÙĦØ³Ø§ÙĨ
ÙĬØ± ÙĬØ¯
ĠØ£ÙĪ ÙĤ
ĠÙĦØ ¸Ø§ÙĩØ±
ĠØ± Ø§Ø¨Ø¹
ĠÙĨ ÙĪØ¨Ø©
ĠÙĦÙħ Ø«ÙĦÙĩ
ĠÙĦÙħ ÙĪÙĥÙĦÙĩ
ĠÙĩ ÙĨØ¯
ĠÙĩ ÙĦØ§Ùĥ
ĠØ³ Ø¹Ùī
ĠØ´ ÙĥØ±
ĠØµ ÙĪØ§Ø¨Ùĩ
ĠØ¨ÙĨ ÙĤØ¯
ĠØ¨ÙĨ Ø¬Ø³
ĠØ§ÙĦØ¹ ÙħØ§Ø¯
ĠØ§ÙĦØ¹ Ø°Ø§Ø¨
ĠØ§ÙĦØŃ ÙĥÙĪÙħØ©
ĠØ« Ø¯ÙĬ
ĠØ« ÙĬØ¨Ø§
ĠØ¯ ÙĬÙĪÙĨ
ĠØ® Ø±ÙĤØ©
ĠØ§ÙĦÙĤ Ø§Ø¯Ø±
Ø±Ùĩ ÙĨÙĩ
Øº ÙĨ
Ø±Ø¬ Ùħ
ĠØ§ÙĦØ¨ Ø®
ĠØ§ÙĦØª Ø¯
ĠØ§ÙĦØª Ø¹Ø¯Ø¯
ĠØ¨Ø§ÙĦØ ¸
Ø¨Ø¯ ÙĦÙĩ
ÙĪÙħ ÙĬÙĨ
ÙĪÙħ ØŃÙħØ¯
ĠÙĪÙĦØ§ Ø¯Ø©
ĠØ¨Ø§ ÙĦÙĬÙħÙĬÙĨ
ÙĪÙĬ Ø²
ĠÙĪØ£ ØµÙĦÙĩ
ĠØ· Ø§ÙĦØª
ĠÙĪØ¬ ÙħØ¹
ĠÙĪØ¬ ÙħØ§Ø¹Ø©
ÙĬØ§ ØªÙĩ
ÙĬØ§ Ø¯ÙĬ
ĠÙĬØ¬ Ø§ÙħØ¹
ĠØ§ÙĦØ³ ÙħÙĨ
ÙĨÙĬ Ø³Ø©
ĠØ§ÙĦÙģ ØŃÙĦ
ĠØ§ÙĦØµ Ø¯Ø±
ĠØ§ÙĦØµ ÙĬØºØ©
Ø¤ ÙĨØ©
ÙĪØ± Ø§Ø¡
ÙĪØ± ØªÙĩØ§
ĠØº ÙģØ±
ÙĦØ® Øµ
ÙĤØ§ ÙĬØ©
Ø¨Øª Ùĥ
ĠØ¶ Ø¨Ø·Ùĩ
ÙĪØ¨ Ø±ÙĬ
ĠØ§ÙĦØ§ ØªÙģØ§ÙĤ
ĠÙĪÙĩ ÙĨ
ĠØ§ÙĦØº Ø±Ø³
ØŃÙĬ Ùī
ĠÙģØ§ ÙĤØª
ĠÙĪÙħ Ø³Øª
ĠØ£ØŃ ØµØ±
ÙĦØŃ Ø§
ĠÙħØ³ Ø§ÙĥÙĬÙĨ
ĠÙħØ± Ø²
ÙģØª ÙĬÙĨ
ĠØ§ÙĦÙĤØ§ ÙģØ©
ĠØ¨Ø§ÙĦÙħ ÙĨØ¹
Ø§Ø´ Ø±Ùĩ
Ø§Ø´ Ø±ØªÙĩ
ÙĪØ· Ø£
ĠÙĤØª ÙĬÙĦ
ĠÙĪØŃ ÙħÙĦÙĩ
ĠÙĪØŃ ÙĥÙħÙĩ
ĠÙĦÙĤ ÙĬØ§Ùħ
ĠÙĦØŃ ÙĥÙħ
ĠÙĬØ³Øª Ø·ÙĬØ¹
Ø²ÙĪØ¬ Øª
ĠÙĬØ¤ Ø§Ø®Ø°
ĠÙĬØ´ Ùĥ
ĠØ¹Ø¯ ÙĦØ§ÙĨ
ĠØ§Ø¹Øª Ø¨Ø§Ø±Ùĩ
ĠØ§ÙĦØ¶ Ùħ
Ø§Ø³ Ø¹
ĠØ§ÙĦØ¯ÙĬÙĨ Ø§Ø±
ÙĪØŃ Ø§ØµÙĦ
ÙĪØŃ ÙĥÙī
ĠØ§ÙĦØ¢ Ø¬Ø±
ĠØªØ£ ÙĥÙĦ
ĠØ¨Ø§ÙĦØ¹ Ø±Ùģ
ĠÙħØ¹Ùĩ ÙĨ
ĠØ£Ø³ ÙĬØ±
ĠÙĨØ³ Ø§Ø¦Ùĩ
ĠØ¨Ø§ÙĦØ£ ØµÙĦ
ĠØ£Ø¯ Ø±ÙĬ
ĠØ£Ø¯ Ø®ÙĦÙĩ
ĠÙģØ± ÙĤØ©
ĠÙģØ± Ø³Ø§
ØµØ¨ ÙĩØ§
ĠØªÙĨ ÙĤØ¶
ĠØ§ÙĦØ§Ø³Øª ÙĤØ¨Ø§ÙĦ
ĠØ¬Ùĩ ØªÙĩØ§
ĠØ¬Ùĩ ÙĨÙħ
ĠØªÙħ Ùĥ
ĠØªÙħ Ø«
ĠØªØª ÙħØ©
ĠØ§ÙĦÙħØ¹Øª Ø±Ø¶
ĠØ¨Ø³ ÙĨØ©
ĠØŃÙĥ ÙĬ
ĠØ¬Ø§Ø¦Ø² Ø§
ĠÙģÙĤ Ø¶Ùī
ĠØ¨Ø§ÙĦÙĨ Ø§Ø±
ĠÙĪÙĩØ¨ ØªÙĩ
ĠØ§Ø¨Øª Ø§Ø¹
ĠÙĥØ§ ÙĦÙĩ
ĠÙĦØ´ Ø¯Ø©
ĠØ¹Ø§ ÙĤÙĦ
ĠØ¨Ø§ÙĦÙĥ ÙĦØ§Ùħ
ĠÙĪØ§Ø³Øª ÙħØ±
ĠØªØ¯ ÙģØ¹
ĠØµØ§ÙĦØŃ Ùĩ
ĠÙĦÙĦØ´ Ø¨ÙĩØ©
Ø²Ø§ ÙħÙĩ
ĠØ§ÙĦØ±Ùĥ Ø¹ØªÙĬÙĨ
ĠÙĦÙĦØ¬ Ø¯
ĠÙĦÙĦØ¬ ÙĩÙĦ
ĠØ§ÙĦÙħÙĤ Ø¶ÙĬ
ĠØ§ÙĦÙħÙĤ Ø°ÙĪÙģ
ĠØ§ÙĦØ£Ø´ Ø¹Ø±ÙĬ
ĠÙĬÙĨØ§ Ùħ
ĠÙĬÙĨØ§ Ø³Ø¨
ĠØ§ÙĦÙħÙģ ØªÙĬ
ĠÙĬØªØŃ Ø±Ùĥ
ĠÙĦÙĦØµ Ø¨ÙĬ
ĠØµÙģ ÙĬØ©
ĠÙĥØ§ÙĦØ£ Ø¬ÙĨØ¨ÙĬ
ĠØ§ÙĦÙħÙĪØ§ Ø¶Ø¹
ĠÙĬØ´ØªØ±ÙĬ Ùĩ
ĠØ§ÙĦÙħØ´Øª Ø±Ùī
ĠÙĪØ¨ÙĨ Ùī
ĠØ®Ø§Ø±Ø¬ Ø§
ĠØ£Ø· ÙĬØ¨
ĠØªØ¹Ø¯ ÙĬØ§
ÙģÙĬÙĨ Ø¨ØºÙĬ
ĠØ§ÙĦØ®ÙħØ³ ÙĬÙĨ
ĠÙģØ´ ÙħÙĦ
ĠØ®Ø±ÙĪØ¬ ÙĩØ§
ĠØ¬ÙĦØ¯ Ø©
ĠØ§ÙĦÙħØ« Ø§ÙĦ
ĠØ´Ø±ÙĪØ· Ùĩ
ĠÙĬÙĩ Ø¯ÙĬ
ĠÙħÙĪØ¬ Ø¨Ùĩ
ĠØ±Ø´ Ø¯Ùĩ
ĠØ³Ùĥ ÙĨÙī
ĠØ´Ø¹Ø± ÙĩØ§
ĠØŃÙĬÙĪØ§ÙĨ Ø§
ĠØºØ± ÙĪØ¨
ĠÙĪØµØ§Ø± Øª
ĠÙħÙĤØ¨ ÙĪÙĦ
ĠØ¨Ø§ÙĦØ¶ Ùħ
ĠÙĤØ§Ø± ÙĨØ§
ĠÙģØ§ÙĦØŃ ÙĥÙħ
ĠÙħÙĪØµ ÙĪÙģ
ĠØ§ÙĦÙĤÙĨ ÙĪØª
ĠØ³Ùĩ ÙħÙĩ
ĠØ§ÙĦÙħÙĥØª Ø±ÙĬ
ĠØ§ÙĦÙħÙĪ ØŃØ¯Ø©
ÙĪØ±Ø¨ ÙħØ§
ĠØªØ¶Ùħ ÙĬÙĨ
ĠØ§ÙĦØ¨ÙĬ ÙĪØ¹
ĠØ§ÙĦØ¬ÙĪÙĩ Ø±Ø©
ĠØ§Ø³ØªØ· Ø§Ø¹
ĠÙĥÙĨØ§ÙĨ Ø©
Ø§ ÙĬ
Ø§ ÙĬØ±Ø©
ÙĨ Ø¹Øª
ÙĬ ÙĤØ§
ÙĬ ÙħØ§ÙĨ
Ùĩ Ø¯ÙĬ
ÙĪ Ø³ÙĦÙħ
Ø± ÙĪØ¶
Ø¯ Ø§Ø¦Ùĩ
ĠÙĪ Ø²ÙĪØ¬Ø©
ĠØ£ ÙģØ±Ø¯
ĠØ£ Ø¶Ø§Ùģ
ĠØ£ ÙĤØ¨Ø¶Ùĩ
ĠÙħ Ø£
ĠÙħ Ø¯Ø§
ĠÙħ ØªÙĩÙħ
ĠÙħ ÙĬØ³Ø±Ø©
ĠØ¨ ÙĤØª
ĠØ¨ ØŃØ¯ÙĬØ«
ĠØ¨ ÙħØ±Ø¶
ĠÙģ ÙĦØ¹ÙĦ
ĠÙģ Ø°Ø¨ØŃ
ĠÙģ ÙĪØ·Ø¦ÙĩØ§
Ùģ Ùģ
Ø³ Ø£ÙĦ
Ø³ Ø£ÙĦØª
ĠÙĬ Ø¨Øª
ØŃ Ø·
ĠÙĤ ÙħØŃ
Øµ Ø¨ØŃ
ĠÙģÙĬ Ø¯ÙģØ¹
ĠÙĥ ÙĩÙĪ
ĠØ§ÙĦÙħ Ø¶
ĠØ§ÙĦÙħ Ø±Ø§
ĠØ§ÙĦÙħ ÙĪÙĦÙĪØ¯
ĠØ¥ ÙĦØŃØ§ÙĤ
Ø® Ø·
Ø® Ø§ÙĨÙĬØ©
ĠØª ØŃØ¯Ø«
ĠØª Ø·Ùĩ
ĠØª ÙģØ³Ø®
ĠØª ÙĪÙĤÙĬ
ĠØŃ ÙĥØ§ÙĬØ©
Ø§ÙĦØ ²ÙĪØ¬
ĠØ£ÙĪ Ø³
ĠØ£ÙĪ ÙĦÙĩØ§
Ø´ ÙĩØ¨
ĠØ£ÙĨ ÙĥØ±Ùĩ
Ø§Ø± ÙĤØ·ÙĨÙĬ
Ø§Ø± Ø®Ø§ÙĨÙĬØ©
ĠÙĨ Ø§Ø´
ĠÙĨ ÙģØ§Ùĩ
ÙĦÙĬÙĩ ÙħØ§
ĠÙĦØ§ ÙħØª
ĠØ¹ÙĨ ÙĪØ©
ÙĨØ§ ÙĩÙħ
ÙĨØ§ ÙĤØ¶
ĠØ³ ÙĪØ¯
ĠØ³ Ø§Ø±ÙĤ
ĠØ§ÙĦØ£ Ø±Ø¨Ø¹ÙĬÙĨ
ĠØ§ÙĦØ£ Ø±ÙĥØ§ÙĨ
ĠØ´ Ø§Ø¨
ĠØ¬ ÙĪÙģ
ĠØ§ÙĦØ¹ Ø·Ø´
ÙĩÙĪ Ø§
ÙĩÙĪ Ø±Ø©
ĠØ¯ ÙĪØ§Ø¨
ĠØ¯ ÙģØ¹Øª
ĠØ® Ø§Ø±Ø¬Ùĩ
ĠÙħØ¹ Ø¨Ø¯
ĠÙħØ¹ Ø°ÙĪØ±
ĠØ§ÙĦÙĤ Ø±Ø§
ĠØ§ÙĦÙĤ ØµØ©
ĠÙĪØ§ ÙĤ
Ø¸ ÙĦØ©
ĠØ§ÙĦØª ÙģØ±ÙĤØ©
ÙĤÙĬ ÙħØª
ĠØ§ÙĦØ¥ Ùħ
ĠØ§ÙĦØ¥ ÙģØ§Ø¶Ø©
Ø§Ùħ ØŃØ©
ĠÙģÙĬÙĩ ÙĨ
ĠØ§ÙĦÙĨ ÙģØ§Ø³
ÙĪÙĬ Ø¬Ø§Ø¨
ĠØ² Ùħ
ĠØ§ÙĦØ´ Ø¹ÙĬØ±
ĠØ§ÙĦØ¬ Ø²Ùħ
ĠÙĪØ£ ÙĤ
ĠÙĪØ£ ÙħÙĥÙĨ
ĠÙĪØ£ ØŃÙĥÙħ
ÙĪØ¹ Ø¯
ĠØ· ÙĪØ§ÙģÙĩ
ĠÙĪÙĬ ÙĤØ³Ùħ
ĠÙĪÙĬ ÙĥÙģÙĬ
ÙĨÙĬ Ø§ÙĨ
ĠÙĦÙĬ ÙĨ
ĠØ§ÙĦÙģ ØªØ§ÙĪÙī
ĠØ§ÙĦØµ Ø¯ÙĬÙĤ
ĠÙħØŃ Ø§
ĠÙħØŃ Ø§ÙĦ
ĠÙħØŃ ØµÙĨ
ĠÙĬØ¹ ÙĬÙĨÙĩ
ĠØ§ÙĦØ¯ ÙĦØ§ÙĦØ©
ĠÙĬÙĨ ÙģÙĥ
ÙĬØª Ùĥ
ÙĪÙĥ ØªØ¨
Ø®Øª Ùħ
Ø®Øª ØµØ§Øµ
ĠÙĤØ¯ Ø±Ø©
ÙħØ¹ ÙĨØ§Ùĩ
ĠØ§ÙĦØ± Ø³Ø§ÙĦØ©
ĠÙĪØª ØµØ±Ùģ
ĠØ£Ø¨ ÙĬÙĨ
ĠØ£Ø¨ Ø§ÙĨ
ÙĪØ£ ÙĤØ§Ùħ
ĠØ§ÙĦØº Ø¶Ø¨
ĠÙĦÙĦÙħ Ø³Ø§ÙĥÙĬÙĨ
ÙĪÙĤ ÙĬØ©
ĠÙģØ£ ÙĦÙĤ
ĠÙģØ£ Ø¬Ø§Ø²
ĠÙĪÙĨ Ø¸Ø±
ĠØ£ØŃ Ø±Ø²
ĠØ£ØŃ ÙĥØ§ÙħÙĩ
ĠÙĪØ§ÙĦÙħ ÙĦÙĥ
ĠÙĪØ§ÙĦÙħ Ø¹ØªÙħØ¯
ĠÙħØ³ Ø±ÙĪÙĤ
ĠØ§ÙĦÙħØª ÙģÙĤ
ĠØ§ÙĦÙħØª Ø§Ø¨Ø¹Ø©
ĠÙĬØ³ ÙĥØ±
ĠØ£Ø´ ÙĥÙĦ
ĠØ§ÙĦÙĤØ§ Ø°Ùģ
ĠØ£Øµ ÙĪÙĦÙĩ
ĠÙĬØ¶ ÙĬØ¹
ĠÙĤØ§ Ø¹Ø¯Ø§
ĠØªØŃ Ø¬Ø¨
ĠØªØŃ ØµÙĬÙĦÙĩ
ĠØ¨Ø¥ Ø°
Ø§Ø¹ Ø¯Ø©
ĠÙĪØ§ÙĦ Ø±Ø¯
Ø´ÙĬ Ø¦Ø§
ĠÙĬØ³Øª ÙĤÙĦ
ĠÙĬØ³Øª Ø±Ø¯
ĠØŃÙĥÙħ ÙĨØ§
ĠØ¨Øª Ø£Ø®ÙĬØ±
ĠØ§ÙĦØ±Ø¬ Ø¹ÙĬØ©
ĠÙģØ³ ÙĥØª
ĠÙģØ³ Ø£ÙĦÙĩ
ĠØ¹Ø¯ ÙĪØ§ÙĨ
ĠÙĪØ§ÙĦØ£ Ø®Ø±Ùī
ĠØ£ÙĤ Ø³Ùħ
ĠØ¨Ø´ Ø§ÙĩØ¯
ÙĦØ§ÙħÙĩ Ùħ
ÙĪØªÙĩ Ùħ
ĠØ£Ø³ ÙĪØ©
ĠØ§ÙĦÙħØ¬ ÙĪØ³ÙĬ
ĠØ£Ùģ Ø¶
ĠØ§ÙĦØ§Ø³Øª Ø¯ÙĦØ§ÙĦ
ÙĦØ· Ùĩ
ĠØ§ÙĦÙħØ´ ÙĥÙĦ
ĠÙĪØ® Ø¨Ø±
ĠÙħØ¤ Ø®Ø±
ĠÙħØ¯ ÙĬÙĨ
ĠÙħØ¯ Ø®ÙĦ
ĠÙħØ¯ Ø¹Ùī
ĠØ§Øª Ø¨Ø¹
ĠØ¨Ø± Ø¯Ùĩ
ĠØ¨Ø± Ø¯Ø©
ĠÙĦÙĦ Ø±Ùĥ
ĠØ£ÙĪÙĦØ§ Ø¯ÙĩÙħ
ĠÙĪØ§ÙĦØª ÙĬ
ĠÙĪØ§ÙĦØª ÙĤØ¯ÙĬØ±
ĠØ£Ùĩ ÙĦÙĥ
ĠØ§ÙĦÙħØ¹Øª Ø²ÙĦØ©
ĠØ¨Ø³ Ø¨Ø¹
ÙĨØ¨ ÙĦØ§
ĠÙĦÙģ Ø³Ø§Ø¯
ĠÙģØŃ Ø³ÙĨ
ĠØ§ÙĦÙĤØ± ÙĬÙĨØ©
ĠØ§ÙĦÙħØ§ÙĦÙĥ ÙĬØ©
ĠØ¬ÙĨØ³ Ø§
ĠÙĨØ¬ Ø§Ø³ØªÙĩ
ĠØ¨ÙĦØº ÙĨÙĬ
ĠØ¶Ø±Ø¨ Ø©
ĠØ§ÙĦØ¹Ø¯ ÙĪÙĬ
ĠÙĪØ§ÙĦÙģ Ø¶Ø©
ĠÙĬÙĨØª ÙģÙĬ
ĠØªØ· ÙĦØ¨
ĠØªØ¯ Ø¨Ø±
ĠØ¨Ø² ÙĨØ§
ĠØ¨ÙĬØ¯ Ùĥ
ÙĦØ§ØŃ Ø¸
ĠÙĪØ±Ø¯ Øª
ĠÙĤØ³Ùħ ÙĬÙĨ
ĠØ¨Ø§ÙĦØµ ÙģØ©
ĠØ±Ø§Ø¬ Ø¹Ø§
ĠÙĦÙĦØ® Ø¯ÙħØ©
ĠÙĪÙĬØ¹ ÙĦÙħ
ĠØ¥ÙĤØ±Ø§Ø± Ø§
ĠØ£ÙĤØ§Ùħ Øª
ĠØ£Ø« ÙĪØ§Ø¨
ĠØ§ÙĦØ§ÙĨØª ØµØ§Ø±
ĠØ§ÙĦÙħÙĨÙĩ ÙĬ
ĠØ§ÙĦÙħÙĤØª Ø¶ÙĬ
ĠÙĨØ³Ø¨ ØªÙĩ
ĠÙĥØ§ÙĦØ¹ Ø¨Ø¯
ĠØªØ¹Ø¯ Ø¯Øª
ĠÙħÙģ Ø§Ø±ÙĤØ©
ÙĪÙĦÙĥ ÙĦ
ĠÙĪØ¨Ø§ ÙĦÙħ
ĠØ§ÙĦØªØ± ØºÙĬØ¨
ĠØ±Ø¨ØŃ Ùĩ
ĠØ§Ø´ØªØ±ÙĬ ØªÙĩ
ĠÙĪØ§Ø¹Øª Ø±Ø¶
ĠØªØ¬Ø¯ Ø¯
ĠØ¯Ø±Ø¬ ØªÙĩ
ĠØ§ÙĦØŃØ¨ Ø´Ø©
ĠØ¨Ø±Ùĥ Ø¹Ø©
ĠØ£ÙĦÙĤ Ùī
ĠÙĦÙĦØ¢ ÙħØ±
ĠØ§ÙĦÙħÙĪØ¶ ÙĪØ¹
ĠØ§ÙĦØ¨Ùĩ ÙĬÙħØ©
ĠÙĪØ§ØŃØª Ø±Ø²
ĠÙĪØªØ³ Ø¹ÙĬÙĨ
ĠÙĤØ§Ø¨ Ø¶Ø§
ĠÙĪØ£Ø±Ø¨Ø¹ ÙĪÙĨ
ĠØ§ÙĦÙħØ³Ø§ ÙĤØ§Ø©
ĠÙħØ§ÙĨ Ø¹Ø§
ĠÙħØ¹ÙĦÙĤ Ø§
ĠÙĥØºÙĬØ± ÙĩØ§
ĠÙĤØ±Ø§ Ø¶Ø§
ĠØ¶Ø¹ÙĬ ÙģØ©
ĠØ§ÙĦÙħØ¹Ø¯ ÙĪÙħ
ĠØ§ÙĦØ´Ø§ÙģØ¹ ÙĬØ©
ĠØ§ÙĦÙħÙħØ§ Ø«ÙĦØ©
ĠØ§ÙĦÙĪØ§Ø¬ Ø¨Ø©
ĠØ¬Ø¨Ùĩ ØªÙĩ
ĠÙħØ±Ø² ÙĪÙĤ
Ø§ Ø®ØªØ§Ø±Ùĩ
ÙĬ Øº
ÙĬ ÙģÙĩ
Ùĩ ÙĦÙĬ
Ùħ ØºÙĨÙĬ
Ø¨ ÙĦÙī
Ø¯ Ø§Ø±
Øª Ø§ÙĤ
ĠÙĪ Ø¹Ø§
ĠÙĪ Ø¸ÙĩØ±
ĠÙĪ Ø¨Ø§Ø¹
ĠÙĪ Ø¹Ø§Ø¯
ĠÙĪ Ø´ÙĬØ®
ĠØ£ Ø±Ø§Ùĩ
ÙĤ ÙĦØ§ÙĦ
ĠÙħ Ø®Ø±
ĠÙħ ÙħØª
ĠÙħ ÙĬØ±Ø§Ø«Ùĩ
ĠØ¨ ÙĦØŃ
ĠØ¨ ØªÙĤ
ĠÙģ ÙĨØ³
ĠÙģ Ø¢
ĠÙģ ÙĦØ²ÙħÙĩ
ĠÙģ Ø·ÙĦÙĤÙĩØ§
ĠØ¹ ÙĦÙĪ
Ùģ ÙĦØª
Ùģ Ø§Ø±Ùĩ
Ø³ ÙĬØ±
Ø³ ÙĬÙħ
ĠÙĬ ÙĩÙĪ
ĠÙĬ ØºÙĬØ±
ĠÙĬ ÙĪØ¬Ùĩ
ÙĦØ§ Ø¹
Ø¬ Ø§Ø±Ùĩ
Ø£ ÙĩØ§
Ø£ Ø®Ø¨Ø±
ĠÙĤ Ø±Ø¶Ø§
ĠÙĤ ÙĦÙĬÙĦØ©
Øµ ÙĪÙĦÙĩ
ĠÙģÙĬ Ø¦Ø§
ĠÙģÙĬ ØªÙħ
ĠÙĥ Ø±Ùħ
ĠÙĥ Ø±Ø±
ĠØ§ÙĦÙħ ÙĤØµ
ĠØ§ÙĦÙħ Ø¹ÙĬØ¨
ĠØ§ÙĦÙħ Ø§Ø´ÙĬØ©
Ø¶ Ø¹Ø©
Ø¶ Ø¹Ùĩ
ĠØª ÙģÙĬØ¯
ĠØŃ Ø±Ø«
Ø§Ø± Ùģ
ĠØ± ÙĬØ¹
ĠØ± Ø§Ø¦ØŃØ©
ĠÙĨ Ø³ÙĦ
ĠÙĨ ÙģØ§Ø³
ĠÙĦÙħ ÙĪÙĦÙī
ĠÙĦÙħ ÙĦÙĥÙĩ
ĠØ³ Ø§Ø¬
ĠØ³ ÙĪØ§ÙĩØ§
ĠØ§ÙĦØ£ Øº
ĠØ§ÙĦØ£ ÙĪØ²
ĠØ§ÙĦØ£ ÙĨÙģ
ĠØ´ Ø±Ø§
ĠØ´ ÙĤÙĩ
ĠØ´ Ø¯ÙĬØ¯Ø©
ĠØµ ÙĬØ±
ĠØ¨ÙĨ ØªÙĩØ§
ĠØ¬ ÙĦ
ĠØ¬ ÙĩØ§ÙĦØ©
ĠØ§ÙĦØ¹ ÙĨØª
ÙħÙĨ Ùī
ĠØ§ÙĦØŃ ÙĤÙĬ
ĠØ§ÙĦØŃ Ø¨ÙĦ
ĠØ¯ ÙĦÙĬÙĦØ§
ĠØ® ÙģÙĬÙĩ
ĠÙħØ¹ Ùĥ
ĠÙħØ¹ Ø·
ĠØ§ÙĦÙĤ Ø¨ÙĦ
ĠØ§ÙĦÙĤ Ø¶Ø§Ø©
Ø§Ø¦ Ø±Ùĩ
ĠØ§ÙĦÙĪ Ø±ÙĤ
Øº Ø§ÙĬØ©
ĠØ§ÙĦØ¨ ÙĤØ§Ø¡
ĠØ§ÙĦØª ØŃØ±Ø²
ĠØ§ÙĦØª ÙĦØ¨ÙĬØ©
ÙĤÙĬ Ø§
ĠÙĦÙĪ Ø·
ĠÙĦÙĪ Ø¬Ø¨
ĠØ§ÙĦØ¥ ÙĤØ¯Ø§Ùħ
Ø¨Ø¯ ÙĬ
Ø§Ùħ ÙĦÙĩ
ĠØ§ÙĦÙĨ Ø²Ø§Ø¹
ÙĪÙĬ ÙĥÙģÙĬ
ĠØ² ÙħØ§ÙĨÙĩ
ĠØ² ÙĬÙĦØ¹ÙĬ
ĠØ§ÙĦØ´ ÙĬÙĨ
ĠØ§ÙĦØ¬ Ø§Ø¦Ø²
ĠØ§ÙĦØ¬ Ø¨ÙĬØ±Ø©
ĠÙĪØ£ ÙĤÙĦ
ĠØ· ÙĪÙĦØ§
ĠØ· ÙĩÙĪØ±
ÙĬØ§ Ùĥ
ĠØ§ÙĦØ³ Øª
ĠÙĪÙĬ ÙĤØ¯Ùħ
ĠÙĪÙĬ ÙħÙĨØ¹
ĠÙĦÙĬ ÙĦ
ĠÙĦÙĬ Ø£Ø®Ø°
ĠØ§ÙĦÙģ ÙĬØ¡
ĠØ§ÙĦØµ Ø§ÙĦØŃ
ĠØ§ÙĦØµ Ø§Ø¦Ùħ
ĠÙħØŃ Ø§Ø±
ĠÙħØŃ Ø¶Ø©
ĠØ§ÙĦØ® ÙĬØ·
Ø£ÙĪ ÙĦØ§
ĠØº Ø±ÙĬ
ÙĦØ® ÙĬØµ
ĠÙĪÙĥ Ø£ÙĨ
ĠÙĪØ¹ ÙĬÙĨ
ÙĪÙĩ ÙħÙĩ
ÙĤØ· ÙĪØ¹Ø©
ÙĦØ¨ ÙĪØ³
ÙĪÙĥ ÙĪÙĨÙĩ
ĠØ§Ø³Øª Ø´
ĠØŃØ¯ ÙĪØ¯
ĠÙĪØª Ø¬Ø¨
ĠÙĪØª Ø±ÙĥÙĩ
ĠÙĪØª ÙħØ§ÙħÙĩ
ĠÙĨØµ Ø¨Ùĩ
ĠØ¨Ø¯ Ø±Ø§
ØŃØª ÙĬÙĨ
ĠØ§ÙĦØº Ø§ÙĨÙħÙĬÙĨ
Ø´Ø± ÙĪÙĨ
ÙĪÙĤ Ø³Ùħ
ĠÙħØª ÙĪØ§
ĠÙħØª Ø¨Ø±
ĠÙħØª ÙĤØ¯Ùħ
ĠÙģØ§ Ø®ØªÙĦÙģ
ĠÙĪÙħ Ø¹Ø§
ĠÙĪÙħ Ø¶Ùī
ÙħØ§Ùħ ØªÙĩ
ĠØ¨Ùħ ÙĥØ§ÙĨ
ĠÙĪØ§ÙĦÙħ Ø¬ÙĨÙĪÙĨ
ĠØ§ÙĦÙħØª ØµØ¯ÙĤ
ÙĦØ¹ Ø¨
ĠØ§ÙĦØ· ÙĩÙĪØ±
ĠØ£Ø¬ Ø±Ø§
Ø³ØªØŃ ÙĤÙĩ
ÙĪØ¥ ÙĦÙĬÙĩ
ĠØŃÙĤ Ùĥ
ĠØªØŃ Ø±ÙĬ
ĠØªØŃ ÙĦÙĦ
ĠØ¨Ø§ÙĦÙħ Ø³Øª
ĠÙĪØµ ÙģØ©
Ø§Ø¹ ÙĦÙħ
ĠÙĬØµ Ø¨
ĠØ²ÙĪØ¬ ØªÙĥ
ĠÙĦØª ÙħØ§Ùħ
ĠÙĦØª Ø¨ÙĬÙĨ
ĠØ¨Øª ÙħØ§ÙħÙĩ
ĠØ´Ø±Ø· Øª
ĠØ¨ÙĬ Ø¶Ø§Ø¡
ĠØ§ÙĦÙĩ ÙĪØ§Ø¡
ĠÙģØ³ Ø®Øª
ĠÙģØ³ ÙĥÙĪÙĨ
ĠÙĬØ¨ Ø§Ø´Ø±
ĠÙĪØ§ÙĦØ£ ÙĤØ±Ø¨
ĠØ§ÙĦØ¢ ÙĦØ©
ĠÙħØ¬ ØªÙĩØ¯Ø§
Ø±Øª Ø¯
ĠØ¬ÙħÙĬØ¹ ÙĩÙħ
ĠØ¹Ø±Ùģ Ø§Øª
Ø¶Ùħ Ø¶
Ø¶Ùħ ÙĬÙĨ
ĠØ¨Ø§ÙĦØ£ Ùħ
ĠØªÙĤ Ø¶ÙĬ
ĠØ±Ùĥ Ø¨ØªÙĬÙĩ
ĠØ³ÙĦÙħ Ø§ÙĨ
ĠØªÙĨ ÙĤØ³Ùħ
ĠØ§ÙĦØ§Ø³Øª Ø¦Ø¬Ø§Ø±
ĠÙĬØ· Ø±Ø£
ĠØ£ÙħØ± ÙĨØ§
ĠØ§ÙĦÙħØ§ Ø¶ÙĬ
ÙĪØ§ÙĨ Ø©
ĠØ¹Ø· Ø´
ĠÙĬØ®Ø±Ø¬ ÙĩØ§
ĠØ§Øª Ø³Ø¹
ĠØ¨Ø§ÙĦØ¥ ÙĨ
ĠÙħÙĤ Ø±Ø§
ĠÙĦÙĦ Ø±Ø§ÙĩÙĨ
ĠØŃØ¯ÙĬØ« Ø§
ĠÙĦØ³ ÙĨØ©
ĠÙĪØ§ÙĦØª ØŃ
ĠÙĥÙĪÙĨÙĩ ÙħØ§
ĠØ£Ùĩ ÙĦÙĬØªÙĩ
ĠØ§ÙĦÙħØ¹Øª ÙĥÙģ
ĠØµÙĦØ§ ÙĩØ§
ĠÙĦØ¥ ÙĤØ±Ø§Ø±Ùĩ
ĠÙĦØ¥ ÙĨØ³Ø§ÙĨ
Ø¨ÙĤ Ø§Ø¦Ùĩ
ĠØ§ÙĦØªØ¹ Ø±Ø¶
ĠØŃÙĥ ÙħØ©
ĠØ¬ÙħØ¹ ÙĩÙħØ§
ĠØ¬Ø¹ÙĦ ÙĨØ§
Ø¶ØŃ Ùī
ĠØªØŃØª ÙĩØ§
ĠÙĤØ± Ø¹Ø©
ĠÙĨØ¬ Ø³Ø§
ĠØ¨Ø§ÙĦØ´ Ø¨ÙĩØ©
ĠØ¨Ø§ÙĦÙģ Ø³Ø®
ĠÙĪØ§ÙĦØ¥ Ø¬Ø§Ø±Ø©
ĠØªØµ Ø§Ø¯
ĠØ¶Ø±Ø¨ Øª
ĠÙħØ¹Øª Ø¯
Ø§ÙĦØ¹ Ø¨Ø¯
ĠÙģØ³Ø® Ø§
ĠÙĪØ¶Ø¹ ÙĩØ§
ĠÙĪØ¶Ø¹ ØªÙĩ
ĠØªØ® Ø±ÙĬØ¬
ĠÙĪØ§ÙĦØ´ Ø±Ø§Ø¡
Ø¨Ø· ÙĦØª
ĠÙĪØ§ÙĦØ« ÙħÙĨ
ĠÙģÙħ ØªÙī
ĠÙģÙĪÙĤ ÙĩØ§
ÙĪØ§ÙĦØŃ ÙĥÙħ
ĠØ§ÙĦÙħÙĤ Ø±ÙĬ
ĠÙĪØ§ÙĦØµ ØŃÙĬØŃ
ĠÙĤØ³Ùħ ØªÙĩ
ĠØ¨Øº Ø¨ÙĨ
ĠØ¨Ø§ÙĦØµ ÙĪÙħ
ĠØ§Ø³ØªØ¹ Ø§Ø±
ĠØ³ÙĦÙĬ ÙħØ§
ĠØ¥ØŃ Ø¶Ø§Ø±
ĠÙģØ§ÙĨ Ø¯ÙģØ¹
ĠØªØ¹ÙĬÙĨ Øª
ĠØ¥ÙĨØ³Ø§ÙĨ Ø§
ĠØ³Ùģ Ø±Ø§
ĠØ§ÙĦÙħØŃØª Ø±Ùħ
ĠØ§ÙĦÙħØŃØª Ø§Ø¬
ÙĨØ¬ ÙĬ
ĠØ¬ÙĨØ§ ØŃ
ĠÙĤØ¶ÙĬ Øª
ĠÙħÙĤØ§ ØªÙĦ
ĠÙħØ³ØªØŃ ÙĤØ©
ĠÙĦØ° ÙĥØ±
ĠÙĦØ° ÙħÙĬ
ĠÙĪÙĬØ¤ ÙĬØ¯
ĠØªØ¤ ÙĥÙĦ
ĠÙĪØ¨ÙĤÙĬ Øª
ĠÙĬØªØ¨Ø¹ ÙĩØ§
ĠØ§ÙĦØ§ØŃØª ÙĬØ§Ø·
ĠØ³ÙĤÙĪØ· Ùĩ
ĠØ§ÙĦØªØµ Ø¯ÙĬÙĤ
ÙĦØ¸ Ø©
ĠØ§ÙĦØ§ÙĤØª ØµØ§Ø±
ĠÙĬØ·Ø§ÙĦØ¨ Ùĩ
ĠØªÙĨØ§ ÙĪÙĦÙĩ
ĠÙĪØ§Ø¹Øª ÙħØ¯Ùĩ
ĠÙĬØ±Øª ÙģØ¹
ĠØ¥ØªÙĦØ§Ùģ Ùĩ
ĠÙĪÙĦÙĦØ£ Ùħ
ĠÙħÙĥØ§ØªØ¨ ØªÙĩ
ĠØ§ÙĦÙħØ¶Ùħ Ø¶Ø©
ĠÙĨØ§ÙĤØµ Ø§
ĠØ§ÙĦØ¥Ø³ ÙĤØ§Ø·
ĠÙħÙĤÙĬ Ø¯Ø©
ĠØ¨Ø¯Ø¹ ÙĪÙī
ĠÙģØ£Ø¹Ø· Ø§Ùĩ
ĠÙģØ§ÙĦØ¨ ÙĬØ¹
ĠØ¥ÙĨÙĥ Ø§Ø±Ùĩ
ĠÙĤØªÙĬ Ø¨Ø©
ĠØ§ÙĦÙħØ´Ø± ÙĤ
ĠØ±ÙĥØ¹Øª Ø§ÙĨ
ĠØ§ÙĦÙħØ¬Ø± ÙĪØŃ
ĠØ§ÙĦÙħÙĨÙĥ ÙĪØŃØ©
ĠØ¨Ø±Ø£ÙĬ Ùĩ
ĠØ£Ø«ÙĨ Ø§Ø¦Ùĩ
ĠÙĥÙģÙĬ ÙĦØ§
ĠØ£ÙĪÙĦÙĬ Ø§Ø¡
ĠØªØ£Ùĥ ÙĬØ¯
ĠÙħÙħÙĬ Ø²Ø§
ĠÙĦØ¤ ÙĬ
ĠØ£Ø±Ø· Ø§ÙĦ
ĠØªØºÙĦÙĬ Ø¨Ø§
ĠØ§ÙĦÙħÙĨØ¯ ÙĪØ¨
ĠÙĬÙĤØ§Ø¨ ÙĦÙĩ
ĠØ³Ø§Ø¬ Ø¯Ø§
Ø§ Ø³Ùħ
Ùĩ ÙĦÙĥ
ÙĪ Ø¢
ÙĪ ØŃØ¯Ø«ÙĨÙĬ
ĠØ§ Ø¬ØªÙĩØ§Ø¯
Ø¯ Ø±Ø¬
Øª Ø±Ùĥ
Øª Ø¨Ø¹
Ø¹ Ø¬
Ø¹ ÙģØ±
ĠÙĪ ÙĦØ¨Ø³
ĠÙĪ ÙĦØ¨ÙĨ
ĠØ£ Ø°Ø§ÙĨ
ĠØ£ ÙģÙĩÙħÙĩ
ĠÙħ ØµØŃ
ĠÙħ Ø°ÙĬ
ĠØ¨ ÙģØª
ĠØ¨ Ø¶Ø¹
ĠØ¨ Ø·Ø¹Ø§Ùħ
ĠÙģ ÙħØ±
ĠÙģ ÙĥØ±Ùĩ
Ùģ ÙĥØ°Ø§
Ùĥ Ø´Ùģ
Ø£ ÙĪÙĬ
Ø£ ØŃÙħØ¯
Ø£ Ø®Ø¨Ø±ÙĨÙĬ
ĠÙĤ Ø±Ø§Ø¨ØªÙĩ
Øµ ÙģÙĩ
Øµ Ø§ÙĦÙĩ
ĠÙģÙĬ ÙĤØ¨ÙĦ
ÙĦÙĬ Ø¸
ĠÙĥ ÙĬØ³
ĠØ§ÙĦÙħ Ø±Ø©
ĠØ§ÙĦÙħ ÙģØµÙĦ
ĠØ§ÙĦÙħ ÙħØªÙĨØ¹
ĠØ§ÙĦÙħ Ø£ÙĥÙĪÙĦ
ĠØ¥ ÙĬØµ
Ø« ÙĦØ§Ø«
Ø· Ø§ÙĦ
ĠØª ÙĦÙĤ
ĠØª ÙģØ±
ĠØª Ø±Ø¬ØŃ
ĠØª ÙĪÙĥÙĬÙĦÙĩ
Ø§ÙĦØ °
ĠØ§ÙĦ ÙĦÙĪØ«
ÙĬØ± Ø§ÙĨ
ĠØ£ÙĪ ÙĤØ¹
ĠØ£ÙĪ Ø¯Ø¹
Ø§Ø± Ø¯Ø©
ĠØ± Ø¯Ø§Ø¡
ĠØ± ÙħØ§Ùĩ
ĠÙĨ Ø¸Ùħ
ĠÙĨ ÙĪØ¹Ùĩ
ĠÙĨ Ø¨Ø´
ĠÙĨ Ø°Ø±Ø§
ĠÙĨ Ø´Ø£
ĠÙĨ ÙģÙĪØ°
ĠÙĦØ§ Ø¹ÙĨ
ĠÙĦÙħ ØŃ
ĠØ³ Ø±ÙĬØ©
ÙĦÙģ ÙĦØ§ÙĨ
ĠØµ Ø¨Øº
Ø§Ø¨ ØŃ
ĠØ§ÙĦØ¹ Ø¸ÙĬÙħ
ÙħÙĨ Ø©
ÙħÙĨ ÙĪØ¹
ĠØ¨Ø¹ ÙĦÙħ
ĠØ¨Ø¹ ÙĬØ±Ø§
ĠØ§ÙĦØŃ ÙĥÙħØ©
ĠØ§ÙĦØŃ Ø¯ÙĬØ¨ÙĬØ©
ÙĩÙĪ Ø±ÙĬ
ĠØ¯ ÙĦØ³
ĠØ¯ ÙĪØ§Ø¡
ĠØ¯ Ø¨Øº
ĠÙħØ¹ Ø§Ø±Ø¶
ĠØ¨Ùĩ Ø±Ø§Ùħ
ĠØ§ÙĦÙĤ ØµØ§Ø±
ĠÙĪØ§ ÙĤØª
ĠÙĪØ§ ÙĤØ¹
Ø¹Øª ÙĥÙģ
ĠÙĦØ£ ÙĩÙĦÙĩ
Ø±Ø¬ Ø§ÙĨÙĬ
ĠØ§ÙĦØ¨ ÙĤÙĬØ©
ĠØ§ÙĦØ¨ Ø§Ø¦ÙĨ
ĠØ§ÙĦØ¨ Ø³ØªØ§ÙĨ
ĠØ§ÙĦØª ÙģØ§
ÙĤÙĬ ÙĤØ§
Ø¦ ÙĬØ©
ĠØ§ÙĦØ¥ ÙħØ§Ø¡
ĠÙĬÙĥ ÙĦÙħ
ĠÙĬÙĥ Ø§Ø¯
ĠÙĬÙĥ Ø°Ø¨
ĠÙĬÙĥ ÙĪÙĨØ§
ĠÙĬÙĥ Ø§ØªØ¨
ĠØ§ÙĦÙĨ ÙģØ¹
ĠØ§ÙĦÙĨ Ø²Ø¹
ĠØ§ÙĦÙĨ Ø¨ÙĪØ©
ĠØ§ÙĦÙĨ Ø§Ø¸Ùħ
Ø¨Ø§ Ø·
ĠÙĬÙĤ ÙĦØ¯
ĠÙĪØ£ ÙħØ©
ĠÙĪØ£ Ø³ÙĦÙħ
ĠÙĪØ£ Ø®Ø¨Ø±
ĠÙĪØ£ Ø¨Ùī
ĠÙĪØ£ ÙģØªÙī
ĠØ· ÙĩØ§Ø±ØªÙĩ
ĠÙĪØ¬ ÙĩØ§
ĠØ§ÙĦØ³ ÙĬÙĨ
ĠØ§ÙĦØ³ Ø¨ÙĬ
ĠØ§ÙĦØ³ Ø±Ø§ÙĬØ©
ĠØ§ÙĦØ³ ÙĥÙĪØª
ĠÙĪÙĬ ØµØ¯ÙĤ
ĠÙĪÙĬ Ø´ÙĩØ¯
Ø¹Ø§ ÙĩØ§
ĠØ§ÙĦÙģ Ø§Ø±
ĠØ§ÙĦÙģ Ø§ØŃ
ĠÙħØŃ ØªÙħ
ĠÙħØŃ ÙĤÙĤ
ĠÙĬØª Ø±ÙĥÙĩ
ĠÙĬØ¹ Ø§Ø±Ø¶
ĠØº Ø¶
ĠØº Ø±Ø©
ĠØ§ÙĦØ« ÙĤØ©
ĠÙĪØ¹ Ø¬Ø²
Ø§Ø² ÙĨ
ĠÙĬÙĨ ÙģÙĬ
ĠØ§ÙĦØ° ÙĩØ§Ø¨
ÙĪØ¨ ÙħØ§
ĠØ¨Ø£ Ø®Ø°Ùĩ
ÙĪØ¶ Ùĩ
ĠØ§Ø³Øª Ø¨Ø±Ø£
ÙĪØ² Ø§Ø¯
ĠÙģØ¥ ÙħØ§
ÙĪØ§ÙĦØ ¶
ÙĪÙĤ Ø¨
ÙĪÙĤ Ø§ÙĦØª
ĠÙģØ£ ØªÙī
ĠÙģØ£ Ø°ÙĨ
ĠÙģØ£ ØŃØ±Ùħ
ĠÙħØª Ø¹Ø©
ĠÙĪØ§ÙĦÙħ Ø°ÙĩØ¨
ĠØ§ÙĨ Ø¯ÙģØ¹
ĠØ§ÙĦØ· Ø±ÙĤ
ĠØ§ÙĦØ· Ø§Ø¹Ø©
ĠØ¨ØŃ Ø±ÙĬØ©
Ø§ÙĦÙħ Øª
ĠØªØŃ ÙĪÙĦ
ĠØªØŃ ÙĦÙĬÙģ
ĠÙĪØµ Ø±Ùģ
ĠØ§ÙĦÙħØŃ ØµÙĨ
ÙģÙĤ ÙĪÙĦ
ÙģÙĤ Ø§ÙĦØª
ĠÙĤØª ÙĦØ§
ĠÙĪØŃ ÙĦÙĤ
ĠÙĪØŃ ØµÙĦ
ĠÙĪØ§ÙĦ ÙĨØ§Ø³
Ø´ÙĬ Ø¯Ø©
ĠØ²ÙĪØ¬ Øª
ĠÙĦØŃ ÙħÙĦ
ĠÙĬØ³Øª Ø¨Ø±Ø¦ÙĩØ§
ĠØ§Ø´Øª Ø¯
ĠØ¥Ø° ÙĨÙĩØ§
ĠÙģØ³ Ø±Ùĩ
ĠØ§ÙĦÙħÙĨ ØªÙĤÙī
Ø§Ø³ Ø¯
Ø®Øµ Ø©
ĠØ£ÙĤ Ø§Ø±Ø¨Ùĩ
ÙĪØŃ Ø±Ùħ
ĠØ¨Ø´ Ø§Ø©
ĠØ¥Ø³ ÙĤØ§Ø·Ùĩ
ĠØ¹Ø±Ùģ Ùĩ
ĠØ£Ø³ ÙĬØ¯
ĠØ£ÙĤØ± Ø±Øª
ÙĨØ¯ ÙĤ
ÙĨØ¯ ÙģØ¹
ĠØªÙĤ ÙĦÙĬØ¯
ÙģØ£ ÙħØ±
ĠÙĬØ² Ø¹Ùħ
ĠØ±Ùĥ ÙĨØ§
ĠÙģÙĦÙĩ Ùħ
ĠØªÙĨ Ø§Ø²
ĠØ³Øª Ø±Ùĩ
ĠØ§ÙĦØ§Ø³Øª ÙĬÙĦØ§Ø¯
Ø±Ø³ ÙĦÙĩ
ĠØ¨Ø§ÙĦÙĤ Ø¨ÙĪÙĦ
ØµÙĬ Ø§Ùħ
ĠØ¨Ø§ÙĦØª ØŃ
ĠØ¹ÙĬÙĨ ÙĬÙĩ
ĠÙĬÙģ ØªÙĬ
ĠØ§Øª ØµÙĦ
ĠÙħÙĤ ÙĦØ¯
ĠØ¨Ø± Ø¤ÙĬØ©
ĠÙĦÙĦØŃ Ø¯ÙĬØ«
ĠÙĪÙĦÙĬ Ø§
ĠÙĦÙĦÙĪ ØµÙĬ
ĠÙĪØ§ÙĦØ¨ Ø°Ø±
ĠÙĪØ§ÙĦØ¨ ÙĨØ§Ø¡
ĠÙĪØ§ÙĦØ¨ ÙĬÙĩÙĤÙĬ
ĠØ¨Ø³ ÙĤÙĪØ·
ĠØ§ÙĦØªØ¹ Ø¯ÙĬ
ĠÙĬØ± Ø³ÙĦ
ĠÙħØ§Ø¦ ØªØ§ÙĨ
ĠØ§ÙĦØŃÙĬ Ø¶Ø©
ĠØ¨Ø« Ø¨ÙĪØª
ĠØ§ÙĤØª Ø¯Ø§Ø¡
ĠØ¨Ø§ÙĦÙĨ Ø³Ø¨
ĠØ§ÙĦÙĤØ± Ø§ÙĨ
ĠÙĤØ± Ø¢ÙĨ
ĠÙĪØ§ÙĦØ¥ ÙħØ§Ùħ
ĠÙĪØŃØ¯ ÙĬØ«
Ø¹ÙĦÙħ Ùĩ
ĠÙĬØ¹Øª ÙĥÙģ
ĠÙģØ§Ø³ ÙĤØ§
ĠØ¶Ø±Ø¨ ÙĩØ§
ĠØ±Ø£Ø³ ÙĩØ§
ĠØ®Øµ Ùħ
ĠØ§ÙĦÙģØ± ÙĪØ¶
ĠÙĪÙħØ¹ ÙĨØ§Ùĩ
ĠÙģÙĨ Ø²ÙĦ
ĠØ§ÙĦØªØŃ ÙħÙĦ
ĠØ¨ÙĬØ¯ ÙĩØ§
ĠÙĨÙĩØ§ Ø±
ĠØ«Ø§Ø¨Øª Ø§
ĠØŃÙĨØ« Ùĩ
ĠØ«ÙħØ§ÙĨ ÙĬÙĨ
ĠØ¨Ø§ÙĦØº Ø©
ĠØ¹Øµ Ø±Ùĩ
ĠØ¹Øµ ÙħØªÙĩ
ĠØ¨Ø§ÙĦØ« Ø§ÙĨÙĬ
ĠÙģØ§ÙĦØ£ ÙĪÙĦ
ĠØ¨Ø§ÙĨ ÙĤØ¶Ø§Ø¡
ĠØŃØ³ ÙĨØ§
ÙĥØŃ ÙĪÙĦ
ĠØ§ÙĦØ£ØŃ ÙħØ±
ĠÙĪÙĬØ¹ ÙħÙĦ
ĠÙģØ§ÙĨ Øª
ĠØ§ÙĦÙħØ± Ø¡
ĠÙĥØ§ÙģØ± ÙĬÙĨ
ĠÙĥØ± ÙĩØ§
ÙĪØ§ÙĦØ¹ Ø¨Ø¯
ĠÙħØ¨ Ø§ÙĦØºØ©
ĠØ¥Ø¹ ÙĦØ§Ùħ
ĠÙħÙĪØ¶ Ø¹Ø§
ĠÙħØ®ØªÙĦÙģ Ø§
ĠØªØ£Ø®ÙĬØ± ÙĩØ§
ĠØ£Ø² ÙĬØ¯
ĠÙĤØ°Ùģ ÙĩØ§
ĠØºØ³ÙĦÙĩ ÙħØ§
ĠÙĬØ³ØªØŃ ÙĦÙģ
ĠÙĨÙĥ ØŃØª
ĠØªØ¹ÙĦÙĬ ÙħÙĩ
ĠØ§ÙĦØ¥Ø¹ Ø§Ø±Ø©
ĠÙĪÙĤÙĪØ¹ ÙĩØ§
ĠÙĪØ³Øª Ø©
ĠÙħÙģØ± Ø¯Ø§
ĠØªØŃØ±ÙĬÙħ ÙĩØ§
ÙĪØ§ÙĦØ´ Ø±ØŃ
ĠÙĦÙĦØ¯ ÙĬÙĨ
ĠÙĨØ§Ùģ ÙĦØ©
ĠÙĪØ±Ø§Ø¡ Ùĩ
ĠØ£Ø¬ÙħØ¹ ÙĬÙĨ
ĠØ¨Ø®ÙħØ³ ÙĬÙĨ
ĠØ£ÙħØ³ ÙĥÙĩ
ĠØ°Ùĩ Ø¨Øª
ĠÙĨØ§ÙĤØµ Ø©
ĠØ²ÙħØ§ÙĨ ÙĨØ§
ĠØ£Ø¶ ØŃÙĬØªÙĩ
ĠØºØ³ ÙĦÙĩØ§
Ø§Ø®Ø° Ø©
ĠØªØ¹Ø¨ÙĬØ± Ùĩ
ĠØ±Øº Ø¨Ø©
ĠØ§ÙĦÙģØ¶ ÙĦØ§Ø¡
ĠÙħØ±Ø¬ ÙĪØŃ
ĠÙĤØªÙĬ ÙĦØ§
ĠØ±ÙĥØ¹Øª ÙĬ
ĠØªØ·ÙĦÙĬ ÙĤØ©
ĠÙħØ³ØªÙĨ Ø¯Ø§
ĠØ·Ø§ ÙĪØ³
ĠÙĥØ° Ø¨Øª
ĠØªØ¹Ùħ ÙĬÙħ
ĠØ§ÙĦØ¨Ø§Ø· ÙĨ
ĠØ¥Ø¬Ø§Ø² ØªÙĩ
ĠØµØ¯Ø§ ÙĤØ§
ĠØ§ÙĦØºÙĨ Ø§Ø¦Ùħ
ĠØ²Ùħ Ø²Ùħ
ÙĨ Ø§Ø²Ø©
ÙĬ Ø´ØªØ±Ø·
ÙĬ Ø¶ÙħÙĨ
Ùĩ ÙĥØ°Ø§
ÙĪ ÙħØ§ÙĨ
Ø± ÙĪØ¬Ùĩ
Ùħ Ø¦
Ùħ Ø£ÙĨ
Ùħ ØŃÙĦ
Ø¨ Ø®
Ø¯ ÙĬØ¹Ø©
Ø¹ Ø²
Ø¹ Ø¯Ùħ
ĠÙĪ ÙĦØº
ĠÙĪ Ø³ÙħØ¹
ĠØ£ ØµØ¯ÙĤ
ĠØ£ ÙĦØ²Ùħ
ÙĤ Ø§ÙĦØ©
ĠÙħ Ùħ
ĠÙħ ØµØ¯ÙĤ
ĠÙħ Ø¨ØªØ¯
ĠÙħ Ø¶Ø·Ø±
ĠÙħ Ø²ÙĪØ¬Ø©
ĠØ¨ Ø°ÙĬ
ĠØ¨ Ø°ÙĥØ±Ùĩ
ĠØ¨ ÙĦØ³Ø§ÙĨÙĩ
ĠØ¹ ÙħØ©
ĠØ¹ Ø§Ø¬Ø²
Ùģ ÙĪØ§
Ùģ Ø°ÙĦÙĥ
ĠÙĬ ÙĤÙĪÙĦÙĩ
ĠÙĬ Ø±ÙĤ
ĠÙĬ ÙĪØµÙģ
ÙĦØ§ Ø¨ÙĨ
Ø£ Ø¨
Ø£ ÙĦÙĥ
Ø£ ÙĬÙĨ
Ø° ÙĪ
ĠÙģÙĬ ØµÙĦÙĬ
ÙħØ§ ÙĨØ§
ÙħØ§ ÙĦÙĩØ§
ĠÙĥ Ø·
ĠØ§ÙĦÙħ ÙĬÙĦ
ĠØ§ÙĦÙħ ØµØ¯ÙĤ
ĠØ§ÙĦÙħ Ø´ØªØ±Ø·
ĠØ§ÙĦÙħ Ø±ÙĥØ¨
ĠØ§ÙĦÙħ ÙĩØ§Ø¬Ø±
ĠØ¥ Ø·Ø¹Ø§Ùħ
ĠØ¥ ØµÙĦØ§ØŃ
ĠØ¥ ÙģØ±Ø§Ø²
ĠÙħÙĨ ØŃ
ĠÙħÙĨ ÙģØ±Ø¯
Ø® Ø§Øµ
ĠØª Ø¶Ø±
ĠØª Ø·ÙĬ
Ø¥ ØŃØ¯Ø§ÙĩÙħØ§
Ø´ Ø¨
Ø´ ÙĩØ§Ø¯
ĠØ£ÙĨ ÙģØ¹
ĠØ£ÙĨ ØªÙħ
Ø°Ø§ Ùħ
ĠØ± Ø¯Ø©
ĠØ± ÙģØ¶
ĠÙĨ ÙĪÙħ
ĠÙĦØ§ Ø³ØªØŃ
ĠÙĦÙħ Ø¹ÙĬÙĨ
ĠÙĩ Ø§Ø¬Ø±
ĠØ³ ÙĪØ§Ø¯
ĠØ§ÙĦØ£ ÙĪØ³
ĠØ° ÙĨ
ĠØ° ÙĪØ§Øª
ĠØµ ÙĬØ§ÙĨØ©
Ø±Ø§ Ø®ÙĬ
ĠØ¨ÙĨ ÙģÙĬ
ĠØ¬ Ø§ÙĩÙĦ
ÙĪÙĨ ØµÙģ
Ø¨ÙĬ ÙĩØ§
ĠØ¨Ø¹ Ø´Ø±
ĠØ¨Ø¹ ÙĬØ¯Ø§
ĠØ¯ Ø¹ÙĬ
ÙĪØ§ Ø¬Ùĩ
ĠØ® Ø²Ø§Ø¹Ø©
Ø±ÙĬ ÙĤÙĩ
ĠØ§ÙĦÙĤ Ø±Ø·
ĠØ§ÙĦÙĤ ÙĪØ§Ø¹Ø¯
ĠÙĪØ§ ÙĦÙĬÙħÙĬÙĨ
ĠØ§ÙĦØ¨ Ø±Ø²
ĠØ§ÙĦØ¨ Ø³Ø§Ø·ÙĬ
ĠØ§ÙĦØª ÙĤØ¯ÙĬÙħ
ĠØ§ÙĦØª ÙĤØ±ÙĬØ±
ĠØ¨Ø§ÙĦØ ¢
Ø±Ø¨ Ø·
ĠÙĦÙĪ ÙĦØ¯
ĠØ§ÙĦØ¥ Ø¹Ø·Ø§Ø¡
ÙĪÙħ ÙĤØªØ¶Ùī
ĠØ§ÙĦÙĨ ØµØ±Ø§ÙĨÙĬ
ÙĪÙĬ Ø®Ø±Ø¬
ÙĦØª ÙĤØ·
ĠÙĬÙĤ Ø±Ø¹
ĠÙĬÙĤ Ø§Ø³
ĠØ§ÙĦØ¬ ÙħØ±Ø©
ĠØ§ÙĦØ¬ Ø§Ø±ØŃ
ĠÙĪØ£ ÙĪØµÙī
ĠÙĪØ¥ÙĨ ÙĬ
ĠØ§ÙĦØ³ ÙĤÙĬ
ĠØ§ÙĦØ³ Ø¬ÙĨ
ĠÙĪÙĬ ÙĤØ¶ÙĬ
ĠÙĪÙĬ ØµÙĦÙĬ
ÙģØ³ ÙĤ
ÙģØ³ Ø±Ùĩ
ÙģØ³ Ø¯Ùĩ
ĠØ£Ø® ÙħØ§
ÙĨÙĬ ÙĬÙĨ
ÙģØ± Ø§Ø¡
ĠÙĦÙĬ ÙĦØªÙĩ
ĠØ§ÙĦØµ Øº
ĠÙħØŃ ÙĤ
ĠÙħØŃ Ø³
ĠÙħØŃ ÙħÙĦ
ĠÙĬØª ÙĨ
ĠÙĬØª ÙĪØµÙĦ
ĠÙĬØŃ ÙĪÙĦ
Ø´Øª Ø±
ĠØº Ùħ
ĠØº ÙģÙĦØ©
ĠØ§ÙĦØ¯ Ø¬Ø§ÙĦ
ĠÙĪØ¹ ÙĤØ¯
ĠÙĬÙĨ Øµ
ĠÙĬÙĨ ÙĤØ¯
ĠÙĬÙĨ ØªÙĩÙĬ
ĠØ§ÙĦØ° Ø§Øª
ĠØ¶ Ø§Ø¹Øª
ĠØ¨Ø£ Ø¹
ĠØ§Ø³Øª Ø®ÙĦÙģ
ĠÙĬÙĥÙĪÙĨ ÙĪØ§
ĠØ§ÙĦØ§ ÙĨØ¯
ĠØªØ¹ ÙĦÙĬÙħ
ĠÙģØ£ Ùĥ
ĠÙħØª ÙĨØ¬Ø³
ĠÙģØ§ Ø³ØªØŃÙĤ
ĠÙĪØ§ÙĦÙħ Ø§ÙĦ
ĠÙĪØ§ÙĦÙħ Ø³Ø£ÙĦØ©
ĠØ§ÙĦÙħØª ØµÙĦ
ĠÙħÙĦÙĥ Øª
ĠÙģØª Ø±Ø¯
ÙĦØ¹ Ø¨Ø¯
ĠØ§ÙĦÙħØ³ ÙĥÙĨ
ĠØ¨ØŃ Ø¬Ø±
Ø§Øª ÙħØ©
ĠÙģØ¥ÙĨÙĩ ÙħØ§
ĠÙģØ¹ ÙħÙĦ
ĠÙĦØ¹ Ø¬Ø²Ùĩ
ĠÙĪÙĦØ¯ ÙĬÙĨ
ØªØ¨ Ùī
ĠØ§ÙĦÙħØ¹ ÙĪÙĦ
ĠÙĥØ§ÙĦØ °ÙĬ
ĠØ¨Ø§ÙĦÙħ Ø¨ÙĬØ¹
ĠØ§ÙĦÙħØŃ ÙĦÙĬ
ÙħØª ÙĨØ§
ĠÙĪØŃ Ùħ
ĠÙĪØŃ Ø³ÙĨÙĩ
ĠÙĪØ§ÙĦ Ø±Ùĥ
ĠÙĪØ§ÙĦ ÙĨÙģÙĤØ©
Ø´ÙĬ Ø´
ĠÙĪØ³ Ø·Ùĩ
ĠÙĦÙĤ ÙĪØ©
ĠÙĦØª ÙĤØµÙĬØ±Ùĩ
ĠÙĬØ³Øª ÙĤÙĬÙħ
ĠÙĬØ³Øª ÙģØ§Ø¯
Ø¨Øº Ø¯Ø§Ø¯
Ø¹Ø¯ ÙĪÙħ
ĠÙĬØ´ ÙģØ¹
ĠØ¨Ùĥ Ø«Ø±Ø©
Ø§ÙĦÙģ Ø±ÙĤ
ĠÙĪØ§ÙĦØ£ ÙħØ©
ĠÙĪØ§ÙĦØ£ ÙĪØ¬Ùĩ
ĠØ¨ÙĤ Ø³Ø·Ùĩ
ÙĬØªÙĩ Ùħ
ĠÙħØ³Øª ÙĤÙĦØ©
ĠØµØŃ Ø¨Ø©
ĠÙĦÙĦØ£ Ø±Ø¶
ĠÙĦÙĦØ£ ÙĪÙĦÙī
ĠØ§ÙĦØ¸ ÙģØ±
ĠØ£Ùģ ÙĩÙħ
ĠØ³Øª ÙħØ§Ø¦Ø©
ĠÙģÙĦÙĬ ØŃØ±Ø±
ĠÙĪØ§ÙĦØ¹ ÙĬÙĨ
ĠÙĬØ· ÙĦØ¨Ùĩ
ĠÙĬØ· Ø¤ÙĩØ§
ĠØ¨Ø§ÙĦØª Ø³ÙĦÙĬÙħ
ĠÙĦÙĦØ¹ ÙĬÙĨ
ĠÙħØ¯ Ø®ÙĪÙĦ
ĠØ¹Ø· Ø¨
ĠØ¨Ø§ÙĦØ¥ Ø´Ø§Ø±Ø©
ĠÙĪØ´ Ø¯
ĠØŃØ§ Ø¶Ø±Ø©
ĠØ¨Ø± Ø¦Øª
ĠØªØª ÙĪÙĤÙģ
ĠÙĦÙĦÙĪ Ø¶ÙĪØ¡
ĠÙĦÙĦÙĪ Ø§ÙĤÙģ
ĠØ¨Ø§ÙĦØ¨ ÙĦØ¯
ĠÙħØ® Ø²ÙĪÙħ
ÙĦÙħØ§ ÙĦÙĥ
ĠÙĪØ§ÙĦÙĤ ÙĬÙħØ©
ĠØ·ÙĦØ¨ Øª
ĠØ·ÙĦØ¨ ÙĩØ§
ÙĪØ§ÙĦØ£ Ø¸ÙĩØ±
ĠØ¨Ø§ÙĦÙĨ ØµØ¨
ĠØ¬Ùħ ÙĩÙĪØ±
ĠÙĦØ´ Ø¨ÙĩØ©
ĠÙħØ¹Øª Ø§Ø¯
ĠØ¹Ø§ ÙħØ§
ĠØ®Øµ ÙĪÙħØ©
ĠØ¨Ø§ÙĦÙĥ ÙĪÙģØ©
ĠØªÙĤØ¯ ÙħÙĩ
ĠÙĪØ§ÙĦØ® ÙĨØ²ÙĬØ±
ĠÙĦØ¯ Ø®ÙĪÙĦÙĩ
ĠÙĥØ£ ØµÙĦÙĩØ§
ĠØ³ÙĨ ÙĨÙĩ
ĠÙĪØ§ÙĦÙĥ ÙģØ§Ø±Ø©
ĠØ§ÙĦÙħÙĤ Ø±Ø¶
ÙĤÙĬÙħ ØªÙĩØ§
ĠÙģÙĬÙĨ Ø¸Ø±
ĠØ§Ø±Øª ÙģØ§Ø¹
ĠØ¨Ø° Ø±Ùĩ
ĠØ«ÙĪØ¨ ÙĬÙĨ
ÙĪØ® Ø§ÙĦÙģ
ĠØ³ÙĩÙħ ÙĬÙĨ
ĠØ§ÙĦØŃØ±Ùħ ÙĬÙĨ
ĠØ§ÙĦÙħØ³ØªØŃÙĤ ÙĬÙĨ
ĠØ§ÙĦØ£ÙĥØ«Ø± ÙĬÙĨ
ĠÙģØ±Ø¬ Ø©
ĠØ§ÙĦÙħØ±Ø¶ Ø¹Ø©
ĠØ¥Ø² Ø§Ø±Ùĩ
Ø¯Ø® ÙĦØª
ĠØ£ÙĪÙĦØ§Ø¯ ÙĩØ§
ĠÙħØ£Ùħ ÙĪÙĨ
ĠØ³ÙħØ§ ÙĪÙĬØ©
ĠØ£Ø² ÙĪØ§Ø¬
ÙĪØ§ÙĦÙĪ Ø¬Ùĩ
ĠØ§ÙĦÙħØªÙĤØ¯Ùħ ÙĬÙĨ
ĠØ§ÙĦØ¥Ø¹ ÙĦØ§Ùħ
ĠÙĪÙĦØ ºÙĬØ±Ùĩ
ĠØ§ÙĦØ£ÙĤ Ø§Ø±Ø¨
ĠØ§ÙĦÙħÙĦØª Ø²Ùħ
ÙħØ« ÙĬÙĦ
ĠÙħÙĥÙĦÙģ Ø§
ĠØ§ÙĦØŃÙĦÙĤ ÙĪÙħ
ĠÙĤØ¶ Ø§Ø¦Ùĩ
ĠØ¨Ø®Ø± ÙĪØ¬Ùĩ
ĠÙħÙĬØ±Ø§Ø« Ø§
ĠÙĪØ§Ø´Øª Ø±Ø·
ĠÙģÙĪØ¬ Ø¯Ùĩ
ĠÙħÙĤÙĬ Ø¯Ø§
ĠØ§ÙĦØ¨Øµ Ø±Ø©
ĠØ¨Ø§ÙĦÙĩ Ø¨Ø©
ĠØ®Ùģ ÙĬØ©
ĠØ§ÙĦØ¹Ø± ÙĪØ¶
ĠÙĪÙĤØ¯Ùħ ÙĨØ§
ĠØ§ÙĦØ£Ø°ÙĨ ÙĬÙĨ
ĠØ§ÙĦØ®Ø´ Ø¨
ĠØ¥Ùħ ÙĥØ§ÙĨÙĩ
ĠØ§ÙĦÙĦØ° Ø©
ĠØ§ÙĦÙĦØ° ÙĬÙĨ
ĠØ²Ø¹ ÙħÙĩ
ĠÙĪÙĤÙĦ ÙĨØ§
ĠÙħØ±ØŃ ÙĦØªÙĬÙĨ
ĠØ¨ÙĪØ¬ ÙĪØ¯Ùĩ
ĠÙħÙĬÙħ ÙĪÙĨ
ĠØ§ÙĦØªØ¨Ø¹ ÙĬØ©
ĠØ§ÙĦØµØ§Ø¯ ÙĤ
ĠØ°Ø±Ø§ Ø¹Ø§
ĠØ¹ØµØ¨ ØªÙĩ
ĠØ£ÙĪØµ ÙĬØª
ĠÙħØ³Ø§Ùģ Ø±Ø§
ĠÙĤÙĦÙĪ Ø¨ÙĩÙħ
ĠØ§ÙĦØŃÙĤÙĬ ÙĤÙĬ
ĠÙħØªØ¨Ø± Ø¹Ø§
ÙĨ Ø´
ÙĬ ÙĦÙĬ
ÙĬ Ø§ÙĦ
Ùĩ Ø±Ø©
ÙĪ Ø´Ø±
ÙĪ Ø§ÙĨÙĬ
ÙĪ Ø°ÙĩØ¨
ÙĪ Ø¨ÙĬØ¹
ÙĪ Ø´ÙĩØ¯
ÙĪ Ø°ÙĬ
Ø± ÙĪØ·
Ùħ Ø´
Ùħ ÙĪØª
Ø¨ ÙħÙĨ
Ø¨ Ø¦
Øª ØµØ¯ÙĤ
Ø¹ ÙħÙĩ
Ø¹ Ø³Ø§Ø±
ĠÙĪ ÙĪØ¬
ĠÙĪ Ø±Ø¶
ĠÙĪ ÙĪÙĦØ§
ĠÙĪ Ø¸ÙĨ
ĠÙĪ ÙĦÙĤÙĪÙĦÙĩ
ĠÙĪ ÙģØ§ØªÙĩ
ĠØ£ ØŃÙĬ
ĠØ£ Ø±Ø¬ØŃ
ĠÙħ ÙģØ¹
ĠØ¨ Ø°Ø§
ĠØ¨ ÙĦØ¨ÙĨ
ĠØ¨ ØµØ¯ÙĤØ©
ĠÙģ ÙħÙĨØ¹
ĠÙģ ØŃÙĦ
ĠÙģ ÙĦØ¹ÙĦÙĩ
ĠÙģ Ø°ÙĩØ¨Øª
ĠØ¹ Ø±ÙĬ
ĠØ¹ ÙĬØ¯
ĠØ¹ Ø§Øµ
ĠØ¹ Ø§Øª
ĠØ¹ ÙĪØ§ÙĨØ©
Ùģ ÙĥÙĦ
ĠÙĬ ÙģØ¹
ĠÙĬ ÙģØªØŃ
ØŃ Ùĥ
ØŃ Ø§Ø³
ÙĦØ§ ÙĬØ©
Ùĥ Ø¥
Ùĥ Ø¯Ø©
Ø¬ Ø±Ø§
Ø¬ ÙħÙĦ
Ø£ ØŃ
ĠÙĤ ÙĪÙĬØ§
Øµ Ø¯Ùĩ
Øµ Ø¯ÙĬÙĤ
ĠÙģÙĬ Ø³ÙĦÙħ
ĠÙģÙĬ Ø¸ÙĩØ±
ÙħØ§ ÙĦÙĥ
ÙħØ§ Ø¦Ùĩ
ĠÙĥ Ø¹Ø¯
ĠÙĥ ÙĦÙģØ©
ĠØ§ÙĦÙħ Ø¨ØªØ¯Ø£
ĠØ§ÙĦÙħ ÙĪØµÙĪÙģ
ĠØ¥ Ø¹Ø·
ĠØ¥ ØªÙĬØ§ÙĨ
ĠØ¥ Ø¨ÙĤØ§Ø¡
Ø· Ø±ØŃ
Ø· ÙĦÙĪØ¨
ĠØª ÙĪØ§Ø¨
ĠØŃ Ø¨ÙĦ
ĠØŃ Ø³Ø§
Ø§ÙĦØ ¶
ÙĬØ± Ø¬Ø¹
Ø´ ÙĪÙģ
Ø´ ÙĪØ´
Ø² Ùī
Ø§Ø± ÙĥØ©
ĠÙĨ Ø§Ø¨
ĠÙĨ ÙģØ¹Ùĩ
ĠÙĨ ÙħÙĬØ±
ĠÙĩ Ø±Ùħ
ĠØ³ ÙĦØ¨Ùĩ
ĠØ³ Ø±ÙĬØ¬
ĠØ´ Ùģ
ĠØ£ÙĬ ÙĩØ§
ĠØ£ÙĬ Ø§ÙħØ§
Ø±Ø§ Ø®
ĠÙĦ Ø±Ø¯
ĠØ¬ ÙĨÙĬ
ĠØ¬ Ø§ØŃØ¯
ĠØ¬ ÙĪÙĩØ±
ÙĪÙĨ Ø¯Ø¨
ĠØ§ÙĦØ¹ Ø§Ø¬Ø²
Ø¨ÙĬ Ø¹Ø§
ÙĩÙĪ Ø±Ø§
ĠØ® ÙĦÙĦ
ĠØ® ÙĦÙĬÙģØ©
ĠØ§ÙĦÙĤ Ø·ÙĨ
ĠØ§ÙĦÙĤ ÙħØŃ
ĠÙĪØ§ Ø³
ĠÙĪØ§ ÙĤØ¹Ø©
Ø§Ø¦ ÙĩÙħØ§
Ø§Ø¦ Ø¹Ùĩ
ÙģÙĬ Ø¯Ùĩ
ÙģÙĬ ÙĤÙĪÙĦ
ĠØ§ÙĦÙĪ Ø«
ĠØ§ÙĦØ¨ ÙĨÙĬÙĨ
ĠØ§ÙĦØ¨ Ø§Ø·ÙĦ
ĠØ§ÙĦØª Ø¶ØŃÙĬØ©
ĠØ§ÙĦØª ÙĦØ§ÙĪØ©
ĠØ§ÙĦØª ÙĥÙģÙĬØ±
Ø±Ø¨ ÙĩØ§
ĠÙĦÙĪ ÙĨÙĩ
ĠÙĦÙĪ Ø«
Ø¦ ØªÙħ
Ø§Ùħ ÙĦØªÙĩ
Ø¨Ø§ ØªÙĩØ§
ÙĦØª Ø§ÙĨ
ĠØ¨Ø¹Ø¯ Øª
ĠØ§ÙĦØ¬ ÙħÙĦ
ĠØ§ÙĦØ¬ ÙĩØ§Øª
ĠØ· ÙĬØ±
ĠÙĪØ¬ ÙħÙĬØ¹
ĠØ§ÙĦØ³ ÙĪØ§Ø¯
ĠØ§ÙĦØ³ Ø§Ø¹ÙĬ
Ø±Ùĥ ØªÙĩ
Ø±Ùģ Ø§
ĠØ§ÙĦÙģ ÙĬØ¦Ø©
ĠØ§ÙĦØµ ÙģØ§Øª
ĠÙĬØª Ø¹Ø¯Ø¯
ĠÙĬØŃ ÙĦÙģÙĩ
ĠÙĬØŃ Ø¶Ø±Ùĩ
Ø¯ÙĬ Ø¨
Ø¯ÙĬ ØªÙĩ
ĠØ§ÙĦØ® Ø§Ø¡
ĠÙĬØ¹ ÙĦÙĤ
ĠØ§ÙĦÙĥ Ø±Ùħ
ĠØ§ÙĦØ¯ ÙħØ§Ø¡
ĠØ§ÙĦØ¯ ÙĪØ§Ùħ
ĠØ§ÙĦØ¯ ÙĨØ§ÙĨÙĬØ±
ĠÙĪÙĥ ÙĦØ§ÙħÙĩ
ĠÙĪØ³ÙĦÙħ Ùĩ
ÙģØ§ ÙĦÙĤ
ÙĪÙĥ ÙĪÙĨ
ÙĪØ¨ ØŃØ«
ĠØ¨Ø£ Ø±Ø´
Ø¯Ø§ Ø¯ÙĬ
ĠØ§Ø³Øª Ø¯
ĠØ§Ø³Øª Ø¨Ø±
ĠØ§Ø³Øª Ø¯Ø§ÙħØ©
ĠØ§ÙĦØ± ÙĪØŃ
ĠØ§ÙĦØ± Ø´Ø¯
Ø¨Ø¹ Ø¶Ø©
ĠØŃØ¯ ÙĬØ¯
ĠÙĪØª Ø¨ÙĬÙĨ
ĠÙħØ« ÙĤØ§ÙĦ
ĠØ¨Ø¯ Ø®ÙĪÙĦÙĩ
ĠØ¸ ÙĨÙĩØ§
ĠØ§ÙĦØº Ø±Ø©
ĠØªØ¹ Ø·
ĠÙĦÙĦÙħ ÙĪÙĩÙĪØ¨
ĠÙĦÙĦÙħ Ø¶Ø§Ø±Ø¨
ĠÙĦÙĦÙħ Ø¬ÙĨÙĬ
ĠÙģØ£ ØŃ
ĠÙģØ£ Ø¯Ùī
ĠÙģØ£ ÙĥÙĦÙĩ
ĠÙħØª ÙĨØ§
ĠÙħØª Ø¹Ø°Ø±
ĠÙĪÙĨ Ø³Ø¨
ĠÙĪÙĨ ÙĥØ§ØŃ
ĠÙģØ§ ÙĤØ¯
ĠÙģØ§ Ø¹ØªØ¨Ø±
ĠØ¨Ùħ Ø¬ÙĦØ³
ĠØ¨Ùħ Ø«ÙĦÙĩØ§
ĠØ£Ø¹ ÙĦØ§Ùĩ
ĠÙģØª ÙĤØ¯Ùħ
Ø§Øµ Ø©
ÙĨØ¹ Ø§Ùħ
ĠÙĦØ¹ Ø°Ø±Ùĩ
Ø§ÙĦÙħ Ø³Øª
Ø§ÙĦÙħ Ø±Ø§Ø¯
ĠØ£Øµ Ø¨Ø¹Ùĩ
ĠØ§ÙĦÙħØ¯ Ø¨Ø±Ø©
ĠØ§ÙĦÙħØµ Ø¨Ø§ØŃ
ĠÙĪØµ ÙĦØª
ĠÙĪØµ ÙĦØ§Ø©
ĠØ§ÙĦÙħØŃ ØµØ±
ĠØ¨Ø¥ Ø¹ØªØ§ÙĤ
ĠØ¨Ø§ÙĦ ÙĦÙģØ¸
ĠÙĪØŃ ÙĥÙī
ÙĨØª ÙģØ§Ø¹
ĠÙĦÙĤ ÙĬØª
ĠØ¢Ø®Ø± ÙĬÙĨ
ĠÙĦØª ÙĦÙĥ
ĠØ£Ø®Ø° ØªÙĩ
ÙĦØ³ ÙĬØ¯
ĠØ§ÙĦÙĩ Ø¯ÙĬØ©
ĠÙĬØ´ Ø±Ùĥ
ĠØ¨Ùĥ ÙĬÙĦ
ĠØ¨Ùĥ ØªØ§Ø¨Ø©
ĠØŃØ± ÙĬØ±
ĠØ§ÙĦÙħÙĨ ØŃ
ĠØ§ÙĦÙħÙĨ ØªÙĩÙī
Ø¶Ø± ÙĪØ¨
ÙĪØŃ ÙĤ
ĠØ¨ÙĤ ÙĪØ©
ĠÙħØ³Øª ÙĤÙĬÙħ
ĠÙĦÙĦØ£ Ø®Øª
ĠØŃØ¬ Ø§
ÙĬØ±Ø§ ÙĨÙĩ
ĠÙģØ± ÙĪØ¶
ÙĪÙĤÙĪÙĦÙĩ Ùħ
ĠÙĬØ² ÙĥÙĬ
ĠØ³Øª Ø±Ø©
ĠØ§ÙĦÙħØ´ Ø§Ø¹
ĠÙĦØºÙĬØ± ÙĩØ§
ĠØ±Ø¨ ÙĨØ§
ØµÙĬ ÙĦØ§
ĠÙĬØ£ØªÙĬ Ùĩ
ĠÙħØ´ Ø±Ùĥ
ĠÙħØ´ Ø§Ø¹
ĠØ¨Ø§ÙĦØª Ø¯Ø¨ÙĬØ±
ĠØ¨Ø§ÙĦØŃ ÙĬØ¶
ĠÙĦÙĦØ¹ ÙħÙĦ
ĠØ£Ø¹ÙĦÙħ Ùĩ
ĠØ¹Ø· Ø³
ĠÙĪØ« Ø¨ÙĪØª
ĠÙĥÙĦØ§ÙħÙĩ ÙħØ§
ĠØ§Øª ÙģØ§ÙĤ
ĠÙħÙĤ ÙĦÙĪ
ĠÙĪØ´ ÙħÙĦ
Ø£Ùħ Ø±Ùĩ
ĠÙĦÙĦ Ø±
ĠÙĦØ³ ÙĤÙĪØ·
ĠØ§ÙĦÙħØ¹Øª ÙĤØ©
ĠØ£Ø³ÙĦÙħ ÙĪØ§
ĠØµÙĦØ§ ØªÙĩÙħ
ĠØ¨Ø³ ÙĪØ·
ĠØ£Øª Ø²ÙĪØ¬ÙĩØ§
ĠÙĥØ£ÙĨ Øª
ĠÙĦØµ Ø§ØŃ
ĠØ¨Ø§Ø¨ ÙĩØ§
ĠÙĪÙĩØ¨ ÙĩØ§
ĠÙĨØ¬ Ø¯Ø©
ĠØ¹Ø² Ø±
ĠØ§ÙĨØª ÙģØ¹
ĠØªØµ ÙĦØŃ
ĠØ§ÙĦÙħØº ØµÙĪØ¨Ø©
ĠØ¨Ø§ÙĦÙĪ Ø¬Ùĩ
ĠÙĦÙĦØ¥ ÙĨØ³Ø§ÙĨ
ĠØ¥ÙħØ§ ÙħØ§
Ø§ÙĦØ£ ÙĪÙĦÙī
ĠØ¨Ø§ÙĦÙĥ ØªØ§Ø¨Ø©
ĠØ§ÙĦØ£Ø¬ ÙĩÙĪØ±ÙĬ
ĠÙĪØ§Ø³Øª Ø´ÙĥÙĦ
ĠÙħØ· ÙĦÙĪØ¨
ĠÙĪØ§ÙĦØ¬ ÙĪØ§Ø¨
ÙħÙĦÙĪ ÙĨ
ĠØ§ÙĦÙĨØ³ Ø¨Ø©
ĠÙĪÙĬØ± ÙĬØ¯
Ø¨Ø±Ø§Ø¡ Ø©
ÙĬØ· Ø§
ĠØ§ÙĦØ³Ø§Ø¨ Ø¹
ĠØ¨ÙĦØ¯ Ø©
ÙĪØ´ ÙħÙĦ
ĠÙĦÙĦØ¬ ÙħÙĬØ¹
ĠÙĬØ³ÙĦÙħ Ùĩ
ĠØ§ÙĦÙĤØ¯ ØŃ
ĠØ§ÙĦØ£Ø´ Ø¬
ĠØ§ÙĦØ£Ø´ Ø±Ø¨Ø©
ĠÙĪØ§ÙĦØµ Ø¯ÙĤØ©
ĠØ¨Øº Ø³ÙĦ
ĠØ¨Ø§ÙĦØµ ÙĪØ§Ø¨
ĠØ¹Øµ Ø§
ĠØ§ÙĦØªØµØ±Ùģ Ø§Øª
Ø±ÙħØ§ Øª
ÙĪÙĬØ¬ Ø¹ÙĦ
ĠØ§ÙĦØªØ³ Ø¹Ø©
ĠÙĦØ²Ùħ ÙĩØ§
Ø·ÙĦØ§ Ø¹
ĠØ§ÙĦÙħØ´Øª Ø±ÙĥØ©
ĠØ§ÙĦÙħÙĤØª Ø±Ø¶
ĠØ§ÙĦØ´ÙĩØ± ÙĬÙĨ
ĠÙģÙĬØŃ ØµÙĦ
ĠÙģÙĬØŃ ÙĨØ«
ĠÙħØ² ÙĬØ¯
ĠÙĪÙĪÙĦØ¯ ÙĩØ§
Ø¯Ø¹ Ø§Ø¡
ĠÙĪØ¨Ø¹ Ø¨Ø§Ø±Ø©
ĠØ¨ÙĪØ§ Ø¬Ø¨
ĠØ§ÙĦØ¹Ø² Ùī
ĠØ¹Ø¯Ø§ Ùĩ
ĠØªØ§Ø¨ Ø¹Ùĩ
ĠÙĬÙģØª ÙĤØ±
ĠØ¨ÙĪØ¬Ùĩ Ùĩ
ÙĦÙĬØª ÙĬÙħ
ĠØ§ÙĦØªØ´ Ø±ÙĬÙĤ
ĠÙĪÙĤØ¨ ÙĦÙĩ
ĠÙĪØ±Ø¬ ØŃÙĩ
ĠÙĪÙĥØ³Ø± ÙĩØ§
ĠØ¹Ø§ÙĤ ÙĦØ§
ĠØºÙĦØ· Ø§
ĠÙģØªÙĤ Ø¨ÙĦ
ĠØŃØ¯ÙĪØ« Ùĩ
ĠØ£Ø¹Ø§Ø¯ ÙĩØ§
ĠÙħØ³Ùĥ ÙĬÙĨØ§
ĠÙħØ¤ÙħÙĨ Ø©
ĠÙħÙĨØ³ ÙĪØ®
ĠØ§ÙĦØ¹Ø± ØµØ©
ĠÙħØŃØµ ÙĨØ©
ĠÙħÙĪÙĦØ§ ÙĩØ§
ÙĪÙĬØ¤ ÙĬØ¯Ùĩ
ĠØ§ÙĦÙħØ´Ø± ÙĪØ¹
ĠØ¨Ø§ÙĦØ± Ø¯Ø©
Ø³ØªÙĩ ÙĦØ§Ùĥ
ĠÙħØªÙĤ ÙĪÙħØ§
ĠØ§ÙĦØŃÙĦÙĪ Ø§ÙĨÙĬ
ÙĨ ØŃÙĪÙĩ
ÙĪ ØŃØ¯
Ø¨ ÙĪØ±
Ø¨ Ø·Ø©
Ø¨ ØŃÙĬØ«
Øª Ø¹
Ø¹ ÙĪØ©
ĠÙĪ ÙĪÙĤ
ĠÙĪ ÙĦÙģØ¸
ĠÙĪ Ø§Øº
ĠÙĪ ÙĪØ±Ø«
ĠÙĪ ÙĦØŃÙħ
ĠØ£ Ø¦
ĠØ£ ÙĥØ±
ĠØ£ Ø±Ùĥ
ĠØ£ ÙģØ±
ĠØ£ Ø´Ø±
ĠØ£ ÙĦØ²ÙħÙĩ
ĠØ£ Ø³ÙħØ¹Ùĩ
ĠÙħ ÙģØ§
ĠÙħ Ø§Ø¦Ùĩ
ĠÙħ ÙĪØ±Ø«
ĠÙħ ÙĬÙĤØ§Øª
ĠÙħ ÙĪØ±ÙĪØ«
ĠØ¨ ÙĬØ§
ĠØ¨ ÙģØ¹ÙĦÙĩØ§
ĠÙģ ÙĪØªÙĩ
ĠÙģ ÙĪØ¶Ø¹
ĠÙģ Ø±Ø§ÙĤ
ĠÙĬ ÙĨÙĩ
ĠÙĬ Ø¨ÙĨ
ÙĦØ§ ÙĩØ§
Ùĥ ÙĦÙħØ§
Ø¬ Ø§Ø¡
Ø£ Ø·ÙĦÙĤ
Ø£ Ø¹ØªÙĤ
ĠÙĤ ÙĦØ¯
ĠÙĤ Ø±Ø¹
ĠÙĤ Ø±Ø§Ø¶
Øµ ÙĪÙħØ©
ĠÙģÙĬ Ø®ÙĬØ±
ĠÙģÙĬ ÙĤØ·Ø¹
ĠÙģÙĬ Ø¤Ø®Ø°
ÙħØ§ Ø¹Ùĩ
ĠØ§ÙĦÙħ Ø³ØªØŃØ¨
ĠØ§ÙĦÙħ Ø¨Ø·ÙĦ
ĠØ§ÙĦÙħ ÙĥØ«
ĠØ§ÙĦÙħ Ø¨ÙĬØª
ĠÙħÙĨ Ø·
ĠÙħÙĨ Ø¹Øª
ĠÙħÙĨ ØµÙĪØ¨
Ø® ÙĦÙĬ
Ø® Ø±Ø§Ø¬Ùĩ
ÙĦÙĥ ÙĪÙĨÙĩ
ĠØª Ø¶
ĠØª Ø¨Ø§
ĠØª Ø²ÙĦ
ĠØŃ Ø±ÙĥØ©
Ø§ÙĨ ØªÙĩ
ĠØ§ÙĦ ÙĦØ§
ĠÙĦØ ¦ÙĨ
Ø² Ø¹Ùĩ
Ø² Ø¯ÙĦÙģØ©
Ø§Ø± Ø¶Ùĩ
ĠØ± Ø¹ÙĬ
ĠØ± ØªØ¨
ĠÙĨ Ø§Ø·
ĠÙĨ Ø§Ø¸
ĠÙĨ ÙĪØ¨ØªÙĩ
ĠÙĨ Ø·ÙĤ
ĠÙĨ ÙĬØ§Ø¨Ø©
ĠÙĨ Ø§ÙĪÙĬØ§
ĠÙĦØ§ Øª
ĠÙĩ ÙĦØ§ÙĥÙĩ
ÙĨØ§ Ø¹Ø©
ĠØ³ Ø±Ø¬
ĠØ§ÙĦØ£ ØŃØ¯
ĠØ§ÙĦØ£ Ø¨Ø¹Ø¯
ĠØ§ÙĦØ£ ÙĪØ³Ø·
ĠØ§ÙĦØ£ Ø®Ø±Ø³
ĠØ´ Ø§Ø¦Ø¹
ĠØ´ Ø¯Ø§Ø¯
ĠØ¨ÙĨ ÙĬÙĨ
ĠØ¨ÙĨ ØµÙĬØ¨Ùĩ
ĠØ¬ Ø¨
ÙĪÙĨ ØŃÙĨ
ĠØ§ÙĦØ¹ Ø³ÙĦ
ĠØ§ÙĦØ¹ Ø§Ø´Ø±
ĠØ§ÙĦØŃ ÙħØ±
ĠØ§ÙĦØŃ Ø±Ø«
ĠØ§ÙĦØŃ ØµÙĨ
ĠØ§ÙĦØŃ Ø·Ø§Ø¨
ĠØ« ÙĪØ¨ÙĬ
ĠØ¯ ÙĦÙĬÙĦÙĩ
ÙĪØ§ ØŃØ¯
ĠØ® Ø§ØªÙħ
ĠØ§ÙĦÙĤ Øµ
ĠØ§ÙĦÙĤ Ø¹Ø¯Ø©
ĠØ§ÙĦÙĤ ÙħÙĬØµ
ĠØ§ÙĦÙĤ Ø§Ø±ÙĨ
ÙģÙĬ ØµØŃ
ĠÙĦØ£ ØµØŃØ§Ø¨
Ø±Ø¬ ÙĪ
ĠØ§ÙĦØ¨ Ø±Ø§Ø¡
ĠØ§ÙĦØª Ø§Ø¡
ĠØ§ÙĦØª ÙĬÙħÙĬ
ĠØ¨Ø§ÙĦØ °ÙĬ
ĠØ§ÙĦØ¥ Ø¨ÙĩØ§Ùħ
ÙĩØ± Ùī
ÙĪÙĬ ÙĬÙĨ
ÙĪÙĬ Ø£Ø®Ø°
ĠØ² Ø§ÙĨÙĬØ©
ÙĬØ¹ Ø§
ÙĬØ¹ ØªÙĩ
ÙĦØª ÙĩÙħ
ĠØ§ÙĦØ´ ÙĤÙĬÙĤ
ĠÙĬÙĤ ÙĦØ¹
ĠØ§ÙĦØ¬ ØŃ
ĠØ§ÙĦØ¬ ÙħØ§ÙĦ
ĠØ§ÙĦØ¬ Ø§ÙĩÙĦ
ĠÙĪØ£ ÙħÙĨ
ĠÙĪØ£ ÙĥÙĦ
ĠÙĪØ£ Ø±Ø´
ĠÙĪØ£ Ø¬Ø§Ø²
ĠÙĪØ£ ÙĪÙĦØ§Ø¯
ĠÙĪØ£ ÙĩÙĦÙĩ
ĠØ· Ø±ÙģÙĩ
ĠØ· ÙĩØ±Ùĩ
ĠÙĬØ¬ ÙĩÙĦ
ĠØ§ÙĦØ³ ÙĪØ±Ø©
ĠØ§ÙĦØ³ ÙħØ§Ø¹
ĠÙĪÙĬ Ø¬Ø¨Ø±
Ø¹Ø§ ÙĪØ¶Ø©
ĠØ£Ø® Ø±Ùĩ
ĠØ£Ø® ØªÙĬÙĨ
ĠØ§ÙĦØµ Ø±ÙĬØŃ
ĠØ§ÙĦØµ ØºØ§Ø±
ĠÙħØŃ ÙĥÙĪÙħ
ĠÙĬØª ØµÙĦ
ĠÙĬØª ÙĪØ§Ø±Ø«
ĠÙĬØª ÙĤØ±Ø±
ĠÙĬØŃ ÙģØ±
Ø´Øª Ø±Ùī
ĠØ§ÙĦØ® ÙĦ
ÙĪØ± Ùī
ÙĤØ§ Ø³
ĠÙĪÙĥ ÙĪÙĨ
ĠÙĪÙĥ Ø¨Ø±
ĠÙĪÙĥ Ø³ÙĪØ©
ÙģØ§ ÙĤØ©
ĠØ£Ø¨ÙĬ ØŃ
ÙĤØ· Ø¹Ø§
ĠØ¶ Ø¯
ĠØ¶ ØŃÙī
ĠØ¨Ø£ Ø®
ĠØ§Ø³Øª ÙĬÙģ
ÙĪØ² Ø¹Ùħ
ĠØ§ÙĦØ± Ø§Ø²ÙĬ
ĠØ§ÙĦØ² ÙĬØª
Ø¨Ø¹ Ø¯Ùĩ
ĠÙĪØª Ø£
ĠÙħØ« Ø¨Øª
ĠÙĪÙĤ Ø¶Ø§Ø¡
ĠØ¸ ÙĨØ§
ĠÙĪÙĩ ÙĦÙĥ
ĠÙĦÙĦÙħ Ø§Ø¡
ĠÙĦÙĦÙħ ÙĪÙĤÙĪÙģ
ĠØ¨Ùħ Ø«
Ø±Ø¯ Ø§Ø¡
ÙĪØ³ ÙĥØª
ĠÙĪØ§ÙĦÙħ Ø´
ĠÙĪØ§ÙĦÙħ Ø´ÙĩÙĪØ±
Ø£ÙĬ Ø¶Ø§
ĠØ£Ø¹ Ø¯
ĠÙģØª Ø¶Ø±Ø¨
ĠÙģØª Ø§ÙĪÙĬÙĩ
ĠÙĥØ§ÙĨØª Ø§
ĠØ§ÙĦØ· ÙĪÙĦ
ĠØ§ÙĦØ· ÙĪÙĬÙĦ
ĠÙĬØ® Ø¯Ùħ
ĠÙĬØ® Ø§Ø·Ø¨
ĠØ¨ØŃ Ø«Ø§
ĠØ¨ØŃ Ø±ÙĬØªÙĩ
ÙħÙĬ Ùĩ
ĠÙĪØµ ÙĪØ±Ø©
ĠØ§ÙĦÙħØŃ ÙħÙĪÙĦ
Ø¬Ø² Ø£Ùĩ
ĠÙĪØ§ÙĦ Ø±Ø¬ÙĦ
ĠØ³Ø¨ ÙĤØª
ĠÙĬØµ Ø±ÙģÙĩ
ĠÙĦØ² ÙħØª
ĠÙĦÙĤ ÙĦØ©
ĠÙĦØª ÙĪÙĤÙģ
ĠØ¨Øª Ø¹Ø¯Ø¯
ĠØ§Ø´Øª Ø±
ĠØ§ÙĦÙĩ Ø§Ø¡
ĠÙĦØ¨ Ø§Ø¨Ø©
ĠØ¨Ùĥ Ø§Ø±
ĠÙĪØ¨ ØºÙĬØ±
ĠÙĪØ¨ Ø§ÙĦØ¹
ĠØ±ØŃ ÙĦÙĩ
ĠØ£ÙĤ Ø±Ø¶
ĠØ¨Ø· ÙĦØ§ÙĨÙĩ
ĠØ§ÙĦØ¢ Ø«Ø§Ø±
ÙĪÙĦÙĬ Ø³Øª
Ø±Øª Ø¨Ø©
ÙģØ£ Ø®Ø°
ĠØªØ³ ÙĪÙĬØ©
ÙĥØª ÙģÙī
ĠÙĬØ² Ø§ÙĦ
Ø°Ùĥ Ø§Ø±
ĠØ¹Ùħ ÙĬØ±Ø©
ĠÙĤØ¨ÙĦÙĩ ÙħØ§
ĠØ¨Ø§ÙĦÙĤ Ø·Ø¹
ĠØ±Ø¨ ÙĥÙħ
ĠÙĪØ® ÙĦÙģ
ØµÙĬ Øµ
ØµÙĬ ÙĦÙĩØ§
ĠØ§ÙĦØŃØ¬ Ø§Ø²
ĠØ¨Ø§ÙĦØŃ Ø§ÙĦ
ĠØ¨Ø§ÙĦØŃ Ø¨Ø³
ĠÙĪØ§ÙĦØŃ Ø¬
ĠØ¨Ø§ÙĦØ¥ Ø±Ø«
ĠØŃØ¯Ø« Ø§
ĠÙģØ±Ø¶ ÙĩØ§
ĠÙĬØº ÙģØ±
ĠÙĬØº Ø±Ø³
ĠÙĬØº Ø³ÙĦÙĩ
ØŃØ§ Ø·Ø©
ĠØ§ÙĦÙħØ¤ ÙĨØ©
ĠØ§ÙĦÙħØ¤ Ø¬Ø±Ø©
ĠÙĦÙĦ ÙĨØ³Ø§Ø¡
ĠØªØª Ø¹ÙĬÙĨ
ĠØ§ÙĦØŃØ¯ ÙĬØ¯
ĠÙħØ® Ø§Ø·
ĠÙĪÙĦ ÙĦØ¨
ĠÙĨÙĤØµ Ø§
ĠØ£Øª Ø§Ùĩ
ĠÙĤØ¨Ø¶ ØªÙĩ
ÙĪÙĬÙĨ Ø¯Ø¨
ĠÙĬØ± ØºØ¨
ĠÙĦØµ ÙĦØ§Ø©
ĠÙĦÙĦÙĤ Ø¨ÙĦØ©
ĠÙĨÙĥØ§ØŃ Ø§
ĠØ¨Øµ ÙĪÙħ
ĠØ§Ø¨Øª ÙĦÙĬ
ĠÙĥØ§ Ø³Øª
ĠÙĥØ§ Ø°Ø¨
ĠÙĬØ¹Øª Ø±Ùģ
ĠØ¹Ø§Ø¦ Ø¯
ĠØ§ÙĦØ¹Ø¯ ÙĪÙĦ
Ø¨Ø§ØŃ ØªÙĩ
ĠØ¯Ùħ ÙĩØ§
ĠÙĪÙĬÙĨ Ø¸Ø±
ĠÙĦØ® Ø±ÙĪØ¬Ùĩ
ĠÙĦÙĦØ³ Ø¬ÙĪØ¯
ĠÙĪÙģ Ø±Ø¶
ĠÙĪÙĬØª Ø¹ÙĬÙĨ
ĠÙĪØº Ø±Ùħ
Ø§Ø´Øª Ø±Ø·
ĠÙĤØ±Ø¨ Ùĩ
ĠØ§ÙĦÙħÙĤ ÙĦØ¯
ĠØ¨Ø§ÙĦØ® Ø±ÙĪØ¬
ĠÙĪØ§ÙĦØµ ÙĪÙħ
ĠÙĤØ³Ùħ Øª
ĠØ¨Øº ÙĦØ©
ĠØ§ÙĦØ£Ø¹ Ø±Ø¬
ĠØ§ÙĦØ£Ø¹ Ø¸Ùħ
ĠØµØ¯ÙĤ ÙĩØ§
ĠØªØ¬ Ø¨Ø±
ĠØ¨Ø° ÙħØ©
ÙĦØ¬ Ø¯
ĠÙħÙĤØ§Ø¨ ÙĦØªÙĩ
ĠØ§ÙĦØ¨Ø¯ ÙĨØ©
ĠÙĥÙĦØ§ ÙĩÙħØ§
ĠÙĬØ¯ÙģØ¹ ÙĩØ§
Ø£Ø¬ ÙĪØ±
ÙĦÙĪØº Ùĩ
ĠØºØµØ¨ ÙĩØ§
ĠÙĥØ±Ùĩ Ùĩ
ĠÙģØ§Øª ØªÙĩ
Ø¹Ø§Ø¯ ØªÙĩØ§
ĠØ§ÙĦÙħÙĪØ§ ÙĦØ§Ø©
ĠØ®Ø§Ø±Ø¬ Ø©
ĠØ§ÙĦÙħÙĤØª Ø¯ÙĬ
Ø£Ùĥ ÙĬØ¯
ĠØªØ¬Ø² Ø¦Ùĩ
ĠØ§ÙĦÙĨØ¬ Ùħ
ĠØ·Ø§ÙĦØ¨ Ùĩ
ĠØ¶Ø± Ø±Ùĩ
ĠÙĨØµØ± Ø§ÙĨÙĬØ©
ĠÙħØ®ØªÙĦÙģ ÙĬÙĨ
ĠØ®Ø±ÙĪØ¬ Ø§
ĠÙħÙĥØ§ÙĨ Ø§
ĠØ³Ø§ÙĦÙħ Ø§
ĠØ§ÙĦÙĥØ¹ Ø¨ÙĬÙĨ
ĠØ§ÙĦÙħÙĤØ¯ ÙħØ§Øª
ĠØµØ§Ø¯ Ùģ
ĠØ±Ø´ ÙĬØ¯Ø§
ĠØ²Ø±Ø¹ ÙĩØ§
Ø§ÙĦØ® Ø§ÙħØ³
ĠØªØ£Ø®Ø± Øª
ĠÙĨØ§Ø¦ ÙħØ§
ĠÙħÙģØ± Ø¯Ø©
ĠÙģØ§Ø± Ø³
ĠÙĪÙĦØ ¢Ø®Ø±
ĠØ´Ùĩ ÙĬØ¯
ÙħØ« Ø§ÙĦ
ĠÙĥØ³Ø± ÙĩØ§
ĠÙħØªØ¹Ø¯ ÙĬØ§
ĠØªØ¬Ø¯ ÙĬØ¯
ĠØ§ÙĦØŃÙħ ÙĬØ¯
ĠØ¯Ø¨Ø± ÙĩØ§
ĠØ±ÙĪØŃ Ùĩ
ĠØªØ¨Ø± Ø¹Ø§
ĠØ§ÙĦÙħÙħÙĦÙĪ ÙĥØ©
ĠØªØ¯Ø¨ÙĬØ± Ùĩ
ĠØ¨Ø±ÙĬ Ø¯Ø©
ĠØ³Ø¨ÙĬ ÙĦÙĩ
ĠØ¨ÙĨØ§ ØªÙĩ
ĠØºÙĨ ÙħÙĩ
ĠÙħØ³Ø§ ÙĤØ§Ø©
ĠØ£Ø³Ø± Ø¹
ĠØ§ÙĦÙģØ¶ ÙĪÙĦÙĬ
ĠÙĬÙģØ³ ÙĤ
ĠØªØ±Ø¶ Ø¹Ùĩ
ĠÙĦØ¢ Ø¯ÙħÙĬ
ĠÙģØ§Ø¦ ØªØ©
ĠØ§ÙĦØ¨ÙĬÙĨ ÙĪÙĨØ©
ĠØ¹Ùģ ÙĪÙĩ
ĠØ§ÙĦÙħÙģØ§ ÙĪØ¶Ø©
ÙģØ¬ Ø§Ø¡
ĠØ¨Ø³ÙĨ Ø¯
ĠÙĬØªÙĨØ§ ÙĪÙĦÙĩ
ĠÙħØ¤ÙĤØª Ø©
ĠØªÙħÙĦÙĬ ÙĥÙĩ
ĠØ§ÙĦØ£ÙĪ ÙĤØ§Øª
ĠØªØ±Ø§Ø¶ ÙĬØ§
ĠØ§ÙĦØ§ÙĨÙģ Ø±Ø§Ø¯
ĠØ§ÙĦØ´Ùĩ ÙĬØ¯
ĠØ¨Ø£ÙĬØ¯ÙĬ ÙĩÙħ
ĠØ§ÙĦØ§Ùģ Øª
ĠØ¥Ø¬Ø§Ø¨ ØªÙĩ
ĠØ§ÙĦÙħÙĤØµ ÙĪØ¯Ø©
Ø§ Ø¯Ø§
Ø§ ØŃØª
ÙĪ ÙĤØªÙĦ
Ø± ÙĤØ§ÙĤ
Ø± Ø¯Ø§Ø¯
Ø± ØªÙĬØ¨
ĠØ§ Ø¶Ø·
Ùħ Ø³ÙĦÙħ
ĠÙĪ Ø¯Ùħ
ĠÙĪ ÙĦØ£ÙĨÙĩØ§
ĠÙĪ ÙĪØ¬ÙĪØ¨
ĠØ£ Ø°ÙĩØ¨
ĠØ£ Ø±ÙĥØ§ÙĨ
ĠØ£ Ø¯Ø§ÙĩØ§
ĠÙħ Ø¨Øª
ĠÙħ Ø¶Ø§
ĠÙħ ÙĬÙĦ
ĠÙħ Ø·ÙĬ
ĠÙħ ÙĪØ§Øª
ĠÙħ ÙĦØŃÙĤ
ĠÙħ Ø¨Ø§ØŃØ©
ĠÙħ ÙĩÙħÙĦØ©
ĠÙħ Ø¨ÙĨÙĬØ©
ĠÙħ ÙĥØŃÙĪÙĦ
ĠØ¨ Ø³Ùħ
ĠØ¨ Ø¨ÙĬÙĨ
ĠØ¨ Ø®ÙĬØ±
ĠØ¨ Ø¸Ø§ÙĩØ±
ĠÙģ Ø«Ø¨Øª
ĠÙģ ÙĤØ¨Ø¶Ùĩ
ĠÙģ Ø¶Ø±Ø¨Ùĩ
ÙĦÙħ Ø§Øª
Ùģ Ø¬Ø¹ÙĦ
Ø³ ÙĤØ§Ø¡
ĠÙĬ Ø°
ĠÙĬ ÙĥØ±
ØŃ Ø¬Ø±
ÙĦØ§ ÙĩÙħØ§
Ø¬ ØªÙĩØ¯
Ø¬ ÙĨØ¨ÙĬØ©
ĠÙĤ Ø¯ÙĬ
ĠÙĤ ÙħØª
ĠÙĤ ÙĪÙĦÙĬ
Ø° Ø©
Ø° ÙģØ§
Øµ Ø±Ø§
Øµ ÙģØ±
ĠÙģÙĬ Ø®
ĠÙģÙĬ Ø£ØªÙĬ
ĠÙģÙĬ ÙĤØªÙĦ
ĠØ§ÙĦÙħ ÙĪÙĤ
ĠØ§ÙĦÙħ ÙĥÙĬÙĦ
ĠØ§ÙĦÙħ Ø¬Ø±Ø¯
ĠØ§ÙĦÙħ ÙģØ±Ø¯
ĠØ§ÙĦÙħ Ø¨ÙĬØŃ
ĠØ¥ Ùģ
ĠÙħÙĨ Ø¹Ø©
ĠÙħÙĨ ÙĤÙĪÙĦ
Ø® ÙĨ
Ø® ÙĦÙĬØ©
Ø® Ø¯Ø§Ùħ
Ø« ÙĬØ±Ùĩ
ĠØª Ø¹Øª
ĠØª ÙģØ§
ĠØª Ø®Øª
ĠØª Ø¯Ø§
ÙĦÙĪ Ø·
ÙĦÙĪ Ø¬ÙĪØ¯
ĠØŃ ÙĪÙĦØ§
ĠØŃ Ø±ÙĬÙħ
ĠØŃ Ø±ÙĬØªÙĩ
ĠØ£ÙĨ ÙĪØ§
Ø§Ø± ØªÙĩ
Ø§Ø± ÙĤÙĩ
ĠØ± Ø¯Ø§
ĠØ± Ø§Ø¹
ĠØ± Ø¨Ø§ØŃ
ĠØ± Ø·Ø¨
ĠØ± ØªØ¨Ø©
ĠÙĨ ÙĪØ±
ĠÙĨ ÙģÙī
ĠÙĨ Ø®ÙĦØ©
ĠÙĦØ§ ØŃØª
ĠÙĦÙħ Ø¹
ĠÙĦÙħ Ø¯Ø©
ĠÙĩ Ø¨ÙĬØ±Ø©
ĠØ³ ÙĪÙĬØ¯
ĠØ§ÙĦØ£ ÙĩÙĦ
ĠØ§ÙĦØ£ Ø±Ø¬ØŃ
ĠØ£ÙĬ Ø³
ĠØ° ÙĥØ§Ø©
ĠØµ ÙĪÙħØ§
Ø±Ø§ ÙħØ§
Ø±Ø§ ÙģØ¹ÙĬ
ĠØ¬ ÙĨØª
ĠØ§ÙĦØ¹ Ø²Ùħ
Ø¨ÙĬ ØªÙĩ
ĠØ¨Ø¹ Ø«Ùĩ
ĠØ§ÙĦØŃ Ø§Ø´ÙĬØ©
ĠØ¯ ÙĪØ§
ĠØ¯ ÙĦØª
ĠØ¯ ÙĤÙĬÙĤ
ĠØ¯ Ø¹Ø§Ùĩ
ÙĪØ§ ÙĦØ§Ø³Øª
ĠØ® Ø§ÙĦ
ĠØ® Ø¨Ø±Ø§
ĠÙħØ¹ ÙĨØ§
ĠØ§ÙĦÙĤ Ø§Ø¦Ùģ
ĠØ§ÙĦÙĪ Ø³
Øº Ø§
ĠØ§ÙĦØª ÙĤØ§
ĠØ§ÙĦØª ÙĥÙĦÙħ
ĠØ§ÙĦØª Ø±Ø¬ÙĬØŃ
ĠÙĦÙĪ Ø¬Ùĩ
ĠØ§ÙĦØ¥ ÙĨØµØ§Ùģ
ĠØ§ÙĦÙĨ Ø¬Ø§Ø±
ÙĪÙĬ Ø¬Ùĩ
ÙĪÙĬ Ø³ÙĤØ·
ÙĪÙĬ ØŃÙħÙĦ
ĠØ¨Ø¹Ø¯ ÙĬ
ĠØ§ÙĦØ´ ÙĤ
ĠÙĬÙĤ ÙĬÙĨ
ĠÙĬÙĤ Ø§Ùħ
ĠÙĬÙĤ Ø·Ø¹Ùĩ
ĠÙĪØ£ Ø¯
ÙĪØ¹ ÙĦÙĦÙĩ
ĠØ§ÙĦØ³ ÙĪÙĤ
ĠØ§ÙĦØ³ Ø§Ø¦ÙĦ
ĠØ§ÙĦØ³ ÙĦØ§ØŃ
ĠØ§ÙĦØ³ Ø¬Ø¯Ø©
ĠÙĪÙĬ ÙĦØŃÙĤ
ÙĨÙĬ Ø¨
ĠÙĦÙĬ Øµ
ĠØ§ÙĦÙģ Ø±Ø§ÙĤ
ĠØ§ÙĦÙģ ÙĦÙĪØ³
ĠØ§ÙĦÙģ Ø§Ø¶ÙĦ
ĠÙĬØª Ø¬Ø±
ĠÙĬØª ÙĪØ¨
ĠÙĬØŃ Ø·
Ø¯ÙĬ Øª
Ø´Øª Ø±Ùĥ
ĠØ§ÙĦØ® Ø§
ĠÙĬØ¹ Ùģ
ĠØ§ÙĦÙĥ Ø«
ĠØ§ÙĦÙĥ ÙĪÙģÙĬ
ĠØ§ÙĦÙĥ Ø¨ÙĬØ±Ø©
ĠØº ÙĨÙī
ĠØº ÙĦØªÙĩ
ÙĦØ® ØµØ§
ĠÙĪÙĥ Ø°Ø¨Ùĩ
ÙģØ§ Ø¹Ø©
Ø±Ùħ Ùī
ĠÙĬÙĨ ØŃØ±
ĠÙĬÙĨ ÙģØµÙĦ
ÙĪÙĥ Ø£ÙĨ
ĠØ¨Ø£ Ø¨ÙĬ
ĠØ¨Ø£ ÙħØ©
ĠØ¨Ø£ ØµÙĦÙĩ
ÙĪÙĦÙĪ Ø§
ÙĬÙĨÙĩ Ùħ
ĠØ§ÙĦØ² ÙĬØ§Ø¯ÙĬ
ÙĪØ£ Ø®
ÙĪØ£ ÙĨÙĩØ§
ÙĪØ£ ØŃÙħØ¯
ĠÙĪÙĤ Ø§Ùħ
ĠØ§ÙĦØ§ Øª
ĠØªØ¹ Ø²ÙĬØ±
ĠÙĬØ¯ Ùĥ
ĠÙĬØ¯ Ø±ÙĥÙĩ
ĠÙģØ£ ÙĬ
ĠÙħØª ÙĨ
ĠÙħØª ØŃ
ĠÙħØª ÙħÙĥÙĨ
ĠÙĪÙħ ÙĦÙĥÙĩ
Ø±ØŃ Ùĩ
ĠØ£ØŃ ÙĬØ§
ĠØ£ØŃ ÙĪØ§ÙĦÙĩ
ĠØ£ØŃ Ø±Ø§Ø±
ÙĪØ³ ÙĤØ·
ĠÙĪØ§ÙĦÙħ Ø¤
ĠØŃÙĬ Ø²
ĠØŃÙĬ ÙĦØ©
Ø±ÙĤ Ø¨Ø©
ĠØ£Ø¹ ÙĬØ¯
ĠØ£Ø¹ ÙĪØ±
ĠØ£Ø¹ ÙĪØ°
ĠÙģØª ØµØ¯ÙĤ
ĠÙģØª Ø¬ÙĪØ²
ĠÙģØª ØµÙĬØ±
ĠØ§ÙĦØ· Ø§ÙĩØ±
ĠØ¨ØŃ ØµØ©
ĠØ¨ØŃ Ø³Ø§Ø¨
ĠÙĬØ³ Ø£
ĠÙĬØ³ Ø±Ø¹
ĠÙĦØ¹ Ø§Ø±Ø¶
ĠÙĦØ¹ ÙĦÙħÙĩ
ØµØ± ÙĩØ§
ĠØ¨ÙĬÙĨÙĩ ÙĨ
ĠØ£Øµ ÙĬØ¨
ĠØ£Øµ ÙĨØ§Ùģ
ĠØ§ÙĦÙħØ¹ Ø¬ÙĦ
ĠØ§ÙĦÙħØŃ Ø§Ø±Ø¨
ĠØ§ÙĦÙħØŃ Ø±ÙħØ§Øª
Ø§Ø´ Ø¯
ĠÙĪØŃ Ø°Ùģ
ĠÙĪØŃ Ø§ØµÙĦ
ĠÙĦÙĤ ØµØ¯
ÙĪÙĤØ¯ ÙħÙĩ
ĠÙĦØŃ Ø¯
ĠÙĦØŃ Ø¬
ĠÙĦØŃ Ø¸Ø©
ĠÙĦØª ÙħÙĥÙĨÙĩ
ĠØŃÙĥÙħ Øª
ĠÙĬØ¤ ÙĬØ¯
ĠÙĪØ¨ Ø°ÙĦÙĥ
ĠØ¨ÙĤÙĪÙĦÙĩ Ùħ
ĠØ§ÙĦÙħÙĨ ÙĤ
Ø¯Ø§Ø¡ Ø©
ĠÙĪØ§ÙĦØ£ Ø®Øª
ĠÙħØ¬ ÙĬØ¡
ĠÙĪÙĤØª ÙĦÙĩ
ØªÙĬÙĨ Ø§
ÙĪÙĦÙħ ÙĨ
ĠØ§ÙħØ±Ø£ ØªÙĬÙĨ
ĠØ£Ø³ Ø§Ø¡
ĠÙĦÙĦØ£ Ø®
ĠÙħØ§ÙĦÙĩ Ùħ
ĠØ³ÙĬ ÙģØ§
ÙģØ£ Øª
ÙĪØ§ÙĦÙħ Ø³Ø£ÙĦØ©
ĠÙĬÙĦØ²ÙħÙĩ Ùħ
ĠÙģØ§ÙĦØ ¯
ĠÙģØ§ÙĦØ º
ĠÙĪØ§ÙĦØ¹ ÙĦÙħ
ĠÙĦÙĦØ¹ ÙħØ±Ø©
ĠÙĬÙģ Ø§Ø±ÙĤ
ØµØ§Ø± Ùī
ĠØ¬Ø¹ ÙĦØ§
Ø£Ùħ ÙĪØ±
ØŃØ¯Ø« ÙĨÙī
ĠØ§ÙĦÙħØ¤ Ø®Ø±
ĠØµØŃÙĬØŃ Ùĩ
ĠØªØª Ø±Ùĥ
ĠÙĦØ³ Ø¨ÙĤ
ĠØ£Ùĩ ÙĪÙĨ
ĠÙĦÙĦÙĪ Ø·Ø¡
ĠØµÙĦØ§ ØŃ
ĠÙħØ® ÙĪÙģ
ĠÙĪÙĦ ÙĦØ²ÙĪØ¬
ĠØ¹ÙħØ§ ÙħØ©
ĠØ§ÙĦØ®Ø· Ø¥
ĠÙĦÙĦÙĤ ØªÙĦ
ĠÙĥØ³ Ø±Ùī
ĠÙģØ¬ Ø§Ø¦Ø²
ĠØ§ÙĨØª ÙĤØ§ÙĦ
ĠÙĦØ¬ ÙħØ§Ø¹Ø©
ĠÙĦØ´ Ø±Ø·
ĠÙħØµ ÙĨÙģ
ĠØ¨Ø§ÙĦÙĪ Ø¶ÙĪØ¡
ĠÙĦÙĦØ¥ Ø³ÙĦØ§Ùħ
ĠÙĪØ§ÙĦÙĪ ØµÙĬ
ĠÙĪØ§ÙĦÙĪ ÙĥÙĬÙĦ
ĠØªÙĤØ¯ ÙĬØ±Ø§
ĠÙĪÙĬÙĨ Ø¯Ø¨
ĠÙĪØ§ÙĦØ® Ø¨Ø±
ĠÙĬØ¹Ø±Ùģ ÙĩØ§
ĠØ§ÙĦØ£Ø® ÙĪØ§Øª
ĠÙĥØ¹ Ø¨Ø¯
ÙģØ§ÙĤ ØªÙĩ
ĠØªØ® ÙĬÙĬØ±
ĠÙĪÙĬØª Ø±Ùĥ
ĠÙĪØ§ÙĦÙĥ Ø«ÙĬØ±
ĠÙĪØ§ÙĦÙĥ ØªØ§Ø¨Ø©
ĠØ§ÙĦÙĪØ§ÙĤ Ø¹Ø©
ĠÙĦÙĦØ¬ ÙħØ¹Ø©
ĠÙĪØ§ÙĦØµ Ø¨ÙĬ
ĠÙĤØ³Ùħ ÙĩØ§
ĠÙĦÙĦÙģ Ø§Ø¹ÙĦ
ĠØ¨Ø§ÙĦØµ ÙĦØŃ
ĠØ¨Ø§ÙĦØº ØµØ¨
ĠØ§ÙĦØ¨Ø± ÙĩØ§ÙĨ
ĠØ§ÙĦØ®Øµ Ø§Ùģ
ĠÙħÙĥØ± ÙĪÙĩØ§
ĠÙĪØ§ÙĨ ÙĤØ¶Øª
ĠÙĦÙĦØ® ÙĦØ§Ùģ
ĠØ§ÙĦØ¨Ø¯ Ø¹
ĠØ§ÙĦØ¨Ø¯ Ø¹Ø©
ĠØ§ÙĦØ¨ÙĦØ¯ Ø©
ÙĩØ§Ø¯ ØªÙĬÙĨ
ĠØ¹ÙĬ Ø§Ø´
ĠØ§ÙĦØ´Ø±ÙĬ Ùģ
ĠÙĥØ§ÙĦØ£ Ø¨
ĠØ®ÙĦÙĤ Ø©
ĠÙĪØ§ÙĦØº Ø±Ø³
ĠØ¬ÙĪØ§Ø¨ Ø§
ĠØ¹Ø¬ ÙĪØ©
ĠØ§ÙĦØŃØ§ ÙĦÙĬÙĨ
ĠÙĬØ¶Ø±Ø¨ Ùĩ
ÙĦØ§Ø¦ ÙĤ
ĠÙĬÙĤØ¶ÙĬ Ùĩ
ĠØªØ¤ Ø®Ø±
ĠØ®Ø§ÙĦÙģ Ùĩ
ĠØµØ§Ø¯ ÙĤØ§
ĠÙĬØ´Øª Ø±Ùī
ÙĪÙĤÙĬ Ø§Ø³
ĠÙĬÙĤØ¨Ø¶ ÙĩØ§
ĠØ§ÙĦÙħØ¨ ÙĦØº
Ø¨Ø´ Ø±Ø·
ĠØ§ÙĦØ§ØŃØª ÙĬØ§Ø¬
ĠÙĪÙĤØ§ ÙĦÙĪØ§
ĠØ³ÙĤÙĪØ· ÙĩØ§
ĠØ¨Ø§ÙĦØ² ÙĬØ§Ø¯Ø©
ĠÙħØ¶ ØºØ©
ĠÙĤØ§Ø± Ø¦
ÙħÙĥ ÙĨØ§
ÙĪØµØŃ ØŃÙĩ
ĠÙģØ§Ø¯ Ø¹Ø§Ùĩ
ĠÙħØ¹Ø¯ ÙĪÙħ
Ø®Ø§ÙĦÙģ ØªÙĩ
ĠØ§ÙĦØŃÙħ ÙĬÙĦ
ĠØ§ÙĦØ§ÙĨ ÙĤØ·Ø§Ø¹
ĠØ§ÙĦÙĦØº ÙĪÙĬ
ĠØ£ÙħÙĬ Ø§ÙĦ
ĠØ§ÙĦØ£Ø² Ø¬ÙĬ
ĠÙĥÙĬ ÙĪÙħ
ĠÙĤØ±Ø± ÙĨØ§Ùĩ
ĠÙĨØŃ Ø§Ø³
ĠØ®Ø² Ø§ÙĨØ©
ĠØ®Ø§ÙĦØ¹ ÙĩØ§
ĠÙħØ¹ØªØ¨ Ø±Ø§
ĠØ§ÙĦÙħÙĦØ§ Ø²ÙħØ©
ĠØ§ÙĦÙħÙĦØ§ Ø¹ÙĨØ©
ĠÙĨÙĥØŃ ÙĩØ§
ĠØ§ÙĦØ¹Ø§ÙĤØ¯ ÙĬÙĨ
ĠØ§ÙĦØŃØ§Ø¯Ø« Ø©
ĠÙħÙĦÙĬ ÙĥØ©
ĠÙħØ¬Ø± Ùī
ĠÙĤØ³ Ø·Ùĩ
ĠØŃØ§Ø¯Ø« Ø©
ĠÙħØ§ÙĨ Ø¹Ø©
ĠÙĦØŃØ§Ø¬ ØªÙĩ
ĠØ§ÙĦØªØª Ø§Ø±Ø®Ø§ÙĨÙĬØ©
ĠØ¥Ø± Ø³Ø§ÙĦÙĩ
ĠØ§ÙĦØ¨Ùĥ Ø§Ø±Ø©
ĠØ¶ÙħØ§ ÙĨÙĩØ§
ĠØ¨ÙĪÙĤ ÙĪØ¹
ĠØ¬ÙĦÙĪ Ø³Ùĩ
ĠØºÙĬ ÙĦØ§ÙĨ
ĠØ§ÙĦÙħØªØ¹Ø§ ÙĤØ¯ÙĬÙĨ
ĠÙĦØ§ÙĨØ¹ Ø¯Ø§Ùħ
ĠØ§ÙĦÙħØªÙĬ Ø·ÙĬ
ÙħØ£ÙĨ ÙĬÙĨØ©
ÙĦ ÙĨØ§
ÙĬ ÙĩÙħ
ÙĪ ÙĦÙĤ
ÙĪ ØŃØ¯ÙĬØ«
ÙĪ ÙĪÙĤØ¹
Ø± Ø®
Ø± Ø¹Ùĩ
ĠØ§ Ø²
Ø¨ Ùĥ
Ø¨ Ø¯Ø©
Øª ÙħÙĩ
Øª ÙĪÙī
Ø¹ ÙĪÙĨ
Ø¹ ÙħØ±
ĠÙĪ ÙĪØ±
ĠÙĪ Ø§Ø´
ĠÙĪ ØµØ¯ÙĤØ©
ĠÙĪ Ø±Ø£Ùī
ĠÙĪ ÙĪØ·Ø¦ÙĩØ§
ĠÙĪ Ø±Ø£Ø³Ùĩ
ĠØ£ ÙĩÙĪ
ĠØ£ Ø¨Øª
ĠØ£ Ø¶Ø¹Ùģ
ĠÙħ ÙĪÙĦ
ĠØ¨ Ø¨Ø±
ĠØ¨ ÙĨØ§Ùĩ
ĠØ¨ Ø±Ø§Ø¡ØªÙĩ
ĠÙģ ÙģØ¹
ĠÙģ ØŃØ§
ĠÙģ ÙĪÙĤÙģ
ĠÙģ Ø§ÙħØªÙĨØ¹
ĠØ¹ Ø±Ø¶Ùĩ
Ùģ ØªÙĩ
Ùģ ÙĥÙħØ§
Ùģ ÙģÙĬÙĩ
Ùģ Ø§ÙĦØ¹
Ùģ ÙħØ§Øª
Ø³ Ø§ÙĦ
Ø³ ÙĬØ¯
Ø³ ÙĦØª
Ø³ ÙĦÙĩØ§
ĠÙĬ ÙĪØµ
ĠÙĬ Ø¨Ø¯ÙĦ
ØŃ Ø±Ùĩ
ØŃ ÙħØ©
ØŃ Ø´Ø©
ÙĦØ§ Ø¬
Ùĥ Ø¹
Ùĥ Ø£
Ùĥ ÙĩØ§
Ø¬ Ùī
Ø£ ÙĤØ±
Ø£ Ø®Ø±Ø¬
Ø£ Ø±Ø¨Ø¹Ø©
ĠÙĤ ÙĪÙĦÙĥ
ĠÙĤ ÙħÙĬØµ
Ø° ÙĬØ¨Ùĩ
Øµ Ø±ÙĬ
Øµ ÙĦØª
ĠÙģÙĬ ÙĨØ§
ĠÙģÙĬ ÙĨØª
ĠÙģÙĬ ÙħÙĦÙĥ
ĠÙģÙĬ ÙĤØ¶ÙĬ
ÙħØ§ Ø¦
ĠÙĥ ÙħØ³
ĠØ§ÙĦÙħ ÙĦÙĬ
ĠØ§ÙĦÙħ Ø¨Øª
Ø¶ ÙĦÙĩ
ĠØ¥ Øº
ĠØ¥ Ø¨Ø¯
ĠØ¥ Ø¯Ø±ÙĬØ³
ĠÙħÙĨ Ø§ÙĤ
ĠÙħÙĨ ØµÙĪØµ
Ø· ÙģØ©
ĠØª ÙĤØ¯Ø±
ĠØª Ø´Ø¨Ùĩ
ĠØª ÙĨØªÙĤÙĦ
ĠØª ÙĤØµÙĬØ±Ùĩ
Ø¥ Ø³ÙĨØ§Ø¯Ùĩ
ĠØŃ ÙħØ±
ĠØŃ ÙĦØ¨
ĠØŃ Ø¶Ø§ÙĨ
ĠØŃ Ø§ÙģØ¸
ÙĬÙĨ Ùĥ
ĠØ§ÙĦ Ø±ÙĬ
ĠØ§ÙĦ Ø±Ø·Ø¨
ĠØ£ÙĪ ÙĤÙĬØ©
Ø´ Ø¨ÙĬÙĩ
ĠØ£ÙĨ ÙĤØµ
Ùī Ø¡
Ø°Ø§ ÙĩØ¨
ĠÙĦØ§ ÙĤØª
ĠÙĩ Ø¯ÙĬÙĩ
ĠØ³ ÙħØ§Ø¹Ø©
ĠØ§ÙĦØ£ Ø¯
ĠØ§ÙĦØ£ Ø¨Ø¯
ĠØ° ÙĨØ¨Ùĩ
ĠÙĦ ÙĨØ³
ĠØ¬ Ø³Ø¯
ĠØ§ÙĦØŃ ÙĦÙĪÙĦ
ĠØ§ÙĦØŃ ÙĦÙĬÙģØ©
ĠØ§ÙĦØŃ ØµØ§Ø¯
ĠØ¯ Ø±Ø±
ĠØ® ÙĬÙĦ
ĠÙħØ¹ ØªÙĥ
ĠØ§ÙĦÙĤ ÙĦØªÙĬÙĨ
Ø§Ø¦ Ø³
Ø§Ø¦ ÙĦÙĩ
Ø§Ø¦ ØªØ©
ÙģÙĬ ÙĤ
ÙģÙĬ ÙĦØ²ÙħÙĩ
ĠØ¥ÙĨ ÙģØ§Ø°
Ø¸ Ùĩ
ĠÙĦØ£ Ø®Ø°
ĠÙĦØ£ Ø®Ø°Ùĩ
ĠÙĦØ£ ÙĪÙĦØ§Ø¯
ĠØ§ÙĦØª ÙħØ§Ùħ
ĠØ§ÙĦØª ÙģØ±ÙĤ
Ø³ÙĦÙħ Ùĩ
ÙĤÙĬ ÙĩØ§
Ø¦ Ø§ÙĨ
ĠØ§ÙĦØ¥ Ø¯Ø±Ø§Ùĥ
ĠØ§ÙĦØ¥ ÙģØ±Ø§Ø¯
ĠØ§ÙĦØ¥ ØŃØ±Ø§Ø²
Ø§Ùħ ØŃ
Ø§Ùħ ÙĪØ³
ĠØ¨Ø§ ÙĦÙĬØ³
ĠØ¨Ø§ Ø¯Ø±
ĠØ¨Ø§ ÙģØ¶ÙĦ
ĠØ§ÙĦÙĨ Ø§Ø´
ĠØ§ÙĦÙĨ Ø¹Ùħ
ĠØ§ÙĦÙĨ Ø¯Ø§Ø¡
ÙĪÙĬ ØªÙĩ
ÙĪÙĬ ÙĤÙĪÙĦ
ĠØ² ÙĨØª
ĠÙĬÙĤ Ø¹Ø¯
ĠØ§ÙĦØ¬ Ø¨ÙĩØ©
ĠÙĪØ£ ÙĦÙģ
ĠÙĪØ£ Ø°ÙĨ
ĠÙĪØ£ ÙģÙĩÙħ
ĠØ· Ø¹ÙĨ
ĠÙĬØ¬ ÙĬØ¡
ĠØ§ÙĦØ³ ÙģÙĦ
ĠØ§ÙĦØ³ Ø¨ÙĤ
ĠØ§ÙĦØ³ ÙĤÙĪØ·
ĠÙĪÙĬ Ø°ÙĥØ±
ĠÙĪÙĬ ÙĤØ·Ø¹
ĠÙĪÙĬ Ø³ÙħÙī
ĠÙĪÙĬ ÙħØªÙĨØ¹
ĠØ£Ø® ÙĦ
ĠÙĦÙĬ Ø§ÙĦ
ĠÙĦÙĬ Ø¤
ĠØ§ÙĦØµ ÙģØ§
ĠÙĬØª ÙħÙĬØ²
Ø¤ ÙĬØªÙĩ
ĠØ§ÙĦØ® ÙĦØ§ÙĦ
ĠØº Ø±ÙĤ
ÙĪØ¯ ÙĬØ©
ÙĤØ§ Ø¶
ĠØ§ÙĦØ« ÙĬØ¨
Ø¨Øª ÙĬ
ÙģØ§ ÙĦÙĪ
ÙĥØ§ ÙĦÙĪ
ÙħØ³ ÙĪØŃ
ĠØ§ÙĦØ° ÙĥØ§Ø©
ĠØ§ÙĦØ° Ø§Ø¨ØŃ
ĠØ¶ Ø§Ø¨Ø·
ĠØ§Ø³Øª ÙĤÙĦØ§
ĠØ§Ø³Øª Ø£Ø°ÙĨ
ÙĪØ² ÙĨÙĩ
ĠÙĪØª Ùĥ
ĠÙĪØª Ø±Ø§
ĠÙĪØª ØµØ¯ÙĤ
ÙĪØ£ ÙħÙĬÙĨ
ÙĪØ£ ÙģÙĩÙħ
ÙĪØ£ Ø®Ø±Ø¬Ùĩ
ØŃØª Ùħ
ØŃØª ÙĬØ©
ĠØ§ÙĦØ§ Ø±Øª
ĠØ¸ ÙĦ
ĠØ§ÙĦØº ÙĬØ¨
ĠØªØ¹ Ø§Ø±
ĠØªØ¹ Ø¨Ø¯
ĠØªØ¹ Ø¯ÙĬ
ĠØªØ¹ ÙĪØ¯
ĠÙĦÙĦÙħ Ø¹ØªÙĤ
ĠÙģØ£ Ø¨
ĠÙģØ£ Ø±Ø³ÙĦ
ĠÙĬÙħ Ø¶
ĠÙĪØ§ÙĦÙħ ÙĪÙĦÙī
ĠØ§ÙĨ ÙģØ³Ø®Øª
ØªÙĤ Ø§Ø¡
Ø±ÙĤ ØªÙĩ
ĠØ§ÙĦÙħØª Ø±ÙĪÙĥ
ĠÙģØª Øª
ÙĦØ¹ ÙĨ
Ø§Øµ ÙĦØ©
ĠÙģØ¹ ÙĨ
ĠØ¹ÙĦÙħ Ø§Ø¡
ĠØªØŃ ÙĦÙģ
ĠØªØŃ Ø±Ùĥ
Ø¬Ø¯ ÙĬØ¯
ĠØ§ÙĦÙħØŃ ÙħÙĦ
ĠØ§ÙĦÙħØŃ Ø§Ø¨Ø§Ø©
ÙĪØµ Ø§Ùģ
ĠØ§ÙĦÙĬ ÙħØ§ÙĨ
ĠØ¨Ø¥ ØŃØ±Ø§Ùħ
ÙģÙĤ ØªÙĩÙħ
ÙĪØ· Ø©
ĠÙĪØŃ Ø³ÙĨ
ĠÙĪØŃ ÙĥÙħØ§
ĠÙĬØ³Øª ÙħØ±
ĠÙĬØ³Øª ÙĤØ±
ĠÙĬØ³Øª ÙĨØ¯
ĠÙĬØ³Øª Ø¯ÙĦ
ÙĤØ¨ ÙĦÙĩØ§
Ø¨ÙĬØ± Ùĩ
ĠØ¢ Øª
ĠØ¢ ÙĥÙĦ
ĠØ§ÙĦÙĩ ÙĨØ¯ÙĬØ©
ĠÙĦØ¨ ÙĦØ¯
ĠØ§ÙĦÙħÙĨ Ø§Ø²Ø¹Ø©
ÙĪØŃ ÙĥÙĬ
ĠÙģÙĥ ØªØ¨
ĠØ¹Ø¨ Ø«Ø§
ĠØ§ÙĦÙħØ³Øª ÙĪØ¹Ø¨
ĠÙħØ³Øª ÙĤ
ĠÙħØ³Øª ÙĪÙģÙĬØ§
ĠÙħØ³Øª Ø¹ÙħÙĦØ§
ĠØ¨Ø§ÙĦØ£ Ø¨
ĠØŃØ¬ Ø±Ø§
ĠÙĨØŃÙĪ ÙĩÙħØ§
ØµØ¨ Ø§Ø¡
ĠØ§ÙĦØ¸ ÙĦÙħ
ĠÙģØ§ÙĦØ ²
ĠÙģØ§ÙĦØ ³
ĠØŃØµ ÙĨ
ĠØ£Ùģ ØµØŃ
ĠÙĪØ£ÙĨ Ø«Ùī
Ø¨Ø³ Ø·
ĠØ£Ø±Ø§Ø¯ Øª
ĠÙħØ¤ ÙĥØ¯Ø©
ĠØ¨Ø§ÙĦØª ØŃØ±ÙĬÙħ
ĠØ¹Ø· ÙģÙĩ
ĠÙĬÙģ Ø¶ÙĬ
ĠØªÙħ ÙĪØª
ĠÙĪØ« ÙĪØ¨
ĠØ£ÙħØ§ ÙĨÙĩ
ĠØ¨Ø§ÙĦØ¥ Ø¹ØªØ§ÙĤ
ĠÙĬØº Ø§Ø¨
ĠÙĦÙĦÙĪ Ø§ÙĩØ¨
ĠÙĪØ§ÙĦØ¨ ÙĨØª
ĠÙĪØ§ÙĦØ¨ ØŃØ±
ĠØ§ØŃØª ÙĬØ¬
ĠÙħØ® Ø§Ø¶
ĠØ§ÙĦÙĥÙģ ÙĨ
ĠØ®Ø· Ø¨ØªÙĩ
ĠÙĪØ² ÙģØ±
ĠØ§ÙĦØªØ¹ ÙĦÙĬÙħ
ĠØ§ÙĦØªØ¹ Ø¯ÙĬÙĦ
ĠÙĬØ´ØªØ±Ø· Ùĩ
ĠÙĦÙģ Ø¹ÙĦ
ĠÙĪØ§ÙĦÙĤ Ø§Ø¶ÙĬ
ĠØªÙģ ØµÙĬÙĦÙĩ
Ø·Ùĩ Ø±Ø§
Ø¨Ø®ÙĦØ§Ùģ Ùĩ
ĠÙĪÙĨØŃÙĪ ÙĩÙħ
ĠØ¨Ø§ÙĦÙĨ Øµ
ĠØ¨Ø® Ø¯ÙħØ©
ĠØªØµ Ø¯ÙĬÙĤÙĩ
ĠÙħØ¹Øª ÙĤÙĩ
ĠØ£Ø®Ø±Ø¬ ÙĩØ§
ĠØ¨Ø§ÙĦÙĪ ÙĥØ§ÙĦØ©
ĠØ¹Ø¨ÙĬ Ø¯Ùĩ
ĠÙĪØ§Ø³Øª Ø«ÙĨÙī
ÙĪØ£ÙĨ ÙĥØ±
ĠØªØ· ÙĦØ¹
ĠØªØ¯ Ø¹ÙĬ
ĠØ³Ø¨Ø¨ ÙĩØ§
ĠØ¯Ø® ÙĪÙĦÙĩØ§
ĠÙģÙĨ ÙĤØµ
ĠÙģÙĨ Ø¸Ø±
ÙĪØ±Ø§ Ø©
ĠÙĪØ§ÙĦØ´ Ø±Ø¨
ĠÙĪØ§ÙĦØ´ ÙĬØ®
Ø¬Ø¹ ÙĩØ§
ĠÙĦØ¯ Ø®ÙĪÙĦ
ĠÙĦØ¯ ÙĦØ§ÙĦØ©
ĠÙĪÙĬØ± Ø«
ĠÙĥØ£ ÙĨÙĩØ§
ĠÙģÙĦ ÙĦÙĩ
ĠØªØ¹ÙĦÙĤ Øª
ĠØ¨Øº Ø³ÙĦÙĩ
ĠØ§ÙĦØ£Ø¹ Ø°Ø§Ø±
ĠÙħÙĤØ¯ ÙħØ§
ÙĨØµ ÙĪØµ
ĠØ¨Ø° Ø¨ØŃ
ĠÙĬØ³ØªØŃÙĤ ÙĩØ§
ĠØ¨Ùģ ÙĪØ§Øª
ĠÙĥØ±Ùĩ Øª
ĠØ§ÙĦÙħØ± ÙĪØ°ÙĬ
ĠÙĪØ«ÙĦØ« Ø§ÙĨ
ĠÙĪØµØŃ ØŃ
ĠÙĦÙĦØ§ ØªØ¨Ø§Ø¹
ĠØ§ÙĦØ«ÙĦØ§Ø« ÙĬÙĨ
ĠÙħÙģ Ø·Ø±
ĠØ§ÙĦÙĪØ¯ ÙĬØ¹
ĠÙĦØ¨Ø³ ÙĩÙħØ§
ĠÙħØ² Ø§Ø±Ø¹Ø©
ĠØ¶Ø± ÙĪØ±ÙĬ
ĠØ·ÙĩØ± Øª
ĠØ§ÙĦØ¹Ø´Ø± ÙĬÙĨ
ĠÙĬØªØ¹ ÙħØ¯
ÙĪØ§ÙĦÙĪ Ø¬ÙĬØ²
ĠÙĥØ§ÙĦÙĪ ÙĥÙĬÙĦ
ÙĪØ§ÙĦØ¨ Ø§ÙĤÙĬ
ĠØ§ÙĦØ´Ø§ÙĩØ¯ ÙĬÙĨ
ÙĪÙĤÙĬ Ø¯Ùĩ
ĠØ§ÙĦØªÙģ ÙĦÙĬØ³
ĠÙĦÙĦØ² ÙĪÙħ
ĠÙĤØ±Ø£ Ùĩ
ĠØ³Ø§ ÙĤÙĩ
ĠØ§ÙĦØ¥Ø¹ Ø±Ø§Ø¶
ĠØ§ÙĦØ£Ø¹Ùħ Ùī
ĠÙģØº Ø³ÙĦ
ĠÙĥÙĦØ¨ Ø§
ĠØ¨ÙĪØ· Ø¦ÙĩØ§
ĠØ§ÙĦØªÙĨ ÙĪÙĬØ±
ĠØ§ÙĦÙħØ§Ø¦ ØªÙĬÙĨ
ÙĦØ¥ ÙħØ§Ùħ
ĠØºØµ Ø¨Ø§
ĠÙĪØ§Ø´Øª Ø±Ùī
ĠÙĥØ§ÙĦØµ ÙĦØ§Ø©
ĠÙĬØ²ÙĪØ¬ Ùĩ
ĠÙĦÙĦØ¢ ÙĬØ©
ĠØ§ÙĦØ¨Ùĩ Ø§Ø¦Ùħ
ĠÙĥØµ ÙĦØ§Ø©
ĠØ±Ø¡ÙĪØ³ ÙĩÙħ
ÙĪØ£ÙĪ ÙĦÙī
ĠØ§ÙĨØ¹ÙĤØ¯ Øª
ĠØ·Ø¨ Ø®
Ø¬ÙĬØ± ÙħÙĬ
ĠÙĬØŃØ¨ Ø³Ùĩ
ĠÙĬØ¸ ÙĨÙĩ
ĠÙģØ§ÙĦØ¬ ÙĪØ§Ø¨
ĠØ§ÙĦÙĦØŃ ÙĬØ©
ĠØ§ÙĦØ§ÙĦØª Ø²Ø§Ùħ
ĠØ§Ø³ØªØ± Ø¯Ø§Ø¯
ÙģØ±ÙĬ Ø·Ùĩ
ĠØ¨Ø¸ ÙĩÙĪØ±
ĠÙĬØ¨Ø¯ ÙĪ
ĠÙĬÙĤÙĬ Ø¯Ùĩ
ĠØ§ÙĦÙħÙĨÙģ ØµÙĦ
ĠØ´ÙĤØµ Ø§
ĠØŃØ¨ÙĬ Ø¨Ø©
ĠØ§ÙĦØ³Ø§ ÙĥØª
ĠÙģØµØ§ÙĦØŃ Ùĩ
ĠØ§ÙĨÙĤØ· Ø¹Øª
ĠÙħØ¬Ø§ÙĪØ² Ø©
ĠØ°ÙĩØ§ Ø¨Ùĩ
ĠØ§ÙĦØ·Ø¨ ÙĤØ©
ĠÙĤØ§Ø¯ Ø±Ø§
ĠØ¨Ø®ØµÙĪØµ Ùĩ
ĠÙĪÙĥØ³ ÙĪØªÙĩ
ĠÙĦÙĦØ§ØŃØª Ø±Ø§Ø²
ĠÙĦØ§ÙħØª ÙĨØ§Ø¹
ĠØ³ÙĪØ¯ Ø§Ø¡
ĠØ§ÙĦÙĤØ±Ø§ ÙģÙĬ
Ø§ ÙĥØª
ÙĨ ØŃÙĨ
ÙĬ Ø¤Ø®Ø°
Ùħ Øµ
Ùħ ÙĪÙĦÙĩ
Ø¹ Ø¯ÙĬ
Ø¹ Ø±Ø§Ø¶
Ø¹ ÙħØ§ÙĦÙĩ
ĠÙĪ ÙĪ
ĠÙĪ Ø°Ø¨ØŃ
ĠÙĪ ÙģÙĦØ§ÙĨ
ĠØ£ ÙĤØ¯Ùħ
ĠØ£ ÙĤØ·Ø¹
ĠØ£ ÙģØ§ÙĤ
ĠØ£ ÙĤØ¨Ø¶
ĠÙħ ÙĦØ©
ĠÙħ Ø¯ÙĬ
ĠÙħ ÙģÙĬØ¯
ĠØ¨ ÙĪØ¶Ø¹Ùĩ
ĠØ¨ ÙĤØ±Ø§Ø¡Ø©
ĠØ¨ Ø±Ø¶Ø§Ùĩ
ĠØ¨ Ø¨ØºØ¯Ø§Ø¯
ĠÙģ ÙĩØ±
ĠÙģ ÙĪØ±
ĠÙģ Ø¨ÙĬÙĨ
ĠÙģ Ø¹ØªÙĤ
ĠÙģ Ø³ÙħØ¹
ĠØ¹ Ø¨Ø§Ø±
ĠØ¹ ÙĦØªÙĩ
ĠØ¹ ØµÙī
Ùģ ÙĪØ¬Ø¨
Ùģ Ø¬Ø§Ø²
Ùģ ÙĦÙĬØª
Ø³ Ùī
ĠÙĬ ÙģØ±Ø¯
ĠÙĬ Ø±Ø¬ØŃ
ĠÙĬ Ø¶Ø§Ùģ
ĠÙĬ ÙĨÙĩÙī
ØŃ ÙĬÙĨ
ØŃ ÙĨØ«
ÙĦØ§ Ø³
Ùĥ ÙĨØ©
Ø£ ÙĩÙĦ
Ø£ Ø´ÙĩØ¯
ĠÙĤ Ø±Ø©
ĠÙģÙĬ ÙģØ³Ø®
ĠÙģÙĬ ÙģØ³Ø¯
ĠÙĥ ÙĥÙĦ
ĠÙĥ Ø¨Ø§Ø±
ĠÙĥ ØŃØ±
ĠÙĥ ÙĨØ²
ĠØ§ÙĦÙħ Ø¶ÙĬ
ĠØ§ÙĦÙħ ÙĥØ±ÙĬ
ĠØ¥ ÙĦØ²Ø§Ùħ
Ø« Ø§Ø¡
Ø· ÙĬÙĨ
ĠØª ÙĦÙĬ
ĠØª Ø¶ÙĬ
ĠØª ÙĪØ³
ĠØª ÙĨÙģ
ĠØª ÙĪÙĦÙī
ĠØª Ø±ÙĬØ¯
ĠØª ÙĦØ¨Ø³
ĠØŃ Ø«
ĠØŃ ÙĦÙĩØ§
ĠØŃ Ø§Ø¦Ø²
ĠØŃ Ø¶Ø§ÙĨØ©
Ø§ÙĨ ÙĤ
ÙĬØ± Ø¯
Ø´ ÙĪ
Ø´ Ø±Ø§
ĠØ£ÙĨ Ø³Ø¨
ĠØ£ÙĨ ÙħÙĦØ©
ĠØ± ÙĤØ§Ø¨
ĠØ± Ø§Ø¨Ø¹Ø©
ĠÙĨ ÙĪ
ĠÙĨ ÙģØ§
ĠÙĨ Ø¬Ø²
ĠÙĦÙħ ÙĨØ¹
ÙĨØ§ Ø¯
ĠØ³ ÙĨØ§
ĠØ³ ÙĤÙģ
ĠØ§ÙĦØ£ ÙħØ§
ĠØ§ÙĦØ£ Ø·
ĠØ§ÙĦØ£ Ø«Ø±
ĠØ§ÙĦØ£ ÙĥÙħÙĦ
ĠØ§ÙĦØ£ ÙħØªØ¹Ø©
ĠØ´ ÙģÙĤØªÙĩ
ĠØµ ÙĬØ§
ĠÙĦÙĩ Ø¤ÙĦØ§Ø¡
Ø±Ø§ Ø«
ĠÙĦ ÙĦÙģØ¸
ĠØ¨ÙĨ ÙĬÙĩ
ÙĪÙĨ ØµÙĩ
ĠØ§ÙĦØ¹ ÙĪÙĦ
ĠØ§ÙĦØ¹ ÙĦÙĬØ§
ĠØ§ÙĦØ¹ Ø¬Ùħ
ĠØ§ÙĦØ¹ Ø·Ø§Ø±
ĠØ¨Ø¹ ÙħÙĦÙĩ
ĠÙħØ¹ ÙĤÙĦ
ĠØ§ÙĦÙĤ Ø¹ÙĪØ¯
ĠØ§ÙĦÙĤ Ø§Ø±Ø¦
ĠÙĪØ§ Ø®Øª
Ø§Ø¦ ÙĨØ©
ÙĪØ¬ Ø§Ø¡
ĠØ§ÙĦÙĪ Ø±Ø¯
ĠØ§ÙĦÙĪ Ø§Ø±Ø¯
ĠØ§ÙĦØ¨ ÙĤØ¹Ø©
ĠØ§ÙĦØª Ø¹ÙĦÙĤ
ĠØ§ÙĦØª ÙĪÙĤÙģ
ĠØ§ÙĦØª Ø®ØµÙĬØµ
ĠØ§ÙĦØª ÙĤØµÙĬØ±
ĠØ§ÙĦØª Ø¨ÙĬÙĬÙĨ
ĠØ§ÙĦØ¥ ÙĦØŃØ§ÙĤ
ĠØ§ÙĦØ¥ ØºÙħØ§Ø¡
ĠØ§ÙĦØ¥ ÙĨØ§Ø«
ÙĪÙħ Ø³
Ø£ÙĨ ÙĬ
ĠØ¨Ø§ Ø«ÙĨÙĬ
ĠØ§ÙĦÙĨ Ø²ÙĪÙĦ
ĠØ§ÙĦÙĨ ÙĪØ§Ø¯Ø±
ÙĪÙĬ ÙĩØ§
ÙĪÙĬ ÙĤØ¯Ùħ
Ø±Ø¶ Ø¹
ĠØ§ÙĦØ¬ Ø¹Ø¯
ĠØ§ÙĦØ¬ ÙĩØ§ÙĦØ©
ĠØ§ÙĦØ¬ Ø±Ø¬Ø§ÙĨÙĬ
ÙĪØ¹ ÙĬÙĨ
ĠÙĪØ¬ ÙĪØ§Ø²
ĠÙĬØ¬ ØªÙĩØ¯
ĠØ§ÙĦØ³ Ø¨Øª
ĠØ§ÙĦØ³ ÙģÙĩ
ĠØ§ÙĦØ³ ØŃØ±
ĠØ§ÙĦØ³ ÙĬØ§ÙĤ
Ø±Ùģ Ø§Øª
ÙģØ± ÙĪØ¹
ĠØ§ÙĦÙģ ØµÙĪÙĦ
ĠØ§ÙĦØµ ÙĦØ¨
ĠØ§ÙĦØµ ÙĨÙģ
ĠØ§ÙĦØµ Ø§ÙħØª
ÙĤØª Ø§ÙĨ
ĠØ§ÙĦØ® ÙĬØ§ÙĨØ©
ĠÙĬØ¹ ÙĪÙĦ
ĠÙĬØ¹ Ø³Ø±
ĠØ§ÙĦÙĥ ÙĦÙħØ©
ĠØ§ÙĦÙĥ Ø«Ø±Ø©
ĠÙģØ¥ÙĨ Ø§
Ø³Ùħ ÙĬØª
ĠØ§ÙĦØ« ÙħØ§ÙĨÙĬØ©
ĠØ§ÙĦØ¯ ÙħÙĬÙĨ
ĠØ§ÙĦØ¯ Ø§Ø¦ÙĨ
ĠØ§ÙĦØ¯ Ø±Ø¯Ø§Ø¡
ĠÙĪÙĥ Ø«Ø±
ĠÙĪÙĥ Ø³Ø¨Ùĩ
ĠÙĪØ¹ Ø²
ĠÙĪØ¹ Ø¸
ÙĥØ§ ØªÙĩØ§
ĠÙĬÙĨ ØµØ¨
ÙĪØ¨ Ø°ÙĦÙĥ
ÙĪØª Ø©
ÙĪØª Ø§Ø±Ø©
ĠØ¹Ø¨Ø¯ Ø§ÙĨ
ĠØ£Ùħ ÙĦÙĥÙĩ
ĠØ§Ø³Øª ÙĪÙĦÙī
ĠÙĤØ¯ ÙĪÙħ
ĠØ§ÙĦØ² ÙĬØ§Ø±Ø©
ĠÙĨØµ ÙģØ§
ÙĪØ£ ØµÙĦ
ÙĪØ£ ÙĦØŃÙĤ
ĠÙĪÙĤ ÙģØ©
ĠÙĪÙĤ ÙĪÙģ
ĠØ¨Ø¯ ÙĪÙĨÙĩØ§
ÙĦØ² ÙħØªÙĩ
ĠÙĦÙĥ ÙĨÙĩØ§
ĠØ§ÙĦØ§ Ø¬ØªÙħØ§Ø¹
ĠØ¸ ÙĦÙħØ©
Ø§Ø¯ Ø³Ø©
ĠØ§ÙĦØº Ø²ÙĦ
ĠÙģØ£ ØŃØ³ÙĨ
ĠÙħØª ØŃØ¯
ĠÙħØª ÙģØ§
ĠÙħØª Ø£Ø®Ø±
ĠÙħØª Ø§Ø¹Ø§
ĠÙħØª ÙģØ±ÙĤØ©
ĠÙĤØ¨ ÙĦÙĬ
ĠØ§ÙĨ ÙĤÙĦØ¨
ĠØ£Ø¹ ÙħØ§
ĠØ£Ø¹ ÙħØ§ÙĦ
ĠØ£Ø¹ ÙĪØ§Ùħ
ĠÙħÙĦÙĥ ÙĬ
ĠÙģØª Ø±ÙĥÙĩ
ĠÙģØª Ø³ÙĤØ·
ĠØ£Ø¬ ÙĬØ²
ĠØ§ÙĦÙħØ³ ÙĥÙĬÙĨ
ĠØ¨ØŃ Ø±ÙħØ©
ĠÙħØ± ØªÙĩÙĨ
ÙĦØ« Ø©
ĠÙĬØ³ ÙĩÙħ
ĠÙĦØ¹ ÙħÙĦ
ĠÙĦØ¹ Ø³Ø±
ĠØ§ÙĦÙħØ¹ ÙħÙĪÙĦ
ĠØªØŃ Ø¨Ø³
ĠØ¨Ø§ÙĦÙħ Ø«ÙĦ
ĠÙĪØµ ÙģØ§
Ø¬Ø¯ ØªÙĬÙĨ
ĠØ§ÙĦÙħØŃ ÙĥÙħ
ĠØ¨Ø®ÙĦØ§Ùģ ÙĩØ§
ÙĪØµ ÙĬØ©
ÙĪØµ Ø§ØŃØ¨
ĠØ¨Ø§ÙĦ Ø±Ø¬ÙĦ
Ø§Ø¹ Ø±
ĠÙĬØµ Ùģ
ĠÙĬØµ Ø§ÙĦØŃ
ĠØ²ÙĪØ¬ Ùĩ
ĠÙĦÙĤ Ø·
ĠÙĦÙĤ Ø·Ø¹
ĠÙĦÙĤ Ø±Ø§Ø¡Ø©
ĠÙĬØ³Øª Ø®
ĠÙĬØ³Øª ÙĪÙĬ
ĠÙĬØ³Øª ÙĪØ¬Ø¨
ĠÙĬØ³Øª Ø®ÙĦÙģ
ĠÙĪÙħÙĨ Ø¹Ùĩ
ĠØ§ÙĦØ±Ø¬ Ùħ
ĠØµØ§ØŃ Ø¨ÙĬ
ĠØ¹Ø¯ ÙĪØ§
ĠØ§ÙĦØ²ÙĪØ¬ Ø§Øª
ĠÙĪØ· ÙĨÙĩ
ĠÙĪØ· Ø¤Ùĩ
ĠØ¨Ùĥ ÙĪÙĨÙĩØ§
ĠØ¨Ùĥ ÙģØ±Ùĩ
ĠÙĪØ¨ ÙĤ
ĠØ§Ø¹Øª Ø§Ø¯
ĠØ§Ø¹Øª Ø¯Øª
ĠØ±ÙĪØ§ ÙĬØªÙĩ
ĠÙĪØ§ÙĦØ£ ÙĥØ«Ø±
ĠÙĬØ¹ÙĦÙħ ÙĪÙĨ
ÙĪØŃ ÙħÙĦ
ĠØ¨Ø´ Ø±Ø¨
Ø³Ø§ Ø©
ĠÙħØ¬ Ø§ÙĦØ³
ĠØ¨Ø§ÙĦØ¹ Ø±Ø¨ÙĬØ©
Ø§ÙĦØŃ Ø·
Ø±Ø§Ø¬ Ø¹ÙĩØ§
Ø¶Ùħ ÙĪÙĨ
ĠÙħØ³Øª Ø«ÙĨØ§Ø©
ĠÙĦÙĦØ£ ØµÙĦ
ĠÙģØ± ÙģØ¹
ĠØªÙĨ Ø²ÙĦ
ĠØªÙĨ ÙĤØ·Ø¹
ĠØ§ÙĦØ§Ø³Øª Ø¹Ø§ÙĨØ©
ĠØ¹Ùħ Ø¯Ùĩ
Ø§ÙĦÙĤ ÙĪÙĦ
ĠØ·ÙĦÙĤ ØªÙĥ
ĠØ§ÙĦØ£Ùħ ÙĩØ§Øª
ĠÙĪØ§ÙĦØ¹ Ùħ
ĠØ£ÙħØ± Ùĥ
Ø¨Ø³ Ø©
Ø§ÙĦØ« ÙĩØ§
Ø±Ø´ ÙĬØ¯ÙĬ
ĠØ¨Ø§ÙĦØª ØµØ±Ùģ
ĠØ¨Ø§ÙĦØª ÙĬÙħÙħ
ĠØ¨Ø§ÙĦØŃ ÙħÙĦ
ĠÙĦÙĦØ¹ Ø±Ùģ
ĠØ±Ø¬Ø¹ ÙĪØ§
ĠÙĥÙģ Ø§ÙĦØ©
ØªÙħ ÙĥÙĨ
ĠÙĪØ§ÙĦØŃ Ø³ÙĨ
ĠØŃØ§ ÙĥÙħØ§
ĠØŃÙħ Ùī
ĠÙĪØ§ÙĦØ¨ Ø§Ø¡
ĠÙħØ® Ø§ÙģØ©
ĠÙħØ® Ø§ÙĦØ·
ĠØ§ÙĦÙĥÙģ Ø§Ø¡Ø©
ĠÙĦØ¥ Ø·ÙĦØ§ÙĤ
ĠÙĪÙĦ ÙĨ
ØªÙĥ ÙĦÙħ
ĠÙĪØ§ÙĦÙĤ Ø¨Ø¶
ĠØ¹Ø² Ø©
ĠØ¨Ø® Ø·Ùĩ
ĠØ¨Ø§ÙĦÙģ Ø±Ø¶
ĠØ¨Ø§ÙĦÙģ Ø¶ÙĦ
Ø§Øº Ø¨
ĠÙħØ¹Øª Ø§Ø¯Ø©
ĠØ¨Ø§ÙĦÙĪ Ø§Ø¬Ø¨
ĠØ¨Ø§ÙĦÙĥ ÙĦ
ĠÙĪÙĬÙĨ ÙģÙĤ
ĠÙĪØ§ÙĦØ® Ø±ÙĪØ¬
ĠØªØ¯ Ø¹
ĠÙĪÙħØ¹ Ø±ÙģØ©
ĠÙĪØ§ÙĦØ¬ ÙħØ¹
ĠØªØ® Ø§ÙĦÙģ
ĠÙĦÙĦØ´ Ùĥ
ĠØ³ÙĨ ØªÙĩ
ĠÙĪØ§ÙĦØ« ÙĪØ¨
ĠÙĪØ§ÙĦØ« Ø§ÙĨÙĬØ©
Ø§Ø´Øª Ø±Ùī
Ø§Ø´Øª Ø±Ø§Ø·
ĠÙĨØ² ÙĪÙĦ
ĠØ¨Ø£ÙĦÙģ ÙĬÙĨ
ĠØ®Ø§Øµ Ø§
ĠØ§ÙĦÙħÙĤ Ø§Ø¨ÙĦØ©
ĠØ¨Ø§ÙĦØ® ÙħØ³
ĠØ§ÙĦØ£Ø³ ÙĪØ§ÙĤ
ĠØ³ÙĬØ¯ ÙĨØ§
ĠØ¹Øµ ÙħØ©
ĠÙģØ§ÙĦØ£ Ø¸ÙĩØ±
ĠØ§ÙĦØ§Ø¨ÙĨ ÙĬÙĨ
ĠØ§ÙĦÙħØ® ÙĪÙģ
ĠØ§ÙĦÙħØ® Ø§Ø·Ø¨
ĠØ§Ø±Øª Ø¯Øª
Ø§ÙĦØ¬ ÙħÙĦØ©
ĠØŃÙĨ Ø¸ÙĦØ©
ĠØµÙĪÙħ ÙĩØ§
ÙĪØ¡ ØªÙĩ
ĠØ«ÙĪØ¨ Ø§ÙĨ
ĠÙĥÙĦØ§ ÙħØ§
ĠÙĦÙĦØµ ÙĪÙħ
ĠØ£ÙĤØ±Ø¨ Ùĥ
ĠÙĨÙĪØ¹ Ø§ÙĨ
ĠØ¨Ø§ÙĦØ§ Ø¬ØªÙĩØ§Ø¯
ĠÙħØ°ÙĩØ¨ ÙĨØ§
ĠØ§ÙĦÙħÙĪØ§ ÙĤÙĬØª
ĠÙĪÙĬØŃ ÙĥÙħ
ĠÙħÙģ Ø§Ø±ÙĤ
ĠÙģØ±Ø¬ Ùĩ
ĠØŃØ¨Ø³ ÙĩØ§
ĠÙĥØ§ÙĦ Ø±
ÙĪØ±ÙĬ Ø«
ÙĪØ§ÙĦÙĤ ÙĬØ§Ø³
ĠÙĦÙĦÙĥ Ø§ÙģØ±
ĠÙĪØ¨Ø§ Ø¹Ùĩ
ĠÙĤØ§ÙĦØ§ Ùĩ
ĠØ£Ø² Ø§ÙĦ
ĠØ¹Ø¯Ø§ ÙĪØ©
ĠØ§ÙĦØ¥ÙĨ Ø´Ø§Ø¡
ĠØ§ÙĦÙħÙĤØ¯ Ø³ÙĬ
ĠØ£Øº ÙħÙĬ
ĠØ£Øº ÙĦØ¸
ĠÙĦØ« ÙĦØ§Ø«Ø©
ĠÙĤÙĬØ§ Ø³Ùĩ
ĠØ±Ø´ ÙĬØ¯
ĠØ§ÙĦØ²ÙĨØ§ Ø¯
ĠÙģØ¶ ÙĦÙĩ
ĠØ§ÙĦØ¥Ø¹ Ø³Ø§Ø±
ĠÙģØ£ÙĨ Ø²ÙĦ
ĠØ¥Ø±Ø« Ùĩ
ĠØµÙĨ Ø¹Ùĩ
ĠÙģØ§ÙĦÙĤ ÙĬØ§Ø³
ĠØ§ÙĦÙĥØ§Ùģ Ø±Ø©
ĠØ®ØµÙĪØµ Ø§
ĠØ§ÙĦØªÙħ ÙĥÙĬÙĨ
ĠØ±Ø² ÙĤ
ĠÙħÙĦØª Ø²Ùħ
ĠØ£Ø±Ø³ ÙĦØª
ĠØŃÙĤÙĪÙĤ ÙĩÙħ
ĠØ§ÙĦØªÙĤ ÙĪÙĬÙħ
ÙĪÙĬØ³Øª Ø«ÙĨÙī
ĠÙĥÙĦÙħ Øª
ĠÙĬÙģØ³ Ø¯Ùĩ
ÙĦØ¤ ÙĦØ¤
ĠÙģØ« ÙĦØ§Ø«
ĠÙģØ·Ø± ØªÙĩ
ĠÙħØŃØµ ÙĨØ§
ĠØ§ÙĦØ¹ÙĤ ÙĪØ¨Ø©
ĠØ§ÙĦØ®Ø§Øµ Ø©
ĠØ·Ø±ØŃ Ùĩ
ĠØ§ÙĨØªÙĩ Øª
ĠØ§ÙĦØ³Ùģ ÙĦÙī
ĠÙĪÙĪØ§ ØŃØ¯Ø©
ĠØ§ÙĦÙħØ³ØªØŃ Ø§Ø¶Ø©
ĠØ§ÙĨØªÙĤ ÙĦØª
ĠØŃØ§Ø¦ Ø¶Ø§
ĠØªØ±Øª ÙģØ¹
ÙĪÙĤØ¯Ùħ ÙĨØ§
ĠØ¨Ø¨Ø· ÙĦØ§ÙĨ
ĠØ¶Ø¹ÙĬ ÙģØ§
ĠØ³ÙĪØ· Ø§
ĠØ´Ø§Ø¦ Ø¨Ø©
Ø¯Ø±Ø§ ÙĥÙĩ
ÙĪØ§ÙĦÙħÙĨ ÙĪØ±
ĠÙħÙĪØ· ÙĪØ¡Ø©
ĠØ§ÙĦÙħØªÙĤ ÙĪÙħ
ĠØ§ÙĦØªØ¹Ùħ ÙĬØ±
ĠØ¥Ø³ÙĨØ§ Ø¯Ùĩ
ĠØ§Ø¬ØªÙħ Ø¹Ø§
ĠÙħÙĨÙģØµ ÙĦØ©
ĠØ§ÙĦØŃØ¶ Ø±ÙħÙĬ
ĠØªØ¹Ø¬ÙĬØ² Ùĩ
ÙĪØ§ÙĦÙħØ³Øª ÙĪØ¹Ø¨
ÙĨØ´ Ø§ÙĤ
ĠÙħÙĤÙĦÙĪ Ø¹Ø§
ÙĦ ÙĦØ§
Ø§ Ø³ÙĦ
ÙĨ ÙĪØ¨
ÙĬ Ø¹ØªØ¨Ø±
ÙĪ ÙĦØŃ
ÙĪ Ø±Ø¬Ø¹
ÙĪ Ø§Ø±Ø¬
ĠØ§ Ø´ÙĩØ¯
Ùħ ÙĪÙĨ
Ùħ Ø±ÙĩÙħ
Ùħ Ø«ÙĦÙĩ
Ø¨ ÙĪØ¹
Ø¨ Ø¶Ø¹
Ø¨ ÙģØªØŃ
Ø¨ Ø¹ØªÙĥ
Ø¨ ÙħØ¹ÙĨÙī
Ø¯ Ø§ÙĦ
Ø¯ Ø§ÙĨØ©
Øª ÙħÙĨ
Øª Ø¬Ø¨
ĠÙĪ Ø°Ø§
ĠÙĪ ØŃÙĬ
ĠÙĪ Ø¹ØªÙĤÙĩ
ĠÙĪ ÙģØ§Øª
ĠÙĪ ÙĦÙĤØ¯
ĠÙĪ ÙĦØ®Ø¨Ø±
ĠÙĪ ÙĦÙģØ¸Ùĩ
ĠØ£ Ø¯Ùħ
ĠØ£ ÙĤÙĬÙħØª
ÙĤ ÙĦÙĬ
ĠÙħ Ø¨ÙĨ
ĠÙħ Ø¨Ùĩ
ĠÙħ ÙĩÙħØ§
ĠÙħ ÙĪØ²
ĠÙħ Ø·Ø¹Ùħ
ĠÙħ Ø¨Ø³ÙĪØ·
ĠÙħ ÙģÙĤÙĪØ¯
ĠÙħ ÙĪØ§ÙģÙĤØ§
ĠØ¨ ØµØ¯
ĠØ¨ ÙĦØ¹
ĠØ¨ ÙħØ³Ø£ÙĦØ©
ĠØ¨ Ø§ÙħØª
ĠØ¨ Ø±ÙģÙĤ
ĠÙģ Ø±Ùĥ
ĠÙģ ÙĪÙĩ
ĠÙģ ÙĤÙĦ
ĠÙģ ÙĪØ·
ĠÙģ Ø¨Ø¹Ø«
ĠØ¹ Ø²Ùħ
Ùģ ÙĦØ£ÙĨ
Ùģ Ø§ÙĦØµ
ĠÙĬ Ø±ÙĩÙĨ
ĠÙĬ ÙĪØ²ÙĨ
Ùĥ Ø´
Ùĥ Ø£ÙĨÙĩ
Ø¬ Ø³Ùĩ
Ø£ Ø¬Ø§Ø¨
ĠÙĤ ÙĦØ§
ĠÙĤ ÙĪÙĬØ©
ĠÙĤ ÙĦÙĪØ¨
ĠÙĤ Ø¯Ø§ÙħØ©
Øµ Ø¨Ø±
Øµ Ø¨Ø¹Ùĩ
ĠÙģÙĬ ØŃØ¯
ĠÙģÙĬ Ø¶Ø±Ø¨
ÙħØ§ ÙĦØ©
ÙĦÙĬ ÙĦÙĩØ§
ĠÙĥ ÙģØ§Ùĩ
ĠÙĥ ÙĨÙĬØ³Ø©
ĠØ§ÙĦÙħ ÙĤÙĬ
ĠØ§ÙĦÙħ Ø±Ø¬ØŃ
ĠØ¥ Ø¹ØªØ§ÙĤÙĩ
ĠØ¥ ÙħØ³Ø§ÙĥÙĩ
ĠØ¥ ÙģØ§ÙĤØªÙĩ
Ø® ÙħØ³
Ø® ÙĪÙģ
Ø« Ø¨ØªÙĩ
ĠØª Ø¨Ø¯
ĠØª ØªØ§Ø¨
ĠØª ØµØ±
ĠØª Ø°ÙĩØ¨
ĠØª Ø¨ÙĬØ¹
ĠØª ÙģØ±Ø¯
ĠØª ÙĨØ¯ÙģØ¹
Ø¥ ÙĨÙĩØ§
ĠØŃ ÙĨÙĬÙĨ
Ø§ÙĦØ ¢
ĠØ£ÙĨ Ùģ
Ø² Ø§ÙĦÙĩ
ÙĦÙĤ Ø·Ø©
Ø§Ø± ÙĥØ§
ĠØ± Ø§Ø¦
ĠØ± Ø§Ø´Ø¯
ĠÙĨ Ø³Øª
ĠÙĦØ§ Ø¦
ÙĨØ§ ÙĨÙĩ
ĠØ³ Ø£
ĠØ³ Ø§Øª
ĠØ³ Ø±ØªÙĩ
ĠØ³ ÙĦØ§ØŃ
ĠØ³ ÙĪØ¯Ø©
ĠØ³ ÙĬØ§ÙĤ
ĠØ§ÙĦØ£ Ø³Ø±
ĠØ§ÙĦØ£ ØªÙĤØ§ÙĨÙĬ
ĠØ§ÙĦØ£ ÙĨÙĩØ±
ĠØ§ÙĦØ£ Ø°ÙĥØ§Ø±
ĠØ´ Ø±Ø§Ø¨
ĠØ´ Ø¨ÙĬÙĩ
ĠØ´ Ø§Ø±Ùĥ
ĠØµ Ø¹
ĠØµ ÙĪØ§Ø¨
ĠØµ ØºØ§Ø±
ĠÙĦ ÙĦØ£ÙĨ
ĠØ¨ÙĨ ÙģÙĤØ©
ĠØ¬ ÙĬØ´
Ø§Ø¨ Ø¹ÙĬÙĨ
ĠØ§ÙĦØ¹ ÙĦÙĦ
ĠØ§ÙĦØŃ Ø¸Ø±
ĠØ§ÙĦØŃ ÙĦÙĬØ©
ĠØ§ÙĦØŃ Ø±ÙĥØ©
ĠØ¯ Ø§Ø¦ÙħØ§
ÙĪØ§ Ø³
ÙĪØ§ ØŃØ¯Ø©
ĠØ® Ø§ÙĨÙĬØ©
ĠØ® Ø§ÙħØ³Ø©
ĠÙħØ¹ ÙĨ
ĠÙħØ¹ Ø²
ĠØ¨Ùĩ Ø¨Ø©
ĠØ§ÙĦÙĤ Ø§Ø¦
ĠØ§ÙĦÙĤ ÙĬØ³
ĠÙĪØ§ ÙĤØ¯
ĠÙĪØ§ Ø³Ùħ
ĠÙĪØ§ Ø³Ø¹
Ø§Ø¦ Ø©
Ø¸ ÙĬÙģ
Ø¹Øª ÙħØ±
Øº ÙĪÙĬ
ĠÙĦØ£ ØµØŃØ§Ø¨Ùĩ
ĠØ§ÙĦØ¨ Ø¹ÙĬØ¯
ĠØ§ÙĦØª Ø§ÙĦÙģ
ĠØ§ÙĦØª ÙĨØ²
ĠØ§ÙĦØª ÙģØ³ÙĬØ±
ĠÙĪØ§ÙĦØ ²ÙĪØ¬
ÙĤÙĬ ÙħØ©
ĠÙĦÙĪ ÙĤØª
ĠØ§ÙĦØ¥ ÙĦØ²Ø§Ùħ
ÙĪÙħ ÙĤØªØ¶Ø§Ùĩ
Ø£ÙĨ ÙĬØ«
ĠÙĬÙĥ Ø§Øª
ĠØ¨Ø§ Ø³ÙħÙĩ
ĠØ§ÙĦÙĨ Ø§Ø¦Ùħ
ĠØ§ÙĦÙĨ ÙĥÙĪÙĦ
ĠØ² ÙĨ
ÙĦØª Ø²Ø§Ùħ
ĠØ§ÙĦØ¬ Ø¯Ø§Øª
ĠÙĪØ£ ÙĬ
ĠÙĪØ£ Ø¨Ø§
ĠÙĪØ£ Ø¬Ø±
ÙĪØ¹ Ø¨Ø±
ĠÙĪØ¬ Ø±Ùī
ÙĬØ§ Ø®
ĠÙĪÙĬ ÙĤÙĪÙħ
ĠÙĪÙĬ ØºØ³ÙĦ
Ø¹Ø§ Ø¯Ùĩ
Ø¹Ø§ ÙĬØªÙĬÙĨ
ĠØ£Ø® Ø±Ø³
ĠØ§ÙĦÙģ Ø£
ĠØ§ÙĦÙģ ÙĦØ³
ĠØ§ÙĦÙģ ÙĪÙĤÙĬØ©
ĠØ§ÙĦØµ ÙĨ
ĠØ§ÙĦØµ Ø§Ø¹
ĠØ§ÙĦØµ ÙģØ§Ø±
ĠØ§ÙĦØµ ÙĨØ¹Ø©
ØµØŃ ØŃ
ĠÙħØŃ ØµÙĪØ±
ĠÙĬØª Ø¹Ø¯
ĠÙĬØª ÙĪØ¬Ùĩ
ÙĪØ± ÙĩØ§
ĠØº Ø¨ÙĨ
ĠØº Ø¶Ø¨
Ø¯Ùħ ØªÙĩ
ÙĪØ¯ ÙģØ¹
ĠØ§ÙĦØ« ÙħØ§Ø±
ĠØ§ÙĦØ¯ ÙĪØ§Ø¡
ĠØ§ÙĦØ¯ ÙĤÙĬÙĤ
Ø§Ø² Ø¹Ùĩ
ÙĤØ· Ø§Ø¹Ùĩ
Ø±Ùħ ØªÙĩ
ĠÙĬÙĨ ØªÙĩ
ĠØ£Ùħ ÙĦÙĥ
Ø¯Ø§ ÙħÙĩ
ĠØ§Ø³Øª ÙĪØª
ĠØ§Ø³Øª Ø®ÙĦØ§Ùģ
ĠØ§Ø³Øª ÙĪÙī
ĠØ§Ø³Øª ØµØŃØ§Ø¨
ĠØ§ÙĦØ² ÙĩØ±Ùī
ĠÙĪØª Ùģ
ĠÙĪØª Ø³Øª
ĠÙĪØª ØµÙĬØ±
ĠØ¹ÙĦÙĬ Ø©
ĠÙħØ« ÙĦÙĬ
ĠØ¨Ø¯ ÙĨØ§ÙĨÙĬØ±
ÙĦØ² Ø§ÙħÙĩ
ĠØ¨Ø¹Ø¶ ÙĥÙħ
ĠÙĦÙĥ ÙĦØ§Ùħ
ĠÙĪØ¥ ÙĤØ±Ø§Ø±Ùĩ
ĠØ¸ ÙĦÙħÙĩ
Ø§Ø¯ Ùģ
ĠØ§ÙĦØº ÙĬÙĨ
ĠØªØ¹ ÙħÙĦ
ĠÙĦÙĦÙħ Ø¬ÙĩÙĪÙĦ
ĠÙĦÙĦÙħ Ø¨ØªØ§Ø¹
ĠÙĦÙĦÙħ ÙģÙĦØ³
ĠÙģØ£ Ø¹
ØŃÙĬ ÙģØ©
ĠÙħØª ÙĪÙĦÙĬ
ĠÙħØª Ø±ÙĪÙĥ
ĠÙĪÙĨ ØµÙĩ
ĠÙĪÙħ Ø«Ø§ÙĦ
ĠØ£ØŃ Ø§ÙĦ
ÙĪØ³ Ø§
ĠÙĪØ§ÙĦÙħ Ø³ÙĦÙħ
ĠØ£Ø¹ Ø¶Ø§Ø¦Ùĩ
ĠÙģØª ØŃØª
ĠÙģØª ÙĪÙī
ĠÙģØª ÙĦÙģØª
Ø§Øµ Øµ
ĠØ§ÙĦØ· ÙĬØ±
ĠØ£Ø¬ ÙĬØ±Ø§
Ø§ØŃ Ø¨Ø©
Ø§ÙĨÙĬ ÙĩØ§
Ø§ÙĤ Ø¹
ØŃÙĪ Ø·
ĠØ£Øµ Ùħ
Ø¬Ø¨ ÙĪØ¨
ĠØ¹ÙĦÙħ ÙĨØ§
ĠØ¨ÙĬØ¹ Ø©
ĠØªØŃ ÙĤ
ĠØ¨Ø§ÙĦÙħ Ø³
ĠØ¨Ø§ÙĦÙħ Ø³ÙĦÙħ
ĠØ¨Ø§ÙĦÙħ ÙĩØ±
ĠØ§ÙĦÙħØŃ Ø§Ø±Ùħ
ĠØ§ÙĦÙĬ ÙħØ§ÙħØ©
Ø§Ø´ ÙħÙĬ
ĠØ¨Ø§ÙĦ Ø±Ø¬ÙĪØ¹
Ø§Ø¹ ÙĬØ©
ĠÙĪØŃ ÙģØ¸
ĠÙĪØ§ÙĦ Ø±ÙĩÙĨ
ĠÙĪØ§ÙĦ ÙĨÙĩÙĬ
ĠĠ ĠĠ
ĠÙĪØ³ Ø¹Ùī
ĠÙĪØ³ Ø£ÙĦ
ĠÙĦÙĤ ÙĬ
ĠÙĦÙĤ Øª
ĠÙĦÙĤ Ø¯Ø±
Ø§ÙĦØ¨ ÙĨØ§ÙĨÙĬ
ÙĤØ¨ ØŃ
ÙĤØ¨ ÙĦØ§
ĠÙĬØ¤ Ø¬ÙĦ
ĠØ±Ø£ Ø³Ø§
ĠØ§ÙĦÙĨØ¨ÙĬ Ø°
ĠØ£Ø±Ø¨ Ø§Ø¹Ø§
ĠØ§ÙĦÙĩ Ø±ÙĪÙĬ
ĠÙĬØ´ ÙħÙĦÙĩ
ĠØ®ÙħØ³ Ùĩ
ĠÙĬØ¨ Ø·ÙĦÙĩ
ĠÙĦØ¨ Ø¹Ø¯
ĠØ®ÙĦØ§Ùģ Ø©
ĠÙĪØ¨ ÙĦØº
ĠÙģÙĦÙħ ÙĨ
Ø§Ø³ ÙĤ
Ø§ÙĦÙģ Ø§
ĠÙĪØ§ÙĦØ£ Ø¨
ĠÙĪØ§ÙĦØ£ Ø³
ĠØ£ÙĤ Ø±Ø¶Ùĩ
ĠØ¨ÙĤ Ø°Ùģ
ĠØªØ£ Ø®Ø°Ùĩ
ĠØ¨Ø§ÙĦØ¹ Ø¯Ø¯
ØŃØ± Ø§Ø±
ĠØ§ÙħØ±Ø£ ØªÙĬ
ĠØ£Ø³ Ø±Ùĩ
ĠØ£Ø³ ÙĬØ±Ø§
ĠÙĨØ³ Ø¬
ĠØ§ÙĦÙħØ³Øª ÙĤØ±Ø¶
ĠÙħØ³Øª Ø£ÙħÙĨ
ĠÙħØ³Øª ÙĤØ¨ÙĦØ©
ĠØŃÙĦÙģ Ø§
ĠÙĦÙĦØ£ ÙĥØ«Ø±
ĠØ³ÙĬ Ø°ÙĥØ±Ùĩ
ĠØ³ÙĬ Ø¬ÙĬØ¡
ĠØªÙĤ Ø±ÙĬ
ĠØµØ¯ Ø±Ùĩ
ÙĥØª ÙģÙĬ
ĠØ¨Ø£ÙĨÙĩ Ùħ
ĠØ³ÙĦÙħ ÙĩØ§
ĠØ¹Ùħ ÙĪÙħÙĩ
ĠØ·ÙĦÙĤ ØªØ§ÙĨ
ĠØ´Ø§Ø¡ ÙĪØ§
ĠÙĪØ§ÙĦØ¹ ØµØ±
Ø¢ Ùĩ
ĠØ§ÙĦÙħØ§ ÙĦÙĬÙĨ
ĠØ§ÙĦÙĤØ¨ ÙĪØ±
ĠØ¹ÙĤØ¯ ÙĩØ§
ĠÙĪØ§ÙĦØŃ Ø¯
ĠÙĪØ« ÙħØ§ÙĨÙĬØ©
ĠØ§Øª Ø¬Ùĩ
ĠØ§Øª Ø¨Ø§Ø¹
ĠØ¨Ø§ÙĦØ¥ ØŃØ±Ø§Ùħ
ĠÙĪØ´ Ø¹Ø±
ĠØ´Ø± ÙĪØ¹Ùĩ
ĠØŃØ§ Ø¶
ĠÙĦÙĦ Ø±Ø¯
ĠÙĦÙĦ ÙĨÙĩÙĬ
ĠÙĦÙĦ Ø±Ø¬Ø§ÙĦ
ĠØªØª Ø¨Ø¹
ĠÙĦÙĦØŃ ÙĬ
ĠÙĪØ§ÙĦØª ÙĨ
ĠÙĥØªØ§Ø¨ ØªÙĩØ§
ĠØ£Ø±Ø¶ ÙĬ
ĠÙĨÙģØ³ Ø§
ĠØ§ØŃØª ÙħØ§
ĠÙĦØ¥ ØµÙĦØ§ØŃ
ĠÙĤØµØ¯ Øª
ĠÙĪØ§ÙĦÙĤ Ø¨ÙĪÙĦ
ĠØ§ÙĦÙĪØ§ ÙĤØ¯
ĠÙģÙĤ Ø£
ĠØ§ÙĤØª Ø±Ø¶
ĠÙĦÙĦØ¨ Ø§ÙĤÙĬ
ÙĪØ§Øª Ø±
ĠØ¨Øµ Ø¯Ø§ÙĤ
ĠÙĤØ± Ø¦
ĠÙĨØ¬ ÙĪÙħ
ĠÙĨØ¬ Ø³Ø©
ĠÙĬØ¹Øª ÙħØ±
ĠÙĬØ¹Øª Ø±Ø¶
ĠØ¶Ø±Ø¨ Ø§
ĠØ¶Ø±Ø¨ ÙĬÙĨ
ÙģØ¥ÙĨÙĩ Ùħ
ĠÙħØ±Ø¶ ÙĬ
ĠÙĪØ§ÙĦÙģ Ø±Ø¶
ĠØ¥ÙĨÙĩ Ùħ
ĠØ¹Ø§Ø¯ ØªÙĩÙħ
ĠÙģØ§ÙĦÙħ Øª
ĠÙĦÙĦØ³ Ø¨Ø¨
ĠØ¨ÙĤØ¯Ø± ÙĩØ§
ĠÙģÙĨ ØµÙģ
ĠÙģÙĨ ØµÙĬØ¨Ùĩ
ĠØªØ® Ø¯Ùħ
ĠÙĪÙģ Ø¶Ø©
ĠÙĪÙĬØª ØµØ¯ÙĤ
ĠÙĨÙĩØ§ Ùĩ
ĠÙĥØ£ ØŃØ¯
ĠØ¥ØŃØ¯ Ø§Ø«
ĠØªØº Ø±Ø¨
ĠÙĪØ§ÙĦÙĥ Ø³ÙĪØ©
ÙĬØ· Ø§ÙĨ
ĠØ£Ø·ÙĦÙĤ Øª
ĠØ£Ø¹Ø· Ø§ÙĩØ§
ĠØ§ÙĦÙħÙĤ Ø§Ø¨ÙĦ
ĠØ¹Ø± ÙĪØ¶
ĠØ¨ÙģØªØŃ Ø§Øª
ĠÙħÙĤØ¯ Ø±Ø§
ĠØ§ÙĦØ£ÙĨ ÙĪØ§Ø¹
ĠØªØ¬ ÙħØ¹
ĠØ±Ø§Ø¬ Ø¹ÙĩØ§
ĠÙĪØ£Ùħ ÙĩØ§
ĠÙĬØªØŃ ÙħÙĦ
ØµØ§Ø¨ ØªÙĩ
ĠØ§ÙĦÙħÙĨØ§ ÙģÙĤ
ĠÙĬØªÙħ ÙĦÙĥÙĩ
ĠÙĪÙĬØ¹ Ø±Ùģ
ĠÙħÙĪØ§ ÙĦÙĬ
ĠÙĪØ§ÙĦÙĨ Ø¸Ø±
ĠÙĬØ±Ø« ÙĩØ§
ĠÙģØµØ§Ø± Øª
ĠÙĦÙĦØº Ø³ÙĦ
ĠØ§ÙĦØ³ÙĦÙħ ÙĬ
ĠÙģØ§ÙĨ Ø¸Ø±
ĠÙģØ§ÙĨ ÙĥØ³Ø±
ĠØ§ÙĦØ£ÙĥØ«Ø± ÙĪÙĨ
ĠØ§ÙĦØ±ÙĪØ§ Ø©
ĠØ§ÙĦØ¨Øº Ø§Ø©
ĠÙĨÙĩ ÙĬÙĩ
ÙĪØ§ÙĦÙģ Ø±ÙĪØ¹
ĠØ¥Ø¹ Ø§ÙĨØ©
ĠØ§ÙĦØ¥ÙĬ Ø¶Ø§ØŃ
ĠØ¥ÙĬ ÙĤØ§Ø¹
ĠØ¹Ø¬ ÙĦØ§ÙĨ
ĠÙĨØ§ ÙĤØ©
Ø¯Ø® Ø§ÙĦÙĩ
ĠÙģØ´ Ø±Ø¨
ÙĥØ« Ø±Ùĩ
ĠÙĦÙĦÙĥ ÙĦ
ĠÙĪØ´Ø± Ø¹Ø§
ĠØ§ÙĦÙħÙĤØ¯ Ø³
ÙĪØ§ÙĦÙĪ ØµÙĬØ©
ĠÙĥØ§ÙĦÙĪ ØµÙĬØ©
ĠØ§Ø¹ØªØ¨Ø± Øª
ĠØ§ÙĦÙħØ´ÙĬ Ø¦Ø©
Ø§ÙĦØ¥ ÙħØ§Ùħ
ĠØ³Ùĥ ÙĪØªÙĩ
ĠÙĦØ· ÙĦØ¨
ĠÙĦØ£Ø¨ÙĬ Ùĥ
ĠØªØ¹ÙĦÙĬ ÙĦÙĩ
ĠØªØ¹ÙĦÙĬ ÙĦÙĩÙħ
ĠÙĬØ¯ÙĬ ÙĩØ§
ĠÙĦÙĦÙĨ Ø¸Ø±
ĠØ¨Ø«ÙĦØ« ÙĬ
ĠÙĪÙħØ± Ø¶
ĠØ§ÙĦØ£Ø®Øª ÙĬÙĨ
ĠØ¨ÙĪØ· Ø¦Ùĩ
ĠØªÙĨØ§ ÙģÙĬ
ĠØ¨Ø«Ùħ ÙĨÙĩØ§
ĠØ´Ø¯ ÙĬØ¯Ø§
ĠÙĬØ±Ø¬ ÙĪ
ĠØ¨ØªØ±Ùĥ ÙĩØ§
ĠØµÙĦØŃ Ø§
ĠØ§ÙĦØ¥ØŃ ØµØ§Ø±
ĠÙħØ¨Ø§ Ø¯ÙĦØ©
ĠÙħØ§ÙĦÙĬ ØªÙĩ
ĠÙĦÙħØ§ÙĦÙĥ ÙĩØ§
ĠØ£Ø¬ÙħØ¹ ÙĪØ§
ĠÙĬØ®Øª Ø±
ĠØ¨Ø¨Ø¯ ÙĨÙĩ
ĠØ§ÙĦØªÙĤ ÙĦÙĬØ¯
ĠØ§ÙĦÙħÙĪØ· Ø£
ĠØ£ÙĪØ¬ Ø¨Øª
ĠØ¥ÙĤ Ø¨Ø§
ĠØ§ÙĦØ§Ø´Øª Ø±Ø§Ùĥ
ĠØ§ÙĦØ®Ø´ Ø¨Ø©
ÙģØ±ÙĬ Ø·
ÙĪØ§ØŃØª Ø¬
ĠØ³ÙĥØ± Ø§ÙĨ
ĠØ¨Ø§ÙĦÙĬ ÙħÙĨ
ĠØªØ³Ùħ ÙĬØªÙĩ
ĠÙħØ®ØªØµ Ø±Ùĩ
ĠØ¬ÙħØ§ ÙĩÙĬØ±
ĠØŃØ§Ø¦ Ø·Ùĩ
ĠØ¥ÙĤØ§Ùħ ØªÙĩØ§
ĠØ§ÙĦÙħØªØ¹ Ø¯ÙĬ
ĠÙĪØ´Ø¨Ùĩ Ùĩ
ĠØ§ÙĦÙħÙĨÙģ ØµÙĦØ©
ĠÙģÙĤÙĩ Ø§Ø¡
ĠØ´ÙĩÙĪ Ø¯Ùĩ
ĠÙĬÙĨØ² Ø¹Ùĩ
Ø«ÙĦØ« Ø©
ĠØ¨Ø²ÙĪØ¬ ØªÙĩ
ĠÙģØ¬Ø¹ ÙĦØª
ĠØ§ÙĦÙĨØ® Ø¹ÙĬ
ĠØ·Ø§Ø¦ Ø¹Ø§
ĠØ§ÙĦØ¬Ø¹ Ø§ÙĦØ©
ĠØ§ÙĦØ¶ÙĬØ§ Ø¹
ĠÙĦÙĪØ¬ ÙĪØ¨Ùĩ
ÙĪØ¨Ø¹Ø¶ ÙĩÙħ
ĠÙĬÙĤØ¯ ØŃ
ĠØ¥Ø±Ø§Ø¯ ØªÙĩ
ĠØ§ÙĦØ¨Ø® Ø§Ø±Ùī
ĠÙħØ®Ø± ÙħØ©
ĠÙĬÙĩÙĪ Ø¯ÙĬ
ĠÙĥØ¹Ø¯ ÙħÙĩ
ĠØ£Ø¦ ÙħØªÙĨØ§
ĠØ§ÙĦÙħÙĪÙĤ ÙĪÙģØ©
Ø§ ÙĤØª
Ø§ Ø®Ø±
ÙĬ Ø³ØªØŃØ¨
Ùĩ ÙĦÙĩØ§
ÙĪ Ø«Ø¨Øª
Ø± ÙĬÙĨØ©
Ùħ ÙĬÙĦ
Ø¨ Ø±ÙĩÙħ
Ø¨ Ø§ÙĦØºØ©
Ø¹ Ø±Ùĩ
ĠÙĪ Ø¹Øª
ĠÙĪ Ø´ÙĬØ¡
ĠÙĪ ÙĦØ¬
ĠÙĪ Ø®Ø±ÙĪØ¬
ĠØ£ ÙģØ§
ĠØ£ Ø¹ÙĬØ§ÙĨ
ĠØ£ ÙģØ³Ø¯Ùĩ
ĠÙħ ÙģÙĬ
ĠÙħ Ø¨Ø±
ĠÙħ ÙĥÙĨ
ĠÙħ ÙĪÙĥÙĦ
ĠÙħ ÙģØµÙĦ
ĠÙħ ÙģØ±Ø¹
ĠÙħ ÙĤØªÙĦ
ĠÙħ ÙĦØ§Ø²Ùħ
ĠÙħ ÙĦØ¨ÙĪØ³
ĠØ¨ Ø§Ø±
ĠØ¨ ÙĪØ¶
ĠØ¨ ÙģØ³Ø§Ø¯
ĠØ¨ Ø¨Ø±Ø§Ø¡Ø©
ĠÙģ ÙĥÙħ
ĠÙģ Ø·ÙĦÙĤ
ĠÙģ ØµØ¯ÙĤ
ĠÙģ ÙģØªØŃ
ĠÙģ ØŃÙĬØ«
ĠÙģ Ø¨Ø·ÙĦ
ĠÙģ Ø¯Ø§Ùĩ
ĠÙģ ÙĪØ§Ø¦Ø¯
ĠÙģ Ø´ÙĬØ¦Ø§
ĠØ¹ Ø¯Ùĩ
ĠØ¹ ÙħØª
Ùģ Ø´
Ùģ Ø²
Ùģ Ø±Ø§
Ùģ Øº
Ùģ ØªÙĤ
Ø³ Ø±Ø©
Ø³ Ø§Ø¹
ĠÙĬ Ø®Ø±
ĠÙĬ ÙĦØ¨Ø³Ùĩ
ĠÙĬ ÙĪØªØ±
ĠÙĬ Ø¨ØªØ¯Ø¦
Ø¬ Ø§ÙĨ
Ø£ ÙĦÙħ
Ø£ ÙĥØ«Ø±
ĠÙĤ Ø³Ø§ÙħØ©
Ø° ÙĦÙĩ
ĠÙģÙĬ ÙĥÙħ
ĠÙģÙĬ Ø¹ÙħÙĦ
ĠÙĥ ÙĬØ¯
ĠÙĥ ÙĬÙĦØ§
ĠØ§ÙĦÙħ Ø³Ø¨
ĠØ§ÙĦÙħ ÙĨØ©
ĠØ§ÙĦÙħ Ø±Ø£
ĠØ§ÙĦÙħ Ø§Ø¦Ø¹
ĠØ§ÙĦÙħ Ø±Ø³
ĠØ§ÙĦÙħ Ø°ÙĬ
ĠØ§ÙĦÙħ ÙĥØ³
ĠØ§ÙĦÙħ Ø«ÙĨÙī
ĠØ§ÙĦÙħ Ø®ØµÙĪØµ
Ø¶ ØŃÙĩ
ĠØ¥ Ø¬Ø²
ĠØ¥ ÙģØ±Ø§Ø¯
Ø® ÙģÙĬÙģ
Ø« ÙĬØ©
Ø· ÙĦØ©
ĠØª ÙĦØ§
ĠØª ØµÙĦ
ĠØª ÙĪÙĤ
ĠØª Ø³ÙĨ
ĠØª Ø°ÙĥØ±Ùĩ
ĠØª ÙĤØ¨Ø¶
ĠØª Ø°Ø¨ØŃ
ĠØª Ø¶Ø±Ø±
ÙĦÙĪ ÙĩÙħ
ĠØŃ Ø¨Ø§
Ø§ÙĦ Ø±Ø§Ø¨Ø¹Ø©
ĠØ£ÙĪ Ø§Ø¦ÙĦ
ĠØ£ÙĪ ØµØ§Ùģ
ĠØ£ÙĪ ÙĦØ¯ÙĩØ§
Ø§Ø± Ø¨Ø©
ĠØ± Ø¨Ø§Ø¹
ĠØ± Ø·ÙĦØ§
ĠÙĨ ÙĤÙĪÙĦÙĩ
ĠÙĨ Ø¹ÙĦ
ĠÙĨ ÙĪØŃ
ĠÙĨ Ø¨ÙĬÙĩ
ĠÙĨ Ø§Ø²Ø¹
ĠÙĩ Ø±Ø¨
ĠÙĩ ØªÙĥ
ÙĨØ§ ÙĪÙĦÙĩ
ĠØ³ ØŃ
ĠØ´ Ø·Ø±
ĠØ´ ÙĥÙĩ
ĠØ´ Ø§ÙģØ¹ÙĬ
ĠØ´ Ø±Ø§ØŃ
ĠØ£ÙĬ ÙħÙĨ
ĠØ° ÙĥØ§ØªÙĩ
ĠØµ ÙĦÙĬ
ĠØµ ÙĦØª
ĠØµ Ø¨ØºÙĩ
ĠÙĦ ÙĦÙĬ
ĠØ¨ÙĨ Ùĥ
ĠØ¬ Ø¨Ø©
ĠØ¬ Ø³Ùħ
ĠØ§ÙĦØ¹ ÙħØ©
ĠØ§ÙĦØ¹ ÙĤØ¨
ĠØ§ÙĦØ¹ ØµÙĬØ±
ĠØ§ÙĦØ¹ ÙħØ§ÙħØ©
ĠØ§ÙĦØ¹ Ø¯Ø§ÙĪØ©
ĠØ¨Ø¹ Ø´Ø±ÙĬÙĨ
ĠØ§ÙĦØŃ ÙĪØ¶
ĠØ§ÙĦØŃ Ø§ØµÙĦØ©
ĠØ¯ ÙħÙĬ
ĠØ¯ Ø§ÙģØ¹
ĠØ¯ ÙĬØ§ÙĨØ©
ÙĪØ§ ÙħÙĦ
ÙĪØ§ Ø³Ùħ
ÙĪØ§ Ø¶Ø¹
ĠØ® Ø§Ø¯
ĠØ® ØªÙħ
ĠØ® ÙĬØ·
ĠØ® ÙĬØ§ÙĨØ©
ĠÙħØ¹ Ùħ
ĠÙħØ¹ ÙħÙĪÙĦ
ĠÙħØ¹ Ø§ÙħÙĦØªÙĩ
Ø±ÙĬ Ø´
ÙħØ± Øª
Ø¸ ÙĩØ±Ùĩ
Ø¹Øª Ø§ÙĨ
Øº Ø§ÙĦÙĩ
Ø±Ø¬ ÙĦØ§ÙĨ
ĠØ§ÙĦØ¨ Ø±Ø¯
ĠØ§ÙĦØ¨ Ø§Ø¯ÙĬØ©
ĠØ§ÙĦØª ÙĦØ°Ø°
ĠØ§ÙĦØª ØŃØªÙĬØ©
ÙģØ¹ ÙĨØ¯
ĠÙĦÙĪ Ø§
ĠÙĦÙĪ ÙĨ
ĠØ§ÙĦØ¥ Ø¶Ø±Ø§Ø±
ĠØ§ÙĦØ¥ ÙĨØ²Ø§ÙĦ
Ø§Ùħ ÙĩØ§
ĠØ§ÙĦÙĨ Ø¸
ÙĪÙĬ Ø«Ø¨Øª
ÙĪÙĬ ÙĦØŃÙĤ
ÙĪÙĬ Ø¨ÙĤÙī
ĠØ² ÙĬØ§Ø±Ø©
ĠØ² ÙĨÙĬØª
ĠØ¨Ø¹Ø¯ ÙħÙĩ
ĠØ§ÙĦØ´ ØŃ
ĠØ§ÙĦØ´ Ø¨Ùĩ
ĠØ§ÙĦØ´ ÙĬØ¨
ĠØ§ÙĦØ´ Ø§Ø¹Ø±
ĠÙĬÙĤ Ø§Øª
ĠØ§ÙĦØ¬ Ø°
ĠØ§ÙĦØ¬ Ø±Ùħ
ĠÙĪØ£ ÙĪÙĦ
ĠÙĪØ£ Ø«Ø¨Øª
ĠÙĪØ£ ØŃØ±Ùħ
ĠØ· ÙĪÙĦØ¨
ĠØ§ÙĦØ³ Ø±Ø©
ĠÙĪÙĬ Ø¬
ĠÙĪÙĬ ÙħÙĦÙĥ
ĠØ§Ø¨ÙĨ ÙĬÙĨ
ĠØ£Ø® ÙĬÙĩØ§
ĠÙĦÙĬ Ø´ØªØ±ÙĬ
ĠØ§ÙĦÙģ Ø¹
ØµØŃ Ø¨
ĠÙħØŃ Ø±
ĠÙħØŃ Ø°ÙĪØ±
ĠÙĬØŃ Ùĥ
ĠØ§ÙĦØ® Ø§ÙĦØ©
ĠØ§ÙĦØ® ÙħÙĬØ³
ĠÙĬØ¹ ØµØ¨
ĠØ§ÙĦÙĥ ÙĦÙĬØ©
ĠØ§ÙĦÙĥ ÙĨØ§ÙĬØ©
ĠØ§ÙĦÙĥ Ø±ÙĬÙħ
ĠÙĪÙĥ ØªØ§Ø¨
ĠÙĪÙĥ Ø§ÙĦØ©
ĠÙĪÙĥ Ø§ÙģØ±
ĠÙĪÙĥ ÙģØ§Ø±Ø©
ĠÙĪØ¹ Ø±Ø¶
ÙĪÙĦØ§ Øª
ÙĥØ§ Ùĥ
ĠØ±Ø¬ ÙĬ
ĠØ¶ Ø¯Ùĩ
ÙĪØª ÙĥÙĪÙĨ
ÙĪØª Ø¬Ø¨
ĠØ¨Ø£ ÙĩÙĦÙĩ
ĠØ£Ùħ Ø±ÙĩÙħØ§
ÙĬÙħ ÙĥÙĨ
ĠØ§Ø³Øª Ø±Ø¯
ĠØ§Ø³Øª ÙĤØ±Ø¶
ĠØ§Ø³Øª Ø£ÙĨÙģ
ĠÙĪØª Ø¹ØªØ¨Ø±
ĠÙĪØª Ø£ÙħÙĦ
ÙħØ§ÙĨ ØªÙĩ
ĠØ§ÙĦØ§ ØºØª
ĠÙĪÙĩ ÙĬØ¨
ĠØªØ¹ ÙĪÙĦ
ĠÙĦÙĦÙħ ØŃØ±Ùħ
ĠÙĦÙĦÙħ Ø¯Ø¹Ùī
ÙĪÙĤ ÙĩØ§
ĠÙĬØ¯ ÙĬÙĨ
ĠÙĬØ¯ Ø¹Ùĩ
ĠÙĬØ¯ Ø¹Ùī
ĠÙħØª Ø£Ø®
ĠÙĪÙĨ ÙĬØ©
ĠÙĪÙħ Ø±Ø§Ø¯Ùĩ
ĠØ¨Ùħ Ø³ÙĦÙħ
ĠØ¨Ùħ ØŃØ±Ùħ
ĠÙĦÙĬØ³ Ø§
ĠÙĪØ§ÙĦÙħ Ø¹ØªÙĤ
ĠØ§ÙĨ Ø¸Ø±Ùĩ
ĠØ§ÙĦÙħØª Ø¹ÙĬÙĨ
ĠØ§ÙĦÙħØª ÙĪØ¶Ø¦
ĠÙģØª ÙĦØ²ÙħÙĩ
ÙĦØ¹ ÙĩØ§
ÙĦØ¹ Ø§ÙħÙĦ
ĠÙĬØ® Ø´
ĠØ¨ØŃ Ø±Ùģ
ĠØ¨ØŃ Ø³Ø§Ø¨Ùĩ
Ø³ØªØŃ Ø³ÙĨ
ĠÙģØ¹ ÙĦÙĪØ§
ĠÙĬØ³ Ø¯
ØªØ§Ø¨ Ø¹Ø©
ĠØ£Øµ Ø¨Øª
ĠØªØŃ Ø¶
ĠØ§ÙĦÙħØµ Ø±ÙĬ
ĠØ§ÙĦÙħØŃ Ø¨
ĠØ¨Ø¥ Ø²Ø§ÙĦØ©
ĠØ¨Ø§ÙĦ ÙĦÙĬÙĦ
Ø§Ø¹ Ø¯
ÙĪØ· Ø§
ĠÙĪØŃ Ø´
ĠÙĪØŃ ÙĥÙĬ
ĠÙĬØµ ÙĬØ¨Ùĩ
ĠØ²ÙĪØ¬ ØªÙĬ
ĠÙĪØ³ Ø¬
ĠÙĪØ³ Ø¦ÙĦ
ĠÙĦÙĤ Ø¶Ø§Ø¡
Ø§ÙĦØ¨ Ùĩ
Ø§ÙĦØ¨ Ø§Ø¬ÙĬ
ĠÙĦØŃ ÙĪÙħ
ÙĦØº Ø©
ĠÙĦØª ÙĨ
ĠÙĬØ³Øª Ø³
Ø²ÙĪØ¬ Ùĩ
ĠØ¨Øª Ùĥ
ĠØ¨Øª ØµØ±Ùģ
ĠØ¨Øª ÙĤØ¯ÙĬÙħ
ĠØ¨Øª ØŃØ±ÙĬÙħ
ĠÙĬØ¤ Ø§Ø¬Ø±
ĠØ§Ø´Øª ÙħÙĦ
ĠØ§ÙĦØ±Ø¬ Ø¹ÙĬ
Ø¹Ø¯ ÙĬØ©
ĠØ§ÙĦÙĩ ÙĨØ¯ÙĬ
ĠØ¹Ø¯ Ø§ÙĦØª
ĠÙĪØ· Ø¦Ø§
ĠÙĦØ¨ ÙĬØ¹
ĠÙĦØ¨ Ø§Ø¦Ø¹
ĠÙĦØ¨ Ø§Ø¦Ø¹Ùĩ
ĠØ¨Ùĥ ÙĦÙħØ©
ĠØ¨Ùĥ Ø«ÙĬØ±
ĠØ¨Ùĥ Ø³Ø¨Ùĩ
ĠÙĪØ¨ ÙĤÙĬØ©
ĠØ§Ø¹Øª ÙħØ§Ø¯
ĠØ§ÙĦØ¶ ØŃØ§
ĠØ§ÙĦÙħÙĨ ÙģÙĬ
ĠØ§ÙĦÙħÙĨ ÙģØ±Ø¯
ĠÙĪØ§ÙĦØ£ ÙħØ±
ĠÙĪØ§ÙĦØ£ Ø¸ÙĩØ±
ĠÙĪØ§ÙĦØ£ ØµØŃØ§Ø¨
ĠÙĪØ§ÙĦØ£ Ø±Ø´
ĠØ¨ÙĤ Ø±Ø¨Ùĩ
ĠÙħØ¬ ÙĪØ³ÙĬØ©
Ø±ÙĬÙĤ ÙĬÙĨ
ĠØ£Ø³ ÙģÙĦÙĩ
ĠØ§ÙĦÙĪÙĦØ¯ ÙĬÙĨ
ĠÙħØ³Øª ÙĤØ±
ĠÙħØ³Øª ÙĨØ¯
ĠÙħØ³Øª ÙĤÙĦØ§
ĠØµØŃ Ø§ØŃ
ĠØ§ÙĦÙħØ¬ ÙĪØ³
ĠØ§ÙĦÙħØ¬ ØªØ¨Ùī
ÙĪØ§ÙĦÙħ Ø±Ø£Ø©
ĠØµØ¯ ÙĪØ±
ĠÙģÙĦÙĩ ÙħØ§
Ø°Ùĥ Ø±Ø©
ĠØ§ÙĦØ´ÙĬ ÙĪØ¹
ĠØ£Ùģ Ø±Ø§Ø¯Ùĩ
ĠÙģÙĦÙĬ ØŃ
Ø±Ø³ ÙĬ
ĠÙĤÙĬÙħØªÙĩ ÙħØ§
ĠØ£ÙħØ± Øª
ĠØ´Ø¹ Ø±Ø§
ĠØ¹ÙĬÙĨ ÙĬ
ĠÙħØ¯ Ø±Ùĥ
ĠÙĪØ« ÙĬØ§Ø¨
ĠØ§Øª ØµØ§ÙĦ
ĠØ£ÙħØ§ ÙħÙĩ
ĠÙĥØ« ÙĬØ±Ùĩ
ĠØ§ÙĦÙĥØªØ§Ø¨ ÙĬ
ĠÙĦÙĦ ÙĨØµ
ĠÙĦÙĦ ÙĨÙģÙĤØ©
ĠØ§Ø¯ Ø¹
ĠÙĦÙĦØŃ ÙģØ¸
ĠÙĦÙĦØŃ Ø±ÙħØ©
ĠÙĪØ§ÙĦØª ØµØ±Ùģ
ĠØ¬Ø² Ø¦
ĠØ¨Ø³ ÙħØ§ÙĪÙĬ
ÙĦØªÙĩ ÙħØ©
ĠÙĦØ¥ ÙĨ
ĠÙĪÙĦ ÙĦÙĪ
ĠØ¯Ø§Ø± ÙĬ
ĠÙĥØ§ÙĦÙħ Ø³Øª
ĠÙĥØ§ÙĦÙħ Ø³ÙĦÙħ
ĠØ¯Ø¹ ÙĪØ§
ĠÙĦÙĦÙĤ Ø¶Ø§Ø¡
ĠÙĦÙĦÙĤ Ø§ØªÙĦ
ĠØ¨Ø« ÙħØ§ÙĨÙĬØ©
ĠØ¨ÙħØ¹ ÙĬÙĨ
ĠÙĦÙĦØª ØµØ±Ùģ
ĠÙħÙĨØ¹ ÙĩÙħ
ĠØ¨Ø§ÙĦÙģ Ø§Ø¡
ĠÙĦØº ÙĪØ§
ĠØ§ÙĨØª ÙģØ§Ø¹
ĠÙĦØ¬ Ø§Ø²
ĠÙĪÙĤÙģ ÙĩØ§
ĠÙħØ¹Øª ÙĤØ¯Ø§
ĠÙĪØ§ÙĦÙĪ Ø·Ø¡
ÙĬØ§ÙĨ ØªÙĩ
ĠÙħÙĪØ¶Ø¹ ÙĩØ§
ÙĪØ£ÙĨ Øª
ĠØªØ¯ Ø¹ÙĪ
ĠØ§ÙĦØ£Ø® ÙĪÙĬÙĨ
ĠÙĦØ® Ø±ÙĪØ¬
ĠØ£ØµØ§Ø¨ ÙĩØ§
ĠÙĬØ°ÙĥØ± ÙĩØ§
ĠØ¯Ø® ÙĦÙĩ
ĠØ¯Ø® ÙĦÙĩØ§
ĠØ¯Ø® ÙĦÙĪØ§
ĠÙĪØ§ÙĦØ´ ÙĩØ§Ø¯Ø©
ÙĥÙģ Ø§Ø±Ø©
ĠÙĦÙĦØ´ ÙģÙĬØ¹
Ø§Ø´Øª Ø±
ĠØ§ÙĦØ¯Ùħ ÙĬØ±ÙĬ
ĠØ§Ø³Ùħ ÙĩØ§
ĠØªÙĤØ± ÙĬØ±Ùĩ
ÙĪØ´ Ø¨
ĠØ§ÙĦÙħÙĤ Ø³ÙĪÙħ
ĠØ¹Ø± ØµØ©
ĠÙĦÙĦÙģ Ø±ÙĤ
ĠØ¹ÙĤ Ø§Ø±Ø§
ĠØ¹ÙĦÙĤ Øª
ĠØŃÙĨ ÙģÙĬ
ĠØ§ÙĦØ£ÙĦÙģ ÙĬÙĨ
ĠÙĪØ¶ ÙħØ§ÙĨ
ĠØ§ÙĦÙħÙģ ÙĪØ¶
ĠÙĦÙĦØµ ØºÙĬØ±
ĠÙĪØ§ÙĦÙĨ ØµÙģ
ĠØ¨Ø´Ø± Ø§Ø¦Ùĩ
ĠØ§ÙĦØµØ¨ÙĬ Ø§ÙĨ
Ø´Ø§Ø± Ùĥ
ĠÙĦÙĦØº Ø§ÙĦØ¨
ĠÙĪØ¨ÙĬ Ø§ÙĨ
ĠÙĪØ¨ÙĬ Ø¹Ùĩ
ØªÙĦØ§Ùģ Ùĩ
ĠØ§ÙĦØ¨Øº ÙĬ
ĠÙĪØ§ÙĦØº Ø³ÙĦ
ĠÙĪÙĬØŃ ÙħÙĦ
ĠÙĪÙĤÙĬ Ø³
ĠÙĪÙĤÙĬ Ø¯Ùĩ
ĠØ³Ø±ÙĤ ØªÙĩ
ĠÙĩÙħ Ø²Ø©
ĠÙĪÙĪÙĦØ¯ Øª
Ø§ÙģØ¸ Ø©
ĠØ§ÙĦØŃØ§ Ø¶Ø±Ø©
ĠØµØ±Ùģ ÙĩØ§
ĠØ§ÙĦÙĨØ§ Ø°Ø±
ĠØ¨ÙĤÙĪÙĦ ÙĨØ§
ĠÙĦØ° Ø§ØªÙĩ
ÙĪØ§ÙĦØ« Ø§ÙĨÙĬØ©
ĠÙħÙĪØ¬ Ø¨Ø©
Ø§ÙĦÙĪ ÙĦØ¯
ĠØ£Ø³ÙĤØ· Ùĩ
ĠÙĪØ§ÙĦØ² Ø±Ø¹
ĠÙĤÙĦØ¹ ÙĩØ§
ĠÙĬØ´Øª ÙħÙĦ
ĠØ§Ø®ØªØ§Ø± Øª
ĠØ³Ùĥ ÙĪØª
ĠÙĪØ§ÙĦØ· ÙĩØ±
ĠÙĪØ§ÙĦØ· ÙĦØ§ÙĤ
ĠÙĦÙĦÙĨ ÙĥØ§ØŃ
ĠØ§ÙĦØ§ØŃØª ÙĦØ§Ùħ
ÙĪØ§ÙĦØ® ÙĦØ§ØµØ©
ĠØªØ±Ø¬ ÙħØ©
ĠÙģØ§ÙĦÙĪ ÙĦØ¯
ĠØ¥Ø¬ Ø§Ø¨Ø©
ĠÙĤØ§Ø¶ ÙĬØ§
ĠØ¹Ø¸ ÙĬÙħØ©
ĠÙĦØŃÙħ ÙĩØ§
ÙĪØ§ÙĦØ´ Ø§Ø±ØŃ
ĠØ¥Ø´ Ø¹Ø§Ø±
ÙĪÙĬØ¯ Ø®ÙĦ
ÙĪØ§ÙĦØµ ÙĪØ§Ø¨
ÙħÙĥ ÙĨØ©
ĠØ«ÙħØ± ØªÙĩ
ĠØ§ÙĦØ±Ø¶Ø§ Ø¹Ø©
ĠØ§ÙĦÙħØ´Ø±Ùĥ ÙĪÙĨ
ĠØ´Ø§Ùĩ Ø¯Ùĩ
ĠØ£ÙĦÙĤ Ø§Ùĩ
ĠÙĪØ³Ø¨Ø¹ ÙĪÙĨ
ĠÙĬÙĥØª ÙģÙĬ
ĠØ§ÙĦØªØ® ÙĦÙĬØ©
ĠØ¥Ø³ÙĦØ§Ùħ ÙĩØ§
ĠÙĪÙħØ³ Ø¬Ø¯
ĠØ¹Ø³ Ø±Ùĩ
ĠÙĪØ¸ ÙĬÙģØ©
ĠÙĪØ§ØŃØª Ø¬
ĠÙħØŃØ¬ ÙĪØ±Ùĩ
ĠØ¨ÙĪØµ ÙĬØ©
ĠØ¨Ø§ÙĦÙĤØ± Ø¢ÙĨ
ĠØ¨ØªØ³ Ø¹Ø©
ĠÙģÙĪØ§ Ø¶ØŃ
ĠØ¹Ø¶ ÙĪØ§
ĠØªØ¶Ùħ ÙĬÙĨÙĩ
ÙĪÙĦØ£ Ø¨ÙĬ
ĠØ¶ÙĬØ§ Ø¹Ùĩ
ĠØ¨Ø±Ø¶Ø§ ÙĩØ§
ĠØ§Ø®ØªØµØ§Øµ Ùĩ
ĠØ§ÙĦÙħØŃÙĤÙĤ ÙĬÙĨ
ĠØ·ÙĪÙĬ ÙĦØ§
ĠÙĪØ§ÙħØ±Ø£ ØªØ§ÙĨ
ĠØ§ÙĦØ®ÙĦØ· Ø©
ĠØ¨ÙĤØ¨ ÙĪÙĦ
ĠØ§ÙĦØ´Ø§ÙģØ¹ Ùī
ĠØ§ÙĦØªØª ÙħØ©
ĠØªÙħÙĦÙĬ ÙĥØ§
ĠØ§ÙĨÙĤØ· Ø§Ø¹Ùĩ
ĠÙĪØ«ÙħØ§ÙĨ ÙĬÙĨ
ĠØ§ÙĦØªØ¹Ùħ ÙĬÙħ
ĠØ§ÙĨÙģ Ø±Ø§Ø¯Ùĩ
ĠØ®Ø¨ Ø²Ø§
ĠØ§ÙĦØ¥Ùģ Ø·Ø§Ø±
ĠØ§ÙĦÙĥØ¨Ø± Ùī
ĠØ¹ÙĤØ± ÙĩØ§
ĠÙĤÙħÙĬ ØµØ§
ĠØªÙħØ§ Ø¯Ùī
ĠØ§ÙĨÙģØµ Ø§ÙĦÙĩ
ĠÙħØ·ÙĦÙĪ Ø¨Ø©
ĠØ§ÙĦÙħØ±Ùģ ÙĤÙĬÙĨ
ĠØ¹Ø¯ÙĪØ§ÙĨ Ø§
ĠÙħØªÙĪØ§ ÙĦÙĬØ©
ĠØªØµØ§Ø¯ ÙĤØ§
Ø¹ÙģØ± Ø§ÙĨ
ĠÙĥÙĬØ³ Ø§ÙĨ
ĠØªÙĨØ§Ø² Ø¹Ø§
ÙĦ ÙĦØŃ
Ø§ Ø³ØªØ£Ø¬Ø±
ÙĨ ÙģÙĬ
ÙĨ Ø¹Ø§
ÙĨ Ø¹Ùĩ
ÙĨ Ø´ÙĤ
ÙĬ ÙģØ§
ÙĬ ÙĦÙĩØ§
ÙĪ Ø¢Ø®Ø±
Ø± Ø®Øµ
ĠØ§ ØŃ
ĠØ§ Ø¶Ø±Ø¨
Ùħ Ø¯Ø©
Ùħ ØªÙī
Ùħ ÙĪÙĩ
Ø¯ ÙĬØ±
Øª Ø§Ø¡
ĠÙĪ Ø·ÙĦÙĤ
ĠÙĪ Ø³Ø±
ĠÙĪ ÙĤØ§ÙĦÙĩ
ĠÙĪ Ø§Ø±Øª
ĠØ£ Ø¨Ø¯
ĠØ£ ÙĥÙĨ
ĠØ£ Ø°ÙĥØ±
ĠØ£ ÙĦØº
ĠØ£ ÙĦØŃÙĤÙĩ
ÙĤ Ø§Ø±Ø¨
ĠÙħ ÙĥÙĬÙĦ
ĠÙħ Ø¶Ø§Ø±
ĠÙħ ÙģØµ
ĠÙħ ÙĪØ¯Ø¹
ĠÙħ Ø£Ùĥ
ĠÙħ Ø¨ÙĬØ¹Ø§
ĠÙħ ÙĦØ®ØµØ§
ĠØ¨ Ø±Ø§
ĠØ¨ ÙĦØ¹Ø§ÙĨ
ĠØ¨ ØŃÙĬØ¶
ĠÙģ ÙĦØ¨
ĠÙģ ÙĪØ§ÙĦÙĦÙĩ
ĠÙģ ÙħØ³ØŃ
ĠØ¹ Ø±Ø¨ÙĬØ©
Ùģ ÙģØ©
Ùģ Ø¸ÙĩØ±
Ùģ Ø§ÙĦØª
Ø³ ÙĬÙĦ
ĠÙĬ Ø±ÙĬ
ĠÙĬ Ø«ÙĨÙĬ
ĠÙĬ ÙħÙĩÙĦ
ØŃ Ø¶
ØŃ ÙĦØ©
ÙĦØ§ ØªÙĬÙĨ
Ø¬ ÙħÙĬ
ĠÙĤ ØµØ¨
ĠÙĤ ÙĨÙĬØ©
Øµ ÙĨØ¹
ĠÙģÙĬ Ùĥ
ĠÙģÙĬ Ø±Ø«
ĠÙģÙĬ Ø¨Ø§Ø¹
ĠÙģÙĬ Ø¬Ø±ÙĬ
ÙĦÙĬ ÙĤÙĩ
ĠÙĥ ÙĪÙĦØ¯
ĠÙĥ ÙĬÙĦÙĩ
ĠØ§ÙĦÙħ ÙĥØ§
ĠØ§ÙĦÙħ ÙħÙĥÙĨ
ĠØ§ÙĦÙħ ÙĤÙĬÙħ
ĠØ§ÙĦÙħ ÙħØ³Ùĥ
ĠØ§ÙĦÙħ ÙĪØ±ÙĪØ«
Ø¶ ÙĪØ¨
ĠØ¥ Ùĥ
ĠØ¥ ÙħØ³Ø§Ùĥ
ĠØ¥ ÙģØ§Ø¯Ø©
ĠØ¥ ÙĦØºØ§Ø¡
ĠØ¥ Ø¨Ø§ØŃØªÙĩ
ĠØ¥ Ø¹Ø§Ø¯ØªÙĩØ§
ĠÙħÙĨ ÙģØ°
ĠÙħÙĨ ÙģØ¹ØªÙĩØ§
Ø® Ø§ØªÙħØ©
Ø« Ø§ÙĦÙĩ
Ø· Ø±Ùĩ
Ø· Ø¹Ø§
ĠØª ÙĩØ§
ĠØª ÙĤØª
ĠØª ÙĪÙĥ
ĠØª ÙĬÙĤ
ĠØª ÙĦØ§ÙĪØ©
ÙĦÙĪ Ùī
ĠØŃ ÙĥØ§
ĠØŃ ÙĬÙĨÙĩ
ĠØŃ Ø±ÙĤ
ĠØŃ ÙĦÙĬØ©
Ø§ÙĦ Ø±
ÙĬØ± ÙĩØ§
ĠØ£ÙĪ ÙĬØ³
ĠØ£ÙĪ ØªØ±
ĠØ£ÙĨ ÙģØ°
ĠØ£ÙĨ ÙģÙĤÙĩ
Ø² Ø§Ø±Ø¹
ÙĦÙĤ ÙĬÙĨ
ĠØ± Ø§Ùĩ
ĠØ± Ø¨ÙĬØ¹
ĠØ± ÙĬØ¨Ø©
ĠØ± ÙĬØŃÙĩ
ĠÙĨ Ø¨
ĠÙĨ ÙģÙĤØªÙĩÙħ
ĠÙĦØ§ ØŃ
ĠÙĦÙħ Ø§ÙĦ
ĠÙĩ Ø¬Ø±
ĠÙĩ Ø§ÙĦÙĥ
ĠØ³ ÙĦ
ĠØ³ ÙħÙĨ
ĠØ³ ÙĦØ¨
ĠØ³ ÙĦØ³
ĠØ³ ÙĨØ¨
ĠØ³ ÙĪÙĤÙĩ
ĠØ³ Ø¹ÙĬÙĩ
ĠØ³ ÙģÙĬÙĩØ§
ØªÙĩ Ø¯ÙĬÙĨ
ĠØ§ÙĦØ£ Ø®Øµ
ĠØ§ÙĦØ£ ØºÙĨÙĬØ§Ø¡
ĠØ§ÙĦØ£ ÙĪØµØ§Ùģ
ĠØ§ÙĦØ£ ØŃØ±Ø§Ø±
ĠØ´ Ø§
ĠØ´ Ø§Ø±
ĠØ´ ÙĤÙĬÙĤØ©
ĠØ´ ÙģØ§Ø¡
ĠØ´ ØºÙĦÙĩ
ĠØ° Ø±ÙĬØ¹Ø©
ĠØµ Ø±
Ø±Ø§ Ø¨Ø§
ĠØ¨ÙĨ ÙĬØªÙĩ
ĠØ¬ ÙĩØ±
Ø§Ø¨ Ø±Ø©
Ø¨ÙĬ Ø¨Ø§
ĠØ¯ ÙħØ§Ø¡
ĠØ® ÙĦØµ
ĠÙħØ¹ Ø§Ø±Ø¶Ø©
ĠØ§ÙĦÙĤ ÙĪÙĬ
ĠØ§ÙĦÙĤ ÙĬØ¡
ĠØ§ÙĦÙĤ Ø§ÙħÙĪØ³
ĠÙĪØ§ ÙĤÙģ
Ø§Ø¦ Ùĥ
ĠØ§ÙĦÙĪ ØŃØ´
Ø¸ Ø±Ø§
Ø¸ Ø§Ø±Ùĩ
ĠÙĦØ£ Ø¯Ø§Ø¡
ĠØ§ÙĦØ¨ ÙĬØ¶
ĠØ§ÙĦØª Ø¬
ĠØ§ÙĦØª ÙĪØ¬Ùĩ
ĠØ§ÙĦØª Ø¬Ø§Ø±
ĠØ§ÙĦØª Ø£Ø¬ÙĬÙĦ
ĠØ§ÙĦØª ÙĦØ®ÙĬØµ
ÙĤÙĬ ØŃ
ĠØ§ÙĦØ¥ Ø¨
ĠØ§ÙĦØ¥ Ø¯
ĠØ§ÙĦØ¥ ØµÙĦØ§ØŃ
ÙĪÙħ Ø¬ÙħØ¹
Ø§Ùħ ÙĦÙĬ
ĠÙĬÙĥ Ø³Ø±
ĠÙĬÙĥ Ø°Ø¨Ùĩ
ÙĪÙĬ ÙģÙĩÙħ
Ø¨Ùĩ Ùĩ
Ø¨Ùĩ Ø°Ø§
ĠØ§ÙĦØ¬ Ø±Ø§Ø¯
ĠÙĪØ£ Ø¹ØªÙĤ
ĠÙĪØ£ ÙģØ¶ÙĦ
ĠÙĪØ¬ Ø±ØŃ
ÙĬØ§ Ø¯ØªÙĩ
ĠÙĬØ¬ ÙĬØ¨
ĠØ§ÙĦØ³ ÙĦØ¨
ĠØ§ÙĦØ³ ÙĦØ¹
ĠØ§ÙĦØ³ Ø¨ÙĬÙĦ
ĠØ§ÙĦØ³ Ø·ØŃ
ĠÙĪÙĬ ÙģØ§Ø±ÙĤ
ĠÙĪÙĬ ØŃÙĬÙī
ÙģØ³ Ø¯Ø©
ÙĨÙĬ Ùģ
ĠÙĦÙĬ ÙĨØª
ĠØ§ÙĦÙģ Ø³
ØµØŃ Ø©
ĠÙĬØª Ø¨Ø¹Ø¶
ĠÙĬØŃ ÙħÙĦÙĩØ§
ĠØ§ÙĦØ® ÙĦÙĬÙĦ
ĠØ§ÙĦØ® ÙĬØ§Ø·Ø©
ĠÙĬØ¹ Ø§Ø±Ø¶Ùĩ
ĠØ§ÙĦÙĥ Ø§Ø¦ÙĨ
ĠØ§ÙĦÙĥ ÙĦØ§Ø¨
ÙĩÙħØ§ ÙĦ
ĠÙģØ¥ÙĨ Ùĥ
ĠØº Ø³Ø§ÙĨ
ĠØº Ø§Ø±Ùħ
ÙĤØ§ Ùģ
ÙĤØ§ Ø°
ĠØ§ÙĦØ¯ ÙĩÙĨ
ĠÙĪØ¹ Ø¯Ùĩ
ĠÙĪØ¹ Ø·Ø§Ø¡
Ø§Ø² Ùĩ
ÙģØ§ ÙĤÙĬ
ÙģØ§ ÙĤÙĩ
ÙģØ§ ÙĪØ¶
ÙĥØ§ ÙĦÙĩ
ÙĥØ§ ÙĨÙĩØ§
ÙĤØ· Ø¹Øª
ÙĤØ· Ø¹Ø©
ĠÙĬÙĨ Ùģ
ĠØ±Ø¬ Ùħ
ĠØ±Ø¬ Ø¹ÙĬ
ĠØ±Ø¬ Ø§ÙĦØ§
ĠØ¨ÙĬÙĨ ÙĬ
ĠØ¶ ÙĬØ¹Ø©
ĠØ¨Ø£ ÙĥÙĦÙĩ
ĠØ¨Ø£ Ø¯ÙĨÙī
ÙĪØ¶ ÙĪØ¹
ĠØ§Ø³Øª Ø´ÙĥÙĦ
ĠØ§ÙĦØ± Ø¡ÙĪØ³
ĠÙĪØª Ø¤
ĠÙĪØª ÙĪÙĤÙģ
ĠÙĪØª Ø³Ø¹
ĠØ£Ø¨ ÙĪØ§
ÙĪØ£ ÙħØ±
ÙĪØ£ ØµÙĦÙĩ
ĠÙĪÙĤ ÙĪÙģÙĩ
ĠØªØ¹ Ø¯ÙĦ
ĠÙĦÙĦÙħ Ø³Ø§ÙģØ±
ĠÙĬØ¯ ÙģÙĨ
ĠÙĬØ¯ Ø®ÙĦÙĩØ§
ØŃÙĬ ÙĬ
ĠÙħØª ÙĦÙģ
ĠÙħØª Ø§Ø¨Ø¹
ĠÙĪÙĨ Ø²ÙĦ
ĠÙĪÙĨ Ø³Ø¨Ùĩ
ĠÙģØ§ ÙĦÙĥ
ĠÙģØ§ Ø¶ÙĦØ§
Ø±ØŃ ÙħÙĩ
ĠØ£ØŃ ÙĦ
ĠØ£ØŃ Ø±
ĠØ£ØŃ ÙĦÙģ
ĠØ£ØŃ ÙĪØ·
ĠØ¨Ùħ Ø³Øª
ÙĪØ³ Ø¹
ĠÙĪØ§ÙĦÙħ Ø¹Øª
ĠÙĪØ§ÙĦÙħ Ø±ØªÙĩÙĨ
ĠÙĪØ§ÙĦÙħ Ø±ÙĪØ©
ØªÙĤ Øµ
ĠÙħØ³ ÙĬ
Ø£ÙĬ ÙĥÙĪÙĨ
ĠØŃÙĬ ÙĬ
ÙĤØµ Ø§ÙĨ
ĠØ§ÙĦÙħØª Ø¬Ùĩ
ĠØ§ÙĦÙħØª ØµÙĦØ©
ĠØ§ÙĦÙħØª Ø¹Ø§Ø±Ùģ
ĠØ£Ø¹ Ø²
ĠÙģØª Ø®Ø±Ø¬
ĠÙģØª Ø²ÙĪØ¬ÙĩØ§
ĠØ§ÙĦØ· ÙĬÙĨ
ĠÙĬØ® Ø¨Ø±Ùĩ
ĠØ£Ø¨ÙĪ ÙĩØ§
ĠØ¨ØŃ ÙĥÙħÙĩ
Ø·Ø¹ ÙħØ©
ĠØ£Ø´ Ø¹Ø±
ĠÙĦØ¹ ÙĦÙĬ
ĠØ§ÙĦÙĤØ§ Ø¶Ùī
ĠØ§ÙĦÙħØ¹ Ø±Ùģ
ĠØ§ÙĦÙħØ¹ Ø§Ø±Ø¶Ø©
ĠÙĥØ§ÙĦØ °
ĠÙĬØ¶ ØŃÙĬ
ĠØªØŃ Ø³Ø¨
ĠØ¨Ø§ÙĦÙħ Ø´
ĠØ¨Ø§ÙĦÙħ Ø±Ø£Ø©
ĠÙĪØµ ÙĪÙħ
ĠØ¨Ø¥ ÙħØ§Ùħ
ĠØ¨Ø¥ Ø¬Ø§Ø±Ø©
ĠØ¨Ø¥ Ø¬ÙħØ§Ø¹
Ø§Ø´ Ø©
ÙģÙĤ ÙĪØ§
ĠÙĤØª ÙĦÙĩÙħ
ĠÙĪØŃ Ø§ØµÙĦÙĩ
ĠĠ ĠĠĠ
ĠÙĪÙĤØ¯ Ø±Ùĩ
ĠÙĪÙĤØ¯ ÙħÙĩ
ĠÙĬØµ Ø¨ØŃ
ĠÙĪØ³ ÙĨØ©
ĠÙĦÙĤ Ø¨
ĠØ£Ø®Ø° ÙĪØ§
ĠÙĬØ³Øª Ø¹ÙĬÙĨ
ĠÙĬØ³Øª ÙĪÙģÙī
ĠÙĬØ³Øª Ø¯Ø¹ÙĬ
ĠÙĬØ³Øª ØºØ±ÙĤ
ĠØ¨Øª ÙĦÙģ
ĠØ§Ø´Øª Ø±Ùĥ
ĠÙģØ³ Ø£ÙĦØª
ĠÙĪØ· ÙĩØ±
ĠÙĦØ¨ ÙĨÙĬ
ĠØ¨Ùĥ Ø°Ø¨Ùĩ
ĠØ§ÙĦØ¶ Ø§Ø¨Ø·
ÙĬÙģ ÙĬØ©
ĠØ§ÙĦØŃÙĥÙħ ÙĬ
ĠØªØ£ ÙħØ±
ØªÙĬÙĨ ÙĬ
ĠØ¸Ø§ÙĩØ± ÙĩØ§
ĠÙĨØ³ Ø¨Ø§
ĠÙĨØ³ ÙĬØ¦Ø©
ĠÙħØ³Øª ØºØ±ÙĤ
ĠÙĦÙĦØ£ Ø¬ÙĬØ±
ĠØ¨Ø§ÙĦØ£ Ø±Ø´
ĠØªÙĤ Ø§Ùħ
ĠØ§ÙĦÙħØ¬ ÙĪØ³ÙĬØ©
ÙĪØ§ÙĦÙħ ØŃØ±Ø±
ĠÙģØ± ÙĪÙī
ĠÙĦÙĨ ÙĬØ©
ĠÙĪØ¬Ø¯ ØªÙĩ
ĠØŃØµ Øµ
Ø°Ùĥ Ø±Ø§
Ø°Ùĥ ÙĪØ±Ø©
ĠØ³ÙĦÙħ Ø§
ĠØ³Øª Ø±Ø§
ĠØ§ÙĦØ§Ø³Øª Ø·
ĠØ§ÙĦÙħØ´ ÙĩÙĪØ±Ø©
ĠÙĬØ· Ø±ØŃ
ĠÙĬØ· ÙĬØ¨
ĠØ§ÙĦÙħØ§ Ø¶ÙĬØ©
ĠÙħØ¤ ÙħÙĨØ§
ĠÙħØ¤ Ø§Ø®Ø°Ø©
ĠÙĦÙĦØ¹ ÙĦØ©
ĠÙħØ¯ Ø¨Ø±Ø©
ĠÙħØ¯ Ø±Ø³Ø©
ĠØ¨Ø§ÙĦØ¥ Ø¶Ø§ÙģØ©
ĠØªØª ØºÙĬØ±
ĠÙĦÙĦØŃ Ø±
ĠÙĦØ³ ÙĬØ¯
ĠØ¨Ø³ ÙģÙĩ
ĠÙħØ® Ø§Ø·Ø¨
ĠØ§ÙĦÙĥÙģ ÙĬÙĨ
ĠØ§ÙĦØ¹ÙĬÙĨ ÙĬ
ĠØ§ÙĦØ¹ÙĬÙĨ ÙĬÙĨ
ĠÙĬÙħÙĨØ¹ ÙĩØ§
ĠØ£Ùĥ ÙĦÙħ
ĠØ£Ùĥ Ø°Ø¨
ĠÙĬØ± Ø®Øµ
ĠØ§ÙĦØŃÙĬ Ø§Ø²Ø©
ĠÙĦÙĦÙĤ ÙĬØ§Ùħ
ĠØ£Ø¨Ø§ ÙĨÙĩØ§
Ø¶ØŃ Ùĥ
ĠÙĦÙĦØ¨ Ø¹Ø¶
ĠØ¨Ø§ÙĦÙĨ ÙģØ³
ĠØ¨Ø§ÙĦÙĨ ÙĥÙĪÙĦ
ĠØ¨Øµ ÙĪØ±Ø©
Ø¹Ø± Ø§ÙĨØ©
ĠÙĪØ§ÙĦØ¥ ÙĤØ§ÙħØ©
ĠÙĬØ³ÙĤØ· Ùĩ
ĠØ§ÙĦØ£Øµ Ùħ
ĠØªØµ ÙĦÙĬ
ĠØ¨Ø§ÙĦÙĪ ÙĦØ§Ø¯Ø©
Ø±Ø² ÙĤ
ĠØ±Ø£Ø³ Ùĥ
Ø¯Ø¨ Ø±Ø©
ĠÙĪØ§ÙĦÙĪ ÙĦØ§Ø¡
ĠÙĪØ§ÙĦÙĪ ÙĤÙģ
Ø¹Ø· ÙĬÙĩ
ĠØ¹Ø¨ÙĬ Ø¯ÙĬ
ĠÙĪØ§ÙĦÙģ ØªØŃ
ÙĬØŃ ÙĨØ«
ÙģÙĪ Ø¸
ĠÙĪÙħØ¹ ÙĦÙĪÙħ
ĠØ¨Ø§ÙĦØ³ ÙģØ±
ĠØ¨Ø§ÙĦØ³ ÙĦØ§Ùħ
ĠØ¥Ø® ÙĪØªÙĩ
ÙħÙĦÙĪ Ùĥ
ĠØ¯Ø® ÙĦØ§
ĠÙĪØ§ÙĦØ¯ Ø§Ø±ÙĤØ·ÙĨÙĬ
ĠÙĪØ§ÙĦØ´ Ø§Ø±ØŃ
Ø¨ÙĪ Øº
ĠÙĦØ¯ ÙĬÙĨÙĩ
ĠÙĥØ£ Ø®
ĠÙĦÙĦØ´ Ø±Ø¨
ĠÙģÙĦ ÙĦÙĪ
ĠØ³ÙĨ Ø¯Ùĩ
ĠÙħØ´Øª ÙħÙĦ
ÙĦØ° Ø©
ĠØ£Ø¹Ø· ÙĬÙĩ
ĠØ«ÙħØ§ÙĨ ÙĪÙĨ
ĠÙĤØ±Ø¨ Øª
ĠÙĦÙĦÙģ Ø±Ø¶
ĠÙħØº Ø§ÙĬØ±
ĠØªØ² ÙĥÙĬØ©
ĠØ§ÙĦØ£Ø¹ Ø±Ø§Ø¨ÙĬ
ĠÙħÙĤØ¯ ÙĪØ±
ĠØ§ÙĦÙħØ® ÙĬØ·
ĠØ§Ø±Øª ÙĥØ¨
ĠØ§ÙĦÙħØ² ÙĥÙī
ĠØ§ÙĦØ®Øµ ÙĪØµ
ĠØŃØ³ Ø§Ø¨
ĠØŃØ³ Ø¨Ø©
ĠÙħÙĥØ± Ø±
ĠØ£Ø±Ø´ Ùĩ
ĠÙħÙĪØ§ ÙģÙĤØªÙĩ
ĠÙĪØ§ÙĦÙĨ ÙĥØ§ØŃ
Ø´Ø§Ø± ØªÙĩ
ĠØ§ÙĦØ®Ø·Ø§Ø¨ ÙĬ
Ø£Ø® ÙĪ
ĠÙģØ§ÙĨ Ø·ÙĦÙĤ
ĠØ§ÙĦÙħÙĪØ§ ÙģÙĤØ©
ĠØ¬ÙĨ Ø¨Ùĩ
ĠÙĬØ´ØªØ±ÙĬ ÙĩØ§
ĠÙĪÙĬØŃ ØµÙĦ
ĠÙĪØ¨ÙĨ ØªÙĩØ§
ĠÙĪØ«ÙĦØ« ÙĬ
ĠØ§ÙĦØ§Ø¹Øª Ø¯Ø§ÙĦ
ĠØ£Ø· ÙĪÙĦ
ĠÙħØ¨ Ø§Ø´Ø±ØªÙĩ
ĠØ¥Ø¹ Ø³Ø§Ø±Ùĩ
ĠØŃÙģØ¸ Ø§
ĠÙģÙĬØŃ ÙĥÙħ
ĠØ¨Ø§ÙĦØ· Ø±ÙĬÙĤ
ĠØ§ÙĦØªØ£ Ø¨ÙĬØ¯
ĠÙĨØµØ± Ø§ÙĨÙĬØ§
ÙĪÙĦÙĥ ÙĨØ§
ĠÙĪØµÙģ ØªÙĩ
ĠØ¬ÙĦØ¯ Ùĩ
ĠØµØ±Ùģ Ø§
ĠØ®ÙĪÙģ Ùĩ
ĠÙħØ£Ùħ ÙĪÙħ
ĠÙĪÙĬØ³Øª Ø«ÙĨÙī
ĠØ§Ø´ØªØ±Ø· Ø§
ĠÙĬÙĨÙĤØµ Ùĩ
Ø³Ø§Ùħ ØŃ
ĠÙĪØ§ÙĦØ² ÙĬØ§Ø¯Ø©
ÙĪÙĤÙĬ ÙħØ©
ĠØ«Ø§ÙĦØ« Ø§
ĠÙĨÙĥ ÙĪÙĦÙĩ
ĠÙĨÙĥ ÙĦØª
ĠØ§ÙĦØªÙģ Ø±ÙĬØ¹
ĠØ§ÙĥØª ÙģÙī
ĠØ§ÙĦÙħØ¨ Ø§Ø´Ø±
ĠØ´Ø¨Ùĩ ØªÙĩ
ĠØ¨ÙĤØ± Ø¹Ø©
ĠØ°Ùħ ÙĬØ©
ĠÙĬÙģØª Ø±ÙĤ
ĠØºØ± Ø³Ùĩ
ĠÙģØ§ÙĦÙĪ ØµÙĬØ©
Ø«Ø§ ÙĦÙĩØ§
ĠÙĪØ¢ Ø®Ø±Ùĩ
ĠØ¨Ø§Ø³Øª ÙĬÙģØ§Ø¡
ĠØ«ÙħØ± ØªÙĩØ§
ĠØ§ÙĦØªÙĨ Ø§Ø²Ø¹
ĠÙģØ§Ø´Øª Ø±Ø§Ùĩ
ĠÙģØ² Ø§Ø¯
ĠØªÙħÙĦÙĥ ÙĩØ§
ĠØ¨Ø¯Ø§Ø± ÙĨØ§
ĠÙĬØ±Øª Ø¯
ĠÙħØ¹Ø¯ ÙĨ
ĠØ«ÙĪØ§Ø¨ Ùĩ
ĠØ¥Ø¨Ø· Ø§ÙĦÙĩ
ĠÙħÙĪØµ ÙĪÙĦØ§
ĠÙģØ£ÙĪ ØµÙī
ĠØ§ÙĦÙĩÙħ Ø²
ÙĪØ§Ø±Ø« Ùĩ
ĠØ·Ø± ÙĪ
ĠØªØ³Ø§ ÙĪÙĬØ§
ĠØ§ÙĦØ§ÙĨ ÙģØ³Ø§Ø®
ĠØ¨Ø·ÙĦØ§ÙĤ ÙĩØ§
ĠÙħÙĥ Ø«Ùĩ
ĠÙĬÙĥØª Ø³Ø¨
ĠØ¬ÙĪØ² ÙĨØ§
ĠÙĪÙĩÙĨØ§ Ùĥ
ĠÙĬØ®Øª Ùħ
ĠØ§ÙĦÙĨÙĤØ¯ ÙĬÙĨ
ĠØ¨ÙħØŃ Ø°ÙĪÙģ
ÙĪØ§Ø¦ Ø¬
ĠØ±ÙħÙĬ Ùĩ
ĠØºÙĨ Ø§Ø¦Ùħ
ĠØ¨Ø¯Ø¹ ÙĪØ§Ùĩ
ĠÙħØ´ØªØ±ÙĬ Ø§
ĠØºØ³ ÙĦØ§
ĠØ¹Ø´ Ø±Ø§
ĠØªØ±Ø« Ùĩ
ĠØªÙĨØ² ÙĬÙĩ
ĠÙħÙĨØ³ ÙĪØ¨
Ø¤ÙħÙĨ ÙĬÙĨ
ĠÙģØ£Øª ÙĬØª
ĠÙĨØ¹ÙĦÙħ Ùĩ
ĠØ¬ØŃØ¯ Ùĩ
ĠØ¨Ø³Øª Ø©
ĠÙħØŃØªØ±Ø² Ùĩ
ĠØ§ÙĦØ§ÙĦØª ÙĤØ§Ø·
ĠØ§ÙĨØªÙĩ Ø§Ø¡
ĠÙħÙĪÙĦØ§ Ø©
ĠÙģØ§Ø¦ Ø¯ØªÙĩ
ĠÙħØ¹Ø± ÙĪÙģØ©
ĠÙĦØ§Ø´Øª Ø±Ø§Ø·
ĠÙħØµØ§ÙĦØŃ Ùĩ
ĠØ§ÙĦÙħÙģØ± Ø¯Ø§Øª
ĠØ§ÙĦÙħØ¨Ø§ Ø¯Ø±Ø©
ĠÙĪÙħØ¤ ÙĨØ©
ĠÙħÙĬÙħ ÙĪÙĨØ©
ĠÙħÙħÙĬ Ø²Ø©
ĠØ¹Ø§Ø´ ÙĪØ±Ø§Ø¡
ĠØ¨Ø¬ÙĨØ³ Ùĩ
ĠØ¥Øª ÙħØ§ÙħÙĩ
ĠØ£Ø°Ø§ ÙĨÙĩ
ĠØ§Ø³ØªÙĪÙĦØ¯ ÙĩØ§
ĠÙħØ³ØªÙĩÙĦÙĥ Ø§
ĠØŃØ§ÙĨ ÙĪØª
ĠØªØ¹Ø±ÙĬ ÙģÙĩ
ĠØ®Ø§Øª ÙħØ§
ĠØ£ÙģØ¹ Ø§ÙĦÙĩ
ĠØ§ÙĦÙĪØµ ÙĬØªÙĬÙĨ
ĠØ±Ø§ØŃ ÙĦØªÙĩ
ĠØºØ§Øµ Ø¨Ø§
ĠØ£ÙĤØ§ ÙħØ§
ĠÙĬØ±Ø§ Ø¹Ùī
ĠØªÙħÙĥ ÙĬÙĨÙĩ
ÙĨØ¨ÙĦØ§ ÙĦÙĬØ©
ĠØ§ÙĦØ£ÙĪØ² Ø§Ø¹ÙĬ
ĠØ§Ø³ØªØ¨Ø±Ø£ ÙĩØ§
ĠØ£Ø®ÙħØ§ Ø³Ø§
ĠØ§ÙĦÙĥØ« ÙĬØ±Ø©
ĠØ§ÙĦÙĪØ§ÙĤØ¯ ÙĬ
Ġ ÙĦÙī
Ø§ ÙĩÙħ
Ø§ Ø¯ÙĬ
ÙĨ ÙĪØ¹
ÙĬ ÙĪØ¯
ÙĬ ÙĤØ·Ø¹
ÙĪ Ø±Ø¬
ÙĪ ÙĤØ©
ÙĪ ÙĦØ¹
ÙĪ ÙħØ±Ø©
ÙĪ ÙĪØ¶Ø¹
ÙĪ ØŃØ¯Ø©
Ø± ÙĬÙĨ
Ø± Ø´ÙĬ
ĠØ§ ØªÙĩÙħ
ĠØ§ Ø¦Øª
ÙĦØ ¶
ÙĦØ ºÙĬØ±
ÙĦØ ºÙĬØ±Ùĩ
Ùħ Ø¹Øª
Ø¯ ÙĪØ§
Øª Ø§Ø¬
Øª ÙĤØ¯Ùħ
Ø¹ ÙħØª
ĠÙĪ ÙĥÙħ
ĠÙĪ Ø®Ø°
ĠÙĪ ÙĪØ·
ĠÙĪ ÙħØ³Ø£ÙĦØ©
ĠÙĪ Ø±Ø¬ØŃ
ĠÙĪ ÙĪÙĤØª
ĠÙĪ ÙĤÙĬÙħØªÙĩØ§
ĠØ£ ÙħØ§Ùħ
ĠØ£ ÙĦÙĬØ³
ĠØ£ ÙĥØª
ĠØ£ Ø¶Ø±Ø¨
ĠØ£ Ø±Ø§Ø¶ÙĬ
ÙĤ ÙĦÙĩØ§
ÙĤ ÙĪØ¨Ø©
ĠÙħ Ø¨Ø¹
ĠÙħ Ø¢
ĠÙħ Ø±ÙĬØ¯
ĠÙħ ÙĤÙĬÙħ
ĠÙħ Ø±ÙĬØ¶Ø©
ĠÙħ ÙĥÙģÙĪÙĦ
ĠØ¨ Ø±ÙĥØ©
ĠØ¨ Ø¬Ø±ØŃ
ĠÙģ ØŃØ¯Ø«
ĠÙģ Ø¨Ø¹Ø¯
ĠÙģ ÙĤÙĦÙĨØ§
ĠÙģ ÙĪÙĦØ§Ø¤Ùĩ
ĠØ¹ ÙĦØª
ĠØ¹ ØªØ§Ø¨
ĠØ¹ ÙĤÙĬØ¨
ĠØ¹ ÙģØ±Ø§Ø¡
Ùģ ÙĨÙĩ
Ùģ Ø°ÙĩØ¨
Ùģ Ø¨Ø§ÙĨ
Ùģ Ø§ÙĦØ¬ÙĪØ§Ø¨
Ø³ Ø¨Ø§
Ø³ ÙħØ§ÙĨ
ĠÙĬ Ø¨Ø§
ĠÙĬ Ø±Ø¹Ùī
ÙĦØ§ ØŃØªÙħØ§ÙĦ
Ùĥ Ø§Ø¡
Ùĥ ÙĪÙĥ
Ø£ Ø¹Ø·
Ø£ Ø±Ø¯Øª
ĠÙĤ ÙĩØ±
ĠÙĤ ÙĩØ³ØªØ§ÙĨÙĬ
ĠÙĤ Ø´Ø±Ùĩ
Ø° ÙĪÙĨ
Ø° Ø¨Ø©
Øµ ÙģØ©
ĠÙģÙĬ Ø²
ÙħØ§ Ø´
ÙĦÙĬ Øº
ĠÙĥ Ø¨Ø¯
ĠÙĥ ÙĤØ·Ø¹
ĠÙĥ Ø°Ø¨Ø§
ĠØ§ÙĦÙħ Ø¨Ø§ØŃØ©
ĠØ§ÙĦÙħ Ø¨ÙĬØ¹Ø©
ĠØ§ÙĦÙħ Ø¨Ø¯ÙĦ
ĠØ§ÙĦÙħ Ø¨ÙĩÙħ
ĠØ¥ ÙĬØ§Ø³
ĠØ¥ ÙĬÙģØ§Ø¡
ĠØ¥ ØµØ§Ø¨Ø©
ĠØ¥ ØŃØ±Ø§Ø²
ĠØ¥ ÙĦÙĤØ§Ø¡
ĠØ¥ Ø¨Ø¯Ø§ÙĦ
ĠÙħÙĨ Ø¬Ø²
Ø« ÙĪØ±
ÙĦÙĥ ÙĩØ§
Ø· ÙģÙĬ
Ø· Ø§Ø·
ĠØª Ø®ÙĦ
ĠØª ÙģÙĤ
ĠØª Ø¬Ø±Ø¯
ĠØª ÙĪØ§ÙģÙĤ
ÙĦÙĪ Ø§ÙĨ
ĠØŃ Ø§Ø´
ĠØŃ ÙĦÙĬØ§
ĠØŃ ÙĪØ´Ø¨
ÙĬÙĨ ØªÙĩ
ĠØ£ÙĪ Ø§ÙĨ
ĠØ£ÙĪ ÙĤØ§Øª
ĠØ£ÙĨ Ø«
ĠØ£ÙĨ Ø´Ø£
ĠØ£ÙĨ ÙģÙĤØª
ĠØ£ÙĨ Ø²ÙĦØª
Ø² Ø¦
ĠÙĨ Ø¨ÙĬÙĨØ§
ĠÙĦØ§ Ø±Øª
ĠÙĦÙħ ÙĥØ©
ĠÙĩ ÙĨ
ĠØ³ Ø§Ø¦ÙĦ
ĠØ³ Ø±Ø§ÙĬØ©
ĠÙħØ§ Ø°Ø§
ØªÙĩ ÙĦ
ĠØ§ÙĦØ£ Ø¯ÙĨÙī
ĠØ§ÙĦØ£ ØºÙĦØ¨
ĠØ§ÙĦØ£ ÙĪÙĦÙĬÙĬÙĨ
ĠØ´ ÙħÙĦÙĩ
ĠØ° Ø±Ø©
ĠØµ ÙĦÙĪØ§
ĠØµ ØºØ±
Ø±Ø§ ÙĪÙĬÙĦ
ĠÙĦ ÙĨØ¯
ĠÙĦ ÙĦÙĬØªÙĬÙħ
ĠØ¨ÙĨ Ø³Ø¨
ĠØ¬ Ø¨Ø±Ùĩ
ĠØ¬ Ø¨Ø±Ø§
Ø§Ø¨ Ø¹Ùĩ
ĠØ§ÙĦØ¹ ÙħØ§
ĠØ§ÙĦØ¹ Ø´
ĠØ§ÙĦØ¹ Ø§Ø¦Ø¯
ĠØ§ÙĦØ¹ ÙĨØ§ÙĨ
Ø¨ÙĬ Ø³
ÙĤØ¯ ÙĬØ±Ùĩ
ĠØ¨Ø¹ Ø¨Ø¯Ùĩ
ĠØ§ÙĦØŃ ÙĬØ©
ĠØ§ÙĦØŃ Ø¬Ø§Ø±Ø©
ĠØ§ÙĦØŃ Ø±Ø§Ø¨Ø©
ĠØ« ÙĬØ¨
ĠØ« ÙĨØªØ§ÙĨ
ÙĩÙĪ ÙĦØ©
ĠØ¯ Ø§Ø¡
ĠØ¯ ÙĪØ¯
ÙĪØ§ Øµ
ĠØ® Ø§ÙħØ³
ĠÙħØ¹ Ø¬ÙħØ©
Ø±ÙĬ Ø§
ĠØ§ÙĦÙĤ Ùħ
ĠØ§ÙĦÙĤ ÙĪØª
ĠØ§ÙĦÙĤ Ø³Ø·
ĠØ§ÙĦÙĤ ÙĦÙĪØ¨
ĠÙĪØ§ ÙħØª
Ø§Ø¦ Ø¨Ø©
ÙħØ± ØªÙĩ
ÙĪØ¬ ÙĪØ²
ĠØ§ÙĦÙĪ ØŃÙĬ
ĠØ§ÙĦÙĪ Ø±Ø¹
Ø¹Øª ÙĥØ§Ùģ
ĠØºÙĬØ± ÙĬ
Øº Ø²
ĠØ§ÙĦØ¨ Ø·
ĠØ§ÙĦØª Ùĩ
ĠØ§ÙĦØª Ø¨
ĠØ§ÙĦØª ØŃØ±Ùħ
ĠØ§ÙĦØª Ø£ÙħÙĦ
ĠØ§ÙĦØª Ø§Ø±ÙĬØ®
ĠØ§ÙĦØª Ø¶ÙħÙĬÙĨ
ĠÙĦÙĪ ÙĦÙĬÙĩ
ĠØ§ÙĦØ¥ Ø²Ø§Ø±
ĠØ§ÙĦØ¥ ÙģØªØ§Ø¡
ĠØ§ÙĦØ¥ ÙģØ§ÙĤØ©
ÙĪÙħ ØªÙĩ
ĠÙĪÙĦØ§ Ø¨ÙĨ
ĠÙĬÙĥ ÙģÙĨ
ĠØ¨Ø§ Ø³ØªØŃÙĤØ§ÙĤ
ĠØ§ÙĦÙĨ ØµØ±
ĠØ§ÙĦÙĨ Ø®ÙĦØ©
ĠØ² ÙĪØ§ÙĦÙĩØ§
ĠØ§ÙĦØ´ ÙĩØ§
ĠØ§ÙĦØ´ Ø¹Ø¨
ĠØ§ÙĦØ¬ Ø¨Ø§Ø±
ĠØ§ÙĦØ¬ ÙĪÙĩØ±
ĠÙĪØ£ ØµØŃØ§Ø¨
ĠÙĪØ£ Ø¹ØªÙĤÙĩ
ÙĪØ¹ Ø·Ùģ
ĠØ· ÙĪÙĦÙĩ
ĠØ· ÙĬØ¨Ø§
ĠÙĪØ¬ ØŃØ¯
ĠÙĪØ¬ ÙĪØ²
ĠÙĪØ¬ ÙĨØ³
ĠØ§ÙĦØ³ ÙĨÙĬÙĨ
ĠØ§ÙĦØ³ Ø¹Ø±
ĠØ§ÙĦØ³ Ø§ØªØ±
ĠÙĪÙĬ Ø´
ĠÙĪÙĬ ÙĤÙĬÙħ
ĠÙĪÙĬ ÙĤØ¨Ø¶
ĠÙĪÙĬ Ø¬Ø²Ø¦
Ø¹Ø§ Ø°
Ø¹Ø§ ÙĬÙĨØ©
ĠØ£Ø® Ø§Ùģ
ĠØ£Ø® Ø±Øª
ĠÙĦÙĬ Ø®
ĠÙĦÙĬ Ø²
ĠÙĦÙĬ Ø³ÙĦÙħ
ĠÙĦÙĬ Ø¶Ø±Ø¨
ĠÙĦÙĬ Ø¹ÙħÙĦ
ĠÙĦÙĬ Ø¯Ø®ÙĦ
ĠØ§ÙĦÙģ Ø±Ø¯
ĠØ§ÙĦÙģ ÙĪØ§Ø¦Ø¯
ØµØŃ ÙĩÙħØ§
ĠÙħØŃ Ø´ÙĬ
ĠÙĬØª ÙħØ§
ĠÙĬØª Ø³Ø§
ĠÙĬØª ÙģØ§ÙĪØª
ĠÙĬØª Ø¨Ø§Ø¯Ø±
ĠÙĬØª Ø¬Ø¯Ø¯
Ø¯ÙĬ Ø§ÙĨ
ĠØ§ÙĦØ® ÙĪØ§Ø±Ø¬
ĠÙĬØ¹ Ø²ÙĦ
ĠÙĬØ¹ Ø·Ùĩ
ĠÙĬØ¹ ÙģÙĪ
ĠÙĬØ¹ Ø²ÙĦÙĩ
ÙĪØ± ÙĬØ©
ĠØ§ÙĦÙĥ Ø¨Ø§Ø±
ĠØ´ÙĬ Ø¦Ø§ÙĨ
ĠØº Ø´
ĠØº Ø±Ùĩ
ĠÙĤØ¨ÙĦ ÙĨØ§
ÙĪØ¯ ÙĬÙĨ
ÙĪØ¯ Ø®ÙĦ
ĠØ§ÙĦØ« Ø§ÙħÙĨ
ĠÙĪÙĥ ÙģØ±
ĠÙĪØ¹ Ø§Ø¡
ĠÙĪØ¹ ÙĦÙħÙĩ
ĠÙĪØ¹ Ø¨Ø¯Ùĩ
ĠÙĪØ¹ Ø§Ø¦Ø´Ø©
Ø§Ø² ØªÙĩ
ÙĪÙĦØ§ ÙĩØ§
ĠÙĪÙĦÙĪ ÙĦØ§
ÙĤØ· Ùĩ
ĠÙĬÙĨ Ø¨ÙĨÙĬ
ÙĤÙĩ Ø§Ø¡
ĠØ§ÙĦØ° Ùī
ĠØ§ÙĦØ° ÙĨÙĪØ¨
ÙĪØ¨ ÙĦØº
ĠØ¨Ø£ ÙĤØ±Ø¨
ĠØ£Ùħ Ø±ÙĬ
ÙĪØ¶ ØŃÙĩ
ĠØ§Ø³Øª Ø«ÙĨ
ĠØ§Ø³Øª Ø¨Ø§ØŃØ©
ĠØ§Ø³Øª ØºÙĨÙī
ĠÙĤØ¯ Ø±Øª
ÙĪØ² ÙĬØ¹
ĠØ§ÙĦØ² ÙĪØ§Ø¦Ø¯
ĠØ§ÙĦØ² Ø§ÙĬ
ĠÙĪØª Ø¬
ĠÙĪØª Ø´
ĠÙĨØµ ÙĩØ§
ÙĪØ£ Ø®Ø°Ùĩ
ÙĪØ£ ÙģØ§Ø¯
ĠÙĪÙĤ Ø¶ÙĬ
ÙĦØ§Ø« ÙĨÙĬÙĨ
ĠÙĪØ¥ Ø¬Ø§Ø±Ø©
ĠÙĪØ¥ Ø·ÙĦØ§ÙĤ
ĠØ§ÙĦØº Ø²ÙĬ
ĠØªØ¹ Ø¸
ĠÙģØ£ ÙģØ·Ø±
ĠÙħØª Ø³Ø§
ĠÙħØª Ø¹Ø¯Ø¯
ĠÙħØª Ø·ÙĪØ¹
ĠÙħØª Ø§Ø¨Ø¹Ø©
ĠÙħØª Ø·ÙĩØ±Ø§
Ø¹ÙĬ ÙĩØ§
ĠÙĤØ¨ Ø§Ø¡
ĠÙĤØ¨ ÙĦØ©
ĠÙĪÙĨ ÙģÙĬ
ĠÙĪÙĨ ÙĥÙĦ
ĠÙĪÙĨ Ø¸ÙĬØ±Ùĩ
ĠÙģØ§ Ø®ØªØµ
ĠÙĪÙħ ÙĬØª
ĠØ¨Ùħ Ø¤
ĠØ¨Ùħ ØŃÙĦÙĩ
ĠÙĪØ§ÙĦÙħ ÙĪØµÙī
ÙĤØµ Ø¯Ùĩ
Ø±ÙĤ Ùī
ĠØ§ÙĦÙħØª ØŃ
ĠØ§ÙĦÙħØª Ø¨Ø§ÙĬØ¹
ĠØ£Ø¹ Ø±ÙģÙĩ
ĠÙģØª ÙĪØ¶Ø£
ĠØ£Ø¬ Ø¯Ùĩ
ĠÙĬØ® ÙħØ³
ĠÙĬØ® Ø§ØµÙħ
Ø§ØŃ ÙħØ©
ĠØ¨ØŃ Ø¨Ø³
ĠØ¨ØŃ Ø±ÙĥØªÙĩ
ĠÙħØ± ØªÙĩ
ĠÙģØ¹ ÙģØ§
ĠÙĦØ¹ ÙĦÙħ
ĠÙĦØ¹ ØªÙĤ
ØªØ§Ø¨ ÙĬØ©
ĠØ£Øµ ÙĦÙĬØ©
ĠØ§ÙĦÙħØ¹ ÙĬØ©
ĠØ§ÙĦÙħØ¹ Ø·ÙĬ
ĠØ§ÙĦÙħØ¹ Ø°ÙĪØ±
ĠØ§ÙĦÙħØ¯ Ø®ÙĪÙĦ
ĠÙĬØ¶ Ø¹Ùģ
ĠÙĤØ§ ÙĦÙĩØ§
ĠØªØŃ ÙĬØ©
ÙĨØ³ ÙĬ
ĠØ§ÙĦÙħØŃ Ø§
ĠØ§ÙĦÙħØŃ ÙĦØ©
ĠØ§ÙĦÙħØŃ Ø¶ÙĪÙĨ
ĠØ¨Ø¥ Ø®Ø±Ø§Ø¬
ĠØ¨Ø¥ Ø²Ø§Ø¡
ĠØ¨Ø§ÙĦ ÙĦØ¹Ø§ÙĨ
ÙģÙĤ Ø§Ùħ
Ø´ÙĬ Ø¦Ø©
ĠÙĬØµ Ø·
ĠØ²ÙĪØ¬ Ø§Øª
ĠÙĦØ² ÙģØ±
ĠØ¹Ø¯Ùħ Øª
ĠÙĦÙĤ ÙħØ©
ĠÙĦÙĤ ÙĬØ§
ĠÙĦÙĤ ÙĬÙĩ
ĠÙĦØŃ ÙģØ¸
ĠØ£Ø®Ø° ÙĨØ§
ĠØ£Ø®Ø° ÙĪÙĩ
ĠÙĬØ³Øª ØºÙģØ±
ĠØŃÙĥÙħ ÙĬ
ĠØ¨Øª ÙĬÙħÙħ
ÙĦØ³ ÙĨØ©
Ø§Ùģ ÙĬØ©
ĠØ´Ø±Ø· Ø§Ùĩ
ĠÙĬØ¤ Ùħ
ĠÙĬØ¤ Ø°ÙĬ
ĠØ±Ø£ ÙĬÙĨØ§
ĠØ£Ø±Ø¨ Ø§Ø¹Ùĩ
ĠØ¢ ÙģØ©
ĠØ¢ Ø¨ÙĤ
ĠØ¢ ÙĨÙĬØ©
ĠØ¹Ø¯ ØªÙĩ
ĠÙĬØ¨ ÙĪÙĦ
ĠØ¯ÙĬÙĨ ÙĬ
ĠØ¯ÙĬÙĨ Ùĥ
ĠÙĪØ· ÙĦØ§ÙĤ
ĠÙĦØ¨ ÙĨØª
ĠÙĪØ¨ ÙĩØ§
ĠÙĪØ¨ Ø£ÙĨÙĩ
ĠÙĪØ§ÙĦØ£ ÙĨ
ĠÙĪØ§ÙĦØ£ ÙģØ¶ÙĦ
ÙĪØŃ ÙĦÙģ
ÙĪØŃ ÙĬØ¯
ÙĪØŃ ÙĥÙħÙĩ
ĠØ¨Ø· ÙĦØ§
ĠØ¨Ø· Ø±Ùģ
ĠÙħØ¬ ØªÙħØ¹
Ø§ÙĦØŃ ÙĥÙħ
ĠØ¹Ø¨ ÙĤ
ĠØ£Ø³ Ø£ÙĦ
ĠØ£Ø³ ÙĨØ§ÙĨÙĩ
ĠÙħØ³Øª Ø¹ÙĬØ±
ĠÙĬÙĤØª Ø±ÙĨ
ĠØ¨Ø§ÙĦØ£ Ø´ÙĩØ±
ĠØ³ÙĬ Ø¦Ø©
ĠØªÙĤ ÙĦÙĬ
ĠØªÙĤ ÙĪÙĬ
ÙĪØ§ÙĦÙħ Ø§ÙĦ
ĠÙĦÙĨ ÙĥØ§ØŃ
ĠÙĦÙħÙĨ ÙģØ¹Ø©
ĠØªÙĨ ÙĥØ±
ĠÙĪØ§ÙĦØ¹ Ø´Ø§Ø¡
ĠÙĦØºÙĬØ± ÙĩÙħ
ĠØ±Ø¨ ÙĪÙĬ
ØµÙĬ Ø¨Ø©
Ø§ÙĦØ« Ø©
ĠÙĬØ£ØªÙĬ ÙĩØ§
ĠØ¨Ø§ÙĦØª Ø³
ĠØ¨Ø§ÙĦØª Ø±Ø§Ø¨
ĠÙĦÙĦØ¹ Ø°Ø±
ĠÙĥÙģ ÙĨ
ĠØ¨ÙħÙĨ ÙģØ¹Ø©
ĠÙĬÙģ Ø¯ÙĬÙĩ
ĠÙĪØ§ÙĦØŃ ÙĤ
ĠÙĪØ§ÙĦØŃ Ø±ÙĬØ©
Ø¯Ø± ÙĬØ©
ĠØ£ÙħØ§ Ø±Ø©
ĠØ¨Ø§ÙĦØ¥ ÙħØ§Ùħ
ĠØ¨Ø¬ ÙĨØ§ÙĬØªÙĩ
ĠØ´Ø± Ø§Ø¦Ø·
ĠÙĥØ« ÙĪØ¨
ĠÙħÙħÙĨ ÙĪØ¹Ø§
ĠØ£ÙĪÙĦØ§ Ø¯ÙĬ
ĠÙĦÙĦØŃ Ø§ÙĦÙģ
ĠÙĦØ³ Ø¨
ĠÙĪØ§ÙĦØª Ø¯Ø¨ÙĬØ±
ĠÙĤÙĦ ÙĨ
ĠÙĪØ¯ ÙĬØ©
ĠÙĪØ¯ Ø¹Ø§
ĠØ§ÙĦØ±ØŃ ÙĬÙħ
ĠÙĪØ§ÙĦØ¨ ÙĬÙĨØ©
ĠØ¨Ø³ ÙģØ±
ĠÙĪØ± ÙĪØ§ÙĬØ©
ĠÙĪØ² ÙĥØ§Ø©
ĠØ´ÙĬØ® Ùĩ
ĠØ§ÙĦØªØ¹ ÙĦÙħ
ĠØ§ÙĦØªØ¹ Ø§Ø±Ø¶
ĠØ£Øª Ø³Ø§Ø¹
ĠÙħØ§Ø¦ ØªØ§
ĠÙģØŃ ØµÙĦ
ĠÙĦØµ ÙĬØ±
ĠÙĦØµ Ø¯ÙĤ
ĠÙĦÙĦÙĤ ÙĪÙĦ
Ø·Ùĩ ÙĬØ±
ĠØ¨ÙħØ¹ Ø±ÙģØ©
ĠÙģØ¬ Ø¹ÙĦÙĩ
ĠØªÙĥ ØªØ¨
ĠØ¬Ùħ ØŃ
ĠÙĦØ´ ÙĩØ±
ĠÙħØµ ÙĬØ¨
ĠÙħØ¹Øª ÙĤØ©
ĠØ¬ÙĪØ§Ø² ÙĩØ§
ĠÙĬØ§ Ø³Ø±
ĠÙģØ¹ÙĦÙĩ ÙħØ§
ĠØ®Øµ Ùĩ
ĠÙĪØ§Ø³Øª Ø¸ÙĩØ±
ĠÙħØ· Ø§
ĠØªØ· ÙĬØ¨
ĠØªØ¯ Ø±ÙĬ
ĠØ¨Ø§ÙĦØ³ ÙĨØ©
ĠÙĨØ°Ø± Øª
Ø¨Ø§ÙĨ Ø©
ĠØ§ÙĦØ¯Ø§Ø± ÙħÙĬ
ĠØ§ÙĦØªØŃ ÙĬØ©
ĠÙĪÙģ Ø§Ø¦Ø¯Ø©
ĠÙģÙĦ ÙĨ
ĠØ¥ØŃØ¯ Ø§
ĠØ¨Ø§ÙĦØ¯ Ùħ
ĠØ£Ø¬Ø² Ø§Ø¦Ùĩ
ĠØªØº ÙĦØ¨
ĠÙĪØ±Ø¯ ÙĩØ§
ĠÙĪØ§ÙĦØµ ÙĪØ§Ø¨
ĠØªØ² Ø¯
ĠØªØ² ÙĪÙĬØ¬Ùĩ
Ø£Ø° Ùī
ĠÙĥÙħ Ø«ÙĦ
ĠØ§ÙĦØ£ÙĨ Ø³Ø¨
Ø§ÙĦØ¬ ÙĬØ©
ÙģÙĥ ØªØ¨
ĠØªØ¨ÙĬÙĨ Ø§
ĠØ§ÙĦØ¹Ø¨Ø§ Ø¯ÙĬ
ĠÙĪØ¶ Ø¹Ø§
ĠÙģØ¯ Ø®ÙĦØª
ĠØŃÙħØ§ Ø±Ø§
ØµØ§Ø¨ Ùĩ
ĠÙĦÙĦØ® ÙħÙĬ
ĠØ£ØŃØ±Ùħ Øª
ĠØ¥ÙĤØ±Ø§Ø± ÙĩØ§
ĠØ¨Ø´Ø± Ø§ÙĨ
Ø·Ø¨ Ø§Ø¡
ĠØ³Ø¨Ø¹ ÙĪÙĨ
ĠÙĪØ¨ÙĬ ÙĨÙĩÙħØ§
ĠØ¹Ø§ÙĦÙħ Ø©
ĠÙĪØ§ÙĦØº ÙĨÙħ
ĠÙĪØ¨ÙĨ Ø§Ø¡
ĠÙĪØµØŃ Øª
ĠÙħÙĨÙĥ Ø±Ø§
ĠØ®ÙĦÙģ Ø§
ĠØ¨Ø¨ ÙĦÙĪØºÙĩ
ĠØ£Ø´Ø¨Ùĩ Ùĩ
ĠØŃØ¶Ø± Øª
ĠÙģØ· Ø±Ø©
ĠÙĨØ³Ø® ØªÙĩ
ĠÙĪÙĨØµÙģ ÙĩØ§
ĠÙĦÙĦØ¶ ÙħØ§ÙĨ
ĠØ§ÙĦÙĨØ§ ÙģÙĦØ©
ĠÙģØ°ÙĥØ± Øª
ĠÙĪØ¨Ø§ ÙĦÙĤ
ĠÙħØ£Ùħ ÙĨÙĩ
ĠÙĪØ§ÙĦØ§ Ø¨ÙĨ
ĠØ³Ø¬Ø¯ ØªÙĬÙĨ
ĠØ£Ø² ÙĪØ§Ø¬Ùĩ
ÙģÙĥØ§ÙĨ Øª
ĠØªØ¤ Ø«Ø±
ÙĪØ§ÙĦØ¬ ÙħØ¹
ĠÙħÙĨØ§ ÙģØ§Ø©
ĠÙĨÙĥ Ø±Ø©
ĠØ²Ø± Ø¹Ø§
ĠÙħÙĩ ÙĦÙĥ
ĠÙħÙĩ ÙĨØ§
ĠÙħÙĤØµ Ø±
ĠÙħÙĤØµ Ø¯Ùĩ
ĠÙħÙģØ± ÙĪØ¶
ĠÙģØ§Ø± ÙĤØª
ĠÙĪÙĦØ ºÙĬØ±
ĠÙħÙĤØ¨ ÙĪØ¶
ĠÙħÙĤØ¨ ÙĪÙĦØ©
ĠØ§ÙĦØªØµ ÙĪÙĬØ±
ĠÙĪÙĨØµ ÙģØ§
ĠØ¢Ø¯Ùħ ÙĬØ§
ĠÙĪØ´Ø±Ø· Ùĩ
ĠÙĤØ§Ø± ÙĨ
ĠØ§ÙĦØ§Ø®Øª ØµØ§Øµ
ÙĪØ§ÙĦØ¯ ÙĬÙĨ
ĠÙģØ®Ø±Ø¬ Øª
ĠÙħÙĨØ§ÙģØ¹ ÙĩØ§
ĠÙĦÙĦØ· Ø§ÙĦØ¨
ĠÙħØªØ¹Ø¯ Ø¯Ø§
ĠÙģØ§ÙĦØŃ Ø§ØµÙĦ
ĠÙħÙĨØ¯ ÙĪØ¨Ø§
ĠØ³Ø± ÙĤÙĩ
ĠÙģØ§Ø±ÙĤ ÙĩØ§
ĠÙĥØ´ Ø±Ø·
ÙĪØ¶ÙĬ ØŃÙĩ
ĠØ¬Ø§Ø± ÙĬØªÙĩ
ĠØ§ÙĦØŃØ§Ø¶Ø± ÙĬÙĨ
ĠØ§ÙĦØªØ® Ø±ÙĬØ¬
ĠØ³Ø§ÙģØ± Øª
ÙģØ§ÙĦÙħ Ø±Ø§Ø¯
ĠÙĪÙĦÙĦØ£ Ø®Øª
ĠØ¹Ø³ ÙĥØ±
ĠØ§ÙĦÙħÙĪØ¶ Ø¹ÙĬÙĨ
ÙĨÙģÙĤ ØªÙĩ
ĠØµØ±ÙĬ ØŃØ©
ĠÙĪØ§ÙĦØ¶ ÙħÙĬØ±
ĠØ¨ÙħØŃ Ø¶Ø±
ĠÙĤØ±Ø± ØªÙĩ
ĠØ¨ÙĪØµ Ùģ
ĠØ¨Ø§ÙĦÙĩ Ø¯ÙĬ
ĠÙĪØ§ÙĦÙĨØ³ Ø§Ø¡
ĠØ®ÙĦØ· Ùĩ
ĠÙħØ³Ø§ ÙĪ
ĠÙħØ´Ø± ÙĪØ¹Ø©
ĠÙĥÙĦÙħ Ø§Øª
ĠÙħØŃØªØ§Ø¬ Ø§
ĠØ£Ø¸ ÙģØ§Ø±Ùĩ
ĠØºØ§Ø¦ Ø¨Ø©
ĠØ§ÙĦØ¬Ø§ÙĨ Ø¨
ĠØ¨Ø¬ÙĪØ§Ø² Ùĩ
ĠØªØ±Ø¶ Ø¹
ĠØ§ÙĦØ¹Ø§ÙĦÙħ ÙĬÙĨ
ĠØ§Ø¬ØªÙħØ§Ø¹ ÙĩÙħØ§
ĠØ§ÙĦÙħØ³Ø§ ÙĪØ§Ø©
ĠØ¶ÙĬØ§ ÙģØ©
ĠÙĪØ¥Ø³ ØŃØ§ÙĤ
ĠØ§ÙĦØ¨ÙĬÙĨ ØªÙĬÙĨ
ĠÙĪØ²ÙĪØ¬ ØªÙĩ
ĠØ¬Ø° Ø¹
ĠÙħØ¶Ø± ÙĪØ¨Ø§
ĠØ§ÙĦÙĤØ¯Ùħ ÙĬÙĨ
ĠØ§Ø³ØªÙĩ ÙĦÙĥÙĩ
ĠØ¨ÙĪØ¬ ÙĪØ¨Ùĩ
ĠØ§ÙĦÙħÙģØª ÙĬÙĨ
ĠÙħØªØªØ§Ø¨ Ø¹ÙĬÙĨ
ĠØ§Ø³ØªØŃØ¨Ø§Ø¨ Ø§
ĠØ£Ø«ÙĨ Ø§Ø¦ÙĩØ§
ĠØ´Ø§Ø¦ Ø¹Ø§
ĠØ¢Ø¨ Ø§Ø¦Ùĩ
ĠÙģØ£Ø®Ø¨Ø± ØªÙĩ
ĠÙĦÙĨÙģØ³ ÙĩØ§
ĠØ´Ø§Ø±ØŃ ÙĨØ§
ĠÙĪØ³Ø¨ Ø¹Ø©
ĠØ§ÙĦÙĩØ§ Ø¯
ĠØªÙĪÙĦÙĬ ØªÙĩ
ĠÙģØ§ÙĦØ¶ ÙħØ§ÙĨ
ĠÙĬØªØº Ø§Ø¨ÙĨ
ĠØŃÙĪ Ø§Ø´ÙĬ
ĠÙĬØ¯Ø® ÙĦÙĪÙĨ
ĠØ£ÙĪØ¯ Ø¹Ùĩ
ĠØ§ÙĦØ§ØµØ· ÙĬØ§Ø¯
ĠÙĦÙĦÙħØ´ ÙĩÙĪØ¯
ĠØ§ÙĦÙħÙĨØ§Ø³ Ùĥ
ĠØ¨Ø¥Ø° ÙĨÙĩØ§
ĠÙĪØ´ÙĬØ® ÙĨØ§
ÙħØ¦ ÙĨ
ĠØ§ÙĦØ¨Ø±Ø² ÙĦÙĬ
Ø¨ÙħÙĨ Ø²ÙĦØ©
ĠØ¬ÙĨÙĬ ÙĨÙĩØ§
ÙģÙĦÙĬØª Ø£ÙħÙĦ
ĠÙħÙģØ§Ø±ÙĤ ØªÙĩ
ĠÙħØ¨ÙĨ ÙĬØ§
ĠÙĤÙĦØ§ Ø¨Ø©
Ø§ ÙĤØ¯
Ø§ ÙĤØ©
Ø§ ÙĦÙĬØ©
Ø§ Ø®ØªÙĦÙģ
Ø§ ÙħØ±Ø£Ø©
ÙĨ ÙĪØ§
ÙĨ ÙĥØ§ØŃ
ÙĬ ÙģÙĬ
ÙĬ Ø¹ØªÙĤ
ÙĬ ÙĦØ²Ùħ
ÙĪ ÙĥÙħ
ÙĪ ÙĪØ¬Ø¨
ÙĪ ÙĦØ²Ùħ
Ùħ ÙĦÙĩÙħ
Ø¯ Ø§Ø¨
Ø¯ Ø§Ø±Ùĥ
Øª ÙħØ§
Øª ØµØŃ
Ø¹ Ø¨Ø§Ø±Ø©
ĠÙĪ ÙĨØ§
ĠÙĪ Ø±Ø§
ĠÙĪ ÙģØª
ĠÙĪ ØŃØ¯Ø«
ĠÙĪ ÙĪØ±Ø«Ùĩ
ĠØ£ ÙĤÙĬÙħ
ÙĤ ØµØ¯
ÙĤ ÙĪØ§ÙĦ
ÙĤ ÙĪÙĦØ§ÙĨ
ĠÙħ Ø±Ø¬Ø¹
ĠÙħ Ø§Ø¤Ùĩ
ĠÙħ ÙĦÙĬØ§
ĠÙħ Ø±ÙĩÙĪÙĨØ©
ĠÙħ ÙĬÙĤØ§
ĠÙħ ÙĤØ·ÙĪØ¹Ø©
ĠØ¨ ÙĪØ¹
ĠØ¨ ÙģØ§
ĠØ¨ Ø±Ùħ
ĠØ¨ ÙĦØ²ÙĪÙħ
ĠØ¨ Ø¶Ø§Ø¹Ø©
ĠÙģ Ø°Ø§
ĠÙģ Ø§Ø¡
ĠÙģ ÙħØ³
ĠÙģ Ø¶Ø§
ĠÙģ Ø¶ÙħÙĨ
ĠÙģ ÙħÙĩØ±
ĠÙģ ÙĩØ¯Ø±
ĠØ¹ Ø§ÙĦ
ĠØ¹ ÙħØ§ÙħØªÙĩ
ÙĦÙħ ÙĨ
Ùģ Ø£ÙĬ
Ùģ ÙĪÙĦØ¯
Ùģ ÙĪÙĬØª
Ùģ Ø§ÙĦØ¸Ø§ÙĩØ±
Ø³ Ø¹Ø©
ĠÙĬ ÙĦØ§Ø¹ÙĨ
ĠÙĬ Ø±Ø´Ø¯
ĠÙĬ ÙĦØ§ØŃØ¸
Ùĥ Ø§Ø±Ùĩ
Ø¬ Ø§Ø¹
Ø¬ Ø§Ø¬Ø©
ĠÙĤ Ø±Ùī
ĠÙĤ ÙĦÙĬÙĦÙĩ
Ø° ÙĪØ±Ø§
Øµ Ø¹
Øµ ÙĤ
Øµ ÙĪØ¨Ø§
ĠÙģÙĬ ØŃÙĦ
ĠÙģÙĬ ÙĤÙĪÙħ
ĠÙģÙĬ ÙĥÙģÙĬ
ĠÙģÙĬ Ø¹Ø·Ùī
ÙħØ§ Øº
ÙĦÙĬ Ø³Øª
ĠÙĥ Ø¢
ĠÙĥ ÙĦÙħÙĩ
ĠÙĥ Ø´Ø±Ø§Ø¡
ĠØ§ÙĦÙħ ÙĪÙĩÙĪ
ĠØ§ÙĦÙħ Ø±ÙģÙĤ
ĠØ§ÙĦÙħ ÙĦÙĤÙĬ
ĠØ§ÙĦÙħ Ø¶Ø±ÙĪØ¨
ĠØ¥ Ø«Ø±
ĠØ¥ Ø±Ø³Ø§ÙĦ
ĠØ¥ Ø¶Ø±Ø§Ø±
ĠØ¥ Ø±Ø¯Ø¨
ĠÙħÙĨ Ø§Øµ
Ø® ÙĪØªÙĩ
Ø« Ø¯
Ø« ÙĤ
Ø« Ø±Ùĩ
ĠØª Ø±Ø§Ùĩ
ĠØª ÙĤÙĬÙħ
ĠØª Ø§Ø±Ùĥ
ĠØª Ø¨Ø¯ÙĦ
ĠØª ÙĪØ³Ø·
ĠØª Ø¶ÙħÙĨÙĩ
ĠØŃ Ø§ÙĦØª
ĠØŃ Ø¶Øª
ĠØŃ ÙĪÙĦÙĩØ§
ĠØŃ Ø´ÙģØ©
Ø§ÙĦ Ø±Ø§Ø¨Ø¹
ÙĩØ§ Ø±Ø§
ĠØ§ÙĦ Ø±Ùģ
ĠØ§ÙĦ Ø±Ø·
ĠØ£ÙĪ ÙģÙī
ĠØ£ÙĪ Ø³Ø¹
ĠØ£ÙĪ Ø§Ø®Ø±
Ø² Øª
Ø°Ø§ Ùĩ
ĠØ± ÙĤØ§
ĠØ± ÙĬØ¨
ĠØ± ÙģØ¹Øª
ĠÙĨ ÙĤØ¨
ĠÙĨ ØŃÙĥÙħ
ĠÙĦØ§ ÙĨÙģ
ĠÙĦÙħ Øª
ĠÙĦÙħ ØŃÙħØ¯
ĠØ³ ÙĤ
ĠØ³ ÙĦÙĥ
ĠØ³ ÙĥØ©
ĠØ§ÙĦØ£ Ø¨ÙĬ
ĠØ§ÙĦØ£ Ø¬ÙĪØ¯
ĠØ§ÙĦØ£ Ø¨ÙĬØ¶
ĠØ§ÙĦØ£ Ø·Ø¨Ø§Ø¡
ĠØ´ Ø¨Ø¹
ĠØ´ Ø±Ùī
ĠØ´ ÙģÙĤØ©
ĠØ´ ÙħÙĪÙĦ
ĠØ´ Ø§Ø°
ĠØ° Ø¨ÙĬØŃ
ĠØµ ÙĬØ¯Ùĩ
ĠØµ ÙģØ§ØªÙĩ
ĠÙĦ ÙĦØªÙĩÙħØ©
ĠØ¨ÙĨ ØŃÙĪÙĩ
ĠØ¬ Ùģ
ĠØ¬ ØŃ
ĠØ¬ ÙĪÙĩ
ĠØ¬ Ø±Ø§ØŃØ©
ĠØ§ÙĦØ¹ Ø¸
ĠØ§ÙĦØ¹ Ø§Ø·
Ø¨ÙĬ ÙĦØ©
Ø¨ÙĬ ÙĨÙĩÙħØ§
ĠØ§ÙĦØŃ Ùģ
ĠØ§ÙĦØŃ Ø±Ø¬
ĠØ§ÙĦØŃ Ø§ÙģØ±
ĠØ§ÙĦØŃ Ø§Ø¦ÙĦ
ĠØ§ÙĦØŃ ØµØ©
ĠØ§ÙĦØŃ Ø·Ø¨
ĠØ« ÙĤØ§Øª
ĠØ¯ Ø§Ø¦Ùħ
ĠØ¯ ÙĬØªÙĩØ§
ĠØ® ÙĦ
ĠØ® Ø³
ĠÙħØ¹ ÙĦÙħ
ĠÙħØ¹ Ø§ÙĨ
ĠÙħØ¹ ÙģÙĪ
ĠØ§ÙĦÙĤ ØµØ¨
ĠØ§ÙĦÙĤ Ø¶ÙĬØ©
ĠÙĪØ§ Ø³ØªØŃÙĤ
ĠÙĪØ§ Ø¹ØªØ¨Ø±
ĠÙĪØ§ Ø¹ØªÙħØ¯
Ø§Ø¦ Ø¨Ùĩ
ÙģÙĬ Ø¶ÙħÙĨ
ÙħÙĩ Ø§ÙĦ
Øº ÙħÙī
ĠÙĦØ£ Ø´ÙĩØ¨
ĠØ§ÙĦØ¨ ÙĬØ§Ø¶
ĠØ§ÙĦØ¨ ÙĨÙĬØ§ÙĨ
ĠØ§ÙĦØ¨ Ø¯Ø§Ø¡Ø©
ĠØ§ÙĦØª ÙģØª
ĠØ§ÙĦØª ÙħØ³Ùĥ
ĠØ§ÙĦØª Ø®ÙĦÙģ
ĠØ§ÙĦØª Ø¬ÙĩÙĬØ²
ĠØ§ÙĦØª ØŃØ±ÙĬØ±
ĠØ§ÙĦØª Ø²Ø§ÙħÙĩ
ĠØ§ÙĦØª ÙĪØ±Ø§Ø©
Ø¡ Ø§
ÙĤÙĬ Ø¹
Ø¦ ØªÙĬ
ĠØ§ÙĦØ¥ Ø²Ø§ÙĦØ©
ĠÙĬÙĥ Ø±ÙĬ
ĠØ¨Ø§ ÙĦÙĩÙħ
ĠØ§ÙĦÙĨ ÙĤØ¨
ÙĪÙĬ ÙĪØ¬Ùĩ
ÙĪÙĬ Ø´ÙĩØ¯
ĠØ² Ø¯
ĠØ² Ùĥ
ĠØ² ÙĨØ§Ùĩ
Ø¨Ø§ Ø¯
ÙĥÙħ ÙĬÙĦ
ĠØ§ÙĦØ¬ Ø§Ùħ
ĠØ§ÙĦØ¬ ÙĪÙģ
ÙĪØ¹ ÙĦÙĬ
ÙĪØ¹ Ø«ÙħØ§ÙĨ
ÙĪØ¹ ÙħØ±ÙĪ
ĠØ· ÙĩØ±Ø§
ĠÙĪØ¬ Ø¯Ø§
ĠÙĪØ¥ÙĨ Ø§
ĠÙĬØ¬ Ø¨Ùĩ
ĠØ§ÙĦØ³ ÙĥØ©
ĠØ§ÙĦØ³ Ø±ÙĬØ©
ĠØ§ÙĦØ³ Ø¬Ø¯ØªÙĬÙĨ
ĠÙĪÙĬ Ø´ØªØ±ÙĬ
ĠÙĪÙĬ Ø¶Ø¹
ĠÙĪÙĬ ØŃÙĦ
ĠÙĪÙĬ Ø®ÙĬØ±
ĠÙĪÙĬ ÙģØ³Ø®
ĠÙĪÙĬ ØµÙĦÙī
ĠÙĪÙĬ ÙĩØ¯ÙĬ
ĠÙĦÙĬ ØŃØµÙĦ
ĠØ§ÙĦÙģ Ø§Ø¦Ø¯Ø©
ĠØ§ÙĦÙģ Ø¶ÙĬÙĦØ©
ĠÙĬØª Ø®
ĠÙĬØª Ø¹ÙĦÙħ
ĠÙĬØª ÙĬØ³Ø±
ĠÙĬØŃ Ø§ÙĦ
Ø¯ÙĬ Ø¡
ĠØ§ÙĦØ® ÙģÙĬ
ĠØ§ÙĦØ® Ø·Ø±
ĠØ§ÙĦØ® ÙĦØ§Ø¡
ĠØ§ÙĦØ® Ø§ØªÙħ
ĠØ§ÙĦØ® Ø¨Ø«
ĠÙĬØ¹ Ø¸Ùħ
ĠÙĬØ¹ ÙħÙĦÙĩ
ÙĪØ± Ø¯Ùĩ
ĠØº Ø¯Ø±
ÙĪØ¯ ÙĩØ§
ÙĪØ¯ ÙĬØ¹Ø©
Ø³Ùħ ÙĬÙĩ
ĠÙĩÙĪ Ùī
ĠØ§ÙĦØ¯ Ø±Ø±
Ø¨Øª Ø§ÙĨ
ĠÙĪÙĥ Ø§ÙĦØªÙĩ
ÙĥØ§ ÙģØ±
ÙĤØ· ÙĨ
ĠÙĬÙĨ ÙĪÙĩ
ĠÙĬÙĨ ÙģÙĬÙĩ
ĠÙĬÙĨ Ø·ÙĤ
ĠØ±Ø¬ Ø¹ØªÙĩØ§
ÙĪØª ÙĥØ±Ùĩ
ÙĪØª Ø¨Ø¹Ùĩ
ĠØ¨Ø£ Ø®Ø±Ùī
ĠØ£Ùħ Ùĥ
ÙĪØ¶ ÙħÙĨ
ÙĬÙħ ØªÙĩ
ÙĬÙħ Ø±ÙĬ
ĠØ§Ø³Øª ÙĦØŃÙĤ
ĠØ§Ø³Øª Ø¹ÙħÙĦÙĩ
ĠØ§ÙĦØ± Ø³Ùħ
ĠØ§ÙĦØ± Ø®ØµØ©
ĠØ§ÙĦØ² ÙĪØ±
ĠÙģØ¥ ÙĤØ±Ø§Ø±Ùĩ
ĠÙĪØª ÙĤØ¯ÙĬØ±
ĠÙĪØª Ø£Ø®ÙĬØ±
ÙĪØ£ ÙĤØ±Ùĩ
ÙĪØ£ ÙģØªÙī
ĠØ¸ ÙģØ±Ùĩ
ĠØ¸ ÙĩØ§Ø±Ùĩ
Ø§Ø¬ Ø¯Ùĩ
ĠØªØ¹ ÙĦÙħÙĩ
ĠØªØ¹ Ø¯ÙĬÙĦ
ĠØªØ¹ Ø¸ÙĬÙħ
ĠÙĦÙĦÙħ Ø¯
ĠÙĬØ¯ ÙĦÙĥ
ĠÙģØ£ Ø¨Ø±Ø£
ĠÙģØ£ Ø´Ø§Ø±
ĠÙħØª Ùĥ
ĠÙħØª ÙħÙĪÙĦ
ĠÙħØª ÙĦÙģØ§
Ø§Ùĩ ÙĬØ©
ĠÙĤØ¨ ÙĦÙĥÙħ
ĠÙĪÙĨ Ø°Ø±
ĠÙģØ§ Ø¹
ĠÙĪÙħ ÙĨØ§
ÙĪÙģ ÙĩÙħ
ĠØ¨Ùħ ÙĤØ¯Ø§Ø±
ĠØ¨Ùħ Ø¤Ø¬ÙĦ
ĠÙĪØ§ÙĦÙħ Ø§Ø¡
ĠÙĪØ§ÙĦÙħ ÙĩØ±
ĠÙĪØ§ÙĦÙħ ÙĥØ§ÙĨ
ĠØ§ÙĨ ÙģØ³Ø§Ø®
ĠÙħØ³ ÙĬØ±Ø©
ĠÙħØ³ ÙĨØ¯
ĠÙħØ³ ÙĥÙĨÙĩ
ĠÙħØ³ Ø§ÙĪÙĬØ§
ĠÙħØ³ ÙħØ§Ø©
ĠÙħØ³ Ø§ÙħØŃØ©
ĠØ§ÙĦÙħØª ÙĪÙĦØ¯
ĠØ£Ø¹ Ø¨Ø¯
ĠÙħÙĦÙĥ ØªÙĩ
ĠØ£Ø¬ ÙĨØ§Ø³
ĠØ¨ØŃ ÙĦ
Ø§ÙĨÙĬ Ùĩ
Ø§ÙĨÙĬ ÙĩÙħØ§
ĠÙĬØ³ ÙĤÙĬ
ĠÙĬØ³ ÙĬØ±Ø©
ÙģØª ÙĥÙĪÙĨ
ĠØ£Øµ ÙģØ±
ĠØ£Øµ ÙĪØ¨
ĠØ¹ÙĦÙħ ÙĩÙħ
ĠÙĥØ§ÙĦØ ¶
ĠÙĬØ¶ Ø·Ø±
ĠÙĤØ§ Ø°Ùģ
ĠØ¨Ø§ÙĦÙħ ÙĪØ¬Ø¨
ĠØ¨Ø§ÙĦÙħ Ø¬ÙĦØ³
ĠÙĪØµ ÙĦÙĩ
ĠØ§ÙĦÙħØŃ ÙĦÙĦ
ĠØ§ÙĦÙħØŃ Ø¨ÙĪØ³
ÙĪØµ ÙĪØ±Ø©
ĠØ¨Ø¥ ÙĤØ§ÙħØ©
ĠØ¨Ø¥ ÙĬØ¬Ø§Ø¨
ĠÙĪØŃ ÙĨØ«
ĠÙĪØ§ÙĦ Ø±ÙĤ
ĠÙĪØ§ÙĦ Ø±Ø£Ø³
ÙĨØª ÙĤØ§ÙĦ
ĠØ³Ø¨ ØŃØ§ÙĨ
ĠÙĬØµ Ø¨Ø±
ĠØ²ÙĪØ¬ ÙĨÙĬ
ĠÙĪØ³ ÙĬÙĦØ©
ĠÙĪÙħØ§ Ø¡
ĠØ¢Ø®Ø± ÙĪÙĨ
ĠÙĦØŃ Ø±
ĠÙĦØŃ Ø¬Ø±
ĠÙĦØŃ ÙħÙĦÙĩ
ĠÙĦØª Øº
ĠÙĦØª ÙĤØ¯Ùħ
ĠÙĬØ³Øª ØºÙĨÙĬ
Ø²ÙĪØ¬ Ùĥ
ĠÙĬØ¤ Ø¯Ø¨
ĠÙĬØ¬Ø¨ Ø±Ùĩ
ĠØ¢ Ø«Ø±
ĠØ§ÙĦÙĩ Ø¯Ùħ
ĠØ§ÙĦÙĩ Ø±Ùħ
ĠÙģØ³ ÙĬØ£ØªÙĬ
ĠÙģØ³ Ø£ÙĦØªÙĩ
ĠØ¹Ø¯ ÙĪÙĩ
ĠØ¹Ø¯ Ø§ÙĦØªÙĩ
ĠÙĬØ¨ Ø³
ĠÙĪØ· Ø£ÙĩØ§
ĠÙĦØ¨ Ø³Øª
ĠØ¨Ùĥ ÙħØ§ÙĦÙĩ
ĠØŃØ± Ø²Ø§
ĠÙĪØ¨ ÙĦØ§
ĠÙĪØ¨ Ø®ÙĦØ§Ùģ
ĠÙĪØ¨ Ø·ÙĦØª
ĠØ§ÙĦØ¶ Ø±
ĠØ£ÙĤ ÙĪÙħ
ÙĪØŃ ÙħÙĦÙĩ
ĠØ¨ÙĤ ÙĦÙĬÙĦ
ĠØ¨ÙĤ ÙĪÙĦÙĬ
ĠÙħØ¬ ØªÙħ
ĠÙĪÙĤÙĪÙĦÙĩ Ùħ
ĠØ¨Ø§ÙĦØ¹ Ø´Ø±Ø©
ĠØ¨Ø§ÙĦØ¹ ÙģÙĪ
Ø§ÙĦØŃ Ø¬
Ø§ÙĦØŃ Ø¯ÙĬØ«
ĠØ¹Ø±Ùģ ÙĩØ§
ĠØ¹Ø±Ùģ ÙĨØ§
ĠÙĨØ³ ÙĬØª
ĠØ§ÙĦÙħØ³Øª Ø¯ÙĦ
ĠØ§ÙĦÙħØ³Øª Ø£Ø¬Ø±Ø©
ĠÙħØ³Øª ÙĤØ±Ø©
ĠÙħØ³Øª ØºÙĨÙī
ĠÙĦÙĦØ£ ÙĥÙĦ
ĠÙģØ± Ø®
ĠÙģØ± Ø´
ĠÙģØ± ÙĤØ§
ĠÙĬØ² Ø¯Ø§Ø¯
ĠÙĬØ² Ø±Ø¹ÙĩØ§
ĠØ¹Ùħ ØªÙĩ
ĠÙħØ«ÙĦÙĩ Ùħ
ĠÙģÙĦÙĬ ÙĤÙĦ
ĠÙĪØ§ÙĦØ¹ Ø§ÙħÙĦ
ĠÙĬØŃØª ÙĦÙħ
ĠØ¨Ø§ÙĦÙĤ ÙĪØ©
Ø¢ ÙĨØ§
ĠØ¬Ùĩ ÙĦØª
ÙĥÙĩ Ø©
ĠØ£Ø±Ø§Ø¯ ÙĪØ§
ĠÙħØ´ Ø§Ø±ÙĥØ©
ĠØ¨Ø§ÙĦØŃ Ø¯
ĠØ¨Ø§ÙĦØŃ Ø±ÙħØ©
ĠÙĬÙģ Ø§Ø±ÙĤÙĩ
ĠÙĪØ§ÙĦØŃ Ø±Ø¨ÙĬ
ĠØ§Øª Ø®Ø°Ùĩ
ĠØ¬Ø¹ Ø§ÙĦØ©
ĠÙĪÙĥØ§ÙĨ ÙĪØ§
ĠØ¨Ø± ÙĩØ§ÙĨ
ĠØ¨Ø± Ø¤Ùĩ
ĠØ§ÙĦÙħØ°Ùĥ ÙĪØ±Ø§Øª
ĠÙĪØ§ÙĦØª Ø³ÙĦÙĬÙħ
ĠÙĪØ§ÙĦØª ØµØ±ÙĬØŃ
ĠÙĤÙĦ ÙĨØ³ÙĪØ©
ĠÙĪØ¯ Ø§Ø±
ĠÙĪØ¯ ÙĪÙĨ
ĠØ§ÙĦÙħØ¹Øª Ø¨Ø±Ø©
ĠØ£Ø³ÙĦÙħ Ùĩ
ĠÙĤØ¯Ùħ ÙĩØ§
ĠØ§ØŃØª ÙħØ§ÙĦØ§
ĠÙħØ® ÙĬØ±Ø§
ĠÙħØ® Ø·Ø¦
ĠÙĪØ± ÙĤÙĬÙĤ
ĠÙĪÙĦ ÙĦ
ĠÙģÙħØ§ ÙĦÙĩ
ĠØ¯Ø§Ø± ÙĩÙħ
ĠÙĥØ§ÙĦÙħ ÙĥØ§ØªØ¨
ĠØ£Ùĥ ÙĦØ§
ĠÙĬØ± ÙĪÙĨ
ĠÙĦÙģ Ø¹ÙĦÙĩ
ĠÙģØŃ Ø¶Ø±
ĠÙĪØ§ÙĦÙĤ Ø¶Ø§Ø¡
ĠÙĬØ£Ø®Ø° ÙĪÙĨ
ĠØªÙģ ÙĪÙĬ
ĠØªÙģ Ø¶ÙĬÙĦ
ĠØ·ÙĦØ¨ Ø§
ĠØ¨Ø§Ø¨ Ø§
ÙģØ±ÙĤ ÙĬÙĨ
ĠÙĪØ§ÙĦØ³ Ø¹ÙĬ
ĠÙĪØ§ÙĦØ³ Ø¬ÙĪØ¯
ĠØ§ÙĦÙĪØ§ Ø¶ØŃØ©
Ø§Ùĥ ÙĬ
ĠØ§ÙĤØª Ø¶Ø§Ø¡
ĠÙĥØ³ Ø±Ùĩ
ĠÙģØ¬ ÙħØ¹
ĠØ¨Ø§ÙĦÙĨ ÙĤØ¯
ĠØ¨Ø§ÙĦÙĨ Ø¬Ø§Ø³Ø©
ĠØ§ÙĦÙĤØ± Ø§Ø¦ÙĨ
ĠØ§ÙĦÙĤØ± ÙĪÙĬÙĬÙĨ
ĠØ¨Øµ ÙĬØ±
ĠØ¨Øµ Ø±ÙĬØŃ
ĠØ¨Ø§ÙĦØ´ Ø±Ø¹
ĠØ¨Ø§ÙĦØ´ ÙĬØ¡
ĠØ¨Ø§ÙĦÙģ Ø³Ø§Ø¯
ĠØ¨ÙĬØª ÙĬ
ĠÙĪØ§ÙĦØ¥ Ø®ÙĪØ©
ĠØ§ÙĦØ£Øµ ÙĨØ§Ùģ
ĠØªÙĥ ÙģÙĦ
ĠØªØµ ÙĪØ±Ùĩ
ÙĥÙĬ ÙĦÙĩ
Ø§Øº Ø±
ĠØ¬Ùħ Ø¹Øª
ĠØ±Ø£Ø³ ÙĬ
ĠÙĪØ§ÙĦÙģ Ø±Ø¹
ĠÙħÙĩØ± Ø§ÙĨ
ÙĥØ³ Ø§Ø±
Ø§ÙĦØ£ ØµØŃ
Ø§ÙĦØ£ ØµÙĦ
ĠØ¨Ø§ÙĦÙĥ ÙĬÙĦ
ĠØ¨Ø§ÙĦÙĥ ØªØ§Ø¨
ĠÙħØ§Ø¡ Ùĩ
ĠÙĪØ·Ø¦ ØªÙĥ
ĠØ¨Ø¹Ø¶Ùĩ ÙĨ
ĠØ¨Ø§ÙĦØ³ Ø¨Ø¨
ĠØ¨Ø³Ø¨Ø¨ ÙĩØ§
ĠØ¨Ø§ÙĦØ¬ Ø±
ĠÙĪØ§ÙĦØ¯ Ùħ
ĠÙĪØ§ÙĦØ¯ ÙĬÙĩ
ĠØªØ® ÙģÙĬ
ĠØ§ÙĦÙĨØ³ ÙĥÙĬÙĨ
ĠØ¨Ø² ÙħØ§ÙĨ
ĠØ¨Ø² Ø§Ø²ÙĬØ©
ĠÙĪÙĬØ± ÙģØ¹
ĠÙĦÙĦØ´ ÙĬØ®
ĠÙĦÙĦØ´ Ø±ÙĬÙĥ
ĠÙģÙĦ ÙĦØ¨
Ø¬Ø§Ø± ØªÙĩØ§
ĠØ´Ùĥ Ø±Ø§
Ø§Ø´Øª Ø±ÙĬØª
ĠØªØº Ø·ÙĬØ©
ĠÙĪØ§ÙĦÙĥ ÙĦØ§Ùħ
ÙĪÙĬØª Ø¹ÙĬÙĨ
ĠØ£Ø·ÙĦÙĤ ÙĪÙĩ
ĠØ§ÙĦØ£Ø´ Ø¨Ùĩ
ĠØ§ÙĦØ£Ø³ ÙħØ§Ø¡
ĠØ¹Ø± ÙĪØ¨Ø©
ĠØ¹Ø¨ÙĬØ¯ Ø§ÙĨ
ĠÙĦÙĦÙģ Ø³Ø®
ĠÙħØº ÙĦØ¸Ø©
ĠØ¹ÙĤ ÙĦÙĬ
ĠØ§ÙĦÙħØŃØ±Ùħ ÙĬØ©
ĠØ§ÙĦØ£Ø¹ ÙħØ§Ùħ
ĠÙģÙĬØª Ø¹ÙĦÙĤ
ĠØ®ÙĬØ§Ø± ÙĩØ§
ÙĦØ¬ Ø©
ÙĦØ¬ Ø¦
ĠÙĥØª ÙģÙĩ
ĠÙĤØµ Ø±Ùĩ
ĠÙĦÙĦØ® Ø±ÙĪØ¬
ĠÙĪÙĬØ¹ Ø·ÙĬ
ĠØ£Ø±Ø´ ÙĩØ§
ÙĪÙĬØ± Ø«
ĠØ§ÙĦØ¨ÙĦØ¯ ÙĬÙĨ
ĠØ£ÙĤØ§Ùħ ÙĩØ§
ĠØ¨Ùģ Ø¶Ø©
ĠÙĨÙģÙĬ Ø§
ĠØ£Ø« Ø¨ØªÙĩ
ĠØ§ÙĦØŃØ³ Ø¨Ø©
ĠÙĤØ§Ø¦ ÙĦÙĩ
ĠÙħØ®Ø§ÙĦÙģ ØªÙĩ
ÙĬØµ Ø§Ø¡
Ø¶Ø§Ùģ ØªÙĩ
ĠØªØ´ Ø¹Ø±
ĠØ±Ø¶Ø§ Ø¹Ø§
ĠØ±Ø¨Ø¹ ÙĩØ§
ĠØ®ÙĦÙĤ Ø§
ĠØ§ÙĦØ¨Øº Ø¯Ø§Ø¯ÙĬ
ĠØ§ÙĦØ³Ø¨Ø¨ ÙĬØ©
ĠØ§Ø³ ÙħØ§
ĠÙĪÙĬØŃ ÙĨØ«
ĠÙĪÙĬØŃ Ø¨Ø³
ĠÙĪØ¨ÙĨ ÙĪ
ĠÙĪØµØŃ Ø©
ĠÙħÙĨÙĥ ÙĪØŃØ©
ĠØ¨Ø¨ ÙĦØ¯Ùĩ
ĠØ¨ÙĦÙģØ¸ Ùĩ
ĠØ´Ø±Ø§Ø¡ Ùĩ
ÙĨØ¬ ÙĬØ²
ĠÙħØ±Øª ÙģØ¹
Ø¯Ø® ÙĦÙĩ
ĠÙĦØ¶ ÙĬÙĤ
ĠÙħØ² Ø§ØŃÙħ
ĠØ§ÙĦØµØŃ Ø§ØŃ
Ø¯Ø¹ ÙĪÙī
ĠØ·ÙĩØ± ÙĩØ§
ĠÙĪØ¨Ø§ Ø·
ĠÙĪØ´Ø± Ø§Ø¡
ĠØ£Ø¯Ø±Ùĥ Øª
ĠØ§ÙĦØ¹Øµ Ø§Ø¨Ø©
ĠÙĪØ§ÙĦØ² Ø±ÙĥØ´ÙĬ
ĠÙģØ® Ø§ÙĦÙģ
ĠØ§ÙħØª ÙĨØ¹Øª
ĠØ²Ø± Ø§Ø±Ø©
ĠØ§ÙĦØªÙģ ÙĪÙĬØ¶
ĠÙĦÙĦØ² ÙĬØ§Ø¯Ø©
ĠÙĦÙĦØ² Ø±Ø§Ø¹Ø©
ÙĪØ§ÙĦØ¥ ÙħØ§Ùħ
ĠØªØ¹ÙĦÙĬ ÙĤØ§
ĠØ³Ø§ ÙĥØª
ĠÙħÙĥØ±ÙĪÙĩ Ø©
ĠÙģØ§ÙĦÙĪ ÙĦØ§Ø¡
ĠÙĥØ§ÙĦØ¥ Ø¬Ø§Ø±Ø©
ĠÙĪØ£Ø® ØªÙĩ
ĠÙħÙĤØ¨ Ø±Ø©
ĠÙħÙĤØ¨ ÙĪØ¶Ø©
ĠÙĪØ¢ ÙĦÙĩ
ĠÙģØ§ÙĦ ÙĦÙĩ
ĠØ§ÙĦÙħØ¹Ø§ ÙĩØ¯
ĠØªØ¹ÙħØ¯ Øª
ÙĪØµØŃ ØŃ
ĠØ¨Ø±ÙĤ Ø¨Ø©
ĠØ§Ø³ØªØ¦ ÙĨØ§Ùģ
ĠÙĨÙģØ° ÙĨØ§
ĠÙĪØ§ÙĦØ± ÙĪÙĬØ§ÙĨÙĬ
ĠÙĪØ¨Ø¹Ø¶ ÙĩØ§
ĠØŃÙģØ± ÙĩØ§
ĠÙģÙĦÙĦÙħ Ø´ØªØ±ÙĬ
ĠØ®ÙģÙĬ ÙģØ©
ĠØ·Ø± ÙģÙĬ
ĠÙģØ§ÙĦØ¹ Ø¨Ø±Ø©
ĠØ§ÙĦØªØ® ÙģÙĬÙģ
ĠÙĬØ« Ø§Ø¨
ĠÙħÙĨÙģØ± Ø¯Ø©
ĠÙĪØ§ÙĦØ¶ ÙħØ§ÙĨ
ĠØ¨Ø¢ ÙĦØ©
ĠØ³ÙĦØ§Ùħ ØªÙĩ
ĠØŃØ±Ø² Ùĩ
ĠØ§ÙĦØ§Ø« ÙĨÙĬ
ĠØ¨Ø¨Ø¯ ÙĨ
ĠØ§ÙĦÙħÙĤØ§ Ø³ÙħØ©
ĠÙħÙĤÙĬ ÙħØ§
ĠØ£ØªÙħ ÙĩØ§
ĠØºÙĨ ÙħØ§
ĠÙĥÙģØ§Ø± Ø§Øª
ĠÙĬÙħØ³ ÙĩØ§
ĠÙħÙĥØª ÙĪØ¨Ø©
ĠØ¹Ø´ Ø±Ùĩ
ĠØ§ÙĦÙħÙĥØª ÙĪØ¨
ĠØ±Ø· ÙĪØ¨Ø©
ĠÙĪØ£Ø¨ ÙĪÙĬÙĨ
ĠØ¨Ø³Øª Ø§ÙĨ
ĠÙħØ§Ø´ ÙĬØªÙĩ
Ø®Ø§ Ø°Ùĩ
ĠÙħØŃÙħ ÙĪÙĦØ©
ĠØ§ÙĦÙĬÙĩ ÙĪØ¯ÙĬ
ĠÙģÙĤÙĬ ÙħØªÙĩ
ĠÙĥØ§ÙĦØ¯ ÙĬÙĨ
ĠØ¨Ø¨Ø· ÙĨ
ĠÙħØŃØ±Ø² Ø§
ĠØ§ÙĦÙĦØ¨ Ø§Ø¨
ĠØ³ÙĦØ· Ùĩ
ĠÙħØ±ØªØ¨ Ø·
ÙģØ§ÙĦØŃ Ø§ØµÙĦ
Ø®Ùģ Ùģ
ĠÙħØªØªØ§Ø¨ Ø¹Ø§
ĠØ§ÙĦÙħØ´Ø§Ø± ÙĥØ©
ĠØ§ØµØ· ÙĦØ§ØŃ
ĠÙĦØ¤ ÙĦØ¤
ĠØ³Ø¤ Ø§ÙĦÙĩ
ÙĤØ¨Ø§ Ø¶
ĠÙħØ³ÙĤØ· Ø§
ĠÙĦØ³ÙĩÙĪ Ùĩ
ĠØ¯ÙĬ ÙĪÙĨÙĩ
ĠØ§ÙĦØ¶ÙĬØ§ ÙģØ©
ĠÙĨØ³ÙĬØ§ÙĨ Ø§
ĠØ§Ø¬ØªÙħ Ø¹Øª
ĠÙĥØ±Ø§Ùĩ ØªÙĩ
ĠÙħØ³ÙĨ Ø¯Ùĩ
ĠÙħØ¶Ø· Ø±Ø§
ĠØ§ÙĦØ±Øº Ø¨Ø©
ĠØ®Ø¯ÙĬ Ø¬Ø©
ØªÙĨØ¨ÙĬ ÙĩØ§Øª
ĠÙĥØ§ÙĦÙĩ Ø¨Ø©
ĠØ§ÙĦØ¥Ùħ Ø¶Ø§Ø¡
ĠØ£ØµØ¯ÙĤ ÙĩØ§
ĠØ§ÙĦØµØº Ø±Ùī
ĠØ§ÙĦØ§ÙĨØ¯ ÙħØ§ÙĦ
ĠÙĩØ±Ùħ Ø²
ĠØªØ¹Ø§Ø± Ø¶Øª
ĠØ§ÙĦØ£ÙħØ§ ÙĥÙĨ
ĠØ¨ÙĨÙĥ ÙĪÙĦÙĩ
ĠÙħØªØ§Ø¨Ø¹ ØªÙĩ
ĠÙħØ¨Ø¹ Ø¶Ø§
ĠØ§ÙĦØ´ÙĩØ§ Ø¯Ø§Øª
Ø§ Ø³Ø¨
Ø§ Ø°Ø¨
ÙĬ ÙĦÙĬÙĨ
ÙĪ Ø³Øª
ÙĪ ÙĦÙģØ¸
ÙĪ Ø§Ø±ØŃ
ÙĪ ÙĪØ¬Ø¯
ÙĪ Ø³Ø¨Ø¨
ĠØ§ Ø±
Ùħ ÙħÙĨ
Ùħ ÙĪØ§
Ùħ ÙĪØ±
Ùħ ÙģÙĩÙĪÙħ
Ø¨ ÙĪÙĬÙĨ
Ø¯ ÙĦØ§
Ø¯ ÙĪÙħ
Øª Ø±Ø©
Ø¹ ÙħØ§
Ø¹ Ø§ÙĨ
Ø¹ ÙĦØ§Ùħ
Ø¹ ÙĤØ¨
ĠÙĪ ÙĦØ²
ĠÙĪ Ø³ÙħÙī
ĠÙĪ Ø²ÙĪØ¬ÙĩØ§
ĠØ£ Ø¹Øª
ĠØ£ ØºÙĨÙĬØ§Ø¡
ĠÙħ ÙĩØ§
ĠÙħ ÙĦØ£
ĠÙħ Ø¬Ø²
ĠÙħ ÙĤÙĪÙĦ
ĠÙħ Ø¨ÙĩÙħ
ĠÙħ ÙĪÙĦÙĬÙĩ
ĠÙħ Ø¨ÙĩÙħØ§
ĠØ¨ ÙĪÙĥ
ĠØ¨ Ø§Øº
ĠØ¨ Ø±Ø¬ÙĪØ¹
ĠØ¨ Ø§Ø´Ø±Ùĩ
ĠÙģ ÙĨØ§
ĠÙģ Ø±Ø£ÙĬØª
ĠÙģ ÙĤÙĬÙĩ
ĠÙģ Ø²ÙĪØ¬ÙĩØ§
ĠØ¹ ÙĦÙģ
ĠØ¹ Ø«Ø±
Ùģ Ø®
Ùģ ÙĪÙĩ
Ø³ ÙĬØ·
Ø³ ÙħØ§Ùĩ
ĠÙĬ Ø¹Ø§Ø¯
ØŃ Ø±Ùģ
ØŃ Ø¨Ø³
ØŃ Ø§ØµÙĦÙĩ
Ùĥ ÙĦÙĩØ§
Ùĥ ÙĪÙĨÙĩ
Ùĥ ÙĬÙĩ
Ø¬ ÙĦØ§
Ø¬ ÙħÙĬØ¹
Ø¬ Ø§Ø³ØªÙĩ
Ø£ Ø³ÙĦÙħ
Ø£ ØµÙĦ
Ø£ ØªÙī
Ø£ ÙĤÙĦ
Ø£ Ø±Ø¨Ø¹
ĠÙĤ ÙĬØ±Ø§
ĠÙĤ Ø¶Ø§Ø©
Ø° Ø±ÙĬ
Øµ Øµ
ĠÙģÙĬ ÙĤØª
ĠÙģÙĬ ØªØŃ
ĠÙģÙĬ ÙĤØªØ¶ÙĬ
ÙĦÙĬ Ø§Øª
ĠÙĥ Ø¯Ùħ
ĠÙĥ ÙħØ¹
ĠÙĥ ÙģÙĬÙĩ
ĠÙĥ ÙĦØ¨Ùĩ
ĠÙĥ ÙĪØ·Ø¡
ĠØ§ÙĦÙħ Ø¯Ø§
ĠØ§ÙĦÙħ ÙĪÙĦÙĬ
ĠØ§ÙĦÙħ ÙģÙĬØ¯
ĠØ§ÙĦÙħ ÙĦØ§Ùĥ
ĠØ§ÙĦÙħ ÙĪØ§ÙĨØ¹
ĠØ§ÙĦÙħ Ø°Ø¨ÙĪØŃ
ĠØ§ÙĦÙħ Ø£Ø¬ÙĪØ±
ĠØ§ÙĦÙħ ØµØŃØŃ
Ø¶ ÙĪØŃ
ĠØ¥ ÙħØ§Ø¡
ĠØ¥ ÙĦØŃØ§ÙĤÙĩ
ĠÙħÙĨ ÙģØµÙĦ
ĠÙħÙĨ Ø¬Ø§
Ø® Ø³
Ø® ÙĦÙģÙĩ
Ø· Ø±ÙĤ
Ø· Ø§Ø³
ĠØª ÙĨØ³
ĠØª ÙĪØ·
ĠØª ÙĪØ¶Ø¹
ĠØª ÙĪÙĥÙĦ
ĠØª ÙĤØªÙĦ
ĠØª ÙĪØ±Ø«
ĠØª ÙĥÙħÙĦ
ĠØª ØªØ§Ø¨Ø¹
ĠØª ÙĪÙģÙĬØ©
ĠØª ÙħÙĨØ¹Ùĩ
ÙĦÙĪ ÙĦØ§
ĠØŃ Ø°Ø§
ĠØŃ Ø±Ùĥ
ĠØŃ ÙħØ±Ø©
ĠØŃ Ø¨Ø§Øª
ĠØŃ ÙĦÙĬÙģ
ĠØŃ ÙĪØ§ÙĦØ©
ĠØŃ Ø¶Ø±Ùĩ
ĠØŃ ÙģØ±Ùĩ
ĠØŃ ÙĦÙĪÙĦÙĩ
ÙĬÙĨ Ø§Ùĩ
Ø§ÙĨ ÙĪØª
ĠØ§ÙĦ ÙĦÙĪÙĨ
ĠØ§ÙĦ ÙĦØ¤ÙĦØ¤
ĠØ£ÙĪ ÙĩÙħ
ĠØ£ÙĪ ØµÙĬ
ĠØ£ÙĪ Ø±Ø¯Ùĩ
ĠØ£ÙĪ ÙĦØ¦Ùĥ
Ø´ ÙĪØ²
Ø´ ÙĩØ§Ø¯Ø©
Ø² ÙĤØ©
ÙĦÙĤ Ø§
ĠØ± ÙĬÙĤÙĩ
ĠØ± Ø´ÙĬØ¯Ø©
Ø¥ÙĨ Ùĥ
ĠÙĨ Ø·
ĠÙĨ Ø¹Ø§
ĠÙĨ ØµØŃ
ĠÙĨ Ø¯Ùħ
ĠÙĨ Ø¨Ø§Øª
ĠÙĨ ÙĪÙĬØª
ĠÙĨ ÙĪØ¹Ø§
ĠÙĨ ÙĪØ§Ø¯Ø±
ĠÙĦØ§ ØŃÙĤ
ĠÙĦØ§ Ø²ÙħÙĩ
ĠØ¹ÙĨ Ø¨
ĠØ¹ÙĨ ÙĤ
ĠØ¹ÙĨ ÙĥÙħ
ĠÙĦÙħ Ø°ÙĩØ¨
ĠÙĦÙħ Ø³ØªØŃÙĤ
ĠÙĦÙħ ÙĪØ§ÙĦÙĬ
ĠÙĩ Ø¯Ø§ÙĬØ©
ĠØ³ Ø·
ĠØ³ ÙĨÙĬ
ĠØ³ Ø±Ø§Ø¬
ĠØ³ ÙĤÙī
ĠØ³ Ø§Ø¹ØªÙĩ
ĠØ´ ÙĬÙĨ
ĠØ´ Ø§Ø±Ø¨
ĠØ´ Ø§ØªÙĬÙĨ
ĠØµ ÙĦ
ĠØµ ÙĪØ¨
ĠØµ Ø¨ØŃ
ĠØµ ÙĪÙĨØ§
ĠØµ Ø¨ÙĬØ©
ĠØµ ÙĬØº
ĠØ¨ÙĨ Ø§Ø¤Ùĩ
ĠØ¨ÙĨ ÙģÙĤØªÙĩ
ĠØ¬ Ø±Ùħ
ĠØ¬ Ø§Ø¦ØŃØ©
ĠØ§ÙĦØ¹ Ø§Ø±
ĠØ§ÙĦØ¹ ÙĪÙģÙĬ
ĠØ§ÙĦØ¹ Ø§ÙĤ
ĠØ§ÙĦØ¹ ØªØ§ÙĤ
Ø¨ÙĬ ÙĦÙĩ
Ø¨ÙĬ Ø«
ĠØ¨Ø¹ ØªÙĩ
ĠØ¨Ø¹ ÙĦØ©
ĠØ¨Ø¹ ÙĬØ±Ùĩ
ĠØ§ÙĦØŃ Ø±Ùģ
ĠØ§ÙĦØŃ Ø§Ø¦Ø²
ĠØ§ÙĦØŃ ÙĥØ§Ùħ
ĠØ¯ Ùĩ
ĠØ¯ ÙĦØ§
ĠØ¯ ÙĨÙĬ
ÙĪØ§ ÙħØ¹
ĠØ® ÙģØ§Ø¡
Ø±ÙĬ Ø¡
Ø±ÙĬ ÙĤØ©
ĠØ§ÙĦÙĤ ÙħØ±
ĠØ§ÙĦÙĤ Ø§Ø¨ÙĦ
ĠÙĪØ§ Ø³Ø·Ø©
ÙħØ± Ø§Ø±
ÙģÙĬ ØŃØ±Ùħ
ÙĪØ¬ ÙħØ¹
ÙĪØ¬ ÙħØ§Ø¹Ø©
ĠØ§ÙĦÙĪ ÙĦÙĪ
Ø¸ ÙħÙĩ
ĠØºÙĬØ± Ùĥ
Øº ÙħØ³
ĠØ§ÙĦØ¨ ÙĨØ¯
ĠØ§ÙĦØª ÙĤØ±Ø¨
ĠØ§ÙĦØª Ø±Ø§Ø®ÙĬ
ĠØ§ÙĦØª ÙħØ«ÙĬÙĦ
ĠØ§ÙĦØª Ø§Ø¨Ø¹ÙĬÙĨ
Ø±Ø¨ Ø§Ø¨
ÙĤÙĬ Ø§Ø³
Ø¦ ØªÙĩØ§
ĠØ§ÙĦØ¥ ÙĦÙĩ
ĠØ§ÙĦØ¥ Ø¶
ĠØ§ÙĦØ¥ Ø³Ø±
ĠØ§ÙĦØ¥ Ø¨ÙĤØ§Ø¡
ÙĪÙħ ÙĤØ§Ø¨ÙĦ
ĠÙĪÙĦØ§ Ùĩ
ĠØ§ÙĦÙĨ Ø·ÙĤ
ÙĪÙĬ Ø³
ÙĪÙĬ ÙħÙĨØ¹
Ø±Ø¶ Ùī
ÙĦØª ÙĬ
ÙĦØª Ø²Ùħ
ÙĦØª Ø¹Ø°Ø±
ÙĥÙħ ÙĦØ©
ĠØ§ÙĦØ´ ÙģØ¹
ĠØ§ÙĦØ¬ ÙĪØ¯Ø©
ĠØ§ÙĦØ¬ Ø§Ø¦ØŃØ©
ĠØ§ÙĦØ¬ Ø¨Ø§ÙĦ
ĠÙĪØ£ Ø¯Ùī
ĠÙĪØ£ ØŃØ³ÙĨ
ÙĪØ¹ ÙħØ±
ÙĪØ¹ Ø¨Ø§Ø±ØªÙĩ
ĠØ· Ø¹Ùħ
ĠØ· Ø§Ø¦Ø±
ĠØ· Ø§Ø±ÙĤ
ĠØ· Ø¨ÙĬØ¨
ĠØ· ÙĪØ¹Ø§
ĠÙĪØ¬ ÙĦØ³
ĠÙĬØ¬ Øª
ĠØ§ÙĦØ³ ÙĤØ·
ĠØ§ÙĦØ³ Ø¨Ø§Ø¹
ĠÙĪÙĬ Øµ
ĠÙĪÙĬ ÙĪØ¬Ùĩ
ĠÙĪÙĬ Ø¨Ø±Ø£
ĠÙĪÙĬ Ø¨Ø§ØŃ
ĠÙĪÙĬ ÙĥÙģØ±
ĠÙĪÙĬ Ø¬Ø±ÙĬ
Ø¹Ø§ ÙĪÙī
ÙģØ³ Ø§Ø¯Ùĩ
ĠØ£Ø® Ø¶Ø±
ĠØ£Ø® ØªØ§ÙĨ
ÙĨÙĬ Ø¬ÙĬ
ĠÙĦÙĬ ØµÙĦ
ĠÙĦÙĬ Ø£ØªÙĬ
ĠØ§ÙĦÙģ ÙĪØ§
ĠØ§ÙĦØµ ÙĦØ©
ĠØ§ÙĦØµ ÙĦØ§ØªÙĬÙĨ
ĠÙħØŃ Ø§ÙĦØ©
ĠÙħØŃ Ø¶Ø±
ĠÙĬØª Ø¹Ø§
ĠÙĬØª Ø¯Ø§
ĠÙĬØª Ø¶ØŃ
ĠÙĬØª Ø·ÙĪØ¹
Ø¤ ÙĩÙħ
ĠØ§ÙĦØ® ØªØ§ÙĨ
ĠØ§ÙĦØ® Ø±ÙĤØ©
ĠØ§ÙĦØ® Ø§ÙĦØµ
ĠØ§ÙĦØ® ÙĬØ§Ø·
Ø£ÙĪ ÙĦÙī
ÙĪØ± Ø£
ĠØ§ÙĦÙĥ Ø§ÙħÙĦØ©
ĠØ§ÙĦÙĥ Ø³ÙĪÙģ
ĠØ¹ÙĨÙĩ ÙĨ
ĠØº ÙģÙĦ
Ø¶ÙĬ Ùĩ
Ø³Ùħ ÙĬÙĨ
ĠØ§ÙĦØ¯ ÙĬÙĪØ§ÙĨ
ĠÙĪÙĥ ÙĨØª
ĠÙĪÙĥ Ø°Ø¨
ĠÙĪØ¹ ÙĦÙĦÙĩ
ÙģØ§ ÙģÙĩ
Ø¬Ø± Ø¯Ùĩ
ĠÙĬÙĨ Ø´
ĠÙĬÙĨ ÙĥØ±Ùĩ
ĠÙĬÙĨ Ø¨Ø´
ĠÙĬÙĨ Ø¶Ø¨Ø·
ÙĬØª ÙĬ
Ø¶Ø§ ÙģÙĩ
ĠØ¶ ÙħØ±Ø©
ÙĪØ¨ ÙĩØ§
ÙĪØ¨ ÙĤÙĪÙĦÙĩ
Ø®Øª ÙĩØ§
ĠØ¨Ø£ Ø¹ÙĦÙī
ĠØ¨Ø£ Ø±Ø¨Ø¹ÙĬÙĨ
Ø¯Ø§ ÙĪÙĬ
ĠØ§Ø³Øª ÙĨ
ĠØ§Ø³Øª ÙĨØ¯
ĠØ§Ø³Øª ÙĪØ¬Ø¨
ĠØ§Ø³Øª Ø¯Ø±Ø§Ùĥ
ĠØ§Ø³Øª ÙĤØ¨Ø§ÙĦ
ĠÙĤØ¯ ØŃ
ĠÙĤØ¯ ÙħØ§
Ø¨Ø¹ ÙĬØ¶
ĠÙĪØª ØŃÙĦ
ĠÙĪØª Ø³ÙĤØ·
ĠØ£Ø¨ ÙĪÙĬÙĩØ§
ÙĪØ£ ÙĥØ«Ø±
ÙĪØ£ Ø®Ø¨Ø±ÙĨÙĬ
ĠÙĪÙĤ Ø±Ø¨
ĠØ¨Ø¯ ÙĨÙĩØ§
ĠØ¨Ø¯ ÙĦØ§ÙĦØ©
ĠØ§ÙĦØ§ Ø³ØªØŃØ¨Ø§Ø¨
ĠØ§ÙĦØ§ Ø³ØªÙĩÙĦØ§Ùĥ
ĠÙĪÙĩ Ø¨Ø©
ĠØ§ÙĦØº Ø¨ÙĨ
ĠØªØ¹ Ø¬
ĠØªØ¹ ÙħÙĬ
ĠØªØ¹ Ø±ÙĬØ¶
ĠÙĦÙĦÙħ Ø¤
ĠÙĦÙĦÙħ ØµÙĦØŃØ©
ĠÙĦÙĦÙħ ØºØµÙĪØ¨
ØªÙĬ ÙĩØ§
Ø³Ø¨ ØŃ
ĠÙĬØ¯ ÙĪØ±
ĠÙĬØ¯ Ø±Ùī
ĠÙģØ£ ØªÙĬ
ĠÙħØª ÙģØ±
Ø§Ùĩ Ø©
ĠÙĪÙĨ ÙģØ°
ĠÙĪÙĨ Ø³ÙĬ
ĠÙģØ§ ÙĦØ§
ĠÙģØ§ Ø³ØªØŃ
ĠÙĪÙħ Ø´
ÙĪÙģ Ø§Ø¦Ø¯Ø©
ĠØ¨Ùħ Ø·ÙĦÙĤ
ÙĪØ³ Ø£ÙĦÙĩ
ĠÙĪØ§ÙĦÙħ Ø³ØªØ£Ø¬Ø±
ØªÙĤ Ø¨ÙĦ
ĠÙħØ³ Ø®
ĠØ¨ÙħØ§ Ø¦ØªÙĬÙĨ
ĠØ§ÙĦÙħØª ÙħØªØ¹
ĠØ§ÙĦÙħØª ÙĦØ§Ø¹ÙĨ
ĠÙģØª Ø³Øª
ĠÙģØª ÙĨØ¨Ùĩ
ĠØ§ÙĦØ· Ø§Ø¦Ùģ
ĠÙĬØ® ÙĦØµ
Ø³ØªØŃ Ø§Ø¶Ø©
ĠÙħØ± Ø«Ø¯
ÙĦØ« ÙĪÙħ
ĠÙĬØ³ ÙĩÙĦ
ĠÙĬØ³ ÙĥØª
ĠØ£Ø´ ÙĤ
ĠØ£Ø´ Ø¹Ø«
ÙĪØ¥ Ø°
Ø§ÙĦÙħ Ø´ØªØ±ÙĬ
Ø°ÙĨ Ø¨
ÙģØª Ø¬Ø¨
ĠØ§ÙĦÙħØ¹ Ø²
ĠØ§ÙĦÙħØ¹ Ø§ÙĨÙĬ
ĠØ§ÙĦÙħØ¹ ÙĩÙĪØ¯
ĠØ¹ÙĦÙħ Ø§Ø¦ÙĨØ§
ĠØªØŃ Ø±Ùī
ĠØªØŃ ÙħÙĦÙĩ
ĠØ§ÙĦÙħØµ ÙĦÙī
ÙĨØ³ Ø¨Ø©
ĠØ§ÙĦÙħØŃ Ø°ÙĪØ±
ÙĪØµ ÙĦØ©
ÙĪØ· Ø±ÙĬÙĤ
ÙĪØ· ÙĪØ¡Ø©
Ø°ÙĥØ± ÙĩØ§
ĠÙĪØŃ Ø±
ĠÙĪØŃ Ø¬Ø±
ĠÙĪØ§ÙĦ ÙĨÙĩØ§ÙĬØ©
ĠÙĪØ³ Ø¯
ĠÙĪØ³ ÙĦÙģ
ĠÙĪØ³ Ø§Ø¯Ø©
ĠÙĪØ³ Ø¬ÙĪØ¯
ĠÙĪØ³ ÙĤÙĪØ·
ĠÙĦÙĤ Ø±Ø¨
ÙĪÙĤØ¯ Ø±
ĠÙĦØŃ ÙĪÙĤ
ĠÙĬØ³Øª Ø±ÙĤ
ĠØ¨Øª Ø«ÙĦÙĬØ«
ÙĦØ³ ÙĬ
Ø§Ùģ ÙĦ
ĠÙħØ§Øª Ø§
ĠØ§Ø´Øª ÙħÙĦØª
ĠÙĪØ¬Ùĩ ÙĬ
ĠØ¢ ÙĬØ§Øª
ĠØ¢ ÙĬØ³Ø©
ĠØ¢ Ø®Ø±Ø§
ĠØ§ÙĦÙĩ Ø±Ø©
ĠØ§ÙĦÙĩ ÙĪÙĬ
ĠØ§ÙĦÙĩ ÙĪØ§Ùħ
ĠØ§ÙĦÙĩ ÙĬØ¦Ø©
ĠÙĬØ´ Ø¯
ĠØ¹Ø¯ ÙĪÙĦ
ĠÙĬØ¨ ØŃØ«
ĠÙĦØ¨ Ø¯
ĠÙĦØ¨ ÙĤ
ĠØ¨Ùĥ ÙģØ±
ĠØ§Ø¹Øª ÙĥÙģ
ĠØ¨ÙĤÙĪÙĦÙĩ Ø§
ĠØ§ÙĦØ¶ Ø±Ø©
ĠØ§ÙĦÙħÙĨ ÙĥØ³Ø±
Ø§Ø³ Ø§Øª
ĠÙĪØ§ÙĦØ£ ÙĥÙĦ
Ø¶Ø± Ø±Ùĩ
ÙģØ¥ ÙħØ§
ÙĪØŃ Ø´
ĠØ¨Ø´ Ø¹Ø±
ĠÙģÙĥ Ø¨Ø±
ĠØ¨Ø· ÙĪÙĦ
ĠÙħØ¬ Ùħ
Ø¶Ùħ ÙĨÙĩØ§
ĠØ£Ø³ ÙĨÙī
ĠÙĨØ³ ÙĬÙĩ
Ø£ÙĨÙĩ Ùħ
ĠØ°ÙĥØ±Ùĩ ÙħØ§
ÙĥÙħØ§ Ø¡
ĠÙħØ³Øª ÙĪÙĦØ¯Ø©
ĠÙĦÙĦØ£ ÙħØ©
ĠÙĦÙĦØ£ Ø®Ø±Ùī
ĠØ¨Ø§ÙĦØ£ ÙħØ©
ÙĨØ¯ ÙĪÙĤ
ĠØªÙĤ ÙĪÙĬÙħ
ĠØŃØ¬ Ø±Ø©
ĠØ§ÙĦÙħØ¬ ÙĦØ©
ÙģØ£ Ø©
ÙģØ£ Ø±Ø§Ø¯
ÙĪØ§ÙĦÙħ Ø´ÙĩÙĪØ±
ĠÙģØ± Ø³Ø®
ĠÙģØ± Ø§Ø¦Ø¶
ĠØªØ³ ÙĦÙĬ
ĠØªØ³ ÙĥÙĨ
ĠØªØ³ Ø£ÙĦ
ĠØ§ÙĦØ¸ Ø§ÙĩØ±Ø©
ĠØ±Ùĥ ÙĪØ¨Ùĩ
ĠØ±Ùĥ Ø¹ØªÙĩ
Ø°Ùĥ ÙĬØ±
ĠØ³ÙĦÙħ ÙĨØ§
ĠØªÙĨ ÙģÙĬ
ĠÙħØ«ÙĦÙĩ ÙħØ§
ÙĦØ· Ø®
ĠÙģÙĦÙĬ ÙĨØ¸Ø±
ĠÙĪØ§ÙĦØ¹ Ø±Ùģ
ĠÙĪØ§ÙĦØ¹ ÙĤÙĦ
ĠÙĪØ£ÙĨ ÙģÙĤ
ĠØ¨Ø§ÙĦÙĤ Ø±Ø§Ø¡Ø©
ĠØ£ÙħØ± Ø¯
ĠÙĪØ® ÙĪÙģ
ĠØ¬Ùĩ Ø±Ø§
ĠØ¬Ùĩ ØªÙĬÙĨ
ĠØ§ÙĦØŃØ¬ Ø§Ø¨
ĠØ¨Ø§ÙĦØª ÙĤ
ĠØ¨Ø§ÙĦØª Ø£Ø®ÙĬØ±
ĠØ´Ø¹ Ø±Ø©
ĠØ¨Ø§ÙĦØŃ Ø¯ÙĬØ«
ĠØ¨Ø§ÙĦØŃ Ø¬Ø©
ÙģØ¹ÙĦ ÙĨ
ĠÙĦÙĦØ¹ Ø¨Ø§Ø¯Ø©
ĠÙħØ¯ Ø±ÙĥØ§
ĠÙĥÙģ Ø±Ø§
ĠÙĬÙģ Ø¯
ĠÙĪØ§ÙĦØŃ ÙĦÙĤ
ĠÙĪØ§ÙĦØŃ ÙħÙĦ
ĠÙĪØ« ÙĤ
ĠØ¨Ø§ÙĦØ¥ ØªÙĦØ§Ùģ
ĠØ¬Ø¹ ÙĦØªÙĩ
ĠØ¨Ø¬ ÙħØ§Ø¹
ĠØ´Ø± ÙĪØ¹
ĠØ§ÙĦÙħØ¤ Ø¯ÙĬ
ĠØ§Ø¯ Ø¹ØªÙĩ
ĠØªØª ØŃÙĤÙĤ
ĠÙĪÙĦÙĩ ÙħØ§
ĠÙĪÙĦÙĬ ÙħØ©
ĠÙĪØ¯ Ø¹
ĠÙĦÙĦÙĪ ØµÙĬØ©
ĠØ§ÙĦØ±ØŃ ÙħØ©
ĠØ¨Ø§ÙĦØ¨ Ø§ÙĤÙĬ
ĠØ¨Ø§ÙĦØ¨ Ø·ÙĦØ§ÙĨ
ĠØ¨Ø³ Ø§Ø¦Ø±
ĠÙĦØ¥ Ø³ÙĤØ§Ø·
ÙĪÙĬÙĨ ÙģÙĤ
ĠÙģØŃ ÙħÙĦØª
Ø§Ø¤ ÙĩÙħØ§
ĠØ§ÙĦØŃÙĬ Ø«ÙĬØ©
ĠØªÙģ ÙĦÙĬØ³
ĠØ£Ø¨Ø§ ØŃ
ÙĪØ« Ùĩ
ĠÙĦÙĤÙĪÙĦÙĩ Ùħ
ĠÙģÙĤ Ø³Ùħ
ĠØ§ÙĤØª Ø³Ùħ
ĠØ¨Ø§ÙĦÙĨ ÙģÙĬ
ĠØ§ÙĦÙĤØ± Ø´ÙĬ
ĠØ¨Ø§ÙĦØ´ ÙĩØ§Ø¯Ø©
ĠØ¬Ø§Ø¡ ÙĨÙĬ
ĠÙĦØº Ø³ÙĦ
ĠØ§ÙĨØª Ø²Ø§
ĠØ§ÙĦØ£Øµ ÙĦØŃ
ĠØ§ÙĦÙħØº ÙĨÙħ
ĠÙĦØ¬ ÙĩØ§ÙĦØ©
ĠÙĬØ¹Øª Ø§Ø¯
ĠØ£Ø¹ØªÙĤ ØªÙĩ
ĠÙħØ¹Øª Ø±Ø¶
Ø¨Ø±Ø£ Ø©
ĠØ¨Ø§ÙĦÙĪ Ø¶Ø¹
Ø¹Ø· Ùģ
ĠØ£ÙĬØ§Ùħ ÙĩØ§
ĠØ¥ÙħØ§ ÙħØ©
ĠØ¨Ø§ÙĦÙĥ Ø°Ø¨
ĠØ§ÙĦÙħØ· Ø§Ø¨ÙĤØ©
ĠÙĪÙĬÙĨ ÙģØ°
ĠÙĪØ§ÙĦØ® ÙĨØ«Ùī
ĠÙģØ§ÙĦÙħ Ø§ÙĦ
ĠÙģØ§ÙĦÙħ Ø°ÙĩØ¨
ĠØ¨ÙĬØ§ÙĨ Ø§
ĠÙĪØ§ÙĦØ¬ ÙħØ§Ø¹Ø©
ĠØ¥Ø® Ø¨Ø§Ø±Ùĩ
ĠØ¨Ø§ÙĦØ¬ ÙħØ¹
ĠØ¨Ø§ÙĦØ¬ ÙħÙĬØ¹
ĠØ¨Ø§ÙĦØ¬ ÙħØ§Ø¹
ĠÙħØ±Ø§ ØªØ¨
ĠØ§ÙĦØªØŃ ÙĦÙĬÙĦ
ĠÙĪÙģ ÙĩÙħ
ĠÙĦØ¯ Ùī
Ø§ÙĦØ¯ ÙĬÙĨ
Ø²Ø§ Ø¹ÙĬ
ĠØ£ÙħÙĩ ÙĦ
ĠÙĪØº Ø§Ø¨
ĠØªØº ÙĬ
ĠÙħØ´Øª ÙĤ
ĠØªØµØ±Ùģ Ø§
ĠØ£Ø¹Ø· ØªÙĩ
ÙĬØ« Ø§Ø±
ÙĨÙħ ÙĦØ©
ĠØ§ÙĦÙħÙĤ ÙĪÙħ
ĠØ§ÙĦØ£Ø³ Ø¯
ĠØ§ÙĦØ£Ø¹ Ø±Ø§Ø¨
ĠÙģÙĬØª Ø±Ùĥ
ĠØ§Ø±Øª Ùĥ
ĠØ§Ø±Øª ÙģØ¹Øª
ĠÙĬØ´ÙĩØ¯ ÙĪØ§
ĠØ§ÙĦÙħØ² Ø¯ÙĦÙģØ©
ĠØªØ¬ Ø§ÙĪØ²
ĠÙĬØŃØªØ§Ø¬ Ùĩ
ĠÙģØ¯ Ø¹Ø§
ĠÙĥØª Ø¹
ĠÙĬØªØŃ ÙĪÙĦ
ĠÙĥÙĦØ§ Ø¨
ĠÙħÙĪØ§ ÙĦÙĬÙĩ
ĠØ¹Ø§Ùħ ÙĬÙĨ
ĠØ¨Ùģ ÙĦØ³
ĠØµÙģ ÙĪÙģ
ÙĤØ§Ø¨ Ø¶
ĠÙĨÙĪØ¹ ÙĬÙĨ
ĠØ¨Ø§ÙĦØ§ ØŃØª
ĠÙĪØ«ÙĦØ« ÙĬÙĨ
ĠØ§ÙĦØ§Ø¹Øª ÙĬØ§Ø¶
ĠÙħÙĨÙĥ Ø¨ÙĬÙĩ
ĠØ£Ø· Ø§ÙĦ
ĠÙĥØ§ÙĦØ¹ ØªÙĤ
ĠÙĪØªØ±Ùĥ ÙĩØ§
ĠØ¹Ø±Ø¶ Øª
ĠÙĦØ¨Ø³ ÙĩØ§
ĠÙħØ² Ø¯ÙĦÙģØ©
ĠÙģØ´ Ø±Ø·
ĠØ§Ø³ØªØ£Ø¬Ø± ÙĩØ§
ĠÙĥÙģØ± ÙĪØ§
ĠÙĥÙĨ ØµÙģ
ĠÙĥØ§ÙĦÙĪ ÙĦØ¯
ĠØªØ¨Ø¹ ÙĬØ©
ĠÙĦÙĦØ£Ø¨ ÙĪÙĬÙĨ
ĠØ£ØªÙĦÙģ ÙĩØ§
ĠÙĬÙĤØ¨ ÙĦÙĩØ§
ĠÙĬØ´Øª Ø±
ĠØªØ§Ø¨ Ø¹Ø§
Ø§ÙĦØ® Ø§ÙħØ³Ø©
ĠÙĨÙĥ ÙĪÙĦ
ĠÙĬØ³Ùħ ÙĬ
ĠØ³Ùĥ ÙĨØ§Ùĩ
ĠØ§ÙĥØª Ø³Ø¨
Ø±ÙĥØ§ ÙĨÙĩØ§
ĠØ§ÙĦØ¥Ø¹ Ø°Ø§Ø±
ĠØ´Ø¨Ùĩ Ùĩ
ĠÙģØ§ÙĦÙĪ Ø§Ø¬Ø¨
ĠÙĥØ§ÙĦØ¥ ÙĤØ±Ø§Ø±
ĠØªÙģØ±ÙĬ Øº
Ø¬Ùħ ÙĬØ©
ĠØ¨Ø§ÙĦØ² Ø§Ø¦Ø¯
ĠÙĪÙĦØ ¥
ĠÙĪÙĦØ ´
ĠØ¨Ø§ÙĦØ¶ Ø±Ø¨
ĠØµÙĨØ¹ ØªÙĩ
ĠØ°Ø§Ùĥ Ø±Ø§
ÙĪØ§Ø¹ Ø¯Ùĩ
ĠØµÙĨ Ø¹Øª
ĠØµÙĨ ÙĬØ¹
ĠÙĬØ±Ø¬ Ùħ
ĠØ§ÙĦØ£Ø®ÙĬØ± ÙĬÙĨ
ĠØ¨Ø¹Øª ÙĥÙĩ
ĠÙĥØ¨Ø± Øª
ĠØ£ÙĨÙģØ³ ÙĩÙħØ§
ĠØ§ÙĦÙħÙĥÙĦÙģ ÙĬÙĨ
ĠÙģÙĪØ¬Ø¯ ÙĩØ§
ĠØ¨Ø±Ùĥ ÙĨ
ĠØ³ØªØ± ÙĩØ§
ĠÙģØ±Ø§Ø´ Ø§
ÙĪØ§ÙĦÙĥ ÙĦØ§Ùħ
ĠÙĪØ§ÙĦØ° ÙĬÙĨ
ĠÙĬØ« Ø±Ø¨
ĠØ¬ÙĪØ² Ùĩ
ĠØ¹Ø³ Ùī
ĠØ±Ø² ÙĤÙĩ
ĠÙĬØŃÙģØ¸ Ùĩ
ĠÙĤØ±Ø± ÙĨØ§
ĠØ¨Ø¨Ø¯ ÙĦÙĩ
ÙĪØ£ÙĪ Ø±Ø¯
ĠÙĦØ£Ø¬ ÙĦÙĩØ§
ĠØŃØ§Ø¦Ø· Ø§
ĠÙĥÙģØ§Ø± ØªÙĩ
ĠÙĪÙģØ± Ø¹Ùĩ
ĠÙħØ¹Ø±Ùģ ØªÙĩØ§
ĠØ§ÙĦÙħÙĥØª ÙĪØ¨Ø©
ĠÙĬØ¸ ÙĦÙħ
ĠØ³Ø¯ Ø³Ùĩ
ĠØ£Ø®Ø·Ø£ Øª
ĠÙģØ§ÙĦØ¨ ÙĬÙĨØ©
ĠÙħØ£Ø®ÙĪØ° Ø©
ĠÙģØ« ÙĦØ§Ø«Ø©
ĠÙģØµØŃ Øª
ĠØ§ÙĦÙħÙĪ ØªÙī
ĠØ§ÙĦØ§ÙĥØª Ø³Ø§Ø¨
ĠÙĪØ§ÙĦÙħÙĨ ÙģØ¹Ø©
ĠÙĦØ§ÙĨ ÙĤØ·Ø§Ø¹
ĠØ¥ÙĤ Ø§ÙĦØ©
ĠØ¥Ùħ Ø¶Ø§Ø¡
ĠØ§ÙĨØŃ ÙĦØª
ĠÙħØ´Ø±ÙĪØ· Ø©
ĠØ§ÙĦÙħØ³ØªØŃ ÙĤØ©
ĠÙħØ£Ø° ÙĪÙĨÙĩ
ĠØ§Ø¬ ØªÙĩØ¯
ĠÙĦÙĪÙĤ ÙĪØ¹Ùĩ
ĠØ§Ø³ØªØ® Ø¯Ø§Ùħ
Ø³Ø§ÙĪÙĬ ÙĬÙĨ
ĠØ§Ø³ØªÙĩ ÙĦ
ĠØ´Ø¬ Ø±Ø§
ĠØ§ÙĦØ³ÙĥØ± Ø§ÙĨ
ĠØ§ÙĦÙħÙģØ± ÙĪØ¶
ĠÙĬØ±Ùĩ ÙĨÙĩ
ĠÙħÙĨØ² ÙĦØ§
ĠÙħÙĨØ² ÙĦØªÙĩ
ĠÙĤØ§Øµ Ø¯Ø§
ĠØ¨Ø§ÙĦÙħÙĨ ÙģØ¹Ø©
ĠÙĪØ§ÙĦØ«ÙĦØ« Ø§ÙĨ
ĠØ£Ø±ÙĤ Ùħ
ĠØ§ÙĦØ±Ø´ ÙĬØ¯
ĠØ§ÙĦØ±Ø´ ÙĬØ¯ÙĬ
ĠØ³ÙģÙĬÙĩ Ø©
ĠØ§Ø®ØªÙĦØ· Øª
ĠÙħÙģÙĦØ³ Ø§
ĠÙħÙĥÙĬ ÙĦØ§
ĠØ§ÙĦØªÙĤØ· Ùĩ
ĠØªØŃØ¯ ÙĬØ¯
ĠÙĨÙĤÙĬ Ø¶
ĠØ¨ØªÙħØ§Ùħ ÙĩØ§
ĠØ³ÙĦØ¹ ØªÙĩ
ĠÙĦÙĨÙĤØµ Ùĩ
ĠØ§ÙĦÙħØ±Ø¯ ÙĪØ¯
ĠÙĬØ¹Ø¬ Ø¨ÙĨÙĬ
ĠÙĪÙĨÙĩ Ø§Ø±Ø§
ĠØ£ÙĤÙģ Ø²Ø©
ĠÙĪÙĦØµ Ø§ØŃØ¨
ĠØ§ÙĦØªØ¯ ÙĦÙĬØ³
ĠØªØ·Ùĩ ÙĬØ±Ùĩ
ĠØ§ÙĦÙģØ§ØŃ Ø´Ø©
ĠØ§ÙĦÙĤØ±Ø· Ø¨ÙĬ
ÙĪØ´Ø± Ø¹Ø§
ĠØ§ÙĦØ¬ØŃ ÙģØ©
ĠÙĪØ¨Ø§ÙĦØ¹ ÙĥØ³
ĠØ¥Ø¨Ø¯ Ø§ÙĦÙĩ
ĠÙħØ¨Ùĩ ÙħØ©
ĠØ³Ø§Øª Ø±Ø§
ĠØªÙĤØ±ÙĬ Ø¨Ø§
ĠØ§ÙĦÙħØ±Ø£ ØªÙĬÙĨ
ĠØ§ÙĦØ¶ØŃØ§ Ùĥ
ĠÙħÙĨØ§Øµ ÙģØ©
ĠØŃØ°Ø§ ÙģØ©
Ġ ÙĦÙĬÙĩ
ÙĦ ÙĦØ¹
ÙĦ ÙĦØ²ÙĪØ¬
Ø§ ÙĤÙĦ
ÙĨ ÙĪØª
ÙĬ ÙĪØ·
ÙĬ ÙĦÙĩÙħ
ÙĬ Ø£Ø®Ø°
Ùĩ Øª
Ùĩ ÙĦØ©
Ùĩ ÙĦÙĬØ©
ÙĪ Ø¨ÙĨ
ÙĪ Ø®Øµ
ÙĪ ØµØ¯ÙĤ
ÙĪ ÙĦØ£ÙĨÙĩØ§
ÙĪ Ø±Ø¬ØŃ
Ø± Ø¢ÙĨ
Ùħ Ø±ÙĬ
Ùħ Ø¶ÙĬ
Ùħ ÙĩÙĪØ±
Ùħ ÙĨØ§Øª
Ø¨ ÙĪÙĨ
Ø¨ Ø´Ø±
Ø¯ Ø±ÙĥÙĩ
Øª Ø§Ø±
Øª ÙħØ©
Øª ÙģØ±Ø¯
Ø¹ ÙĪØ¯ÙĬ
ĠÙĪ ÙĩØ§
ĠÙĪ Ø¯Ø§
ĠÙĪ ÙĪØ¶
ĠÙĪ Ø´ÙĬ
ĠÙĪ ÙĪÙĦÙĬ
ĠÙĪ Ø¨Ø¯ÙĦ
ĠÙĪ Ø¶ÙħÙĨÙĩ
ĠÙĪ Ø§Ø±Ø¯
ĠÙĪ ÙĪØ·Ø¡
ĠÙĪ ÙĪÙĦØ§Ø¤Ùĩ
ĠØ£ ØµØ±
ÙĤ Ø´
ÙĤ ÙĤÙĩ
ĠÙħ ØªÙĩ
ĠÙħ ÙĬÙĦØ§
ĠÙħ Ø¨Ø¯Ø£
ĠÙħ Ø±ÙĥØ¨
ĠÙħ Ø¯ÙĬÙĪÙĨ
ĠÙħ ÙĪØ²ÙĪÙĨ
ĠÙħ Ø±Ø§Ø¬Ø¹Ø©
ĠØ¨ ÙĦÙĬ
ĠØ¨ ÙĦÙĪ
ĠØ¨ Ø±Ùĩ
ĠØ¨ ÙĤØ§
ĠØ¨ Ø®Øµ
ĠØ¨ ÙĪÙĤÙģ
ĠØ¨ ÙĦØ¨Ø³
ĠÙģ ØŃØ¯
ĠÙģ Ø¯ÙĬ
ĠÙģ Ø®Ø±
ĠÙģ Ø±ÙĬÙĤ
ĠÙģ ÙĦØ£ÙĨÙĩØ§
ĠÙģ Ø§Ø¨Øª
ĠÙģ ÙģØ³Ø¯
ĠÙģ Ø´Ø¨Ùĩ
ĠÙģ ÙĨÙģØ°
ĠÙģ ÙĤØ±Ø£
ĠÙģ ÙĤØ¨ÙĦØª
ĠÙģ Ø¶ÙĬÙĦ
ĠØ¹ Ø§Ø²
ĠØ¹ ÙĤØ±Ø¨
ĠØ¹ ÙĦÙĦÙĩ
Ùģ ÙĤØ¯Ùħ
Ùģ Ø§ÙĦØ¬
Ùģ ÙĦØ¹ÙĦ
Ùģ ÙĤØªÙĩØ§
Ùģ Ø¯Ø®ÙĦ
Ùģ Ø§ÙĦØ¥
ĠÙĬ ÙĦÙĪ
ĠÙĬ Ø±Ùĥ
ĠÙĬ ØµØ¯
ĠÙĬ Ø¨Ø¹Ùĩ
ĠÙĬ Ø±Ø¨ØŃ
ĠÙĬ ÙĪØ¯Ø¹
ĠÙĬ ÙĥØ±Ø±
ĠÙĬ ÙĪÙĤØª
ĠÙĬ Ø¨ØªØ§Ø¹
ĠÙĬ Ø¶ÙĬÙĤ
ĠÙĬ Ø±Ø¨Ø·
ØŃ Øµ
ØŃ ÙĦØª
Ùĥ Ø¨ÙĬØ¹
Ùĥ Ø±Ø§Ùħ
Ùĥ Ø§ÙĦØ¹
Ø¬ Ø¨Øª
Ø¬ ÙĪØ§Ø²
Ø£ Øµ
ĠÙĤ Ø´Ø±
ĠÙĤ Ø¹ÙĪØ¯
Ø° Ùħ
Øµ ÙħÙĩ
Øµ ÙħØ©
Øµ Ø¹Ø©
ĠÙģÙĬ Ø³
ĠÙģÙĬ Ø·
ĠÙģÙĬ Ø¹ÙĬØ¯
ĠÙģÙĬ ÙģØ±ÙĤ
ĠÙģÙĬ ÙħÙĥÙĨ
ĠÙģÙĬ ÙĦØŃÙĤ
ĠÙģÙĬ Ø¹ÙĪØ¯
ĠÙģÙĬ Ø¨Ø¯Ø£
ĠÙģÙĬ ÙĨØªÙĤÙĦ
ĠÙģÙĬ ÙģÙĪØª
ÙħØ§ Ø«ÙĦ
ĠÙĥ Ø±ÙĬ
ĠÙĥ Ø¨ÙĨ
ĠÙĥ Ø§Ø¯
ĠÙĥ Ø±ÙĬØ¨
ĠÙĥ Ø¨Ø´
ĠÙĥ Ø±Ø§ÙħØ©
ĠÙĥ ÙĦÙĬÙĩÙħØ§
ĠÙĥ ÙĦØ«ÙĪÙħ
ĠØ§ÙĦÙħ ÙĦÙĤ
ĠØ§ÙĦÙħ Ø¹Ø§Ø¯
ĠØ§ÙĦÙħ ÙĨØªÙĤÙĦ
ĠØ§ÙĦÙħ Ø®ØµØµ
ĠØ§ÙĦÙħ Ø±ÙĩÙĪÙĨØ©
ĠØ§ÙĦÙħ ÙĤÙĬØ³
ĠØ§ÙĦÙħ Ø°Ø§ÙĩØ¨
Ø¶ ØªÙĩ
Ø¶ ÙĬØ§
ĠØ¥ ØŃÙĬ
ĠØ¥ ÙĬÙĦØ§
ĠØ¥ Ø¬Ø±Ø§Ø¡
ĠØ¥ Ø¬Ø¨Ø§Ø±
Ø® Ùħ
Ø® ÙĬÙĨ
Ø® Ø´
Ø« ÙĬÙħ
Ø« Ø¨Ø§ØªÙĩ
ĠØª Ø¨ÙĬ
ĠØª ÙģØ¹
ĠØª Ø¨Øª
ĠØª ÙĥØ§
ĠØª Ø±Ø§Ø¯
ĠØª ÙģØ±ÙĤØ©
ĠØª ÙĨÙģÙĦ
ĠØª Ø´Ø±Ø¹
ĠØª Ø§ÙħØ§
ĠØª ØµØ¯ÙĤØª
ÙĦÙĪ ÙħØ©
ĠØŃ ÙĦØ©
ĠØŃ Ø¬Ø¨
ĠØŃ ØªÙģ
ÙĩØ§ Ø¬
ÙĩØ§ ÙĨÙĬ
ĠØ§ÙĦ Ø±ÙĬØ¨Ø©
ÙĬØ± Ø§Ø¯
ĠØ£ÙĪ ÙĦÙĪ
ĠØ£ÙĪ ÙĦØ¬
ĠØ£ÙĨ Ø¨Øª
ĠØ£ÙĨ ØµØ§Ùģ
Ø² ØŃ
Ø² Ø§Ø±Ø¹Ø©
Ø°Ø§ Ø°
ĠØ± Ø§Ø¨
ĠØ± ÙĤÙĬÙĤØ©
ĠÙĨ ÙĪØ§ÙĩØ§
ĠÙĨ Ø®ÙĦØ§
ĠÙĦØ§ ØªÙģØ§ÙĤ
ĠØ¹ÙĨ Ø§
ĠÙĦÙħ Ø®Ø§ÙĦÙģØªÙĩ
ÙĨØ§ Ø©
ĠØ³ Ø§ÙĦ
ĠØ³ Ø§Ø¹
ĠØ³ Ø£ÙĦØªÙĩ
ĠØ§ÙĦØ£ Ø³Øª
ĠØ§ÙĦØ£ Ø³ÙĦÙħ
ĠØ§ÙĦØ£ Ø¯Ùħ
ĠØ§ÙĦØ£ Ø±ÙĤ
ĠØ§ÙĦØ£ Ø±Ø²
ĠØ§ÙĦØ£ Ø¨ÙĨÙĬØ©
ĠØ§ÙĦØ£ ÙĨÙĩØ§Ø±
ĠØ§ÙĦØ£ ÙģØµØŃ
ĠØ´ Ø§Ø¨Ø©
ĠØ´ Ø¬Ø±Ùĩ
ĠØ£ÙĬ ÙĥÙĪÙĨ
ĠØ° Ø§Ø¨
ĠØ° Ø¨ÙĬØŃØ©
ĠØµ Ø§ÙħÙĩ
ĠÙĦ Ø±Ùĥ
ĠØ¨ÙĨ Ø°Ø±
ĠØ¬ Ø±Ùĩ
ĠØ¬ ÙĩØ§Ø¯
ĠØ¬ Ø±Ø§ØŃ
ĠØ¬ ÙĨØ¯Ø¨
ĠØ¬ ÙĬØ±Ø§ÙĨÙĩ
Ø§Ø¨ Ø¯
Ø§Ø¨ ÙĨÙĩ
ĠØ§ÙĦØ¹ Ø±Ø´
ĠØ§ÙĦØ¹ ÙĨÙĪØ©
ĠØ¨Ø¹ Ø¸Ùħ
ĠØ¨Ø¹ Ø¬Ø²Ùĩ
ĠØ¨Ø¹ Ø±ÙģØ§Øª
ĠØ§ÙĦØŃ Ø¸
ĠØ§ÙĦØŃ ÙĬÙĦ
ĠØ§ÙĦØŃ ÙħØ±Ø©
ĠØ§ÙĦØŃ ÙĤÙĬÙĤ
ĠØ§ÙĦØŃ ÙĦØ¨ÙĬ
ØŃØ¯ ÙĬØ¯
ØŃØ¯ ÙĪØ¯
ØŃØ¯ Ø§Ø«
ĠØ¯ ÙĤ
ĠØ¯ Ø±Ø§Ùĩ
ĠØ¯ Ø±Ø³
ÙĪØ§ ÙħØ§
ÙĪØ§ Ø®Ø±
ÙĪØ§ ÙĤØªØµØ±
ĠØ® ÙĦÙĬ
ĠØ® Ø¨ÙĬØ¨
ĠØ® ÙħÙĬØ±
ĠÙħØ¹ ÙĥÙħ
ĠÙħØ¹ ÙĦÙħØ§
ĠÙħØ¹ Ø¬ÙĦØ©
ĠØ¨Ùĩ ÙĦØ§Ùĥ
ĠØ§ÙĦÙĤ ÙĦÙħ
ĠØ§ÙĦÙĤ Ø±Ùī
ĠØ§ÙĦÙĤ ØµÙĬØ±
ĠÙĪØ§ Ø³ÙħÙĩ
ĠÙĪØ§ ÙĦÙĪØ§ÙĪ
Ø§Ø¦ ÙĬØ©
ĠØ£ÙĨÙĩ Ùī
ÙģÙĬ ÙĩÙħØ§
ÙģÙĬ ØµÙĬØ±
ÙĪØ¬ ÙĩØ§
ÙĪØ¬ Ø¹ÙĦÙĩ
ĠØ§ÙĦÙĪ Ø²
ĠØ§ÙĦÙĪ Ø¹Ø¯
Ø¸ ÙĨÙĩ
Øº ØªÙĩ
ĠÙĦØ£ ØµÙĦÙĩ
Ø±Ø¬ Ùĩ
Ø±Ø¬ Ø§ÙĨÙī
ĠØ§ÙĦØ¨ Ø§ÙĦØºØ©
ĠØ§ÙĦØ¨ ÙĦÙĪÙī
ĠØ§ÙĦØª ÙĤØ¯Ùħ
ĠØ§ÙĦØª Ø§Ø¬Ø±
ĠØ§ÙĦØª Ø«ÙĨÙĬØ©
ĠØ§ÙĦØª Ø£ÙĥÙĬØ¯
ĠØ¨Ø§ÙĦØ ºÙĬØ±
ÙģØ¹ ÙĩØ§
ÙĤÙĬ Øµ
ĠÙĦÙĪ Ø§ÙĦØ¯
ĠÙĦÙĪ ÙĥÙĬÙĦÙĩ
Ø¦ ÙĨØ§
Ø¦ Ø¨ÙĤ
ĠØ§ÙĦØ¥ Ø¨Ø§ÙĤ
ĠØ§ÙĦØ¥ Ø¨Ø·Ø§ÙĦ
ÙĪÙħ ÙĦÙĥ
ÙĪÙħ Ø±Ø§Ø¯Ùĩ
Ø§Ùħ Ø´
Ø£ÙĨ Ø³
ĠØ¨Ø§ ÙĦØ§ÙĨ
ĠØ¨Ø§ Ø«ÙĨÙĬÙĨ
ĠØ§ÙĦÙĨ ÙģØ±
ĠØ§ÙĦÙĨ Ø§Ø¦Ø¨
ĠØ§ÙĦÙĨ ØªØ§Ø¬
ÙĪÙĬ Ø¹ÙĦÙħ
ÙĪÙĬ ØµÙĬØ±
ĠØ² ÙĬ
ÙĬØ¹ ÙĦÙħ
ÙĦØª Ø¹ÙĦÙĤ
ĠØ§ÙĦØ´ Ø¨Ø¹
ĠØ§ÙĦØ´ Ø¨Ø§Ø¨
ĠØ§ÙĦØ´ Ø¯ÙĬØ¯
ĠØ§ÙĦØ´ ÙĪÙĥØ©
ĠÙĬÙĤ ÙĪÙī
ĠØ§ÙĦØ¬ Ø¨
ĠØ§ÙĦØ¬ ÙħØ§Ø±
ĠØ§ÙĦØ¬ Ø±Ø§ØŃØ©
ĠÙĪØ£ Ø®Ø±
ĠÙĪØ£ ÙħØªÙĩ
ĠÙĪØ£ ØªÙħ
ĠÙĪØ£ Ø¹Ø§Ø¯
ĠÙĪØ£ Ø¹Ø·Ùī
ĠØ· Ø±Ø¯
ĠØ· Ø¨ÙĤ
ĠØ· ÙĬØ¨Ø©
ĠØ· Ø§ÙĩØ±Ø©
ĠÙĪØ¬ Ø§Ø¨Ø±
ĠÙĪØ¬ ÙħØ¹Ùĩ
ÙĬØ§ ÙĨÙĩØ§
ĠØ§ÙĦØ³ Ø§ÙĤ
ĠØ§ÙĦØ³ ÙĨÙĬØ©
ĠØ§ÙĦØ³ ÙĩØ§Ùħ
ĠØ§ÙĦØ³ ÙĪØ§Ùĥ
ĠØ§ÙĦØ³ Ø§Ø¦ÙħØ©
ĠÙĪÙĬ Ø³ØªØŃÙĤ
[...]
