{"!":0,"\"":1,"#":2,"$":3,"%":4,"&":5,"'":6,"(":7,")":8,"*":9,"+":10,",":11,"-":12,".":13,"/":14,"0":15,"1":16,"2":17,"3":18,"4":19,"5":20,"6":21,"7":22,"8":23,"9":24,":":25,";":26,"<":27,"=":28,">":29,"?":30,"@":31,"A":32,"B":33,"C":34,"D":35,"E":36,"F":37,"G":38,"H":39,"I":40,"J":41,"K":42,"L":43,"M":44,"N":45,"O":46,"P":47,"Q":48,"R":49,"S":50,"T":51,"U":52,"V":53,"W":54,"X":55,"Y":56,"Z":57,"[":58,"\\":59,"]":60,"^":61,"_":62,"`":63,"a":64,"b":65,"c":66,"d":67,"e":68,"f":69,"g":70,"h":71,"i":72,"j":73,"k":74,"l":75,"m":76,"n":77,"o":78,"p":79,"q":80,"r":81,"s":82,"t":83,"u":84,"v":85,"w":86,"x":87,"y":88,"z":89,"{":90,"|":91,"}":92,"~":93,"¡":94,"¢":95,"£":96,"¤":97,"¥":98,"¦":99,"§":100,"¨":101,"©":102,"ª":103,"«":104,"¬":105,"®":106,"¯":107,"°":108,"±":109,"²":110,"³":111,"´":112,"µ":113,"¶":114,"·":115,"¸":116,"¹":117,"º":118,"»":119,"¼":120,"½":121,"¾":122,"¿":123,"À":124,"Á":125,"Â":126,"Ã":127,"Ä":128,"Å":129,"Æ":130,"Ç":131,"È":132,"É":133,"Ê":134,"Ë":135,"Ì":136,"Í":137,"Î":138,"Ï":139,"Ð":140,"Ñ":141,"Ò":142,"Ó":143,"Ô":144,"Õ":145,"Ö":146,"×":147,"Ø":148,"Ù":149,"Ú":150,"Û":151,"Ü":152,"Ý":153,"Þ":154,"ß":155,"à":156,"á":157,"â":158,"ã":159,"ä":160,"å":161,"æ":162,"ç":163,"è":164,"é":165,"ê":166,"ë":167,"ì":168,"í":169,"î":170,"ï":171,"ð":172,"ñ":173,"ò":174,"ó":175,"ô":176,"õ":177,"ö":178,"÷":179,"ø":180,"ù":181,"ú":182,"û":183,"ü":184,"ý":185,"þ":186,"ÿ":187,"Ā":188,"ā":189,"Ă":190,"ă":191,"Ą":192,"ą":193,"Ć":194,"ć":195,"Ĉ":196,"ĉ":197,"Ċ":198,"ċ":199,"Č":200,"č":201,"Ď":202,"ď":203,"Đ":204,"đ":205,"Ē":206,"ē":207,"Ĕ":208,"ĕ":209,"Ė":210,"ė":211,"Ę":212,"ę":213,"Ě":214,"ě":215,"Ĝ":216,"ĝ":217,"Ğ":218,"ğ":219,"Ġ":220,"ġ":221,"Ģ":222,"ģ":223,"Ĥ":224,"ĥ":225,"Ħ":226,"ħ":227,"Ĩ":228,"ĩ":229,"Ī":230,"ī":231,"Ĭ":232,"ĭ":233,"Į":234,"į":235,"İ":236,"ı":237,"Ĳ":238,"ĳ":239,"Ĵ":240,"ĵ":241,"Ķ":242,"ķ":243,"ĸ":244,"Ĺ":245,"ĺ":246,"Ļ":247,"ļ":248,"Ľ":249,"ľ":250,"Ŀ":251,"ŀ":252,"Ł":253,"ł":254,"Ń":255,"ĠØ":256,"ÙĦ":257,"ĠÙ":258,"Ø§":259,"ÙĨ":260,"ÙĦÙ":261,"ÙĬ":262,"Ùĩ":263,"ÙĪ":264,"Ø±":265,"ĠØ§":266,"ÙĦØ":267,"Ùħ":268,"Ø¨":269,"Ø¯":270,"čĊ":271,"Øª":272,"Ø¹":273,"ĠÙĪ":274,"ĠØ£":275,"ÙĤ":276,"ĠÙħ":277,"ĠØ§ÙĦØ":278,"ĠØ¨":279,"ĠÙģ":280,"Ø©":281,"ĠØ¹":282,"ÙĦÙħ":283,"Ùģ":284,"Ø³":285,"ĠÙĬ":286,"ØŃ":287,"ÙĦØ§":288,"ÙĦÙĩ":289,"Ùĥ":290,"Ø¬":291,"Ø£":292,"ĠÙĤ":293,"Ø°":294,"ÙĨÙĩ":295,"Øµ":296,"ĠÙģÙĬ":297,"ÙħØ§":298,"ÙĦÙĬ":299,"ĠÙĥ":300,"ĠØ§ÙĦÙħ":301,"Ø¶":302,"ĠØ¥":303,"ĠÙħÙĨ":304,"ÙĦÙī":305,"Ø®":306,"Ø«":307,"ÙĦÙĥ":308,"Ø·":309,"ĠØª":310,"Ø¥":311,"ÙĦÙĪ":312,"ĠØŃ":313,"Ø§Ø":314,"Ø§ÙĦ":315,"ÙĩØ§":316,"ÙĬÙĨ":317,"Ø§ÙĨ":318,"Ø§ÙĦØ":319,"ĠØ§ÙĦ":320,"ÙĬØ±":321,"ĠØ£ÙĪ":322,"Ø´":323,"ÙĪÙĦÙĩ":324,"ĠØ£ÙĨ":325,"Ùī":326,"ĠÙĦØ":327,"Ø²":328,"Ø°Ø§":329,"ÙĦÙĤ":330,"ĠØ¹ÙĦÙī":331,"Ø§Ø±":332,"ĠØ±":333,"Ø¥ÙĨ":334,"ĠÙĨ":335,"ÙĦÙĬÙĩ":336,"ĠÙĦØ§":337,"ĠØ¹ÙĨ":338,"ĠÙĦÙħ":339,"ĠÙĩ":340,"ÙĨØ§":341,"ĠØ³":342,"ĠÙħØ§":343,"ØªÙĩ":344,"ĠØ§ÙĦØ£":345,"ĠØ´":346,"ĠØ£ÙĬ":347,"ĠØ°":348,"ÙĦÙģ":349,"ĠØµ":350,"ĠÙĦÙĩ":351,"ĠØ¹ÙĦÙĬÙĩ":352,"Ø§Ø¡":353,"Ø±Ø§":354,"ÙĬØ©":355,"ÙĪÙĦ":356,"ºÙĬØ±":357,"ĠÙĦ":358,"ĠØ¨ÙĨ":359,"ĠØ¬":360,"ĠÙĥØ§ÙĨ":361,"ÙĪÙĨ":362,"Ø³Øª":363,"Ø§Ø¨":364,"ĠØ§ÙĦØ¹":365,"ÙħÙĨ":366,"Ø¨ÙĬ":367,"ÙĤØ¯":368,"ĠØ¨Ø¹":369,"ĠØ§ÙĦØŃ":370,"ĠØ«":371,"ØŃØ¯":372,"ÙĤÙĪÙĦÙĩ":373,"ÙĦØ£":374,"ÙĩÙĪ":375,"ĠØ§ÙĦÙĦÙĩ":376,"ĠÙĤÙĪÙĦÙĩ":377,"ĠØ¯":378,"ÙĪØ§":379,"ĠØ®":380,"ĠØ°ÙĦÙĥ":381,"ĠÙħØ¹":382,"Ø±ÙĬ":383,"ĠØ¨Ùĩ":384,"ĠØ§ÙĦÙĤ":385,"Ø±Ùĩ":386,"ĠÙĤØ§ÙĦ":387,"ĠÙĪØ§":388,"Ø§Ø¦":389,"ÙĤØ§ÙĦ":390,"ĠØ£ÙĨÙĩ":391,"ÙħØ±":392,"ÙģÙĬ":393,"Ø¯Ùĩ":394,"ÙħÙĩ":395,"ÙĪØ¬":396,"ĠÙħÙĨÙĩ":397,"ĠØ§ÙĦÙĪ":398,"ĠØ¥ÙĨ":399,"Ø¸":400,"Ø¹Øª":401,"ĠØºÙĬØ±":402,"Øº":403,"ĠÙĦØ£":404,"ÙħØ©":405,"Ø±Ø¬":406,"ĠØ§ÙĦØ¨":407,"ĠØ§ÙĦØª":408,"ĠØ¨Ø§ÙĦØ":409,"ĠÙĪØ§ÙĦØ":410,"Ø³ÙĦÙħ":411,"ÙģØ¹":412,"Ø¡":413,"Ø±Ø©":414,"Ø±Ø¨":415,"ÙĤÙĬ":416,"ĠÙĦÙĪ":417,"ÙĦØ©":418,"Ø¯Ø©":419,"Ø¦":420,"ĠØ§ÙĦØ¥":421,"Ø¨Ø¯":422,"ÙĪÙħ":423,"Ø¨ÙĨ":424,"Ø§Ùħ":425,"ÙĩØ±":426,"Ø¨Ø±":427,"Ø¨ÙĦ":428,"ĠÙĪÙĦØ§":429,"ĠÙģÙĬÙĩ":430,"ÙĥØ±":431,"Ø£ÙĨ":432,"ÙĬØ¯":433,"ĠÙĬÙĥ":434,"ĠØ¨Ø§":435,"ĠØ§ÙĦÙĨ":436,"ÙĪÙĬ":437,"Ø±Ø¶":438,"Ø¨Ùĩ":439,"ĠØ²":440,"Ø¨Ø§":441,"ÙĬØ¹":442,"ĠØ¥Ø°Ø§":443,"ÙĩÙħ":444,"ÙĦØª":445,"ĠØ¨Ø¹Ø¯":446,"ÙĥÙħ":447,"ĠØ§ÙĦØ´":448,"ĠÙĬÙĤ":449,"ĠØ§ÙĦØ¬":450,"ĠÙĪØ£":451,"ÙĪØ¹":452,"ĠØ·":453,"ĠØ¥ÙĦÙī":454,"ĠØ«Ùħ":455,"ĠÙģÙĦØ§":456,"ĠÙĪØ¬":457,"ĠÙĥÙħØ§":458,"ÙĬØ§":459,"ĠÙĪØ¥ÙĨ":460,"ĠÙĬØ¬":461,"ĠØ§ÙĦØ³":462,"Ø¹Ø©":463,"ÙĪØ¥ÙĨ":464,"Ø±Ùĥ":465,"ĠÙĪÙĬ":466,"ĠØ§Ø¨ÙĨ":467,"Ø¹Ø§":468,"ÙħÙĦ":469,"Ø±Ùģ":470,"ÙģØ³":471,"ĠØ£Ø®":472,"ĠÙĦÙĦØ":473,"ÙĨÙĬ":474,"ÙģØ±":475,"ĠÙĦÙĬ":476,"ÙĦØ£ÙĨ":477,"ÙĦØ¯":478,"ĠØ§ÙĦÙģ":479,"ÙĦØ£ÙĨÙĩ":480,"ĠØ§ÙĦØµ":481,"ØµØŃ":482,"ÙħØ¯":483,"ĠÙħØŃ":484,"ĠÙĬØª":485,"ĠÙĬØŃ":486,"Ø°ÙĦÙĥ":487,"Ø¯ÙĬ":488,"Ø¤":489,"Ø´Øª":490,"Ø¨Ø©":491,"ÙĤØª":492,"ĠØ§ÙĦØ®":493,"ĠÙĩØ°Ø§":494,"ĠÙĬØ¹":495,"ØºÙĬØ±":496,"Ø£ÙĪ":497,"Ø°Ùĩ":498,"ØµÙĦ":499,"ĠÙĪÙĩÙĪ":500,"ÙĪØ±":501,"ĠØ§ÙĦÙĥ":502,"ÙĩÙħØ§":503,"ÙĦØ§Ùģ":504,"ĠÙģØ¥ÙĨ":505,"ÙĤØ±":506,"ĠØ¹ÙĨÙĩ":507,"ĠØ´ÙĬ":508,"ĠØº":509,"Ø®Ø±":510,"ÙĦØ®":511,"ĠÙĤØ¨ÙĦ":512,"Ø¯Ùħ":513,"ÙĪØ¯":514,"ĠØµÙĦÙī":515,"Ø¶ÙĬ":516,"Ø³Ùħ":517,"ÙĤØ§":518,"ĠØ§ÙĦØ«":519,"ĠÙĩÙĪ":520,"ĠØ§ÙĦØ¯":521,"Ø¨Øª":522,"ĠÙĪÙĥ":523,"ĠÙĪØ¹":524,"ØªÙī":525,"ÙĪÙĩ":526,"Ø§Ø²":527,"ĠÙĪØ³ÙĦÙħ":528,"ÙģØ§":529,"Ø¬Ø±":530,"ĠØ£Ø¨ÙĬ":531,"ÙĪÙĦØ§":532,"ÙĥØ§":533,"ĠØ¥ÙĦØ§":534,"ÙħØ³":535,"ĠÙĪÙĦÙĪ":536,"ÙĤØ·":537,"Ø±Ø·":538,"Ø±Ùħ":539,"ĠÙĬÙĨ":540,"ÙĬØª":541,"ÙĤÙĩ":542,"ĠØ¥ÙĦØ®":543,"Ø¶Ø§":544,"ĠØ±Ø¬":545,"ÙĦØ¨":546,"ĠØ§ÙĦØ°":547,"ĠØ¨ÙĬÙĨ":548,"ÙĪÙĥ":549,"ÙĤØ©":550,"ĠØ¶":551,"ÙĪØ¨":552,"ÙĪØª":553,"Ø®Øª":554,"ĠØ¹Ø¨Ø¯":555,"ĠØ¨Ø£":556,"ÙĦØ§Ùħ":557,"ĠØ£Ùħ":558,"ĠÙĥÙĦ":559,"ÙĪÙĦÙĪ":560,"ÙĬÙĨÙĩ":561,"ĠØ£ØŃØ¯":562,"Ø¯Ø§":563,"ÙĪØ¶":564,"ÙĬÙħ":565,"ĠØ§Ø³Øª":566,"ÙģØ¥ÙĨ":567,"ĠÙĤØ¯":568,"Ø«ÙĨØ§":569,"ĠØ¹ÙĨØ¯":570,"ÙĪØ²":571,"ÙħØ¹":572,"ĠØ§ÙĦØ±":573,"ĠÙĦØ£ÙĨÙĩ":574,"ĠØ§ÙĦØ²":575,"ÙĩÙĦ":576,"Ø¨Ø¹":577,"ĠØŃØ¯":578,"ĠÙģØ¥":579,"ĠÙĪØª":580,"ÙĬÙĦ":581,"ĠØ¹ÙĦÙĬ":582,"ĠÙħØ«":583,"ĠØ£Ø¨":584,"ĠÙĨØµ":585,"ĠÙĬÙĥÙĪÙĨ":586,"ÙĪØ£":587,"ĠÙĪÙĤ":588,"ĠØ¨Ø¯":589,"¢Ø®Ø±":590,"ÙĦÙĩØ§":591,"ĠØ¨Ø£ÙĨ":592,"ÙĦØ§Ø«":593,"ÙĦØ²":594,"ØŃØª":595,"ĠÙĪØ§ØŃØ¯":596,"ĠØ¨Ø¹Ø¶":597,"Ø§Ø±Ø©":598,"ĠÙĦÙĥ":599,"ÙħØ§ÙĨ":600,"ĠÙĪØ¥":601,"ĠØ§ÙĦØ§":602,"ĠØ¸":603,"Ø¹ÙĦ":604,"ĠÙĪÙĩ":605,"Ø§Ø¬":606,"ÙģØ©":607,"Ø§Ø¯":608,"ÙĤÙĦ":609,"ĠØ§ÙĦØº":610,"ÙĪØ§ÙĦØ":611,"ĠØªØ¹":612,"ĠÙĦÙĦÙħ":613,"Ø´Ø±":614,"ØªÙĬ":615,"ÙĪÙĤ":616,"Ø³Ø¨":617,"ĠÙĪÙĦÙħ":618,"ĠØŃØªÙī":619,"ĠÙĬØ¯":620,"ĠÙģØ£":621,"Ø«Ùħ":622,"ĠÙĦØ£ÙĨ":623,"ÙĨÙĩØ§":624,"ØŃÙĬ":625,"ÙĨÙī":626,"Ø¹Ùĩ":627,"ĠÙħØª":628,"Ø®Ø°":629,"ØµØ¯":630,"ĠÙĬÙħ":631,"Ø«Ø±":632,"ĠØºÙĬØ±Ùĩ":633,"Ø¹ÙĬ":634,"Ø§Ùĩ":635,"ĠÙĤØ¨":636,"ÙĨØ©":637,"ĠÙĪÙĨ":638,"ĠÙģØ§":639,"ĠÙĪÙħ":640,"ÙĪÙģ":641,"ÙħØ§Ùħ":642,"Ø·ÙĦÙĤ":643,"ĠØ¹ÙħØ±":644,"Ø±ØŃ":645,"Ø°Ø±":646,"ÙģØ³Ùĩ":647,"ĠØ§ÙĦØ°ÙĬ":648,"ĠØ£ØŃ":649,"ĠØ´ÙĬØ¡":650,"ÙĤØ¯Ùħ":651,"Ø±Ø§Ø¯":652,"ĠØ¨Ùħ":653,"ĠØ¥ÙĦÙĬÙĩ":654,"ÙĦØŃ":655,"Ø±Ø¯":656,"ÙĬØ¨":657,"ÙĦÙĬØ³":658,"ÙĪØ³":659,"ĠÙĦÙĬØ³":660,"ĠÙĪØ§ÙĦÙħ":661,"ĠØ§ÙĨ":662,"ĠÙĤÙĪÙĦ":663,"ØªÙĤ":664,"ĠÙħØ³":665,"ĠÙĦÙħØ§":666,"Ø£ÙĬ":667,"ĠØ¨ÙĩØ§":668,"ĠØ¨ÙħØ§":669,"ÙĥÙĨ":670,"Ø§ÙĩØ±":671,"ÙĪÙĩÙĪ":672,"Ø±Ùī":673,"ĠØ°ÙĥØ±":674,"ĠØŃÙĬ":675,"ÙĤØµ":676,"Ø®ÙĦØ§Ùģ":677,"ÙĥØ±Ùĩ":678,"Ø±ÙĤ":679,"ĠØ§ÙĦÙħØª":680,"ĠØ£Ø¹":681,"ĠÙĬØ£":682,"ĠÙħÙĦÙĥ":683,"ĠÙģØª":684,"ĠÙĥØ§ÙĨØª":685,"Ø¸Ø±":686,"ÙĦØ¹":687,"ÙĪÙī":688,"ÙĥÙĦ":689,"Ø§Øµ":690,"ĠØ§ÙĦØ·":691,"ĠØ£Ø¬":692,"ØªÙĩØ§":693,"ÙĨÙģ":694,"ĠÙĬØ®":695,"ĠØ§ÙĦÙħØ³":696,"ĠÙħØ§ÙĦÙĥ":697,"ĠØ£Ø¨ÙĪ":698,"ĠÙĬÙĥÙĨ":699,"Ø§ØŃ":700,"ĠØ¨ØŃ":701,"ÙĥÙĪÙĨ":702,"Ø³ØªØŃ":703,"ĠÙħØ±":704,"ÙĨØ¹":705,"Ø§Øª":706,"ÙĦØ«":707,"ĠØ£ÙĬØ¶Ø§":708,"Ø®ÙĦ":709,"ØŃØ©":710,"Ø§ÙĨÙĬ":711,"Ø³ÙĪÙĦ":712,"ĠÙģØ¥ÙĨÙĩ":713,"Ø·Ø¹":714,"ÙĩØ¯":715,"ĠÙĦÙĩØ§":716,"ĠÙģØ¹":717,"ÙĪÙģÙĬ":718,"Ø§ÙĤ":719,"ĠÙĬØ³":720,"Ø±Ø£":721,"ĠØ«ÙĦØ§Ø«":722,"Ø¨ÙĬÙĨ":723,"ĠØ¨ÙĦ":724,"ĠÙħØŃÙħØ¯":725,"ÙĦØ§Ø©":726,"ĠØ£Ø´":727,"ĠÙĦØ¹":728,"ĠÙĬÙĪÙħ":729,"ØŃÙĪ":730,"ÙĪØ¥":731,"ÙĪÙĦÙī":732,"ĠØŃØ¯Ø«ÙĨØ§":733,"Ø´ØªØ±ÙĬ":734,"ĠÙĪÙĦØ¯":735,"Ø§ÙĦÙħ":736,"ĠØ±Ø³ÙĪÙĦ":737,"ØªØ§Ø¨":738,"Ø¬Ùĩ":739,"ĠÙģÙĩÙĪ":740,"Ø°ÙĨ":741,"ĠØ§ÙĦØ£ÙĪÙĦ":742,"ÙģØª":743,"ÙĥØ«Ø±":744,"ØµØ±":745,"ĠÙĩØ°Ùĩ":746,"ĠØ§ÙĦØ¹Ø¨Ø¯":747,"ĠØ¨ÙĬÙĨÙĩ":748,"Ø¹ÙĨ":749,"ÙģÙĩ":750,"Ø±Ø«":751,"ØªØ¨":752,"ĠØŃÙĤ":753,"ĠØ§ÙĦÙĤØ§":754,"ĠØ£Øµ":755,"Ø³ÙĨ":756,"ÙħÙĬ":757,"Ø¬Ø¨":758,"ĠØ§ÙĦÙħØ¹":759,"ĠØ¹ÙĦÙħ":760,"ĠÙĥØ§ÙĦØ":761,"ĠØ§ÙĦÙħØ¯":762,"Ø³Ø±":763,"Ø¹ØªÙĤ":764,"Ø¹Ø§ÙĦÙī":765,"ĠÙĬØ¶":766,"ĠØ¨ÙĬØ¹":767,"ÙĥØ§ÙĨ":768,"ĠÙģÙĤØ§ÙĦ":769,"ĠÙĤØ§":770,"ĠØªØŃ":771,"Ø³ÙĦ":772,"ĠØ¨Ø§ÙĦÙħ":773,"Ø£ÙĦØ©":774,"ĠØ§ÙĦÙħØµ":775,"Ø±Ø§Ùĩ":776,"ĠÙĪØºÙĬØ±":777,"ÙĪÙĨÙĩ":778,"ĠÙģÙĬÙĩØ§":779,"ĠÙĩÙĨØ§":780,"ÙĨØ³":781,"ĠÙĪØµ":782,"ĠÙħÙĨÙĩØ§":783,"ĠÙĬØ¬ÙĪØ²":784,"Ø¬Ø¯":785,"ĠØ§ÙĦÙħØŃ":786,"ĠØ¨Ø®ÙĦØ§Ùģ":787,"ĠÙĬÙĦØ²":788,"ĠÙģÙĬÙħØ§":789,"ÙħØª":790,"ÙĪØµ":791,"ĠØ§ÙĦÙĬ":792,"ĠØ¨Ø¥":793,"Ø§Ø´":794,"ÙĤÙĬÙĦ":795,"ĠØ¨Ø§ÙĦ":796,"Ø·ÙĦ":797,"ĠØªØ¹Ø§ÙĦÙī":798,"ĠØŃÙĬØ«":799,"ÙĦØ§ÙĤ":800,"ÙĬÙĨØ©":801,"Ø§Ø¹":802,"ÙģÙĤ":803,"ĠÙħÙħØ§":804,"ĠØ¹ÙĦÙĬÙĩØ§":805,"ĠÙĨÙģØ³Ùĩ":806,"ÙĪØ·":807,"Ø°ÙĥØ±":808,"Ø¬Ø²":809,"Ø±Ø¹":810,"ĠÙĤØª":811,"ĠÙĪØŃ":812,"ĠÙĪØ§ÙĦ":813,"ĠÙĪØ¥ÙĦØ§":814,"ÙĤÙĪÙĦ":815,"ÙĨØª":816,"Ø´ÙĬ":817,"ĠĠ":818,"ĠØ³Ø¨":819,"ÙħÙĬØ¹":820,"ĠÙĪÙĤØ¯":821,"ĠÙĬØµ":822,"Ø§Ø±Ùĩ":823,"ĠØ²ÙĪØ¬":824,"ĠØ¨ØºÙĬØ±":825,"ĠÙĦØ²":826,"ĠÙĪØ³":827,"ĠÙĪÙģÙĬ":828,"ÙĬÙħØ©":829,"ĠØ¨Ø°ÙĦÙĥ":830,"Ø±Ø§Ø¡":831,"ĠÙĪÙħØ§":832,"ĠØ§ÙĦØ¥ÙħØ§Ùħ":833,"ĠØ¹Ø¯Ùħ":834,"ĠÙĦÙĤ":835,"ÙĪØ©":836,"ÙĪÙĤØ¯":837,"ĠØ¢Ø®Ø±":838,"ĠØ±Ø¬ÙĦ":839,"Ø¯ÙĬØ«":840,"Ø§ÙĦØ¨":841,"ĠÙĦØŃ":842,"Ø¶Ø§Ø¡":843,"Ø§ÙĦØ©":844,"ĠØ£ÙĩÙĦ":845,"ÙĦØº":846,"ĠÙĦØª":847,"ÙĪØ±Ø©":848,"ĠØ£Ø®Ø°":849,"ĠÙĬØ³Øª":850,"ĠØ£ØŃØ¯ÙĩÙħØ§":851,"ĠØŃÙĥÙħ":852,"ĠÙĬØµØŃ":853,"ÙĪÙĤØ§ÙĦ":854,"Ø²ÙĪØ¬":855,"ÙĤØ¨":856,"ĠØ¨Øª":857,"Ø®Ø±Ø¬":858,"ÙĨØ«":859,"Ø§Ø¦Ø¹":860,"ĠÙħÙĨÙĩÙħØ§":861,"ÙĦØ³":862,"Ø§Ùģ":863,"ĠØ§ÙĦÙħØ§ÙĦ":864,"ĠØ´Ø±Ø·":865,"ĠÙĬØ¤":866,"ĠÙĬØ¬Ø¨":867,"ØŃØ¯Ø«ÙĨØ§":868,"ÙĪØ§Ø¡":869,"ÙĦÙĬÙĦ":870,"ĠÙĪÙħÙĨ":871,"ĠÙħØ§Øª":872,"Ø¨Øº":873,"ĠØ§Ø´Øª":874,"ĠØ±Ø£":875,"Ø¦Ø§":876,"ĠØ§ÙĦØ±Ø¬":877,"ĠÙĪØ¬Ùĩ":878,"ĠØ¨ÙĦØ§":879,"Ø«Ø¨Øª":880,"ĠØ§ÙĦÙĨØ¨ÙĬ":881,"Ø¨ÙĬØ±":882,"Ø±ÙĩÙħ":883,"ÙĨØ¨ÙĬ":884,"ÙĪØ§Ø¨":885,"ĠØ£Ø±Ø¨":886,"ĠØ§ÙĦØ¨ÙĬØ¹":887,"ĠÙħØ§ÙĦ":888,"ÙĥØ§ØŃ":889,"ĠØ¢":890,"ĠØ¨ÙĬ":891,"ĠØ¥Ø°":892,"ĠØªØ±Ùĥ":893,"ĠØµØ§ØŃ":894,"ÙħØ±Ø£":895,"Ø¹Ø¯":896,"ÙĬÙĩ":897,"ÙĪØ§ÙĦ":898,"ĠØ§ÙĦÙĩ":899,"Ø±Ø¬Ø¹":900,"ĠÙģØ³":901,"Ø°ÙĩØ¨":902,"Ø³Ùĩ":903,"ĠÙĬØ´":904,"ĠØ¹Ø¯":905,"ÙĪØ£ÙħØ§":906,"ĠØ®ÙħØ³":907,"ĠØ§ÙĦØ²ÙĪØ¬":908,"ĠÙĬØ¨":909,"ÙĪÙħØ§":910,"Ø§Ø±Ø«":911,"ĠØ¯ÙĬÙĨ":912,"ĠÙĪØ·":913,"ĠØªÙĤØ¯Ùħ":914,"ĠÙĦØ¨":915,"ÙĪÙħÙĨ":916,"ĠØ§ÙĦÙħØµÙĨÙģ":917,"ÙĪØ¬Ùĩ":918,"ĠÙĥØ°ÙĦÙĥ":919,"Ø¨ÙĬØ¹":920,"ĠØ¹ÙĨØ¯Ùĩ":921,"ĠØ®ÙĦØ§Ùģ":922,"Ø¸ÙĩØ±":923,"ØŃÙĬØŃ":924,"Ø¹Ùħ":925,"ĠØ¨Ùĥ":926,"Ø§ÙĦØª":927,"ĠØŃØ±":928,"ĠÙĪØ¨":929,"Ø¶ÙĦ":930,"ĠØ±Ø¶ÙĬ":931,"Ø¶Ùī":932,"ĠÙģÙĦÙħ":933,"ØµØ±Ùģ":934,"ĠØ§Ø¹Øª":935,"ĠÙĥØ°Ø§":936,"ĠØ¨ÙĤÙĪÙĦÙĩ":937,"Ø¨Ø§Ø±":938,"ĠØ´ÙĬØ¦Ø§":939,"ĠØ§ÙĦØ¶":940,"ĠÙĬÙĤÙĪÙĦ":941,"ÙĬÙģ":942,"ĠØ±ÙĪØ§":943,"ĠÙħØ«ÙĦ":944,"ĠØ§ÙĦÙħÙĨ":945,"ØµÙģ":946,"Ø§Ø³":947,"ÙĬØ§Ø±":948,"Ø§ÙĦÙģ":949,"ĠØ§ÙĦØŃÙĥÙħ":950,"Ø®Øµ":951,"Ø¯Ø§Ø¡":952,"ĠÙĪØ§ÙĦØ£":953,"Ø¶Ø±":954,"ĠØ§ÙĦØ¯ÙĬÙĨ":955,"ĠÙĨØµÙģ":956,"ĠØ±ØŃ":957,"ĠÙħØ·ÙĦÙĤ":958,"ĠÙĬØ¹ÙĦÙħ":959,"ĠØŃÙĬÙĨ":960,"ĠØ£ÙĤ":961,"ĠÙħØ³ÙĦÙħ":962,"ĠØ¹Ø´Ø±":963,"ÙģØ¥":964,"ĠØ¨ÙĤÙĬ":965,"ÙĦÙģØ¸":966,"Ø·Ø±":967,"ĠÙĪÙĤØ§ÙĦ":968,"ĠØ§Ø®Øª":969,"Ø¬ÙĦ":970,"ÙĪØŃ":971,"Ø¹Ùī":972,"ĠØ¨Ø´":973,"ÙĦØ§ÙħÙĩ":974,"ĠØ§ÙĦØ¹ÙĤØ¯":975,"ĠÙģÙĥ":976,"ĠØ¨ÙĤ":977,"ĠØ«ÙĦØ§Ø«Ø©":978,"ÙĪØ§Ø²":979,"ĠØ¨Ø·":980,"Ø³Ø§":981,"ĠÙĪÙĩÙĬ":982,"ĠØ¥ÙĨÙħØ§":983,"ĠÙĤÙĬÙħ":984,"ĠØ§ÙĦÙħØ´ØªØ±ÙĬ":985,"ĠØ§ÙĦØ¢":986,"ĠÙħØ¬":987,"ĠÙģÙĤØ¯":988,"ĠÙĪÙĤÙĪÙĦÙĩ":989,"ĠØªØ£":990,"ĠØ¯ÙĪÙĨ":991,"ØŃÙĪÙĩ":992,"ĠÙĪÙĤØª":993,"ĠØ¨Ø§ÙĦØ¹":994,"ØµØ¯ÙĤ":995,"Ø´Ø±Ø©":996,"ÙĪÙĦÙĬ":997,"Ø²ÙĦ":998,"Ø§ÙĦØŃ":999,"ĠØ¨ÙĬÙĨÙĩÙħØ§":1000,"ØªÙĬÙĨ":1001,"Ø¨ØŃ":1002,"ĠØ§ÙĦÙħØ³ÙĦÙħ":1003,"ĠØ¹Ø¨":1004,"ÙģØ¹Ø©":1005,"ÙĪÙĦÙħ":1006,"ĠØ£ÙĥØ«Ø±":1007,"ÙģÙĦØ§":1008,"Ø±Øª":1009,"ĠØ¨Ø¹Ø¯Ùĩ":1010,"ĠÙĥÙĦØ§Ùħ":1011,"ĠÙĪØºÙĬØ±Ùĩ":1012,"ØŃØ±":1013,"ĠÙĪÙĥØ°Ø§":1014,"ĠØ£ÙĨÙĩØ§":1015,"Ø¹ÙĦÙĤ":1016,"ĠÙħØ¹Ùĩ":1017,"Ø±ÙĬÙĤ":1018,"ĠØ§ÙĦØ¢Ø®Ø±":1019,"ÙĤÙĦØª":1020,"ĠØ¬ÙħÙĬØ¹":1021,"ÙĬØªÙĩ":1022,"Ø±Ø§Ø¬":1023,"ĠØ¸Ø§ÙĩØ±":1024,"ĠØ§ÙħØ±Ø£":1025,"ÙĪØªÙĩ":1026,"ĠÙĪØ§ØŃØ¯Ø©":1027,"ĠØ¥Ø³":1028,"Ø§Ø¯Ø©":1029,"ĠØ¹Ø±Ùģ":1030,"Ø¶Ùĩ":1031,"Ø¶Ùħ":1032,"Ø§ÙģØ¹":1033,"ĠØ£Ø³":1034,"ĠØ§ÙĦØµÙĦØ§Ø©":1035,"ĠÙĨØ³":1036,"Ø«ÙĦ":1037,"ÙĦÙĥÙĨ":1038,"ĠØ§ÙĦÙħØ³Øª":1039,"Ø§Ø¨ÙĨ":1040,"ÙĬØ±Ø©":1041,"ÙħØ±Ø©":1042,"Ø£ÙĨÙĩ":1043,"ĠØ°ÙĥØ±Ùĩ":1044,"ĠØ¬Ø§Ø²":1045,"ĠØ§ÙĦÙĪÙĦØ¯":1046,"ÙĥÙħØ§":1047,"Ø¨ØºÙĬ":1048,"ĠÙħØ³Øª":1049,"Ø¦Ø©":1050,"ĠØŃÙĦÙģ":1051,"ĠØµØŃ":1052,"ĠØ§ÙĦØªÙĬ":1053,"ĠØ±Ø¯":1054,"Ø¦Ø°":1055,"Ø¬Ø§Ø±Ø©":1056,"ĠÙĦÙĦØ£":1057,"ĠÙĬÙĤØª":1058,"ĠÙħØ§ÙĦÙĩ":1059,"ĠÙģÙĤØ·":1060,"ÙĨØ§Ùĩ":1061,"ĠØ¨Ø§ÙĦØ£":1062,"ĠØ£ÙĤØ±":1063,"Ø±Ø§Ùħ":1064,"ØµØŃØ§Ø¨":1065,"ĠÙģØ¥Ø°Ø§":1066,"ÙĨØ¯":1067,"ĠÙĬÙĤØ§ÙĦ":1068,"ĠØ³ÙĬ":1069,"ĠØ±ØŃÙħÙĩ":1070,"ĠØªÙĤ":1071,"ĠØŃØ¬":1072,"Ø²Ùħ":1073,"ĠØ§ÙĦÙħØ¬":1074,"ÙĬØ±Ø§":1075,"ĠØ®Ø±Ø¬":1076,"ÙĪÙĥØ°Ø§":1077,"ÙģØ£":1078,"ĠØ£Ø¯":1079,"ÙĪØ§ÙĦÙħ":1080,"Ø¶Ø©":1081,"Ø§ÙħÙĦ":1082,"ÙħÙĬÙĨ":1083,"Ø¹ÙĬÙĨ":1084,"ĠÙģØ±":1085,"ĠØ§ÙĦØ£ØµÙĦ":1086,"ĠØµØ¯":1087,"ĠÙĬØ¯Ùĩ":1088,"Ø§ÙĥÙħ":1089,"ÙĪÙĤÙĪÙĦÙĩ":1090,"ĠØ§ÙĦØ£Ø±Ø¶":1091,"ĠØ§ÙĦØŃØ±":1092,"ĠÙĦÙĩÙħ":1093,"ĠÙĨØŃÙĪ":1094,"ĠØ§ÙĦØ«ÙħÙĨ":1095,"ĠØ³Ùħ":1096,"ĠÙĬÙĦØ²ÙħÙĩ":1097,"Ø¶Ø¹":1098,"ØµÙĬØ©":1099,"ĠØªØ³":1100,"ÙĥØª":1101,"ĠÙĦÙĨ":1102,"ĠÙĥÙĦÙĩ":1103,"ØµØ¨":1104,"ĠØ§ÙĦØ¨Ø§Ø¦Ø¹":1105,"ÙĥØ©":1106,"ÙĤØ¯Ø±":1107,"ĠÙĤØ¯Ø±":1108,"ĠØ´Ø±ØŃ":1109,"ĠÙĪØ¬Ø¯":1110,"ĠÙħÙĨÙĩÙħ":1111,"ĠÙĬØ²":1112,"ĠØ§ÙĦØ¸":1113,"Ø±Ø£Ø©":1114,"ÙĪÙĩØ°Ø§":1115,"ĠÙģØ§ÙĦØ":1116,"ĠÙħÙĦÙĥÙĩ":1117,"ĠØŃØµ":1118,"ĠØ±Ùĥ":1119,"ĠÙģÙĩ":1120,"ÙĨØ§Ø³":1121,"ĠØ§ÙĦÙħÙĦÙĥ":1122,"ĠØ¨Ø£ÙĨÙĩ":1123,"ĠÙģØ¹ÙĦ":1124,"Ø«ÙĨ":1125,"Ø±Ø±":1126,"ĠÙģÙĦÙĩ":1127,"ĠÙħØ·ÙĦÙĤØ§":1128,"Ø°Ùĥ":1129,"ÙħØ§Ø¹":1130,"ĠÙĩÙĬ":1131,"ĠÙĦÙħÙĨ":1132,"ĠØ§ÙĦØ´ÙĬ":1133,"ĠØ£Ùģ":1134,"ĠØ³ÙĦÙħ":1135,"ÙħÙĨØ¹":1136,"ĠØ³ÙĨØ©":1137,"ĠØªÙĨ":1138,"ĠØ³Øª":1139,"ĠØ§ÙĦØ§Ø³Øª":1140,"ĠØ¹Ùħ":1141,"ÙĦØ§ÙĨ":1142,"ĠØ³ÙĪØ§Ø¡":1143,"ÙĬØ§Ø¯Ø©":1144,"ÙĪØ¶Ø¹":1145,"Ø§ÙĦÙĤ":1146,"ÙĩØ¨":1147,"ĠØ·ÙĦÙĤ":1148,"ĠÙħØ«ÙĦÙĩ":1149,"ØŃÙĦ":1150,"ĠØ£Ø®Ø¨Ø±":1151,"ÙĤØ±Ø§Ø±":1152,"ÙģÙĤØ©":1153,"ĠØ²ÙĬØ¯":1154,"ĠÙĬØ¬Ø²":1155,"ÙĪØ¬Ø¨":1156,"ĠØ´Ø§Ø¡":1157,"ĠÙģÙĦÙĪ":1158,"Ø³ØªØŃÙĤ":1159,"ĠÙĤØ¨ÙĦÙĩ":1160,"ÙĦØ·":1161,"Ø¬Ø±Ø©":1162,"ĠØ§ÙĦÙħØ´":1163,"ĠØ¯ÙģØ¹":1164,"ĠØ£ØŃÙħØ¯":1165,"ĠÙģÙĦÙĬ":1166,"Ø´ØªØ±Ø·":1167,"ĠØ§ÙĦØ£Ùħ":1168,"ĠÙĪØ§ÙĦØ¹":1169,"ĠØ£ÙĦÙģ":1170,"ĠÙĦÙĥÙĨ":1171,"ÙħØ§ÙĦ":1172,"ĠÙĬØŃØª":1173,"ĠÙĪÙĦÙĬØ³":1174,"ĠÙĬØ·":1175,"ÙĦÙĪØ§":1176,"ĠÙĤØ§ÙĦÙĩ":1177,"Ø¯ØªÙĩ":1178,"ĠÙĬØ±Ø¬Ø¹":1179,"Ø±Ø³":1180,"ÙĦÙĬØ©":1181,"ĠÙĪØ£ÙĨ":1182,"ĠØ¨Ø§ÙĦÙĤ":1183,"ĠØ¨Ø¹Ø¶ÙĩÙħ":1184,"ĠÙĤÙĬÙħØªÙĩ":1185,"Ø§ÙģØ±":1186,"ĠÙĦØºÙĬØ±":1187,"ĠØ£ÙħØ±":1188,"Ø³ÙĦØ§Ùħ":1189,"ĠØ±Ø¨":1190,"Ø¶ÙĪ":1191,"ĠØ§ÙĦØ£Ø¨":1192,"Ø§Ø¨Ø©":1193,"ĠÙĪÙĩØ°Ø§":1194,"Ø¨Ø³":1195,"ĠÙĪØ®":1196,"ØŃÙĩ":1197,"Ø¢":1198,"ØµÙĬ":1199,"Ø§ÙĦØ«":1200,"Ø¹ÙĬØ¯":1201,"ĠØ«ÙĦØ«":1202,"ÙĦØ§Ø¡":1203,"Ø¬ÙĪØ²":1204,"ÙĤÙģ":1205,"ÙģÙĬÙĩ":1206,"Ø¹ØªØ¨Ø±":1207,"ĠØ§ÙĦÙĤØ§Ø¶ÙĬ":1208,"ĠØŃØ§ÙĦ":1209,"ĠØ¬Ùĩ":1210,"ĠØ§ÙĦÙħØ§":1211,"ÙĪØ¥ÙĦØ§":1212,"ÙħØªÙĩ":1213,"ĠØµØ§ØŃØ¨":1214,"ÙĥÙĩ":1215,"Ø¯ÙĦ":1216,"ĠØ§ÙĦØŃØ¬":1217,"ĠØ§ÙĦÙĤØ¨":1218,"Ø±Ø´":1219,"ĠØ¹ÙĤØ¯":1220,"ĠÙĬØ£ØªÙĬ":1221,"ĠØ£Ø±Ø§Ø¯":1222,"ĠÙĤÙĦØª":1223,"ØºÙĨÙĬ":1224,"ÙĪØ§ÙĨ":1225,"ĠØ¹ØªÙĤ":1226,"ĠÙĨØ¸Ø±":1227,"ĠØ¯Ø±ÙĩÙħ":1228,"Ø§Ø¦Ùĩ":1229,"ĠÙħØ´":1230,"ÙĩØ§Ø¯Ø©":1231,"ÙĪØ¥Ø°Ø§":1232,"ĠÙħØ¤":1233,"ĠÙĤØ·Ø¹":1234,"ĠÙĬØ«Ø¨Øª":1235,"ĠØ¨Ø§ÙĦØª":1236,"ĠØ´Ø¹":1237,"ĠØ¹ÙĬÙĨ":1238,"ÙĪÙĦØ¯":1239,"ĠØŃÙĨÙĬ":1240,"ĠØ¨Ø§ÙĦØŃ":1241,"ÙģØ¹ÙĦ":1242,"ĠÙĦÙĦØ¹":1243,"ĠØ£Ø¹ÙĦÙħ":1244,"ĠØ¨ÙĥØ±":1245,"ĠØ±Ø¬Ø¹":1246,"ĠÙħØ¯":1247,"ĠØ¹Ø·":1248,"ĠÙĥÙģ":1249,"ÙĩÙĪØ±":1250,"ĠÙĪÙĨØŃÙĪÙĩ":1251,"Ø®ÙĬØ±":1252,"ĠÙĬØ¹ÙĨÙĬ":1253,"ØªÙħ":1254,"ĠØ§ÙĦÙĤØ§Ø³Ùħ":1255,"ĠØ¨ÙħÙĨ":1256,"ĠÙĬÙģ":1257,"Ø±ÙĥØ©":1258,"ĠØŃÙĨÙĬÙģØ©":1259,"ÙĪØ¥ÙĨÙħØ§":1260,"ÙĪÙĤÙĬÙĦ":1261,"ÙħØ§Ø¡":1262,"ĠÙĩÙĦ":1263,"Ø§ÙĨÙĬØ©":1264,"ĠÙĪØ§ÙĦØŃ":1265,"ĠØŃÙĤÙĩ":1266,"Ø¯Ø±":1267,"ÙģÙĩÙĪ":1268,"ĠØªÙħ":1269,"ÙĪÙĨØ©":1270,"ĠÙĪØ«":1271,"ĠÙĥÙĦØ§ÙħÙĩ":1272,"ĠØ¥ÙĦÙĬ":1273,"ĠÙĬØ®Ø±Ø¬":1274,"ĠØ§Øª":1275,"ÙĨØ§ÙĬØ©":1276,"ØµØ§Ø±":1277,"ĠØ£ÙħØ§":1278,"ĠØ¨Ø§ÙĦØ¥":1279,"°ÙĦÙĥ":1280,"ĠÙħÙĤ":1281,"ĠØŃØ¯Ø«":1282,"ĠÙĤØªÙĦ":1283,"ĠÙĪØ´":1284,"ĠØ§ÙĦØ±Ø¬ÙĦ":1285,"ĠÙĬÙĦØ²Ùħ":1286,"ĠØ¬Ø¹":1287,"ĠØ¨Ø¬":1288,"ĠØ¹ÙħØ±ÙĪ":1289,"ĠÙĤÙĬÙħØ©":1290,"ĠØ§ÙĦØ¬Ùħ":1291,"ĠØ§ÙĦØ«Ø§ÙĨÙĬ":1292,"ĠØ´Ø±":1293,"ÙĪÙĥÙĦ":1294,"Ø£Ùħ":1295,"ĠÙĪÙĤØ¹":1296,"ĠÙĬØ±Ø¯":1297,"ĠÙĪÙĥØ§ÙĨ":1298,"ĠÙģØ±Ø¶":1299,"ĠØŃØ§":1300,"ØŃØ¯Ø«":1301,"ÙĦÙĬÙĨ":1302,"ĠØ§ÙĦÙħÙĬØª":1303,"ĠÙĬØº":1304,"ÙĤØ·Ø¹":1305,"ØŃØ§":1306,"ĠØ¨Ø±":1307,"ĠÙĥØ«":1308,"ĠØ§ÙĦÙĥØªØ§Ø¨":1309,"ĠØ§ÙĦÙħØ¤":1310,"ÙħØ§Ø¹Ø©":1311,"Ø§Ø±ØŃ":1312,"ĠÙħÙħÙĨ":1313,"ĠÙĦÙĦ":1314,"ØªÙĩÙħ":1315,"ĠØ§ÙĦÙħØ°Ùĥ":1316,"ĠØŃØ¯ÙĬØ«":1317,"Ø£Ø¬Ø±":1318,"ĠØ³Ø¹ÙĬØ¯":1319,"ĠÙĪØ¨ÙĬÙĨ":1320,"ĠØ£ÙĪÙĦØ§":1321,"ĠØ§Ø³ØªØŃ":1322,"ĠØ§Ø¯":1323,"ĠØ¹ÙĦÙĬÙĩÙħ":1324,"ĠØ¨ÙĬÙĨØ©":1325,"ĠØªØ¨":1326,"ĠØµØŃÙĬØŃ":1327,"ÙĥÙĬÙĦ":1328,"ĠØªØª":1329,"ÙĬØ²":1330,"ĠØ¹Ø´Ø±Ø©":1331,"ĠÙĪÙĦÙĩ":1332,"ĠØ¹Ø¨Ø§":1333,"ĠÙĪØ£ÙħØ§":1334,"ĠÙĬØ¶ÙħÙĨ":1335,"ÙĤØ¶":1336,"ĠÙħØ¹Ø§":1337,"ĠØ§ÙĦØŃØ¯":1338,"ĠÙĦÙĦØŃ":1339,"ĠØ§ÙħØ±Ø£Ø©":1340,"ĠØ£ÙĪÙĦÙī":1341,"ĠÙĪØ¬Ø¨":1342,"ĠÙĪÙĦÙĬ":1343,"ĠÙĦØ³":1344,"ĠØ§ÙĦÙħØ±Ø£Ø©":1345,"ĠÙĪØ§ÙĦØª":1346,"ĠÙĥØªØ§Ø¨":1347,"ĠØ®ÙħØ³Ø©":1348,"ĠØŃÙħ":1349,"ĠÙĥÙĪÙĨÙĩ":1350,"ĠØ£Ø±Ø¶":1351,"ĠÙĪØ¥ÙĨÙħØ§":1352,"ĠØ¬Ø²":1353,"Ø§Ø¦ÙĦ":1354,"ĠÙĬÙħÙĦÙĥ":1355,"ĠÙĤÙĦ":1356,"ÙĪØ§Ùĩ":1357,"ĠÙħØ«ÙĦØ§":1358,"ĠØ£Ùĩ":1359,"ĠÙĪØ¯":1360,"ĠØ§ÙĦÙħØ¹Øª":1361,"ĠÙĦÙĦÙĪ":1362,"Ø§Ø¦Ø²":1363,"ĠØµØ§Ø±":1364,"ĠØ§ÙĦØ«ÙĦØ«":1365,"ĠØ§ÙĦÙħØ±Ø§Ø¯":1366,"Ø±ØªÙĩ":1367,"Ø°Ùģ":1368,"ÙĦÙĩÙħ":1369,"ÙĦØ£ÙĨÙĩØ§":1370,"ĠØ£Ø¨ÙĬÙĩ":1371,"ĠØ£Ø³ÙĦÙħ":1372,"ĠØ§ÙĦÙĨØ§Ø³":1373,"Ø±Ø«Ø©":1374,"Ø±ÙĩÙĨ":1375,"ĠØ§ÙĦØ±ØŃ":1376,"ÙĤÙĬÙĤ":1377,"ĠÙĤØ¯Ùħ":1378,"ĠØ§ÙĦØ¹ÙĦÙħ":1379,"ÙģÙĦ":1380,"ÙģÙĤØ§ÙĦ":1381,"ĠØ§ÙĦØ¹ØªÙĤ":1382,"ĠØ¨Ø§ÙĦØ¨":1383,"ĠÙĨÙģØ³":1384,"ÙĦØ²ÙħÙĩ":1385,"ĠØ£Ø±Ø¨Ø¹Ø©":1386,"Ø¬Ø§Ø¨":1387,"Ø±ÙĬØ¯":1388,"Ø²ÙĦØ©":1389,"ĠÙĪØ§ÙĦØ¨":1390,"ĠØµÙĦØ§":1391,"ÙĪØ¨Ùĩ":1392,"ĠØ§ØŃØª":1393,"ĠØ¨Ø³":1394,"Ø§Ø±ÙĬØ©":1395,"ĠØ«Ø¨Øª":1396,"ĠØ§ÙĦØ¥Ø³ÙĦØ§Ùħ":1397,"Ø±Ø¬ÙĦ":1398,"ÙĪÙĤÙģ":1399,"ĠÙħØ®":1400,"ÙĪØ¬Ø¯":1401,"ÙĥØ§ØªØ¨":1402,"ÙģØ¸":1403,"ÙģØµÙĦ":1404,"ĠØªÙĥÙĪÙĨ":1405,"Ø£ØªÙĬ":1406,"ĠÙĤÙĬÙĦ":1407,"ĠØ§ÙĦÙĥÙģ":1408,"ÙĨÙĪÙĨ":1409,"ÙĦØªÙĩ":1410,"ĠØ§ÙĦÙħØ§Ø¡":1411,"Ø±ÙĬÙħ":1412,"ĠÙĪØ±":1413,"ÙĦÙħØ§":1414,"ÙģØ¥Ø°Ø§":1415,"ĠÙĬÙĪØ³":1416,"ĠØªØµØŃ":1417,"ĠØ®Ø·":1418,"ĠÙĬÙħÙĥÙĨ":1419,"ĠÙĦØ¥":1420,"ĠØ§ÙĦØ¹ÙĬÙĨ":1421,"ĠÙĪÙĦ":1422,"ĠÙģÙħØ§":1423,"Ø§Ø¬Ø©":1424,"Ø¹ÙĦÙī":1425,"ĠÙĪØ²":1426,"ĠØ§ÙĦØ£ÙĪÙĦÙī":1427,"ĠÙĨÙĤØµ":1428,"ÙĥØ§Ø©":1429,"ĠÙĦØ¹Ø¯Ùħ":1430,"Ø±Ø§Ø¨":1431,"ÙĪÙĥØ°ÙĦÙĥ":1432,"ØµØ§Øµ":1433,"ĠØ§ÙĦÙĤÙĪÙĦ":1434,"ĠØ¹ÙĨÙĩØ§":1435,"ĠØ´ÙĬØ®":1436,"ĠØ§ÙĦÙħØªÙĨ":1437,"ÙĨÙĬÙĨ":1438,"Ø¨ÙĤ":1439,"Ø§Ø¦Ø±":1440,"ĠØ§ÙĦØªØ¹":1441,"ĠÙĬÙĪØ³Ùģ":1442,"ĠØ£Øª":1443,"Ø·Ø©":1444,"ÙĨØ¹Ùħ":1445,"Ø®ÙĪÙĦ":1446,"ĠØ¯Ø§Ø±":1447,"ÙĨØ§Ø¡":1448,"ĠØµÙĦØ§Ø©":1449,"ÙĨØ¨":1450,"Ø®Ø¨Ø±":1451,"ĠÙĥØ§ÙĦÙħ":1452,"ĠÙħØ¹ÙĨÙī":1453,"ĠØ§ÙĦÙĪÙĤÙģ":1454,"ĠØ§ÙĦØŃØ§ÙĥÙħ":1455,"ĠÙĤØ¨Ø¶":1456,"ÙģÙī":1457,"ĠÙĬØ´ØªØ±Ø·":1458,"ØªÙĥ":1459,"Ø®ØªÙĦÙģ":1460,"ĠØ§ÙĦÙħØ³Ø£ÙĦØ©":1461,"ÙĪÙĬÙĨ":1462,"ĠÙģÙĦÙĬØ³":1463,"ÙĬØ±Ùĩ":1464,"Ø³ÙħØ©":1465,"Ø³Ø®":1466,"ĠÙĬÙħÙĨØ¹":1467,"ĠØªÙĦÙĥ":1468,"ĠØ£Ùĥ":1469,"Ø§ÙĩØ¯":1470,"ĠØ´Ø±ÙĬ":1471,"ĠÙĬØ±":1472,"ĠØ§ÙĦØ£ÙħØ±":1473,"ĠÙħØ§Ø¦":1474,"ĠØ¯Ø¹":1475,"ĠØ£Ø®Ø°Ùĩ":1476,"ĠÙĦÙģ":1477,"ĠØ§ÙĦÙĨÙĥØ§ØŃ":1478,"ĠØŃÙĥ":1479,"ÙĪÙĬØ©":1480,"ĠÙģÙĦØ§ÙĨ":1481,"ÙĬØ§Ùħ":1482,"ĠÙģÙĥØ§ÙĨ":1483,"ĠÙħØŃÙĦ":1484,"ĠØ¯Ø®ÙĦ":1485,"ĠÙĥØ£ÙĨ":1486,"Ø§Ø¨Øª":1487,"ĠÙģØŃ":1488,"ĠØ¬ÙħØ¹":1489,"ĠØ§ÙĦØ·ÙĦØ§ÙĤ":1490,"ĠÙĦØµ":1491,"ÙĬØ³":1492,"ĠÙĤØ·":1493,"ÙģØªØŃ":1494,"ĠØŃÙĬÙĨØ¦Ø°":1495,"ĠØ§ÙĦÙħØ°ÙĩØ¨":1496,"Ø§Ø¤":1497,"ÙĦØ§ÙĦ":1498,"ĠÙĤØµØ¯":1499,"ĠØ§ÙĦØŃÙĬ":1500,"ĠÙĪØ§ÙĦÙĤ":1501,"ØµÙī":1502,"ØŃÙĬØ«":1503,"ĠØ§ÙĦØ³ÙĬØ¯":1504,"ĠÙĬØ£Ø®Ø°":1505,"ĠØªÙģ":1506,"ĠØ§ÙĦØŃÙĤ":1507,"ĠØ·ÙĦØ¨":1508,"ĠØ·Ø§ÙĦÙĤ":1509,"ÙĤÙĦÙĩ":1510,"ĠÙĪØ¥Ø°Ø§":1511,"ĠÙĪØ§ÙĦÙĦÙĩ":1512,"ĠØ±ÙĪØ§ÙĬØ©":1513,"ĠØ§ÙĦÙĪØµÙĬØ©":1514,"ĠÙĬØ¯Ø®ÙĦ":1515,"Ø·Ø¡":1516,"Ø´Ø©":1517,"ĠØ¬Ø¹ÙĦ":1518,"ĠØ¹ÙħØ§":1519,"ĠØ§ÙĦØ®Ø·":1520,"ÙĪØ§ÙĦØ£":1521,"Ø°Ø¨":1522,"ĠØ¨Ø§Ø¨":1523,"ÙĦØ§Ø«Ø©":1524,"Ø±Ø§ÙĩÙħ":1525,"Ø§ØµØ¨":1526,"ÙĦÙĬÙħ":1527,"Ø£ÙħØ§":1528,"ĠÙĨØ¹Ùħ":1529,"ÙĪØ¶Ø©":1530,"Ø·ÙĬ":1531,"Ø¨ÙĩØ©":1532,"ĠÙĬØ¹ØªÙĤ":1533,"Ø§Ø±Ø¬":1534,"ĠÙĬÙĤØ¨ÙĦ":1535,"ĠÙĦÙĦÙĤ":1536,"ÙģØ±ÙĤ":1537,"ĠÙĪØ§ÙĦØ³":1538,"ĠØ£ØµÙĦ":1539,"ĠØ§ÙĦØ£ØµØŃ":1540,"ØŃØ±Ùħ":1541,"Ø·Ùĩ":1542,"°ÙĬ":1543,"ĠÙĬØŃÙĬ":1544,"ĠØ¸ÙĩØ±":1545,"ĠÙħØ¯Ø©":1546,"ĠØ¨Ø«":1547,"Ø±Ø§Ø¡Ø©":1548,"Ø´ÙĩØ¯":1549,"ĠÙĨÙĥØ§ØŃ":1550,"ÙģÙĦÙĪ":1551,"ĠØ¨Ø§Ø¹":1552,"Ø¬Ø±Ø¯":1553,"ĠØ£Ø¨Ø§":1554,"ĠÙĬÙĤØ¹":1555,"ĠØ§ÙĦÙħØ³Ø¬Ø¯":1556,"ĠØ£Ø®Ø¨Ø±ÙĨØ§":1557,"ĠØ£ÙĤÙĦ":1558,"ĠØ´ÙĩØ¯":1559,"ĠØ¬Ø§Ø¦Ø²":1560,"Ø¨Ø¹Ø¯":1561,"ĠØ³ØªØ©":1562,"ÙĪØ«":1563,"ĠØ£ÙĪÙĦ":1564,"ĠØ±Ø¬ÙĦØ§":1565,"ĠØ§ÙĦØ±ØŃÙħÙĨ":1566,"ĠÙĦÙĥÙĦ":1567,"ĠÙĦÙĤÙĪÙĦÙĩ":1568,"ĠØ¨ÙħØ¹":1569,"ĠÙĦÙĦØª":1570,"ĠØ§ÙĦÙĪØ§":1571,"Ø¶ØŃ":1572,"ĠØ§ÙĦØ´Ø§Ø±ØŃ":1573,"Ø§Ùĥ":1574,"Ø¨Ø®ÙĦØ§Ùģ":1575,"ĠØ§ÙĦØ¹ÙħÙĦ":1576,"Ø¨Ø§Ø¹":1577,"ĠØ§Ø´ØªØ±Ùī":1578,"ĠØ¨ÙĨØª":1579,"Ø¬ÙĪØ¯":1580,"ØªÙĩÙī":1581,"ĠÙĦØ²ÙħÙĩ":1582,"ÙĤÙĤ":1583,"ĠÙģÙĤ":1584,"ĠÙħÙĨØ¹":1585,"ĠØ§ÙĤØª":1586,"ÙģØ³Ø®":1587,"ĠÙģÙĬÙĥÙĪÙĨ":1588,"ĠØªØŃØª":1589,"ÙĤÙĬÙĤØ©":1590,"ĠÙĦÙģØ¸":1591,"ĠÙĥØ³":1592,"ÙĪØ¨Ø§":1593,"ĠÙĬÙĨØ¨ØºÙĬ":1594,"ĠØ£Ø´ÙĩØ±":1595,"ĠÙģØ¬":1596,"ĠÙĪØ§Ø¨ÙĨ":1597,"ĠÙĦÙĦØ¨":1598,"ĠÙĪØ°ÙĦÙĥ":1599,"ÙĪØ§Øª":1600,"ĠØ§ÙĦÙĪÙĤØª":1601,"Ø¸Ø§ÙĩØ±":1602,"ÙħØ³Ø£ÙĦØ©":1603,"ÙĦØ²Ùħ":1604,"ĠÙĪÙĨØŃÙĪ":1605,"ĠØ§ÙĦÙĬÙħÙĬÙĨ":1606,"ĠØ¨Ø§ÙĦÙĨ":1607,"ĠØ§ÙĦÙħÙĪÙĦÙī":1608,"ĠØ§ÙĦÙĤØ±":1609,"ĠÙĪÙĩØ¨":1610,"ĠØ±Ùħ":1611,"ĠØ§ÙĦÙħØ§ÙĦÙĥ":1612,"ĠÙĬØŃÙĬÙī":1613,"ĠØ¨Øµ":1614,"Ø¶Ø±Ø¨":1615,"ĠØ¬ÙĨØ³":1616,"ĠØ²Ø§Ø¯":1617,"Ø¶ÙĪØ¡":1618,"ĠÙĤØ±":1619,"Ø¶Ø§ÙĨ":1620,"ĠØºÙĬØ±ÙĩØ§":1621,"Ø³ÙħÙī":1622,"Ø±Ø¨Ø¹":1623,"ÙĬÙĨØ§":1624,"ĠÙĨØ¬":1625,"ĠØ§ÙĦÙħØ°ÙĥÙĪØ±":1626,"ĠØ¨Ø§ÙĦØ´":1627,"Ø§Ø©":1628,"ÙĬØ¨Ùĩ":1629,"Ø³Ø§ÙĨ":1630,"ĠØ¬Ø§Ø¡":1631,"ĠÙĪØ¹ÙĦÙī":1632,"ÙĨØ¨ÙĬÙĩ":1633,"ĠØ¨Ø´Ø±Ø·":1634,"ĠØ£ÙħØ©":1635,"ĠØªØ²ÙĪØ¬":1636,"Ø¹Ø±":1637,"ØµØ©":1638,"ĠÙĦÙĩÙħØ§":1639,"ĠØ¹Ø²":1640,"ÙĦÙģÙĩ":1641,"Ø¦Ùĩ":1642,"ĠÙĬØŃØ±Ùħ":1643,"ÙĪÙĦÙĬØ³":1644,"ÙĥØ°Ø§":1645,"ĠØ¨Ø®":1646,"Ø¦ÙĦ":1647,"ĠØ¨Ø§ÙĦÙģ":1648,"ĠØ¨ÙĬØª":1649,"ĠØ§ÙĦÙħØ¨ÙĬØ¹":1650,"ĠÙĦØº":1651,"ĠÙĪØ§ÙĦØ¥":1652,"ĠØµØŃØ©":1653,"ĠÙĬØ³ÙĤØ·":1654,"ĠØ¹Ø¨Ø§Ø³":1655,"ĠÙĪØŃØ¯":1656,"Ø¶ÙħÙĨ":1657,"Ø³Ø¨Ø¨":1658,"ÙģØ§Ø¡":1659,"Ø§ÙģØ¹ÙĬ":1660,"ÙĪÙħÙĩ":1661,"ĠÙĦØ°ÙĦÙĥ":1662,"ĠØ´ÙĩØ§":1663,"ĠÙĪØ¬ÙĪØ¨":1664,"ĠÙĪØ¹ÙĦÙĬÙĩ":1665,"ĠØ§ÙĨØª":1666,"ĠØ¥Ø¨":1667,"ĠØ§ÙĦØ£Øµ":1668,"ĠÙĤØ±ÙĬ":1669,"ĠØ§ÙĦØ´ÙĬØ®":1670,"ĠØ§ÙĦØ¬ÙħØ¹Ø©":1671,"ĠØ¨ÙĦØº":1672,"Ø§Ø¬Ø¨":1673,"ĠÙĦØ£ÙĨÙĩØ§":1674,"ĠØªÙĥ":1675,"ĠØ¨ÙĨÙģØ³Ùĩ":1676,"ĠØ¨ÙħÙĨØ²ÙĦØ©":1677,"ØªÙĦ":1678,"ĠØ§ÙĦÙħØ«ÙĦ":1679,"ĠØªØµ":1680,"ÙĤØ±Ø§Ø±Ùĩ":1681,"ĠØ§Ø¨Øª":1682,"ÙħÙĥÙĨ":1683,"ÙħØ§Ø¦Ø©":1684,"ĠØ±ÙĪØ§Ùĩ":1685,"Ø´ÙĬØ¡":1686,"ĠÙĬØ¸ÙĩØ±":1687,"ĠØ¶ÙħÙĨ":1688,"ÙĬÙħÙħ":1689,"Ø±ÙĪØ¬":1690,"ĠØ§ÙĦÙĪÙĦÙĬ":1691,"ĠÙĥØ§":1692,"ØŃÙħØ¯":1693,"ÙĥÙĬ":1694,"ĠØ£ÙĪØµÙī":1695,"ĠØ§ÙĦÙĪÙĥÙĬÙĦ":1696,"ĠØµØ§ØŃØ¨Ùĩ":1697,"Ø§ÙĤÙĬ":1698,"ÙĪØ¨Ø©":1699,"ĠØ¶ÙħØ§ÙĨ":1700,"ØŃØ±Ø§Ùħ":1701,"ĠØ§ÙĦÙħØº":1702,"ĠÙĦØ¬":1703,"ĠÙĦÙĨÙģØ³Ùĩ":1704,"ØŃØ§ÙĤ":1705,"ĠØ§ÙĦØŃØ³ÙĨ":1706,"ĠÙĪÙĤÙģ":1707,"Ø¹ÙĦÙħ":1708,"ĠØ£ØµØŃØ§Ø¨":1709,"ĠØ§ÙĦÙĪØ¬Ùĩ":1710,"ØŃØªÙħÙĦ":1711,"ĠØ¬ÙĩØ©":1712,"ÙĤØ¨ÙĦ":1713,"ĠØ¹Ø¨Ø§Ø±Ø©":1714,"Ø±ØªÙĩÙĨ":1715,"Ø´Ø¯":1716,"ĠØ£Ø®Ø±Ùī":1717,"Ø£ÙħÙĦ":1718,"ĠÙħØ³Ø£ÙĦØ©":1719,"ĠÙĬØ¹Øª":1720,"Ø§Øº":1721,"ĠØ§ÙĦØ£ÙħØ©":1722,"ĠØ¬Ùħ":1723,"Ø¸Ùħ":1724,"ĠÙģØ§Ø³":1725,"ØªØŃ":1726,"Ø®Ø°Ùĩ":1727,"Ø³ÙħØ¹":1728,"ĠØ£Ø¹ØªÙĤ":1729,"ÙĬØ§Ø³":1730,"ĠØ¶Ø±Ø¨":1731,"Ø°ÙĬ":1732,"ĠÙĦØ´":1733,"ĠÙħØµ":1734,"ĠØ¹Ø§Ø¦":1735,"ĠØ§ÙĦÙħØ¯ÙĪÙĨØ©":1736,"ĠØ´ÙĬØ®ÙĨØ§":1737,"ĠØµØ±ØŃ":1738,"ĠÙħØ¹Øª":1739,"ĠØ§ÙĦÙĤÙĬÙħØ©":1740,"ĠÙħØ±Ø©":1741,"ĠØ¬ÙĪØ§Ø²":1742,"ĠÙģØ±ÙĤ":1743,"Ø¶Ø§Ø±":1744,"ÙħØªÙĨØ¹":1745,"Ø¨Ø±Ùĩ":1746,"ĠÙĪÙĤÙĬÙĦ":1747,"ĠÙĬØ§":1748,"ĠØ£ÙĨØª":1749,"ĠØ£Ø®Ø±Ø¬":1750,"ĠØ¨ÙĬØ¹Ùĩ":1751,"Ø¨Ø±Ø£":1752,"ĠØ¨Ø§ÙĦÙĪ":1753,"ÙģØ¥ÙĨÙĩ":1754,"ĠØ¹Ø±ÙģØ©":1755,"ĠØ¨ÙĨÙĬ":1756,"ĠÙģØ¹ÙĦÙĩ":1757,"ĠÙĩØ±":1758,"ĠÙĦÙĦØ¥":1759,"ĠÙģØ¹ÙĦÙĬÙĩ":1760,"ÙĪÙĩÙħ":1761,"Ø±Ø²":1762,"ĠØ§ÙĦÙĤØ¶Ø§Ø¡":1763,"ĠØ§ÙĦØ¨ÙĬÙĨØ©":1764,"ÙĦØŃÙĤ":1765,"Ø«ÙĦÙĩ":1766,"ĠØ¯Ø§":1767,"Ø§Ø¦Ø¨":1768,"ĠØ§ÙĦØµØŃÙĬØŃ":1769,"ĠØ±Ø£Ø³":1770,"ÙħÙĨÙĩ":1771,"ĠÙħØ±Ø¶":1772,"ĠÙĪØ¹ÙĨ":1773,"ĠØ§ÙĦÙħÙĪØª":1774,"Ø§ÙĩØ±Ùĩ":1775,"Ø¯Ø¨":1776,"ĠØ£Ø¬Ø±":1777,"ĠÙĥÙĪÙĨ":1778,"ĠÙĪØ§ÙĦÙĪ":1779,"ĠÙģÙĩÙĬ":1780,"Ø¹Ø·":1781,"Ø±Ø§Ø¶":1782,"Ø±ÙĬØŃ":1783,"Ø¹Ø¶":1784,"ĠØ¹Øª":1785,"ĠÙĬÙĤØªØ¶ÙĬ":1786,"ĠØ§ÙĦØ¹Ø¯":1787,"ĠØ¹Ø§":1788,"ĠØ¹Ø¨ÙĬ":1789,"ĠØ®Øµ":1790,"ÙĬØ¹Ø©":1791,"ĠÙħØ¹ÙĦÙĪ":1792,"ĠÙĪØ§ÙĦÙģ":1793,"ÙĬØŃ":1794,"ĠÙħÙĩØ±":1795,"ĠØŃÙĬØ§":1796,"ĠØ£ÙĬØ§Ùħ":1797,"ĠØ¥Ø³ØŃØ§ÙĤ":1798,"ÙĪÙĨÙĩØ§":1799,"ĠØ¨Ø´ÙĬØ¡":1800,"ĠÙĬØŃÙĨØ«":1801,"Ø³ØªØŃØ¨":1802,"ÙĪØ¯Ùĩ":1803,"ĠØªÙĦÙģ":1804,"ĠØ£Ø¨Ùī":1805,"ÙĩÙĪØ¯":1806,"ĠÙģÙĩÙĦ":1807,"ĠØ§ÙĦÙħÙĤØ±":1808,"ĠØ¥ÙħØ§":1809,"ĠØ§ÙĦØŃØ¯ÙĬØ«":1810,"ÙģØ¹Ùĩ":1811,"ÙĪØ¹Ùĩ":1812,"ÙĬØ§ÙĨ":1813,"ĠØŃÙħÙĦ":1814,"ĠØ¥Ø°ÙĨ":1815,"Ø±ÙģØ©":1816,"ĠØ´ÙĩØ±":1817,"ĠÙĩØ±ÙĬØ±Ø©":1818,"ÙĥØ³":1819,"Ø§ÙĦØ£":1820,"Ø¹Ø§Ùħ":1821,"ĠØ¨Ø§ÙĦÙĥ":1822,"ĠÙĬØŃÙĦ":1823,"ĠØ§ÙĦØ¯ÙĬØ©":1824,"ÙĪÙĩÙĬ":1825,"ĠÙħØ§Ø¡":1826,"ĠØ§ÙĦÙħØ·":1827,"ĠØ¥ÙĨÙĩ":1828,"Ø§Ø·":1829,"Ø·ÙĦØ§ÙĤ":1830,"ĠÙĨØ¸":1831,"ÙĤØµÙĪØ¯":1832,"ĠÙĤÙĦÙĨØ§":1833,"Ø§Ø¦Ùħ":1834,"ÙģØ³Ø¯":1835,"ĠÙĬØ²ÙĬØ¯":1836,"ÙĤÙĬØ¯":1837,"ĠÙĬØ±ÙĬØ¯":1838,"Ø¯ÙĬÙĩ":1839,"ÙĤÙī":1840,"Ø§Ø±ÙĤ":1841,"ĠØ±Ùĩ":1842,"ĠÙħØ§Ø¦Ø©":1843,"Ø¥Ø°Ø§":1844,"ĠØ§ÙĦÙĪØ·Ø¡":1845,"ÙĥÙĨÙĩ":1846,"ĠØ®ÙĦØ§ÙģØ§":1847,"ĠÙħÙĪØ¶Ø¹":1848,"ĠØµÙĦØ§ØªÙĩ":1849,"ĠØ§ÙĦØ®ÙĦØ§Ùģ":1850,"ĠØ§ÙĦÙĤØ¨Ø¶":1851,"ĠØ£Ø¬Ø±Ø©":1852,"ĠØ§Ø¯Ø¹Ùī":1853,"ĠØ§ÙĦØ´Ø±Ø·":1854,"ĠØ§ÙĦØ±ÙĩÙĨ":1855,"ĠØ§ÙĦØ£Ø¬":1856,"ĠØ¯ÙĬÙĨÙĩ":1857,"Ø¨Ø§ØŃ":1858,"ĠØªÙĤØ¯":1859,"ĠÙĪØ§Ø³Øª":1860,"Ø±Ø£ÙĬØª":1861,"ĠÙĪÙĦØ¯Ùĩ":1862,"Ø±ÙĪØ±Ø©":1863,"ĠØ¯Ùħ":1864,"ĠÙĬÙĨØª":1865,"ĠÙĪØ·Ø¦":1866,"Ø§Ø¦Ø¯Ø©":1867,"ĠØ§ÙĦØ³Ø¨":1868,"ĠØ³ÙħØ¹Øª":1869,"ĠØ³ÙĤØ·":1870,"Ø¨ÙĬÙĦ":1871,"ĠØ§ÙĦØ®ÙĬØ§Ø±":1872,"ĠÙĪÙĬÙĨ":1873,"ĠØ±Ø¯Ùĩ":1874,"ÙĪØ£ÙĨ":1875,"ÙģÙĪ":1876,"Ø§ÙĦØ¹":1877,"ĠÙĪØ§ÙĦØ®":1878,"ĠÙĦØºÙĬØ±Ùĩ":1879,"ÙĤØ¨Ø©":1880,"ØŃØ¯ÙĩÙħØ§":1881,"ĠÙĬØ¹Ø±Ùģ":1882,"ØµÙĪØ±":1883,"ĠØ§ÙĦÙħØ³ÙĦÙħÙĬÙĨ":1884,"Ø¬Ø§Ø²":1885,"ĠØ¹Ø§Ø¦Ø´Ø©":1886,"ĠØ¨Ø£Ø³":1887,"ĠØ¨Ø¹Ø¶Ùĩ":1888,"ĠÙħÙĪØªÙĩ":1889,"Ø°ÙĥØ±Ùĩ":1890,"ĠØ§ÙĦÙĥÙĦØ§Ùħ":1891,"ĠÙħØ·":1892,"ĠØªØ·":1893,"ĠØ§ÙĦÙģØ±":1894,"ĠØ³ÙĬØ¯Ùĩ":1895,"ÙĪÙħØ©":1896,"ĠØ§ÙĦØ¥Ø¬Ø§Ø±Ø©":1897,"ĠÙĬØŃØµÙĦ":1898,"ĠØ§ÙĦÙĬØ¯":1899,"ĠÙģØ³Ø®":1900,"ĠØ¹Ø§Ø¯":1901,"ĠÙĪØ¨Ùĩ":1902,"ĠÙħÙĬØª":1903,"ĠÙĤØ§ÙĦØª":1904,"Ø«ÙħØ§ÙĨ":1905,"ĠØªØ¯":1906,"ĠÙģØ§ÙĦÙħ":1907,"ĠØ§ÙĦØ£Ø®":1908,"Ø§ÙĦÙĩ":1909,"ĠÙĦØ®":1910,"ĠØ¹Ø¨Ø¯Ùĩ":1911,"ĠØ¹Ø¨Ø¯Ø§":1912,"ĠÙĪÙħØ¹":1913,"ÙĤØ§Ùħ":1914,"ĠØ¨ÙĬØ§ÙĨ":1915,"ĠÙĤØ¶Ø§Ø¡":1916,"ÙĪØ§Ùģ":1917,"ĠÙĪØ§Ø±Ø«":1918,"ĠØ§ÙĦÙĪØ±Ø«Ø©":1919,"ĠÙĪØ§ÙĦØ¬":1920,"ĠØ£ØµØ§Ø¨":1921,"ÙĦÙĬÙĤ":1922,"ĠØŃØµÙĦ":1923,"ĠØŃØ±Ùħ":1924,"Ø£ÙĨØª":1925,"ĠÙĪØ¶Ø¹":1926,"ĠØ¨Ø§ÙĦØ³":1927,"ĠÙĦÙĦØ³":1928,"ÙģØ±Ø¯":1929,"ÙĦØŃØ©":1930,"ĠØ¥Ø®":1931,"ĠØ§Ø«ÙĨ":1932,"ÙħÙĦÙĪ":1933,"ĠÙħÙĪØª":1934,"ĠØ¨Ø³Ø¨Ø¨":1935,"ÙģØ°":1936,"ĠÙĥØ¹":1937,"ĠØ¨Ø§ÙĦØ¬":1938,"ĠÙĬÙĥØ±Ùĩ":1939,"ĠØ¹ÙħÙĦ":1940,"ÙģØ±Ø¹":1941,"ĠØ¹ÙħØ¯":1942,"ÙģØ§ÙĤ":1943,"ĠØ§ÙĦÙĥØªØ§Ø¨Ø©":1944,"ĠØ§ÙĦÙħØ¹ØªÙħØ¯":1945,"ÙĤØ±Ø¨":1946,"ĠØ§ÙĦÙħØ¯Ø©":1947,"ĠØ³Ø¨ÙĤ":1948,"ĠØ¥ÙĦÙĬÙĩØ§":1949,"ÙĪØ°ÙĦÙĥ":1950,"ØªØ§ÙĨ":1951,"Ø§Ø±ÙĬ":1952,"ĠØ²ÙĪØ¬ÙĩØ§":1953,"ĠØ³Ø¨Ø¨":1954,"ĠØ¨ÙĤØ¯Ø±":1955,"ĠÙĬØ°ÙĥØ±":1956,"ĠØ¯Ø®":1957,"ĠØ§ÙĦØ±Ø¯":1958,"ĠÙħØªØ¹ÙĦÙĤ":1959,"ĠÙģÙĨ":1960,"ĠÙĪØ§ÙĦØ¯":1961,"ĠÙĤØªÙĦÙĩ":1962,"ÙħÙĦÙĩ":1963,"ĠÙħÙĥØ©":1964,"ĠÙĨØ°Ø±":1965,"ÙĪØ±Ø§":1966,"ĠÙħØ±Ø§":1967,"ĠØªØ®":1968,"ĠØ§ÙĦÙĨØ³":1969,"ĠÙĤØ¨Ø¶Ùĩ":1970,"Ø°Ø±Ø¹ÙĬ":1971,"ĠØ§ÙĦÙĨØµÙģ":1972,"ÙģÙĩÙĪÙħ":1973,"Ø¯Ø§ÙĤ":1974,"ĠØ¨Ø¯ÙĦ":1975,"Ø¨Ø¶":1976,"Ø¨Ø§ÙĨ":1977,"ĠÙħØ¹ÙĬÙĨ":1978,"ĠØ²ÙĪØ¬ØªÙĩ":1979,"Ø£ÙĦ":1980,"Ø§Ø¦Ø¯":1981,"ĠÙĪØ§ÙĦØ´":1982,"ÙĪÙĥØ§ÙĨ":1983,"ĠØ¨ÙĬØ¯Ùĩ":1984,"ĠÙĬÙĪÙħØ§":1985,"Ø¬Ø¹":1986,"ĠØ§ÙĦÙħÙĥØ§ØªØ¨":1987,"ĠÙĪØ¬ÙĪØ¯":1988,"ĠÙĬØŃÙĦÙģ":1989,"ĠØºØ³ÙĦ":1990,"ĠØ§ÙĦØ¯Ø§Ø±":1991,"ĠØ£Ø°ÙĨ":1992,"Ø§ÙĨØ¹":1993,"ĠØ³ÙĦÙħØ©":1994,"Ø¯Ùī":1995,"ĠØ¨Ø²":1996,"ĠØ§ÙĦØªØŃ":1997,"Ø¨ÙĪØª":1998,"ĠÙĪÙģ":1999,"ĠÙĬÙĪØ¬Ø¯":2000,"ĠÙĨÙĪÙī":2001,"Ø¨Ø·":2002,"ØªÙĨØ¨ÙĬÙĩ":2003,"ÙĥÙģ":2004,"ĠØµØ§ÙĦØŃ":2005,"ĠÙĪÙĬØª":2006,"Ø®ØªØ§Ø±":2007,"ÙĬÙĤ":2008,"Ø¨ÙĪ":2009,"Ø«Ùĩ":2010,"ĠÙĦØ¯":2011,"ĠØ£Ø±Ø¨Ø¹":2012,"Ø§Ø¤Ùĩ":2013,"ĠÙĪÙĬØ±":2014,"ÙĦØ§Ø³Øª":2015,"ĠØ§Ø®ØªÙĦÙģ":2016,"Ø¨Ø§Ø¨":2017,"ĠÙĤØ§Ùħ":2018,"Ø¥Ø°":2019,"ĠØ´Ø®Øµ":2020,"ĠØ§ÙĦØ´Ø§ÙģØ¹ÙĬ":2021,"ĠÙĬØ¯ÙĦ":2022,"ĠØ¨ÙĬØ¯":2023,"Ø¬Øª":2024,"ĠÙĨÙĩØ§":2025,"ÙĪØ¹ÙĨ":2026,"ĠÙĥØ£":2027,"Ø§Ø¸":2028,"ĠØ§ÙĦØ¹Ø¯Ø©":2029,"ÙģÙĬØ§ÙĨ":2030,"ĠÙĦÙĦØ´":2031,"ĠØ£Ø´Ø§Ø±":2032,"ĠÙģÙĦ":2033,"Ø§ÙĦØ¯":2034,"ĠÙĨÙĬØ©":2035,"ĠØ§ÙĦØ¥ÙĤØ±Ø§Ø±":2036,"ĠÙĨØµÙĬØ¨Ùĩ":2037,"ĠØ³ÙĨ":2038,"ĠØ¨ÙĨØ§Ø¡":2039,"ĠÙģÙĬÙĩÙħØ§":2040,"ĠÙĪÙĥÙĦ":2041,"ĠØªØ¹ÙĦÙĤ":2042,"ÙĪØµÙī":2043,"ĠØªÙĥÙĨ":2044,"ĠØ«Ø§Ø¨Øª":2045,"Ø£Ø®Ø°":2046,"ĠØ§ÙĦØ£Ø°Ø±Ø¹ÙĬ":2047,"Ø¬ÙĪØ¨":2048,"Ø¨Ø§Øª":2049,"ÙĩØ°Ø§":2050,"ĠÙģÙħÙĨ":2051,"Ø¬Ø§Ø±":2052,"ĠØ¥ØŃØ¯":2053,"Ø²Ø§":2054,"ĠØ´Ùĥ":2055,"ĠØ¬ÙħØ§Ø¹Ø©":2056,"ĠØ§ÙĦØ¬Ø²":2057,"ĠØ§ÙĦÙĥÙĦ":2058,"ÙĤØ§Øª":2059,"ĠÙģØµ":2060,"ĠØ¨Ø¹ÙĬÙĨÙĩ":2061,"ĠØ·Ø±ÙĬÙĤ":2062,"ĠÙħÙĥØ§":2063,"ÙĦØ§ØŃ":2064,"ĠØªØ¬Ø¨":2065,"ĠÙĪØ§ÙĦØ«":2066,"ĠØ§ÙĦØºØ§ØµØ¨":2067,"ĠÙĬØ¤Ø®Ø°":2068,"ĠØ¨ÙħØ¹ÙĨÙī":2069,"ÙĬØ¯Ùĩ":2070,"ÙħÙĪØ¹":2071,"Ø±Ø¨Ø¹Ø©":2072,"Ø¨ÙĨÙĬ":2073,"Ø¨Ø¹Ø¶":2074,"Ø¯ÙĬØ©":2075,"ÙģÙĬØ¯":2076,"ĠØ¨Ø§ÙĦØ¯":2077,"ĠØ§ÙĦØ³ÙĦØ§Ùħ":2078,"ÙĤØ§ÙĤ":2079,"ĠØ£ÙħÙĩ":2080,"ĠØ§ÙĦÙħØ±ØªÙĩÙĨ":2081,"ĠØ§ÙĦÙģØ±Ø¶":2082,"ĠÙħØŃØª":2083,"ĠØ§ÙĦÙĬÙĪÙħ":2084,"ĠÙĪØº":2085,"ÙĪÙĨØ³":2086,"ĠØ²ÙĬØ§Ø¯Ø©":2087,"ÙĩØ§ÙĨ":2088,"Ø±Ø¶Ø§":2089,"ĠØ§ÙĦØ«ÙĪØ¨":2090,"ĠÙĪØ¹Ø´Ø±":2091,"Ø§Ø´Øª":2092,"²ÙĪØ¬":2093,"ĠÙģÙħ":2094,"Ø¨Ø±Ø§Ø¡":2095,"ĠØ£Ø¬Ø²":2096,"ĠØ¹Ø·Ùģ":2097,"ĠØªØº":2098,"ĠØ³ÙħØ¹":2099,"ĠØ¹ÙĦÙĬÙĩÙħØ§":2100,"ĠØ¬Ø¹ÙģØ±":2101,"ÙĬØ¡":2102,"ĠØ§ÙĦØ±Ùĥ":2103,"ĠØ¬Ø²Ø¡":2104,"ĠØ§ÙĦØŃÙħÙĦ":2105,"ĠÙĦÙĬØ³Øª":2106,"ĠØ´ÙĩØ§Ø¯ØªÙĩ":2107,"ĠÙħØ´Øª":2108,"ĠØ¨ÙĩØ°Ø§":2109,"ĠÙĪØ§ÙĦÙĥ":2110,"ĠØ±ÙħØ¶Ø§ÙĨ":2111,"¸Ø§ÙĩØ±":2112,"ĠØªØµØ±Ùģ":2113,"ĠÙĬØ¬Ø¯":2114,"ĠØ§ÙĨØªÙĩÙī":2115,"ĠØ§ÙĦØ¨ØŃØ±":2116,"ĠØ§ÙĦØ¶ÙħØ§ÙĨ":2117,"ÙĬØ·":2118,"Ø¨ÙĬØ¨":2119,"Ø±ÙĩÙħØ§":2120,"ĠØ§ÙĦØ¯Ùħ":2121,"ÙĦØ°":2122,"ĠÙĨØ²":2123,"ĠØ§ÙĦØ³Ø§Ø¨":2124,"ĠØ§ÙĦØ±Ø¬ÙĪØ¹":2125,"ÙĪØ§ÙĦÙĦÙĩ":2126,"ĠØ§ÙĦØ«Ø§ÙĨÙĬØ©":2127,"ĠØ³ÙģÙĬØ§ÙĨ":2128,"ĠØ®ÙĬØ±":2129,"ĠØ£ÙģØ¶ÙĦ":2130,"ĠÙĬØŃØªÙħÙĦ":2131,"ĠØŃÙĥÙħÙĩ":2132,"Ø±ÙĬØ¶":2133,"Ø±Ø§ÙĩØ©":2134,"ĠØ§Ø³Ùħ":2135,"ØµÙĬØ±":2136,"ĠØ±ÙģØ¹":2137,"ĠÙģÙģÙĬ":2138,"ĠÙĨÙĤÙĦ":2139,"ÙĪØ¹ÙĦÙī":2140,"ĠØŃÙĨØ«":2141,"ĠÙĬØ¨Ø·ÙĦ":2142,"ĠØ§ÙĦØºÙĬØ±":2143,"ÙĨÙĩÙħ":2144,"ĠÙĬÙĤØ·Ø¹":2145,"ÙĪÙĬØª":2146,"ĠØ§ÙĦØ³ÙĨØ©":2147,"ĠÙħØŃØ±Ùħ":2148,"ĠØªÙĤØ¨ÙĦ":2149,"ĠØ²ÙħÙĨ":2150,"ĠØ¨Ø£ÙĦÙģ":2151,"ĠØ£Ø·ÙĦÙĤ":2152,"ĠØªÙĤØ±":2153,"ĠÙĦÙĦÙĩ":2154,"ĠÙĬÙħÙĬÙĨ":2155,"ĠØ£Ø¹Ø·":2156,"ĠÙĬØ¹ØªØ¨Ø±":2157,"ĠØ¨ÙĦØ¯":2158,"ĠØ§ÙĦØºØ³ÙĦ":2159,"ÙĪØ´":2160,"ÙĪØ¹Ø§":2161,"ÙĬØ«":2162,"ĠÙģÙĪÙĤ":2163,"ĠÙĪÙĦÙĥÙĨ":2164,"ĠÙģÙĬÙħÙĨ":2165,"ĠØµØºÙĬØ±":2166,"ĠØ§ÙĦÙĪØ§ÙĤ":2167,"ĠÙĪÙĥØ°ÙĦÙĥ":2168,"ÙĪØ§ÙĦØŃ":2169,"ÙĨÙħ":2170,"Ø¨ÙĩØ§":2171,"ĠØ¨ØŃÙĬØ«":2172,"ĠØ±Ø£Ø³Ùĩ":2173,"ÙĨØ²":2174,"ĠØ£ÙĥÙĦ":2175,"ÙģØµ":2176,"ÙĦÙĥÙĩ":2177,"ĠØŃÙĦ":2178,"ĠÙĩØ´":2179,"Ø¹ØªØ¨Ø§Ø±":2180,"ÙĪÙĦÙĬÙĨ":2181,"ĠÙĪØŃØ¯Ùĩ":2182,"Ø¬Ø³":2183,"ĠÙĨÙģÙĤØ©":2184,"ĠØ®Ø§Øµ":2185,"ĠÙĦÙĦØ¬":2186,"Ø¨Ø§Ø±Ø©":2187,"ĠÙĬØ³ÙĦÙħ":2188,"ĠØ«ÙħØ§ÙĨ":2189,"ĠØ¹Ø¬Ø²":2190,"ĠÙĤØ±Ø¨":2191,"ĠØ§ÙĦÙħÙĤ":2192,"ĠØ¨Ø§ÙĦØ®":2193,"ĠØ§ÙĦÙģØ±ÙĤ":2194,"ÙĤØªÙĦ":2195,"ÙĥÙĬÙĨ":2196,"Ø±Ø§ÙĩÙĬÙħ":2197,"Ø±ÙħØ§Ø¡":2198,"ĠØ§ÙĦÙĤØ¯":2199,"ĠØ§ÙĦÙĪØ§Ø±Ø«":2200,"Ø§ØµÙĦ":2201,"ĠÙħÙĪØ³":2202,"ĠØ§ÙĦØ±Ø§":2203,"ĠÙĬÙħÙĬÙĨÙĩ":2204,"ĠÙĬØ¶Ø±":2205,"ĠØ´Ø¹Ø¨Ø©":2206,"ĠØ§ÙĦØ£Ø´":2207,"ÙĤÙĬÙħ":2208,"ĠØ«ÙħÙĨ":2209,"Ø¨Ø¹Ùĩ":2210,"ĠØ§ÙĦØ¸Ø§ÙĩØ±":2211,"ĠØ§Ø¨":2212,"Ø¶ÙĬØ©":2213,"ĠØ±ÙĪÙĬ":2214,"ĠØ§ÙĦØ£Ø³":2215,"ĠÙĪØ±Ø¯":2216,"ĠØ¹Ø±":2217,"ĠÙĪØ§ÙĦØµ":2218,"Ø¯Ø³":2219,"ĠÙĬÙĪÙĨØ³":2220,"Ø§ÙħØ¹":2221,"ĠØ§ÙĦÙģØ³Ø®":2222,"ĠÙĪÙģÙĬÙĩ":2223,"ÙĨØ§ÙĨ":2224,"ĠÙĬÙĨØ§":2225,"ÙĤØ§ÙħØ©":2226,"ÙħØ³Ø©":2227,"Ø¶Ø§Ùĩ":2228,"ĠÙĬØµÙĦÙĬ":2229,"Ø£ÙĦØª":2230,"ÙĤØ±Ø§Ø¡":2231,"Ø¢ÙĨ":2232,"ĠÙĤØ³Ùħ":2233,"ĠØ§ÙĦØ£Ø¬Ø±Ø©":2234,"Ø¹ØªÙĤÙĩ":2235,"ĠØŃØ¬Ø©":2236,"ĠØ¹Ø¨ÙĬØ¯":2237,"ĠØ¨Øº":2238,"ÙĦØ¨Ùĩ":2239,"ĠØµÙģØ©":2240,"ĠÙĦÙĦÙģ":2241,"ĠÙħØº":2242,"ĠØ¹ÙĤ":2243,"ÙĥØ§Ùħ":2244,"ĠØ§ÙĦÙħÙĪÙĥÙĦ":2245,"Ø¶Øª":2246,"ĠØ®Ø¨Ø±":2247,"ÙĬØ§Ùĩ":2248,"ĠÙĬØ¬Ø¹ÙĦ":2249,"ĠØ¨ÙģØªØŃ":2250,"Ø¬ÙħØ§Ø¹":2251,"ĠØ³ÙĬØ¯":2252,"Ø¨ÙĬÙĩ":2253,"ĠØ¯ÙĬØ©":2254,"ĠÙĦØ£Ø¨":2255,"ĠØ§ÙĦØ¨Ø§ÙĤÙĬ":2256,"ĠØ¨Ø§ÙĦØµ":2257,"Ø¨Ø±Ø©":2258,"ÙģÙĨ":2259,"ĠØ§ÙĦÙĤØ·Ø¹":2260,"Ø±Ø§ÙĩÙĨ":2261,"Ø¯Øª":2262,"ĠØ¨Ø¶Ùħ":2263,"ĠÙĤÙĬØ¯":2264,"ĠØªØ²":2265,"ĠØ°ÙĩØ¨":2266,"ĠØ£Ø±":2267,"Ø£Ø±Ø£ÙĬØª":2268,"ĠØ¯Ø±Ø§ÙĩÙħ":2269,"ĠØ¨Ø§ÙĦØº":2270,"ĠØ£ØªÙī":2271,"ĠØ¹Øµ":2272,"Ø£Ø°":2273,"ĠØ§ÙĦÙĪØ¶ÙĪØ¡":2274,"ĠØ£ÙħØ±Ùĩ":2275,"ĠØ§ÙĦÙħØ¯Ø¹ÙĬ":2276,"Ø¨ØªÙĩ":2277,"ĠÙĦØ£Ø¬ÙĦ":2278,"ÙĪØ°ÙĥØ±":2279,"ĠÙģÙĬÙĨ":2280,"Ø¥ÙĦØ§":2281,"Ø¹ÙĪØ¯":2282,"ĠØ¹ÙĦÙĤ":2283,"ĠÙĬÙģØ¹ÙĦ":2284,"Ø«ÙĨÙī":2285,"Ø¦Øª":2286,"ĠØ§ÙĦÙħØŃØ±Ùħ":2287,"ĠØ§ÙĦÙĨÙĩ":2288,"ĠØ§ÙĦØŃØ§ÙĦ":2289,"ĠØ£ØµÙĦØ§":2290,"ĠØ§ÙĦØ£Ø¹":2291,"ĠØ¨Ø§ÙĦØ«":2292,"ÙĦØ¨Ø³":2293,"ĠØ«ÙĦØ§Ø«Ø§":2294,"ĠØ§ÙĦÙĩØ¨Ø©":2295,"ĠÙģÙĬØª":2296,"ĠÙĬØªØ¹ÙĦÙĤ":2297,"ĠÙģØ§ÙĦØ£":2298,"ÙĩØ±Ø§":2299,"ĠØ§ÙĦØŃØ±Ø¨":2300,"ĠØ§ÙĦØªØµØ±Ùģ":2301,"ĠØ·ÙĦØ§ÙĤ":2302,"ĠÙħØŃÙĦÙĩ":2303,"ĠØ§ÙĦÙħØ³ØªØ£Ø¬Ø±":2304,"ĠÙĥÙħ":2305,"ĠØ§ÙĦÙĤØ³ÙħØ©":2306,"ĠÙĨØµÙĬØ¨":2307,"ĠØ§ÙĦØ§Ø¨ÙĨ":2308,"ĠØ§ÙĦÙĪØ§ØŃØ¯":2309,"ĠÙħÙĤØ¯":2310,"ĠØ§ÙĦÙħØ®":2311,"ĠØ§ÙĦØ£ÙĨ":2312,"ÙĪØ¹ÙĨÙĩ":2313,"ÙĤØªØ¶Ùī":2314,"ĠÙĥØ«ÙĬØ±":2315,"ĠØŃÙĤÙĬÙĤØ©":2316,"ĠØ¨ÙĩÙħØ§":2317,"ĠØ£ØµÙĦÙĩ":2318,"ĠØ±Ø£ÙĬØª":2319,"ĠØ§Ø±Øª":2320,"¦ÙĦØ§":2321,"ÙĬÙĨØ¦Ø°":2322,"ĠØ§ÙĦØ¨Ø±":2323,"ĠØ«ÙħÙĨÙĩ":2324,"ĠÙĬØ´ÙĩØ¯":2325,"Ø«ÙĨØ§Ø¡":2326,"Ø¨Ø·ÙĦ":2327,"ĠÙĪØ±Ø«":2328,"Ø§ÙĦØ¬":2329,"ĠØ§ÙĦØ¥ØŃØ±Ø§Ùħ":2330,"ĠØ§ÙĦØ«ÙĦØ§Ø«Ø©":2331,"ÙĪØ°":2332,"ĠØ®ÙĬØ§Ø±":2333,"ĠØµØ¯ÙĤ":2334,"ĠØ¨Ø§ÙĨ":2335,"ĠØ§ÙĦÙħØ²":2336,"ĠØ§ÙĦÙħÙĨØ¹":2337,"ĠØŃÙĨ":2338,"ĠØ§ÙĦØ£ÙĦÙģ":2339,"ĠØ§Ø¨ØªØ¯Ø§Ø¡":2340,"ÙĬÙĦØ§":2341,"Ø±ÙħØ§":2342,"ÙģÙĥ":2343,"ĠØªØ¨ÙĬÙĨ":2344,"ĠØ§ÙĦØ®Øµ":2345,"ĠØºØ§ÙĦØ¨":2346,"Ø®ØªØµ":2347,"ĠØ¨ÙĬÙĨÙĩÙħ":2348,"ĠØ¥Ø¨Ø±Ø§ÙĩÙĬÙħ":2349,"ĠÙĥÙĦÙĩØ§":2350,"ĠØªØ¬":2351,"ĠØ§ÙĦÙĨØ¸Ø±":2352,"ĠØŃØ³":2353,"ĠØ§ÙĦØ£ØµØŃØ§Ø¨":2354,"ĠØ§ÙĦØ¹Ø¨Ø§":2355,"ØºØ±":2356,"Ø¹ÙĬÙģ":2357,"ÙĨØ«Ùī":2358,"ĠØªØ±Ùī":2359,"ĠØŃØ¬Ø±":2360,"ĠØ±Ø´Ø¯":2361,"ĠØ´ÙĩØ§Ø¯Ø©":2362,"ĠØ¯Ø§ÙĪØ¯":2363,"Ø¹ÙĨÙī":2364,"ÙĥØŃ":2365,"ĠÙģØ¹ÙĦÙī":2366,"ĠÙĬØŃØªØ§Ø¬":2367,"ÙĨØµ":2368,"ĠØ¨Ø°":2369,"ĠÙģØ¶ÙĦ":2370,"Ø±ÙĥÙĩ":2371,"ĠØ±Ø§Ø¬":2372,"ÙģØ¹ÙĦÙĩ":2373,"ĠÙĪØ·Ø¡":2374,"ÙĦØ¬":2375,"ĠØµÙĪÙħ":2376,"ĠØ§ÙĦØ´ÙĩØ§Ø¯Ø©":2377,"ĠØ§ÙĦØ¬Ø¯":2378,"Ø§ØªÙĦ":2379,"ÙĪÙĨØ§":2380,"ĠØ³Ø¹Ø¯":2381,"ĠØ§ÙĦØ£Ø¬ÙĦ":2382,"ĠØ§ÙĦÙĤØªÙĦ":2383,"ĠØ§ÙĦØ²ÙĪØ¬Ø©":2384,"ÙģÙĬÙĦ":2385,"ÙĬØ§Øª":2386,"Ø¹ÙĬØ±":2387,"ĠÙĪØ¶":2388,"ĠÙħÙĥØ±":2389,"ĠØ£ÙĨØ³":2390,"ĠØ¹ÙĬÙĨÙĩ":2391,"ĠØ§ÙĦØ¨ÙĬØª":2392,"Ø¯ÙħÙĬ":2393,"ĠØ¹ÙĨØ¯ÙĨØ§":2394,"ĠØ£Ø¬ÙĨØ¨ÙĬ":2395,"ĠÙĬÙĤØªÙĦ":2396,"ĠØ¨Ø·ÙĦ":2397,"ĠÙģØ¯":2398,"ĠØ§ÙĦÙħÙģ":2399,"Ø§Ø±Ø§":2400,"ĠØ§ÙĦÙĪØ§Ø¬Ø¨":2401,"Ø±Ø¨ØŃ":2402,"Ø®Ø±Ùī":2403,"ÙĪØ¯Ø¹":2404,"Ø§Ø³Ø©":2405,"ĠÙĩÙĦÙĥ":2406,"Ø±ÙĥØ´ÙĬ":2407,"ĠØ§ÙĦÙģØ¹ÙĦ":2408,"ĠØ£ÙĨØ§":2409,"ĠØ§ÙĦÙĤØµØ§Øµ":2410,"ÙĪØ¬ÙĪØ¯":2411,"ĠØ¨Ø§ÙĦÙĨØ³":2412,"ĠØªØ±ÙĥÙĩ":2413,"ØµÙĪØ¨":2414,"Ø¤Ø®Ø°":2415,"ĠØ§ÙĦØ±ÙĪØ¶":2416,"ĠØŃØ¯Ø«ÙĨÙĬ":2417,"ĠØ£ÙĩÙĦÙĩ":2418,"ĠÙĬÙĤØ¯Ø±":2419,"Ø²Ø©":2420,"ĠÙĬÙĥÙģÙĬ":2421,"ĠÙĪØ£Ùħ":2422,"Ø±ÙģÙĩ":2423,"ĠØ³Ø¨Ø¹Ø©":2424,"ÙĥØ³Ùĩ":2425,"Ø£Ø³":2426,"Ø´Ø¨Ùĩ":2427,"ĠØ§ÙĦØŃØ¬Ø±":2428,"ĠÙĬØµÙĬØ±":2429,"ĠØ§Ø¹ØªØ¨Ø§Ø±":2430,"ĠÙĩØ´Ø§Ùħ":2431,"ÙĨÙĬØ©":2432,"ÙĪØ¡":2433,"ĠØ§ÙĦØ£ØŃ":2434,"ĠØ¨Ø§Ø¹Ùĩ":2435,"ÙĨÙĩØ§ÙĬØ©":2436,"ĠÙħÙĤØ§Ø¨":2437,"Ø³ÙĦÙĩ":2438,"ĠØ¨Ø¯ÙĪÙĨ":2439,"ĠÙģÙĦÙħØ§":2440,"ĠÙĥÙģØ§Ø±Ø©":2441,"Ø¬Ø©":2442,"ĠÙĥØª":2443,"ĠØŃÙħØ§":2444,"ÙĬÙĨÙĬ":2445,"ĠØ°ÙħØªÙĩ":2446,"ĠÙĬØªØŃ":2447,"ĠØ§ÙħØ±Ø£ØªÙĩ":2448,"ĠÙĪØ§ÙĨ":2449,"ĠØ«ÙĪØ¨":2450,"ĠØ§ÙĦÙĨØ³Ø¨":2451,"ÙĪÙĬÙĦ":2452,"ĠØ§ÙĦØ´ÙĬØ¡":2453,"Ø®Ø¨Ø±ÙĨØ§":2454,"ÙĪØ®":2455,"ÙħÙĬØ±":2456,"ĠØ¹Ø§Ø¯Ø©":2457,"ĠÙĤØµ":2458,"ĠØ§Ø´ØªØ±Ø§":2459,"ĠÙĬØ³ØªØŃÙĤ":2460,"ÙĪØ¹ÙĦÙĬÙĩ":2461,"ĠØ§ÙĦÙħØ´ÙĩÙĪØ±":2462,"ØµØ§Ø¨":2463,"ĠØ¥ÙĤØ±Ø§Ø±Ùĩ":2464,"ĠØ°Ø¨ØŃ":2465,"ĠØ§ÙĦØ¹Ø§ÙħÙĦ":2466,"ĠØ§ÙĦØµÙĪÙħ":2467,"ĠØ§ÙĦØ±ÙĪØ¶Ø©":2468,"ÙĦØµ":2469,"ĠØ¹Ø¯Ø©":2470,"ĠØ¹Ø«ÙħØ§ÙĨ":2471,"ØºÙĬØ±Ùĩ":2472,"ÙĪÙĤÙĪÙģ":2473,"ĠÙĬØ¨ÙĦØº":2474,"ÙĥÙĦÙģ":2475,"ĠÙĥØªØ¨":2476,"ĠØ§ÙĦÙħÙĨØ§":2477,"ÙĪÙĬØ¬":2478,"ÙħØ³Ùĥ":2479,"ĠØ§Ø³ØªØ¹":2480,"ĠØ§ÙĦÙħÙĨÙģØ¹Ø©":2481,"ĠØ£Ø«Ø±":2482,"ĠÙĦÙĦØ®":2483,"ĠÙĬØªÙħ":2484,"ĠÙģØ¥ÙĨÙĩØ§":2485,"ĠØ®Ø·Ø£":2486,"Ø§Ø¹Ø©":2487,"ĠØ§ÙĦØ±Ø§ÙĩÙĨ":2488,"ĠØ§ÙĦØ¨Ø¯":2489,"ĠØ§ÙĦØ¨ÙĨØ§Ø¡":2490,"ĠØ§ÙĦØµØ¯":2491,"ĠØ§ÙĦØµØºÙĬØ±":2492,"ÙģØ§Ø¹":2493,"ÙĪØ¶Ø£":2494,"ØŃØªÙħØ§ÙĦ":2495,"ĠØ¹ÙħØ¯Ø§":2496,"ÙĪØ¯Ø©":2497,"Ø¨Ø£ÙĨ":2498,"ĠÙĬØµØ¯ÙĤ":2499,"ĠÙĬÙĪØ¬Ø¨":2500,"ĠÙĥÙĦØ§":2501,"ÙĪÙĦÙĩØ§":2502,"ĠÙĨÙĤÙĦÙĩ":2503,"ĠÙĪØ§Ø¬Ø¨":2504,"ÙĪØ±Ø«":2505,"ĠØ§ÙĦØ«Ø§ÙĦØ«":2506,"ÙĪÙĦÙĥÙĨ":2507,"ĠÙĪÙĬØ¹":2508,"ĠØ§ÙĦØ¬ÙĨØ§ÙĬØ©":2509,"ĠÙĪØ¬ÙĦ":2510,"ĠØ³ÙĬØ£ØªÙĬ":2511,"ĠØµØ¯ÙĤØ©":2512,"ĠØ´Ø±ÙĬÙĥÙĩ":2513,"ÙĬÙĦÙĩ":2514,"ĠØ£Ø±Ø´":2515,"ĠÙħÙĪØ§":2516,"ĠØ¹Ø°Ø±":2517,"ĠÙĬØ¯ÙĬÙĩ":2518,"ÙĦÙĤÙĪÙĦ":2519,"ĠÙģØªØŃ":2520,"Ø¹Ø°Ø±":2521,"Ø£Ø®Ø±":2522,"Ø§ÙĦØº":2523,"Ø¯Ø§Ø¯":2524,"ĠØ£ØŃØ±Ùħ":2525,"ĠÙĬØ¨ÙĤÙī":2526,"ĠØ³ÙĦÙĬ":2527,"Ø¹ØªÙĬÙĨ":2528,"ĠØ¨Ø¹Ø¯ÙĩØ§":2529,"ĠÙĬØŃÙĥÙħ":2530,"ÙĦÙĦ":2531,"ÙĪÙĬØ±":2532,"ĠØ¥ÙĤØ±Ø§Ø±":2533,"ĠÙĦÙĦØµ":2534,"ĠØ£ÙħÙĥÙĨ":2535,"ĠÙĬØ¯ÙģØ¹":2536,"ĠÙĬØ£ÙĥÙĦ":2537,"ÙĪÙģÙĬÙĩ":2538,"ĠÙĪØ§ÙĦÙĨ":2539,"ĠØ¬ÙħÙĬØ¹Ø§":2540,"ĠÙĬØ±Ø«":2541,"ØŃÙĨ":2542,"ĠØ¨Ø¯ÙĬÙĨ":2543,"ĠØ¹Ø§Ùħ":2544,"ĠØªÙħØ§Ùħ":2545,"ĠØŃØ§Ø¬Ø©":2546,"Ø´Ø§Ø±Ø©":2547,"ĠØ´Ø±Ø¨":2548,"Ø¯ÙĩÙħ":2549,"ĠØ²ÙĬØ§":2550,"ÙĤØ§Ø·":2551,"ĠÙĨØµÙģÙĩ":2552,"ĠØ£ØŃÙĤ":2553,"Ø±ÙĤØ©":2554,"ĠØ§ÙĦØ¨ÙĦØ¯":2555,"ĠÙĬÙĤÙĦ":2556,"ĠØŃØµØªÙĩ":2557,"Ø§ÙĬØ©":2558,"ÙĪÙģØ§":2559,"ĠØ¨Ø´Ø±":2560,"ÙĦØ§Ùĥ":2561,"ĠØ§ÙĦÙħÙĩØ±":2562,"ÙĦÙĪÙĨ":2563,"ĠÙĬÙĤØµØ¯":2564,"ĠØ¸Ø§ÙĩØ±Ùĩ":2565,"ĠØ§ÙĦÙħØ¹ÙĨÙī":2566,"ĠÙĤÙĬÙħØªÙĩØ§":2567,"Ø£Ø¬":2568,"Ø§Ø±Ø¶":2569,"ĠØ§ÙĦØµØ¨ÙĬ":2570,"ĠØ§ÙĦØ²ÙĥØ§Ø©":2571,"ĠÙĦÙĥØ§ÙĨ":2572,"ĠÙĩÙĨØ§Ùĥ":2573,"ĠØ£ÙĤØ§Ùħ":2574,"Ø³Ø·":2575,"ÙĦÙĪØº":2576,"Ø§Ø¦Ø·":2577,"Ø¨Ø¯Ø§":2578,"ĠØ£ÙĤØ±Ø¨":2579,"ÙĤØ§Ø¡":2580,"ĠÙģØµØ§Ø±":2581,"Ø§ÙĪÙĬ":2582,"ÙĪÙĦØ£ÙĨ":2583,"ĠØ¥ØŃ":2584,"ĠØ±ÙĪÙī":2585,"ĠØ´Ø±Ø¹":2586,"Ø§Ø¨Ø±":2587,"ĠØ§ÙĦØŃØ§Ø±Ø«":2588,"ÙĦØ°ÙĦÙĥ":2589,"ĠØ¨Ùģ":2590,"ĠÙĤÙĪÙħ":2591,"Ø´Ø§Ø±":2592,"ĠØ§ÙĦØªØ³":2593,"ĠØ§ÙĦÙĨÙģÙĤØ©":2594,"ĠÙĪØ§ØŃØ¯Ø§":2595,"ĠØ§ÙĦØŃÙĬØ¶":2596,"ĠØ¨Ø§ÙĦÙĨØ³Ø¨Ø©":2597,"ĠØ¹ÙĬØ¨":2598,"Ø³ÙĤØ·":2599,"ĠÙĥÙĨØª":2600,"ĠÙĨÙģÙĬ":2601,"ĠØŃÙĬØ¶":2602,"ĠØ§ÙĦØ®Ø·Ø§Ø¨":2603,"ÙĬØ¨Ø©":2604,"Ø·Ø¨":2605,"ĠØ§ÙĦØ´Ø±Ø¹":2606,"ĠÙħØ«ÙĦÙĩØ§":2607,"ĠÙĪÙĦØ¯Øª":2608,"ÙĬØ±Ø§Ø«":2609,"Ø£Ø®":2610,"ÙĨØ§Ø¹":2611,"ĠØ§ÙĦØ´Ø±":2612,"ĠØºØµØ¨":2613,"ĠÙĦÙĦÙħØ´ØªØ±ÙĬ":2614,"ĠØ£Ø´ÙĩØ¨":2615,"ĠØªØ¨Ø¹Ø§":2616,"Ø§ÙĨÙĩ":2617,"ÙĬØ§Ø¨":2618,"ØªØ±":2619,"ÙĤØ³Ùħ":2620,"ĠØ¨Ø§Ø¦":2621,"ĠÙģØ¨":2622,"ĠØªØ±":2623,"ÙĩØ§Ø¯":2624,"ĠØ³ÙĩÙħ":2625,"ĠØµÙģ":2626,"ĠÙĦÙĦØº":2627,"ĠÙĬØ¹ÙħÙĦ":2628,"ĠØ§ÙĦØ²Ø±ÙĥØ´ÙĬ":2629,"ĠÙĦÙĥÙĪÙĨÙĩ":2630,"ĠØ¸ÙĨ":2631,"ĠØªØ¹Ø°Ø±":2632,"ĠØ£Ø«":2633,"ĠØ§ÙĦØ¹ÙĬØ¨":2634,"ĠØ§ÙĦØŃØ³":2635,"ĠØ§ÙĦØŃØ±Ùħ":2636,"ĠØ§ÙĦØ¬ÙħØ¹":2637,"ĠØ§ÙĦØ§ÙĨØª":2638,"ÙĤÙĪØ·":2639,"ĠØ¹ÙĬ":2640,"ĠØŃØ§ÙĦØ©":2641,"ĠÙĬØ¹Ø·":2642,"Ø¨ØªØ¯":2643,"ĠÙĬÙĨØ¸Ø±":2644,"ĠØ¨ÙħØ¬Ø±Ø¯":2645,"ØªØ¨Ø©":2646,"ĠØ¨ÙĩÙħ":2647,"Ø±Ø¬ØŃ":2648,"ÙĪÙĦØ§Ùĩ":2649,"ĠØ¨Ø·ÙĦØª":2650,"ĠØ§ÙĦÙĤØ±Ø¢ÙĨ":2651,"ÙĦÙĪØ¨":2652,"ĠÙĪÙĬÙĥÙĪÙĨ":2653,"ĠÙĤØ§Ø¦":2654,"ÙħØ§ÙĨÙĩ":2655,"ĠØŃØ±Ø§Ùħ":2656,"ĠØ§ÙĦØ±Ùħ":2657,"ĠØ³Ø¨Ø¹":2658,"ĠØ§ÙĦØ£Ø®Ø°":2659,"ĠØ¬Ø¯":2660,"ĠØ§ÙĦØ´Ø±ÙĬ":2661,"ÙĦØ¹ÙĦ":2662,"ĠÙģÙĦÙĬØª":2663,"Ø±ÙħØ©":2664,"ÙģÙĦÙĩ":2665,"ĠØ±Ø£ÙĬ":2666,"ĠØµØ¨ÙĬ":2667,"ĠØ§Ø¨ÙĨÙĩ":2668,"ÙģØ§ÙĨ":2669,"ĠØ§ÙĦÙħØ£Ùħ":2670,"ĠÙĦØ±Ø¬ÙĦ":2671,"ĠÙħØ¹ÙĨØ§Ùĩ":2672,"Ø³Ø©":2673,"Ø§ÙĦØ³":2674,"Ø¯ÙĩÙħØ§":2675,"ĠØ¨Ø¹Ø¯Ùħ":2676,"Ø¹Ø§Ø¯Ø©":2677,"ĠØ¨Ø¥Ø°ÙĨ":2678,"ĠØ®ÙĦØ§ÙģÙĩ":2679,"ĠÙĥÙĬÙģ":2680,"ĠØ§ÙĦÙħØ¶Ø§Ø±":2681,"ĠØŃØ¨":2682,"ĠÙĦØ¦ÙĦØ§":2683,"Ø±Ø¶Ùĩ":2684,"ĠÙĬØŃÙħÙĦ":2685,"ĠØ§ÙĦØ°ÙħØ©":2686,"ĠØ±ÙĥØ¹Ø©":2687,"ÙĤØ§Ø¨":2688,"Ø£Ùĩ":2689,"Ø«Ùī":2690,"ĠÙĪØ£ÙĨÙĩ":2691,"ĠØ¶Ø±Ø±":2692,"ĠØ¨Ø¹Ø¶ÙĩØ§":2693,"ÙħÙĬØ²":2694,"ĠÙĨÙģØ³ÙĩØ§":2695,"ØŃØªÙī":2696,"ĠØ´Ø¨ÙĩØ©":2697,"ĠÙħØ®Ø§ÙĦÙģ":2698,"ĠÙĪÙĨØŃÙĪÙĩØ§":2699,"ĠÙĥØ±Ùĩ":2700,"Ø´Ø§Ø¡":2701,"ĠÙĬÙĤÙĪÙħ":2702,"ĠØ§ÙĦØ³ÙĦÙħ":2703,"ĠÙģØ§Øª":2704,"ĠØ§ÙĦÙĥÙģØ§Ø±Ø©":2705,"ĠØ«ÙħØ§ÙĨÙĬØ©":2706,"ÙĬØµ":2707,"ĠØ§ÙĦÙħÙĨÙĩ":2708,"ĠØŃØ±Ø§":2709,"ÙĩØ§Ø±":2710,"ÙĤØªÙĦÙĩ":2711,"ĠÙĬØµÙĦØŃ":2712,"Ø¨ÙĬØ±Ø©":2713,"ĠÙģÙĥØ°ÙĦÙĥ":2714,"ĠØ¯Ø¹ÙĪÙī":2715,"ĠØ§ÙĦØ³Ø§Ø¨ÙĤ":2716,"ĠÙģØ§ÙĨ":2717,"ĠØ§ÙĦÙħØ³ØªØŃÙĤ":2718,"ĠÙĨØŃÙĪÙĩ":2719,"ÙĬØ¯Ø§":2720,"ĠÙĬØ®ÙģÙī":2721,"Ø§ØŃØ¨":2722,"ĠØ¹ÙĦÙħÙĩ":2723,"ÙĨØªÙĬÙĨ":2724,"ĠÙĦØ²Ùħ":2725,"ÙĤØ¨Ø¶":2726,"ĠØ§ÙĦÙħØ¬ÙħÙĪØ¹":2727,"Ø¹ÙĩØ§":2728,"ĠÙĪØ¨ÙĬ":2729,"ĠÙħÙħÙĦÙĪ":2730,"ĠØ¹ÙĪØ¶":2731,"Ø¶Ø§Ùģ":2732,"ÙģÙĤØªÙĩ":2733,"Ø³ÙĬ":2734,"ÙħÙĩÙħ":2735,"Ø¹Ø§Ø¯":2736,"ĠÙĥØ§ÙĦØ£":2737,"Ø¹ÙĦÙĩ":2738,"ĠÙĪÙĦØ£ÙĨ":2739,"ĠÙģØ£ÙĨØª":2740,"ĠØŃØ³ÙĨ":2741,"ĠÙĨÙĪØ¹":2742,"Ø±ÙĬØ¨":2743,"ĠØ¨Ø§ÙĦØ§":2744,"ĠÙĬØ¹Ø¯":2745,"ĠØ§ÙĦØ¯Ø®ÙĪÙĦ":2746,"ÙĪØµÙĬ":2747,"ĠÙĨÙĩØ§ÙĬØ©":2748,"ĠÙħØ°ÙĩØ¨":2749,"ĠØ§ÙĦÙħØ±":2750,"ĠØªØ´":2751,"Ø§ÙĨØ§":2752,"ĠØ±Ø¶Ø§":2753,"ĠØ±Ø¨Ø¹":2754,"ĠØ§ÙĦØ£ÙĥØ«Ø±":2755,"ĠØ§ÙĦØ±ÙĪØ§":2756,"ĠØ¥Ø°ÙĨÙĩ":2757,"ĠØ¨ÙĬÙħ":2758,"ÙĦÙħÙĩ":2759,"ĠØ§ÙĦÙħÙĪØ§":2760,"ĠØ§ÙĦÙħØ·ÙĦÙĤ":2761,"ĠØ¬Ø§Ø±ÙĬØ©":2762,"ĠØªØ¹ÙĬÙĨ":2763,"ĠÙĥÙĦØ§ÙħÙĩÙħ":2764,"ØªØ©":2765,"ÙģÙĩÙħ":2766,"ĠÙħÙĨÙģØ¹Ø©":2767,"Ø·ÙĦØ§":2768,"ĠØµÙĪØ±Ø©":2769,"ĠØ¬ÙĨ":2770,"ĠØ¯ÙĦÙĬÙĦ":2771,"ĠØ¹ÙĨÙĩÙħ":2772,"ÙĨØ³Ø§ÙĨ":2773,"ĠÙģÙħØ§Øª":2774,"ĠØ¹ØªÙĤÙĩ":2775,"ĠØ§ÙĦÙħÙĤØµÙĪØ¯":2776,"ĠØŃØ¨ÙĬØ¨":2777,"ĠØ¹ÙĨØ¯ÙĬ":2778,"ĠØ¨Ø§Ø¹ØªØ¨Ø§Ø±":2779,"Ø¤ÙĬØ©":2780,"Ø¯ÙħØ©":2781,"ĠÙĤØ¨ÙĦÙĩØ§":2782,"ÙĦØ¹Ø©":2783,"ĠØ£Ø¬ÙĦ":2784,"ĠØ·ÙĦÙĤØ©":2785,"ØªÙĦØ§Ùģ":2786,"ĠÙĪØ°ÙĥØ±":2787,"ĠØ¨ÙĥÙĦ":2788,"ÙħØ§Ø±":2789,"ĠØ³ÙĨÙĬÙĨ":2790,"ĠÙħØ§ÙĦØ§":2791,"ĠÙĦÙĨØ§":2792,"ĠÙħØ¹ÙĩØ§":2793,"ĠØ§ÙĦÙĪØµÙĬ":2794,"ĠØ§ÙĦØ¨Ø¹Ø¶":2795,"Ø¦Ø±":2796,"ĠØ§ÙĦÙģØ¬Ø±":2797,"ĠÙħØ¹ÙĦÙĪÙħ":2798,"ĠØªÙĤØ±Ø±":2799,"ÙĬØ®":2800,"Ø±ÙĪÙģ":2801,"ĠØ§ÙĦÙĪØ§ÙĤÙģ":2802,"Ø±Ø§ÙĤ":2803,"ĠØ§ÙĦØ¹Ø§Ø¯Ø©":2804,"ĠØ§ÙĦØ¥Ø®":2805,"ĠØ²ÙĥØ§Ø©":2806,"ĠÙĦÙĬÙĦØ©":2807,"ĠØ¹ÙĦÙĬÙĥ":2808,"ÙĤØ¹":2809,"ÙĩØ§Ø¨":2810,"ĠÙĨÙĤØ¯":2811,"Ø¨Ø±Ø¹":2812,"ĠØ§ÙĦØ®Ø§Ø±Ø¬":2813,"Ø®ØªÙĦØ§Ùģ":2814,"ĠÙĬØ¯Ø¹ÙĬ":2815,"ĠØ§ÙĦÙħØ¯Ø¹Ùī":2816,"ĠØ¯ÙĬÙĨØ§Ø±":2817,"ÙĦØ·Ø§ÙĨ":2818,"ĠØ§ÙĦØŃØ¯Ø«":2819,"Ø§ÙħÙĨ":2820,"Ø§ÙĪØ²":2821,"ÙħÙĥØ§ÙĨ":2822,"ĠÙĥÙħÙĨ":2823,"ĠØ®ÙĦÙĤ":2824,"ĠØ§ÙĦÙĥØ§ÙģØ±":2825,"ĠØ¹ÙĨÙĩÙħØ§":2826,"ÙĪÙģØ©":2827,"ÙħÙĪÙĦ":2828,"ĠØ¹Ø§ÙĦÙħ":2829,"ĠÙĬÙĤØ¯Ùħ":2830,"ĠÙĬØ´ØªØ±ÙĬ":2831,"ØŃÙĨÙĪÙĨ":2832,"ĠØ§ÙĦØ¨Øº":2833,"ĠÙĪØ§ÙĦØº":2834,"Ø§ÙħÙĦØ©":2835,"ĠÙĬØ¬Ø¨Ø±":2836,"Ø¹Ùģ":2837,"ĠÙĥØ§ÙģØ±":2838,"ĠØªØ³Øª":2839,"Ø¸ÙĨ":2840,"ĠØ¹ÙĦÙħØª":2841,"ĠØ§ÙĦØ³Ø¨Ø¨":2842,"ĠØ§Ø³":2843,"ĠÙĪÙĬØ¯":2844,"Ø°ÙĨÙĩ":2845,"ĠØ§ÙĦÙħØ´Øª":2846,"ĠØ§ÙĦÙĦÙģØ¸":2847,"ĠØ¬Ø±ØŃ":2848,"ĠÙĪÙĬØŃ":2849,"ĠØ£ÙħØªÙĩ":2850,"ĠØ¬ÙħÙĦØ©":2851,"ĠØ§Ø¬Øª":2852,"Ø¹ÙĤØ¯":2853,"ĠÙĪÙĦÙĥ":2854,"ĠÙĪØ¨ÙĨ":2855,"ĠÙĨÙĩ":2856,"ĠØ³Ø§Ø¦Ø±":2857,"ĠØ«Ø¨ÙĪØª":2858,"Ø¹ØªØ§ÙĤ":2859,"ÙĤÙĬÙĩ":2860,"ĠØ§Ø´ØªØ±Ø§Ùĩ":2861,"ĠÙĪÙĩÙħ":2862,"ÙĨØ§Øª":2863,"ĠÙĤÙĪÙĦÙĩÙħ":2864,"ĠØ¶Ø¹ÙĬÙģ":2865,"ĠØ¨Ø¯ÙĦÙĬÙĦ":2866,"ĠÙĬÙħØª":2867,"ÙĪÙģÙī":2868,"ĠÙĪØ«ÙĦØ«":2869,"ĠØªØ¨Ø·ÙĦ":2870,"ĠØ³ÙĦÙĬÙħØ§ÙĨ":2871,"ÙħØ±Ùĩ":2872,"ÙĩØ§Ø±Ø©":2873,"ĠØ§ÙĨØ¸Ø±":2874,"ĠØ§ÙĦÙħØ¹ÙĬÙĨ":2875,"ÙĬÙĬÙĨ":2876,"Ø±ÙĬØ©":2877,"ĠÙĬØŃØ¯Ø«":2878,"ĠÙĥØ±":2879,"ÙĦÙĤÙĬÙĨÙĬ":2880,"ĠØ®Ø§Ø±Ø¬":2881,"ĠØ¥ÙĨØ³Ø§ÙĨ":2882,"Ø¨Ø§ØŃØ©":2883,"ĠØ§ÙĦØ®ÙħØ±":2884,"ĠØ§ÙĦØ§Ø¹Øª":2885,"ĠØ¨ÙħØ§ÙĦ":2886,"ĠØ²ÙĪØ¬Ø©":2887,"ĠÙģÙĩØ°Ø§":2888,"ĠÙĪØ§ÙĦØ³ÙĦØ§Ùħ":2889,"Ø¯ÙģØ¹":2890,"ĠØ§ÙĦÙħÙĤØª":2891,"ĠØ§ÙĦØ´Ø±Ø§Ø¡":2892,"ĠØ§ÙĦØ²ÙĬØ§Ø¯Ø©":2893,"ĠÙĦÙĥÙĨÙĩ":2894,"ĠØŃØ±ÙħØ©":2895,"ĠØ´Ø±Ø¹Ø§":2896,"ĠÙĪÙĤÙĬ":2897,"ĠÙĪØµØŃ":2898,"ÙĦØ§ÙħØ©":2899,"Ø£Ùĥ":2900,"Ø«Ø¨Ø§Øª":2901,"ĠØªØ¬Ø²":2902,"ĠØŃØ±Ø©":2903,"ĠØ§ÙĦØ£Ø¬Ø±":2904,"ĠØ§ÙĦÙĪØ¬ÙĪØ¨":2905,"ÙĪÙħÙĨÙĩØ§":2906,"ĠØ§ÙĦÙĨØ¬":2907,"ĠØ§ÙĦØµØŃØ©":2908,"Ø³ÙħÙĬØ©":2909,"ÙģØ§Ø¯":2910,"ĠØ¨ØºÙĬØ±Ùĩ":2911,"ĠØ¹Ø¯ÙĦ":2912,"ĠØ§ÙĦØ£Ø¬ÙĨØ¨ÙĬ":2913,"ĠÙĪÙĩÙĦ":2914,"Ø³Ø¦ÙĦ":2915,"ĠÙħÙĨÙĥ":2916,"ÙĪØ§ÙĦÙģ":2917,"ĠØ§ÙĦÙĤØ¯Ø±":2918,"ĠØ§ÙĦØ¬ÙħØ§Ø¹Ø©":2919,"ĠØ§ÙĦØºØ±ÙħØ§Ø¡":2920,"ÙĪØ§ÙĦØ¹":2921,"ĠØ£ØŃØ¨":2922,"Ø§ÙĩÙħØ§":2923,"ĠØ§ÙħØªÙĨØ¹":2924,"ĠØ£Ø·":2925,"ĠÙĨØ³Ø¨":2926,"ĠØ³Ùģ":2927,"ĠÙĦÙĦØ§":2928,"ĠØ£ÙĨÙĩÙħ":2929,"Ø±Ø¯Ø¯":2930,"ĠÙĥØ§ÙĦØ¹":2931,"Ø²ÙĪØ¬ÙĩØ§":2932,"ĠØ±Ø£Ùī":2933,"ĠØ§ÙĦØ¸ÙĩØ±":2934,"ÙĤÙĦØ§":2935,"ĠÙĦØ±Ø¨":2936,"ĠØ§ÙĦØ¬ÙħÙĬØ¹":2937,"ĠØ§ÙĦØ«ÙĦØ§Ø«":2938,"ÙĦØ¨ÙĨ":2939,"ĠØªØ¹Ø¯":2940,"ĠØ®Ø±Ø¬Øª":2941,"Ø§ÙģØ©":2942,"ĠÙħØ¨":2943,"ĠØ¹ÙĦØ©":2944,"Ø°Ø¨Ùĩ":2945,"ĠØ¥Ø¹":2946,"ĠØ°Ùĥ":2947,"ĠØ®ÙĦÙģ":2948,"ĠØ§ÙĦØ¥ÙĬ":2949,"ĠÙĪØºÙĬØ±ÙĩØ§":2950,"ĠØ¨Ø¨":2951,"Ø¥ÙĨÙĩ":2952,"ÙĤØ¯ÙĬØ±":2953,"ØºØª":2954,"ĠØ§ÙĦÙĨÙĬØ©":2955,"ØŃÙĬØŃØ©":2956,"ĠÙĤØªØ§Ø¯Ø©":2957,"ĠÙħÙĪØ¶":2958,"ĠÙģÙī":2959,"ÙĦÙħØ©":2960,"ĠØ¥ÙĬ":2961,"ĠÙħÙĨÙĬ":2962,"Ø«ÙĬØ±":2963,"ĠØ¬ÙĪØ§Ø¨":2964,"Ø§Ø¨Ø¹":2965,"ØºØ©":2966,"ÙĬÙģØ§Ø¡":2967,"ĠÙħÙģ":2968,"ĠÙģØ±Ø¬":2969,"Ø¬ÙĪØ±":2970,"Ø®Ø±Ùĩ":2971,"ĠØŃØ¨Ø³":2972,"ĠÙĨØ§ÙģØ¹":2973,"ĠØ°ÙĬ":2974,"Ø±Ø§Ùĥ":2975,"ĠØ§ÙĦØªÙĬÙħÙħ":2976,"ĠØ§ÙĦØ¯Ø¹":2977,"ĠØ¨ÙĤØ§Ø¡":2978,"Ø£Ø°ÙĪÙĨ":2979,"ÙĦÙĬÙĥ":2980,"Ø±ÙĬØ¬":2981,"ĠØ§ÙĦØ´ÙĩØ±":2982,"ÙĤÙĪØ¯":2983,"ĠØ¨ÙĦÙģØ¸":2984,"Ø³ÙĨØ§":2985,"Ø£ÙĦØ§":2986,"ĠÙĦØ£ØŃØ¯":2987,"Ø¦ÙħØ©":2988,"ĠØ§ÙĦØ³ÙģØ±":2989,"ĠØ£Ø´Ø¨Ùĩ":2990,"ĠØ£Ø¯Ùī":2991,"ĠØ¹Ø§ÙħØ±":2992,"ÙģØ¶ÙĦ":2993,"ĠØŃÙģØ¸":2994,"ĠØ±Ø¶Ùī":2995,"Ø¨ÙĬØ¹Ùĩ":2996,"ØŃØ¯ÙĬØ«":2997,"ĠØ¯Ø±ÙĩÙħØ§":2998,"ĠÙĪØ§Ø¬":2999,"Ø¯Ø§ÙĬØ©":3000,"Ø¨Ø£":3001,"ĠÙħØ¶Ùħ":3002,"ÙĦØ§ÙĦØ©":3003,"ĠØ±Ø¨Ùĩ":3004,"ĠØ´Ø±Ø§Ø¡":3005,"ĠÙĪØ£Ø®Ø°":3006,"Ø§Ø²Ø©":3007,"ĠØ§ÙĦÙħØ¯ÙĬÙĨØ©":3008,"ÙģØ£Ø¬Ø§Ø¨":3009,"ĠØ§Ø³ØªØŃÙĤ":3010,"ÙĪÙĩØ§":3011,"ĠÙħØªÙī":3012,"ĠÙĤØ¶Ùī":3013,"ĠØ¬ÙĩÙĦ":3014,"ĠØ«ÙĪØ¨Ø§":3015,"ĠØ§ÙĦØ¬Ø§Ø±ÙĬØ©":3016,"Ø¤Ùĩ":3017,"ĠØ§ÙĦÙħØŃÙĦ":3018,"ĠÙħØ³ÙĦÙħØ§":3019,"ĠØ¨ÙĤÙĬØ©":3020,"ĠÙĬÙģÙĬØ¯":3021,"ĠÙģÙĬØŃ":3022,"ĠÙĥØ§ÙĦ":3023,"ĠØ§ÙĦÙħØ±Ø¶":3024,"ĠØ§ÙĦÙħØŃØª":3025,"ĠØ§ÙĦÙĨÙĩØ§ÙĬØ©":3026,"ĠÙĦØ§Ø¨ÙĨ":3027,"ĠØ´Ø§Ø©":3028,"ĠØµØŃØª":3029,"ĠØ§ÙĦØ¹ÙĪØ¶":3030,"ĠØ§ÙĦØ®Ø±ÙĪØ¬":3031,"ĠØ·ÙĦÙĤÙĩØ§":3032,"ÙĨØ¬":3033,"Ø§Ø±Ø¹":3034,"ĠØ´Ø§ÙĩØ¯":3035,"ĠØ§ÙĦØ¹Ø§":3036,"ĠØ§ÙĦÙĨÙģØ³":3037,"ĠØ§ÙĦØ®Ø¨Ø±":3038,"ĠÙĪØ¹Ø¯":3039,"ĠÙĪØªØ±Ùĥ":3040,"ĠÙĤØ¨ÙĪÙĦ":3041,"ĠØ¨ÙĥØ³Ø±":3042,"ĠØ¹ÙħÙĦÙĩ":3043,"Ø¬ØªÙĩØ§":3044,"Ø·ÙĨ":3045,"ÙĪØ§Ùħ":3046,"Ø¹Ø§Ùĩ":3047,"ÙĤØ§ÙĦÙĩ":3048,"ĠØ°ÙĥØ±ÙĨØ§":3049,"ĠÙĤØ·Ø¹Ø§":3050,"ĠØºØ§ÙĦØ¨Ø§":3051,"ĠØ¹Ø±Ø¶":3052,"ĠØ¹ÙĤØ¨":3053,"Ø¬ÙĨØ¨ÙĬ":3054,"ÙĦÙĬØ§":3055,"ĠØ§ÙĦÙħÙĪØ§Ø²":3056,"ĠØ¥Ø²":3057,"Ø®Ø§Ø±ÙĬ":3058,"ĠØŃØ¶Ø±":3059,"ĠØ³Ø±ÙĤ":3060,"ĠØ³Ø¨ÙĬÙĦ":3061,"ĠØ§ÙĦØ¨ÙĦÙĤÙĬÙĨÙĬ":3062,"ĠØ§ÙĦØ¥Ø°ÙĨ":3063,"ĠÙĥØ§ÙĦØŃ":3064,"ĠØ§Ø«ÙĨÙĬÙĨ":3065,"ÙĦØ°Ø§":3066,"ĠØ£Ø¹ØªÙĤÙĩ":3067,"ĠØ¹Ø¬":3068,"ØµÙĬÙĦ":3069,"Ø§Ø±Ø¨":3070,"ÙĪÙĤØ¹":3071,"ĠÙħØ±Øª":3072,"ÙħØªØ¹":3073,"ĠØŃØµØ©":3074,"ĠÙĨØ§":3075,"Ø¤ÙĦØ§Ø¡":3076,"Ø¹Ø¯Ø©":3077,"ÙĤÙĬØ©":3078,"ĠÙĥØ§Ùģ":3079,"Ø·Ø£":3080,"ĠØŃÙĥÙħØ§":3081,"ĠØµÙĪØ±":3082,"ĠØ¬ÙĨØ§":3083,"Ø±Ø¨Ø©":3084,"ĠØ²Ø§ÙĦ":3085,"Ø¬ÙĩÙĪÙĦ":3086,"ĠØ§ÙĦÙĨØ³Ø§Ø¡":3087,"ÙĪØ±ÙĬ":3088,"Ø¯ÙĬÙĨ":3089,"ÙģÙĬÙĨ":3090,"ĠØ§ÙĦÙĪØ¯":3091,"ĠØ§ÙĦØ®ÙħØ³":3092,"ÙħØ³ØŃ":3093,"ÙĪØ§ÙĦØª":3094,"ĠØ§ÙĦØ·Ø¹Ø§Ùħ":3095,"Ø¹ÙħÙĦ":3096,"ÙĥØ§ÙĦØ©":3097,"ĠØªØµØ¯ÙĤ":3098,"Ø¸Ø§ÙĩØ±Ùĩ":3099,"ĠÙĦÙĦØ²ÙĪØ¬":3100,"ĠÙĪØ¹Ø¯Ùħ":3101,"ĠÙģÙĦÙĬØªØ£ÙħÙĦ":3102,"Ø¯Ø®":3103,"Ø¶Ø±Ø©":3104,"ĠÙĩÙĥØ°Ø§":3105,"ĠØ¬Ø§Ø¨Ø±":3106,"ĠÙĥØ§ÙĨÙĪØ§":3107,"ØŃØ¯Ø©":3108,"Ø§Ø¦ÙĬ":3109,"ÙĪÙĬÙĩ":3110,"ĠÙħØ³Ø¹ÙĪØ¯":3111,"ĠÙĥØ¹Ø¨":3112,"ĠÙģØ·":3113,"ÙĥØ§Ø±":3114,"ĠØ§ÙĦÙħØ¹ØªÙĤ":3115,"ĠÙĩØ¨Ø©":3116,"ĠØ§ÙĦØ£Ø±Ø¨Ø¹Ø©":3117,"Ø§Ø¨Ùĩ":3118,"ĠØ§ÙĦØ¹ÙħØ±Ø©":3119,"ÙĥØ±Ø±":3120,"ĠÙĪÙĤØ¹Øª":3121,"ÙħØ§ÙĨØ©":3122,"ĠÙĪØµÙĬØ©":3123,"ĠØ£Ø®Ø°ÙĩØ§":3124,"ĠÙĪÙĦØ£ÙĨÙĩ":3125,"Ø§ÙĦØµ":3126,"ĠØ£Ø®Ø°Ø§":3127,"ĠØ§ÙĦØ°ÙĬÙĨ":3128,"ĠÙģØ£ÙĥØ«Ø±":3129,"Ø³ÙĨÙĪÙĬ":3130,"ĠÙĨØ³Ø®":3131,"ÙĪØ§Ø±":3132,"ĠÙĤØ¶ÙĬ":3133,"ĠÙģÙĬØ¬Ø¨":3134,"ĠÙĥØ£ÙĨÙĩ":3135,"Ø±ÙĬØ¶Ø©":3136,"ĠØ§ÙĦÙĪÙĤ":3137,"Ø¨ÙĬÙĨØ©":3138,"ĠØ¨Ø§ÙĦÙĦÙĩ":3139,"ĠÙĪØ¬ÙĩÙĩ":3140,"ĠÙĦØ¨Ø³":3141,"ĠÙĪØ®ÙħØ³":3142,"ĠØ±ÙĩÙĨ":3143,"ĠØ§ÙĦØµØ¯ÙĤØ©":3144,"Ø£ÙĦÙĩ":3145,"ĠÙħÙĨØ¹Ùĩ":3146,"ĠØŃÙĦÙĤ":3147,"ĠÙĦØ¶":3148,"ĠØ¨Ø§ÙĦØ·":3149,"Ø±Ø¶Ø§Ø¹":3150,"ĠÙĪÙĬØŃØªÙħÙĦ":3151,"ĠØ¯ÙĬÙĨØ§":3152,"ĠØ§ÙĦØ¶Ø±Ø±":3153,"ØªØ§":3154,"ĠÙħÙĤØ§":3155,"ĠÙħØ³ØªØŃ":3156,"ĠÙħØ¶Ùī":3157,"ĠÙĬÙģØ±ÙĤ":3158,"ĠØªÙģØ³":3159,"Ø§ÙĨØ©":3160,"ĠØ³ØŃÙĨÙĪÙĨ":3161,"ØªÙĩÙħØ§":3162,"Ø¨ÙĬØ¹Ø©":3163,"Ø§Ø¦ÙĩØ§":3164,"ĠØ§ÙĦØªØ£":3165,"ÙĪØ±Ø¯ÙĬ":3166,"ĠÙĪØ¹ÙĨØ¯":3167,"ĠØ§ÙĦØ²Ø±Ø¹":3168,"ĠÙģØ§Ø³Ø¯":3169,"ÙĩØ±ÙĬ":3170,"ÙħÙĦÙĥ":3171,"ĠÙħØ²":3172,"ØµÙĩ":3173,"ØµÙĪÙĦ":3174,"ĠÙĩÙħ":3175,"ĠØ§ÙĦØ£Ø®Ø±Ùī":3176,"ĠØ¯Ø®ÙĪÙĦ":3177,"ĠØ·Ø§ÙĦØ¨":3178,"ĠÙĬØªØ¹ÙĬÙĨ":3179,"ĠØ¶Ø±":3180,"ĠÙĪØ¹Ø´Ø±ÙĬÙĨ":3181,"ÙĪÙĪØ¬Ùĩ":3182,"ĠÙĪÙĪÙĦØ¯":3183,"ĠÙģØ´":3184,"ÙĥØ«":3185,"Ø°Ø§ÙĨ":3186,"ĠØ§ÙĦØ¹Ø¯ÙĦ":3187,"Ø§Ø¦Ø¶":3188,"ĠØ§ÙĦÙĩØ¯ÙĬ":3189,"ØŃØ¯Ø«ÙĨÙĬ":3190,"ĠØ§Ø«ÙĨØ§ÙĨ":3191,"ÙĨØ§ÙĨÙĬØ±":3192,"Ø§Ø¯Ùĩ":3193,"Ø£Ø®Ø¨Ø±ÙĨØ§":3194,"Ø·Ùģ":3195,"ÙĦÙĪÙĩ":3196,"ĠØ§ÙĦØ¹Ø±Ø¨":3197,"ØºÙĦ":3198,"ĠØ·Ø¹Ø§Ùħ":3199,"ÙģØ§ÙĤØ§":3200,"ÙĪÙĥÙĬÙĦ":3201,"ĠØ¶Ø±ÙĪØ±Ø©":3202,"ĠÙĨØµØ±":3203,"ĠÙĪÙħØŃÙħØ¯":3204,"ĠØ¥ÙĦÙĬÙĩÙħ":3205,"Ø§ÙĦÙĥ":3206,"ĠÙĪØ®Ø±Ø¬":3207,"ĠØ£ÙĨØ«Ùī":3208,"ÙĪÙĦØ§ÙĨ":3209,"ĠÙĦØŃÙĤ":3210,"ĠØ¹Ø¯Ø¯":3211,"ÙĪÙĦÙĥ":3212,"ĠÙħØ®ØªÙĦÙģ":3213,"Ø³Ø£ÙĦØ©":3214,"ĠÙĬØŃØ¯":3215,"Ø®ÙĬ":3216,"ĠØ§ÙĦØ±Ø¨ØŃ":3217,"ĠÙĨØ¹":3218,"Ø±ÙĬÙģ":3219,"ÙģØ¹ÙĬ":3220,"ĠØ§ÙĦØ¬ÙĨØ©":3221,"ĠØ§ÙĦÙħØ¯Ø¨Ø±":3222,"Ø³Ø§Ø¯":3223,"ĠØ§ÙĦØµØŃ":3224,"ĠØºÙĦØ¨":3225,"ĠØ§ÙĦØ·Ø±ÙĬÙĤ":3226,"Ø§ÙģØ¸":3227,"ĠØªØ³Ø¹Ø©":3228,"ĠØ§ÙĦÙħØ°ÙĥÙĪØ±Ø©":3229,"ĠÙħØ¹Ø§ÙĪÙĬØ©":3230,"ĠØ§ÙĦÙĬØ³":3231,"Ø¯Ø¹":3232,"ĠÙĬØ·ÙĦÙĤ":3233,"ØµØ§":3234,"ÙĦÙĬÙĩØ§":3235,"ÙģØ§ÙĬØ©":3236,"ĠØ¨ÙĬÙĨØ§":3237,"ĠØ§ÙĦØ¢ØªÙĬ":3238,"ĠÙĦÙĦØ¨Ø§Ø¦Ø¹":3239,"ĠØ±Ø§Ø¬Ø¹":3240,"ĠÙħÙģÙĩÙĪÙħ":3241,"ĠØ¨Ø§Ø·ÙĦ":3242,"ĠØ±Ø¬ÙĪØ¹":3243,"Ø³Ø§ÙħØ©":3244,"ĠÙĪØ¨Ø¹":3245,"ĠØ¨ÙĪØ§":3246,"ĠØ®Ø±ÙĪØ¬":3247,"ÙĤØªÙĩØ§":3248,"ĠØ§ÙĦØ§Ø³ØªØŃ":3249,"ĠÙĪÙĨØµÙģ":3250,"ÙĪÙĩÙĪØ¨":3251,"ØŃÙĦÙĦ":3252,"ĠÙĪØ·Ø¦ÙĩØ§":3253,"ĠØ®Ø§ØµØ©":3254,"ÙĪÙĦØ£ÙĨÙĩ":3255,"ĠØ£ÙĦØ§":3256,"ĠØ£Ø¨Ø¯Ø§":3257,"ĠÙĨÙĤØ¶":3258,"ĠØ¬Ø§ÙĨ":3259,"ĠØ¬ÙĨØ§ÙĬØ©":3260,"Ø§Ø¦ÙĨ":3261,"ĠØ§ÙĦÙģØ§Ø³":3262,"ĠØ§ÙĦØµÙĬØ¯":3263,"ĠÙĨØµØ§":3264,"Ø¬Ø§Ø²Ø©":3265,"ÙĬØ£ØªÙĬ":3266,"Ø°Ø¨ØŃ":3267,"ĠØ§ÙĦØŃØ§":3268,"ĠÙĪØ£Ø¨ÙĪ":3269,"ĠÙĪÙĤØ¨ÙĦ":3270,"ÙģØ£ÙħØ§":3271,"ĠØŃØ§ÙĦÙĩ":3272,"ĠØ¨ÙĬÙħÙĬÙĨÙĩ":3273,"ÙħÙĪÙħ":3274,"ĠÙħØºÙĨÙĬ":3275,"Ø¬Ø¹ÙĦ":3276,"Ø°Ø±Ùĩ":3277,"Ø®ÙĦÙģ":3278,"Ø²ÙĨ":3279,"ĠØ§ÙĦØ¹Ø²":3280,"ĠØ§ÙĦØŃÙĦ":3281,"ÙģÙĬØ¹":3282,"ĠÙĪÙĦØ§ÙĬØ©":3283,"ĠØ§ÙĦØ¬ÙĪØ§Ø¨":3284,"ĠØ·ÙĩØ±":3285,"ÙĦØ®ÙħÙĬ":3286,"ĠØ§Ø³ØªØ£Ø¬Ø±":3287,"ĠÙħØ³ØŃ":3288,"ĠÙħØ¬ÙĦØ³":3289,"Ø¶ØŃÙĬØ©":3290,"ĠÙĬØ¨ÙĬÙĨ":3291,"ĠÙĬØ¨ÙĬØ¹":3292,"ĠØ¥ÙĬØ§Ùĩ":3293,"Ø²Ø¹":3294,"ĠØ®Ø±":3295,"ĠØ§ÙĦÙĤÙĬØ§Ø³":3296,"ĠØ§ÙĦØ¥Ø³ÙĨÙĪÙĬ":3297,"ĠÙĦÙĦÙħØ³ÙĦÙħ":3298,"ĠÙĪØµÙģ":3299,"Ø¹Ø¯Ø¯":3300,"ĠØ¬Ø¹ÙĦÙĩ":3301,"ĠÙħÙĪØ³Ùī":3302,"ÙĪØº":3303,"Ø¯Ø¨ÙĬØ±":3304,"ÙģÙħÙĨ":3305,"ĠÙĥØ«Ø±":3306,"ĠØªÙĦØ²ÙħÙĩ":3307,"ĠØ¨ÙĨØŃÙĪ":3308,"ĠÙĬÙĤØ±":3309,"ĠØ§ÙĦÙģØªØŃ":3310,"ĠÙĨØµØ§Ø¨":3311,"ĠØ¨ØŃÙĥÙħ":3312,"Ø§ÙĤÙĦØ©":3313,"ĠÙĬØ¶Ø±Ø¨":3314,"ĠÙħÙĥØ§ÙĨ":3315,"Ø§Ø±Ùĥ":3316,"ĠÙĨÙģ":3317,"ĠØ³Ø§ÙĦÙħ":3318,"ĠØ°Ø§":3319,"ĠØ°ÙħØ©":3320,"ĠØºÙĬØ±ÙĩÙħØ§":3321,"ĠØ§ÙĦØ¬ÙĨØ³":3322,"ĠØ§ÙĦØ°ÙĥØ±":3323,"Ø¹ÙĬØ¨":3324,"ÙĬÙĩÙĤÙĬ":3325,"ĠØŃÙħÙĦÙĩ":3326,"ĠÙĬØµÙĦ":3327,"ĠÙĨÙĥÙĦ":3328,"ĠØ¬ÙĦØ¯":3329,"ĠØ§ÙĦÙĪÙĦØ§Ø¡":3330,"ĠØ§ÙĦØªØ±ÙĥØ©":3331,"ĠÙĦÙĦØ¶":3332,"ĠØ£ØŃØ³ÙĨ":3333,"ĠÙħØ³Ø¬Ø¯":3334,"ĠØ§ÙĦÙħØ³ØŃ":3335,"Ø§ÙĦØ¨Ø©":3336,"ĠØªØ£ÙħÙĦ":3337,"ĠØªØ£Ø®ÙĬØ±":3338,"ĠØ±ÙĥØ¹ØªÙĬÙĨ":3339,"ĠØ£ÙĪÙĦØ§Ø¯":3340,"ĠØŃÙħØ§Ø¯":3341,"ĠÙĥÙģØ±":3342,"ĠØ¥Ø¬Ø§Ø±Ø©":3343,"ÙĦÙĪØ³":3344,"ĠØ§ÙĦÙĨØµ":3345,"ĠØ§ÙĦØ¬Ø§ÙĨÙĬ":3346,"ĠØ¹ÙħØ±Ø©":3347,"ĠØ£Ø¹Ùħ":3348,"ĠØ¯ÙģØ¹Ùĩ":3349,"ĠØ¹Ø·Ø§Ø¡":3350,"ĠÙĬÙħÙĦÙĥÙĩ":3351,"ÙģÙĤØ¯":3352,"ÙģÙĦÙħØ§":3353,"ÙĦØ§Ø¦":3354,"ĠØµØ±Ùģ":3355,"Ø±Ø§Ùģ":3356,"ĠØ¨ÙĨØµÙģ":3357,"Ø¨Ø¯ÙĦ":3358,"ĠÙĬØªØ±Ùĥ":3359,"ĠØ¸Ø§Ùĩ":3360,"ĠÙĤØ§ÙĦÙĪØ§":3361,"ĠÙĨØ³Ø¨Ùĩ":3362,"ĠØ§ÙĦÙħØ§ÙĪØ±Ø¯ÙĬ":3363,"Ø¨ÙĤÙī":3364,"ÙĬØŃÙĩ":3365,"ÙĪÙĤÙĩ":3366,"ĠÙģÙģÙĬÙĩ":3367,"ÙģÙĦÙħ":3368,"ÙĥÙĦÙħ":3369,"ÙĥÙī":3370,"ĠÙĥØ§Øª":3371,"ÙĦÙĪÙħ":3372,"ĠØ§ÙĦÙĨØ§":3373,"ĠØ§ÙĦØŃØ§Ø¬Ø©":3374,"ÙģØ¹ÙĪÙĦ":3375,"ÙĪØ¹ÙĨØ¯":3376,"ĠÙĪØ¬Ø¨Øª":3377,"ĠÙĬÙħÙĥÙĨÙĩ":3378,"ĠÙĪØ¬ÙĩÙĬÙĨ":3379,"ĠÙĪÙĪØ¬Ùĩ":3380,"ĠØ£ÙĥØ±Ùĩ":3381,"ĠÙģØ°ÙĥØ±":3382,"Ø³Ø¹":3383,"ĠØ§ÙĦÙħØ«":3384,"ĠØ§ÙĦÙħÙĪØµÙī":3385,"Ø·Ø§":3386,"Ø±Ø§Ø¨Ø©":3387,"ÙĪØ§ÙĦÙĤ":3388,"ĠØ§ÙĦØ¨Ø§Ø¨":3389,"Ø§ÙħØª":3390,"ĠÙĬÙĤØ¶ÙĬ":3391,"ĠØ§ÙĦÙģÙĤÙĩ":3392,"ØµØ¯Ø±":3393,"ĠÙĪÙħØ«ÙĦÙĩ":3394,"ĠÙĬØ£Ø®Ø°Ùĩ":3395,"ĠÙħÙĤØ§Ùħ":3396,"ĠØ´Ø±ÙĪØ·":3397,"ĠØ£ÙĥÙĦÙĩ":3398,"Ø¨Ø±Ø§":3399,"ÙĤØ¶Ø§Ø¡":3400,"ĠØ¨ÙĤÙĪÙĦ":3401,"ĠØ¹ÙĥØ³Ùĩ":3402,"ÙĪÙĦÙĩØ°Ø§":3403,"ĠÙĦØ§Ø²Ùħ":3404,"ĠÙĦÙĦÙĥ":3405,"ĠØ§ÙĦØ¹Ø´Ø±":3406,"ĠØ®ÙĪÙģ":3407,"ĠØ§ÙĦØ¨Ø®Ø§Ø±ÙĬ":3408,"ÙĤÙĬÙĬØ¯":3409,"ĠØ§ÙĦÙģØ¶ÙĦ":3410,"ĠØ§ÙĦØµÙĦØŃ":3411,"Ø§Ø¸Ø±":3412,"ÙĬØ´":3413,"ÙħÙĦØ©":3414,"ÙĤÙĬÙĨ":3415,"ĠÙħØ¬Ø±Ø¯":3416,"ĠØ¨ØµØŃ":3417,"ÙĥØ±Ø§Ùĩ":3418,"ĠÙĤÙĬØ³":3419,"ĠØŃØ°Ùģ":3420,"ĠÙĦØ¢Ø®Ø±":3421,"ĠÙĦØ§ØŃØªÙħØ§ÙĦ":3422,"ØªÙĩØ¯":3423,"ĠØ´Ø¦Øª":3424,"ĠØ§ÙĦØ¹ÙĦØ©":3425,"ĠØºÙĬØ±ÙĩÙħ":3426,"ĠÙĬÙĤØ³Ùħ":3427,"ĠØ§ÙĦÙģØ·Ø±":3428,"ĠØ§ÙĦÙĥØ¹":3429,"Ø£Ø®ÙĪØ°":3430,"ĠÙĪØ¨Ø§":3431,"ĠÙĪØ´Ø±":3432,"ÙħØ§ÙĦÙĩ":3433,"ĠØŃØ§ÙĥÙħ":3434,"Ø²Ø±":3435,"ĠØ³ÙĩÙħØ§":3436,"ÙĪØ§ÙĦÙĩ":3437,"Ø¨Ø¯Ø£":3438,"ĠØ§ÙĦØµÙģØ©":3439,"ĠÙĬØªØ¹":3440,"ĠÙĬÙĨÙģØ°":3441,"ÙĦØŃÙħ":3442,"ĠØ§ÙĦÙĩØ¯Ø§ÙĬØ©":3443,"ĠØ¹Ø¯ØªÙĩØ§":3444,"ĠÙħØ£Ùħ":3445,"ĠÙħÙĪÙĦØ§Ùĩ":3446,"ĠØ¨ÙģØ¹ÙĦ":3447,"ØµÙĦÙĩ":3448,"ĠØ£ÙĨÙĥØ±":3449,"ĠØ³ÙħØ§":3450,"ĠØ³ÙĪÙī":3451,"Ø§Ø¨ÙĦ":3452,"ĠØ«Ø§ÙĨ":3453,"ĠØ§ÙĦÙĪÙĦØ§":3454,"Ø¤Ø§ÙĦ":3455,"ĠÙĪÙħØºÙĨÙĬ":3456,"ĠØ¥Ø®Ø±Ø§Ø¬":3457,"ÙĪÙĦØ©":3458,"ĠÙĬÙĩ":3459,"ĠØµØ¯Ø§ÙĤ":3460,"ĠØ¶Ùħ":3461,"Ø¯Ø§Øª":3462,"ĠØ§ÙĦØ±Ø£Ø³":3463,"ĠÙĤØ§ÙĦØ§":3464,"ĠØ´Ø±Ø·Ùĩ":3465,"ĠÙĬØ¨ÙĤ":3466,"ĠØ£Ø¯Ø±Ùĥ":3467,"ĠÙħÙĪÙĦÙī":3468,"ĠØ¨Ø¨ÙĬÙĨØ©":3469,"ĠÙĬØ±Ùī":3470,"ÙĦÙĬÙģ":3471,"ĠÙĥÙĨ":3472,"ĠØ§ÙĦÙħØ±ÙĬØ¶":3473,"ĠÙĦØ°":3474,"ĠØ¯Ø§Ø¨Ø©":3475,"ĠÙĪØ§ÙĦØ§":3476,"Ø¨ÙĩÙħ":3477,"ĠÙĪØªØ¹":3478,"ĠÙĪØ¸Ø§ÙĩØ±":3479,"ĠØ£ÙĤÙĪÙĦ":3480,"ĠÙģÙĬØ¬ÙĪØ²":3481,"ĠÙĥÙĪÙĨÙĩØ§":3482,"ĠØªØ®Ø±Ø¬":3483,"ĠØ³Ø¬Ø¯":3484,"ĠØ®Ø´":3485,"Ø§ÙħÙĦØ§":3486,"ĠÙĪÙĬØ¤":3487,"ÙģØ§Øª":3488,"ÙĥØ§Ùģ":3489,"Ø§Ø¯Ø±":3490,"Ø±Ø§Ø¬Ø¹":3491,"ĠØ§ÙĦÙĤØ¨ÙĦØ©":3492,"ĠØ§ÙĦØ¹ÙĦÙħØ§Ø¡":3493,"ĠÙĬØ±ÙģØ¹":3494,"ĠÙĬÙħØªÙĨØ¹":3495,"ĠØ£Ø²":3496,"Ø£Øª":3497,"ÙĨØ§ÙĪÙĦ":3498,"ĠØ§ÙĦØ£Ø¯Ø§Ø¡":3499,"ĠØ®Ø§ÙĦØ¯":3500,"ĠÙĦØ£Ùħ":3501,"ĠØ£ØŃØ¯ÙĥÙħ":3502,"ĠØ§ÙĦØºØ§Ø¦Ø¨":3503,"ĠÙģØ§Ø³Øª":3504,"Ø·Ø¹Ùħ":3505,"ĠÙĥØ§ÙĦØ¨":3506,"ĠØªØŃÙĦ":3507,"ĠÙĦØ²ÙĪØ¬":3508,"ĠØ§ÙĦØ¢ÙĨ":3509,"ØŃØ´":3510,"ĠØ§ÙĦÙħØ³ÙħÙī":3511,"ĠØ¯ÙĪÙĨÙĩ":3512,"ĠÙĪÙĬØ³Øª":3513,"ĠØ§ÙĦÙģØµÙĦ":3514,"ĠÙĬØ¹ÙĤ":3515,"Ø§ØµÙĦÙĩ":3516,"ĠØ§Ø®ØªÙĬØ§Ø±":3517,"ĠØ§ÙĦØ¢ÙĬØ©":3518,"ĠØ¨Ø¬ÙħÙĬØ¹":3519,"ĠØ§ÙĦØ±Ø§ÙģØ¹ÙĬ":3520,"ÙĪÙĤØª":3521,"ÙĪØ¸Ø§ÙĩØ±":3522,"ÙĤØ¶ÙĬ":3523,"ĠÙĬØ±Ø¶":3524,"Ø±Ø§Ø¹":3525,"Ø±Ø§ØŃ":3526,"ĠØ§ÙĦØŃÙĪÙĦ":3527,"ĠØ§ÙĦØ´ÙħØ³":3528,"ÙĬØªÙĬÙĨ":3529,"ĠØ¨Ø·Ø±ÙĬÙĤ":3530,"ØŃØ§ÙĨÙĩ":3531,"ĠÙģÙĤÙĦØª":3532,"ÙģÙĥØ§ÙĨ":3533,"ĠÙĬØ³ÙħØ¹":3534,"ĠÙĤØ°Ùģ":3535,"ĠØ§ÙĦÙħØ§Ø¯Ø©":3536,"Ø¶Ø¨":3537,"ĠØ°ÙħÙĬ":3538,"ĠØ§ÙĦØ¥ÙĨØ³Ø§ÙĨ":3539,"ĠØ§ÙĦØ´Ø±ÙĥØ©":3540,"ĠÙĪØ¬ÙĪØ¯Ùĩ":3541,"Ø±ÙħØ°ÙĬ":3542,"Ø§Ø¯Ø«":3543,"ĠØ¨ØŃÙĤ":3544,"Ø§Ø´ÙĬØ©":3545,"ĠÙĦØ²ÙĪÙħ":3546,"ĠÙĬØ·ÙĦØ¨":3547,"ĠÙĬÙĨØªÙģØ¹":3548,"ĠØ¨Ø§ÙĦØ«ÙħÙĨ":3549,"Ø§Ø¶ÙĬ":3550,"Ø±Ø§Ø²":3551,"ĠØ¹Ø¯Ø§":3552,"ÙħØ§ÙħÙĩ":3553,"ĠÙĥÙĤÙĪÙĦÙĩ":3554,"ĠØªØ¤":3555,"ĠØªØ·ÙĦÙĤ":3556,"ĠÙĨØ²ÙĦ":3557,"ĠØ§ÙĦØ£Ø¸ÙĩØ±":3558,"ĠØ§ÙĦØŃÙĨ":3559,"Ø¹Ø§Øª":3560,"ĠØ£ØŃØ¯Ø§":3561,"ØªÙĬØ¨":3562,"Ø¹ÙĬÙĬÙĨ":3563,"ĠÙĪÙĦØ¯ÙĩØ§":3564,"ĠÙĪØºÙĬØ±ÙĩÙħØ§":3565,"ĠØ¨Ø¥Ø°ÙĨÙĩ":3566,"Ø§ÙĦØªÙĩ":3567,"ĠØ§ÙĦØŃØ±ÙħØ©":3568,"ĠÙĬØ¬Ø²Ø¦":3569,"ĠØ£ØµØŃØ§Ø¨ÙĨØ§":3570,"ĠØŃÙĬØ§ØªÙĩ":3571,"Ø¹Ø§Ø±":3572,"ĠÙħÙĤØµÙĪØ¯":3573,"Ø³ÙĪØ§Ø¡":3574,"Ø¨ÙĬØŃ":3575,"ĠØ§ÙĦÙĤÙĬØ§Ùħ":3576,"ĠØ§ÙĦÙĪÙĥØ§ÙĦØ©":3577,"ĠØ§ÙĦØ¥ÙĨ":3578,"ÙĨÙĬÙħØ©":3579,"ÙĤØ§Ø¯":3580,"ÙĪØ§ÙĦØ«":3581,"ĠÙĬØ®Ø§ÙĦÙģ":3582,"Ø§Ø´Ø±":3583,"ĠØ¥Ø³ÙħØ§Ø¹":3584,"ĠØ±Ø¯ÙĩØ§":3585,"ĠØ´Ø±ÙĬÙĥ":3586,"ÙĨÙĬØ§":3587,"ÙĪØ±Ùĩ":3588,"ĠØ£Ø¯Ø§Ø¡":3589,"ĠØ§ÙĦÙħÙĤØ¯":3590,"Ø«ÙĨÙĬ":3591,"ĠØ§ÙĦØ¹Ø´Ø±Ø©":3592,"ÙĪØ§ÙĦÙĪ":3593,"ĠÙħØ¹Ø±ÙģØ©":3594,"ĠØ§ÙĦÙĤØ§ØªÙĦ":3595,"ĠØ§ÙĦØ¨Ø¯ÙĦ":3596,"ĠÙĪØ¬ÙĩØ§ÙĨ":3597,"ĠØ§ÙĦÙĥÙģÙĬÙĦ":3598,"ĠØ§ÙĦØºØµØ¨":3599,"ĠØ¨Ø®ÙĦØ§ÙģÙĩ":3600,"ĠÙĪÙĦÙĩØ°Ø§":3601,"ĠÙĥØ§ÙĦÙĪ":3602,"Ø¯Ø¹Ùī":3603,"ØªÙģØ§ÙĤ":3604,"ĠØ£Øº":3605,"ĠÙħÙĪØ¬":3606,"ĠÙħØ±Ùģ":3607,"Ø³Ø¬Ø¯":3608,"ĠÙĦØ«":3609,"ĠØ¬Ø±":3610,"Ø¦ÙĩØ§":3611,"ĠØ§ÙĦØ³ÙĦØ·Ø§ÙĨ":3612,"Ø¯ÙĬÙĤ":3613,"ÙģØ§ÙĪØª":3614,"ÙĪÙĦØ§Ø¯":3615,"ÙĪØ§ÙĦØ¨":3616,"ĠØªØ¹ÙĦÙħ":3617,"ÙĦØŃÙĤÙĩ":3618,"ĠÙĪØ¨ÙĤÙĬ":3619,"ĠÙĪØ«ÙĦØ§Ø«":3620,"ĠØ¯Ø¹ÙĪØ§Ùĩ":3621,"ĠÙĤÙĬØ§":3622,"ĠØªØ¨Ø¹":3623,"ĠØªØ¬ÙĪØ²":3624,"ĠØµØŃÙĬØŃØ©":3625,"ĠØ®Ø§ÙĦÙģ":3626,"ĠÙħØ¹ÙĩÙħ":3627,"ĠÙĦØ£ØŃØ¯ÙĩÙħØ§":3628,"ĠØ§ÙĦØ´Ø§ÙĩØ¯":3629,"ĠØ³Ø¨ØŃØ§ÙĨÙĩ":3630,"ÙħØ±Ø£Ø©":3631,"ĠØ¨ÙĥØ°Ø§":3632,"ĠØªØ³ÙĤØ·":3633,"ÙĩÙĨ":3634,"Ø¯Ø®ÙĦ":3635,"ĠÙħØ§ÙĨØ¹":3636,"ĠØµØ±ÙĬØŃ":3637,"ÙĪÙĨÙĤÙĦ":3638,"ĠØ§ÙĦØŃØ±Ø©":3639,"ĠÙĬØªÙĪÙĤÙģ":3640,"ÙĪÙĩÙĦ":3641,"ĠØ§Ø´ØªØ±Ø·":3642,"ĠÙĦÙĦØ£Ø¨":3643,"ĠØ´Ø±ØŃÙĩ":3644,"ĠØ§ÙĦÙħØ¤ÙħÙĨ":3645,"Ø¶ÙĪØ±":3646,"ĠÙĨÙĤÙĪÙĦ":3647,"ĠØ§ÙĦØ¹Øµ":3648,"ĠØ§ÙĦØŃÙĦÙģ":3649,"ĠØ§ÙĦØ¥Ø·ÙĦØ§ÙĤ":3650,"ĠÙĬÙĨÙĤØµ":3651,"ĠÙĪÙĤÙĪÙĦ":3652,"ĠÙģØ§ÙĦÙĤÙĪÙĦ":3653,"ĠØ¨ÙħÙĪØª":3654,"Ø¬Ø²Ø§Ø¡":3655,"ĠØ§Ø¹ØªØ¨Ø±":3656,"ĠØ§ØªÙģØ§ÙĤØ§":3657,"ĠØ£ØªÙĦÙģ":3658,"ĠÙĦÙģÙĦØ§ÙĨ":3659,"ĠÙĬÙĨØ§ÙģÙĬ":3660,"ĠØ§ÙĦÙĪØ¯ÙĬØ¹Ø©":3661,"ĠØ¥Ø³ÙħØ§Ø¹ÙĬÙĦ":3662,"Ø§ÙĦÙĪ":3663,"ÙģØ¶":3664,"ĠØ§ÙĦÙħØ´ÙĬ":3665,"ĠØ§ÙĦÙħØºÙĨÙĬ":3666,"ÙĨØ§Ø¨Ø©":3667,"ĠÙĦØ±":3668,"ĠØ§ÙĦØ¥Ø¨ÙĦ":3669,"ĠÙĬÙĤØ¨":3670,"ĠØºØ³ÙĦÙĩ":3671,"ÙĪØ§ÙĦØ¬":3672,"ĠØ¹Ø¯ÙħÙĩ":3673,"ĠØ¹Ø±ÙĪØ©":3674,"ĠØ§Ø´ØªØ±Ø§Ø·":3675,"ĠÙģØµÙĦ":3676,"ĠÙģØ§Ø¦Ø¯Ø©":3677,"ĠÙĤØµØ§Øµ":3678,"ÙĦÙĬØ¯":3679,"ĠÙĥØ¥":3680,"ĠØ¥Ø·ÙĦØ§ÙĤ":3681,"ĠÙħÙĨØ§":3682,"ĠÙĩØ¯ÙĬ":3683,"ĠØ§ÙĦØ£Ø¦ÙħØ©":3684,"ĠØµØ§Ø¯":3685,"ĠØ¨ÙĨÙĬØ©":3686,"ĠÙĥØ§ÙĨØ§":3687,"ĠØ§ÙĦØ¬ÙĪØ§Ø²":3688,"Ø¹Ø§ÙĬØ©":3689,"ĠØ£Ø³ÙĤØ·":3690,"ĠØ·ÙĦÙĤØª":3691,"ĠØ§ÙĦØ¬ÙħÙĦØ©":3692,"Ø¨ØªØ¯Ø£":3693,"ØªÙģ":3694,"ĠÙĪØ¨Ø¹Ø¯":3695,"ĠÙħØ¶ÙĬ":3696,"Ø³Ø§Ùħ":3697,"Ø°ÙĪÙģ":3698,"ĠØªØ«Ø¨Øª":3699,"ĠØ³Ø¬":3700,"Ø±Ø§Ø¯Ùĩ":3701,"ĠØ£ÙĨÙĩÙħØ§":3702,"ÙĪØ£ÙĨÙĩ":3703,"ĠÙĪÙħÙĨÙĩ":3704,"ĠĠĠ":3705,"ĠØ§ÙĦÙĤØ¨ÙĪÙĦ":3706,"ĠØ¨Ø§ÙĦØ¨ÙĬØ¹":3707,"ÙĩØ±Ùĩ":3708,"ĠÙĬÙħÙĨ":3709,"ĠØ±Ø´":3710,"ĠØ§ÙĦÙĤØ±Ø§Ø¡Ø©":3711,"ĠØ§ÙĦØªØ±":3712,"ĠÙĪØ§ÙĦØ²":3713,"ĠÙģÙĬÙĩÙħ":3714,"ÙĪÙĬØ§":3715,"ÙĦØªÙĩØ§":3716,"ÙĥÙħÙĦ":3717,"ĠØ·Ø±ÙĬ":3718,"ĠØ§ÙĦØ²Ø¨ÙĬØ±":3719,"ØªÙĬÙĤ":3720,"Ø³Ø¨ÙĤ":3721,"ĠÙĬØ¤Ø«Ø±":3722,"ĠØ«ÙĦØ«Ùĩ":3723,"ĠÙģÙĬÙĨØ¨ØºÙĬ":3724,"ĠÙģØ±Ø¹":3725,"ĠÙĤÙĦØ¹":3726,"ĠÙĥØŃ":3727,"ĠØ§ÙĦÙħØ±Øª":3728,"ĠØ§ÙĦÙħØ£Ø°ÙĪÙĨ":3729,"Ø·ÙĪØ¹":3730,"ĠØ±Ø¨ØŃ":3731,"ĠÙĩØ¤ÙĦØ§Ø¡":3732,"ĠØ§ÙĦØ£Ø±Ø´":3733,"ÙĪØ§Ø³Øª":3734,"ĠØ§ÙĦØªØ²":3735,"ÙĬØ¹ÙĨÙĬ":3736,"ĠÙģÙĦØ§ÙĨØ§":3737,"ĠÙĪØ¬ÙĪØ¨Ø§":3738,"ÙģØ§Ø¯Ùĩ":3739,"Ø¶Ø§ÙģØ©":3740,"ĠØ§ÙĦØ±ÙĤÙĬÙĤ":3741,"ĠØ¹ÙĨØ¯ÙĩÙħØ§":3742,"ĠØµØ¯ÙĤÙĩ":3743,"ĠØµØ§Ø±Øª":3744,"ĠÙĨØ¬Ø³":3745,"ĠØ§ÙĦÙħØºØµÙĪØ¨":3746,"ĠØ§ÙĦØ¹Ø¯Ø¯":3747,"ÙĪØ®Ø±Ø¬":3748,"ÙĤÙĪÙħ":3749,"ĠÙĬØ´Øª":3750,"ĠÙĬØ³ØªØŃ":3751,"Ø°ÙĪØ±":3752,"ØµÙĨ":3753,"ÙħØ§ÙħØ©":3754,"ĠÙħÙĨØµÙĪØ±":3755,"Ø§ÙĦØ¥":3756,"ĠØ£ÙĬÙĪØ¨":3757,"ĠÙĪÙĬØ¬ÙĪØ²":3758,"ØŃÙĬØ·":3759,"ĠØ¨ØŃØ±":3760,"ĠÙĥØ«ÙĬØ±Ø§":3761,"ÙĪÙĤÙĬ":3762,"Ø¨Ø²":3763,"ĠÙħÙĤØª":3764,"ĠÙħØ®Ø±Ø¬":3765,"ĠÙģØ®":3766,"ÙģØ§Ø±":3767,"ÙħØ§Øª":3768,"Ø¶Ø·Ø±":3769,"ÙĦÙĪÙĦ":3770,"ĠØ§ÙĦØŃÙĨØ«":3771,"ĠØ«Ø§ÙĦØ«":3772,"ĠØ²Ø±Ø¹":3773,"ĠÙĬØ¬ÙħØ¹":3774,"ĠØ§ÙĦØµØ¯Ø§ÙĤ":3775,"Ø¤ÙĩØ§":3776,"ĠÙĬØ¶ÙħÙĨÙĩ":3777,"ĠÙģÙĥÙĬÙģ":3778,"ĠØ§ÙĦØŃØ±ÙĬØ©":3779,"ĠØªÙĤØ¯ÙĬÙħ":3780,"ĠÙĪÙĩÙħØ§":3781,"ÙĤØ§Ø±":3782,"ĠÙĬØ³ÙħÙī":3783,"ĠØªØ§Ø¨":3784,"Ø§ÙĦØ®":3785,"ĠÙĨÙĥ":3786,"ĠØµÙĬØ¯":3787,"ÙħØ±ÙĪ":3788,"ĠÙħÙĨÙĩÙĨ":3789,"ÙģØ¹ØªÙĩ":3790,"ÙĬØ§Ø¶":3791,"ĠØ§ÙĦØ³Ø¯Ø³":3792,"ĠÙħØŃØ±ÙħØ§":3793,"ĠØ§ÙĦØ¯Ø§Ø¨Ø©":3794,"ÙĬØªÙĩØ§":3795,"ĠÙĪØªÙĤØ¯Ùħ":3796,"ĠÙģØªØ£ÙħÙĦ":3797,"ĠØ§Ø®ØªÙĦØ§Ùģ":3798,"ĠØ£ÙĦÙģØ§":3799,"ĠØªØ²ÙĪØ¬ÙĩØ§":3800,"ĠØ¥ØŃØ¯Ùī":3801,"Ø¯Ø¹ÙĬ":3802,"ĠÙģÙĤÙĪÙĦÙĩ":3803,"ĠÙĬØ³Ùħ":3804,"Ø·Ø§ÙĨ":3805,"ĠØ±ÙĤÙĬÙĤ":3806,"ÙĩÙĪØ©":3807,"ĠØ§ÙĦÙĤÙĬØ§":3808,"ĠØ§ÙĦØ¥Ø´":3809,"ĠØ¨Ø¹Ø¯ÙħØ§":3810,"ĠÙĬÙĤØ¨Ø¶":3811,"ĠØ§ÙĦØ²ÙĨØ§":3812,"ĠÙĪØ§ÙĦÙħØ±Ø§Ø¯":3813,"ĠÙĪØŃÙĬÙĨØ¦Ø°":3814,"ĠØ¹ÙĨØ¯ÙĩÙħ":3815,"ĠØ§Ø®ØªØ§Ø±":3816,"ÙĪØ§ÙĦÙħØ±Ø§Ø¯":3817,"ĠØ£ÙģØªÙī":3818,"ÙĬÙĩØ§":3819,"ĠØ§ÙħØª":3820,"ĠÙĪÙĦØ¹":3821,"ĠÙģØ¶":3822,"ĠÙģØ°ÙĦÙĥ":3823,"ØŃØ«":3824,"ĠÙĥØ±Ø§ÙĩØ©":3825,"Ø´Ùģ":3826,"ĠÙĨÙģÙĤØªÙĩ":3827,"ĠØ³Ùĥ":3828,"ĠØ¬Ø²Ùħ":3829,"ÙĬØ¯ÙĬ":3830,"ĠØ§ÙĦÙĨØŃØ±":3831,"ĠØ²Ø±":3832,"ĠØ·Ø§ÙĩØ±":3833,"ÙĪØ±ÙĪÙī":3834,"ĠØ§ÙĦØ¯ÙģØ¹":3835,"ĠØ§ÙĦÙħØªÙĤØ¯Ùħ":3836,"ĠØªØŃÙĤÙĤ":3837,"ĠÙĦØŃØ¯ÙĬØ«":3838,"ĠØµØŃØªÙĩ":3839,"ĠÙĤØ±ÙĬØ¨":3840,"ĠØ§ÙĦØ¹Ø¯ÙĪ":3841,"ĠØ¥ÙħØ§ÙħÙĩ":3842,"ĠØ¥ØŃØ¯Ø§ÙĩÙħØ§":3843,"ĠØ§ÙĦØ£ÙĨØµØ§Ø±":3844,"ĠÙĬØªØŃÙĤÙĤ":3845,"ĠØ§ÙĦÙĤÙĬØ§ÙħØ©":3846,"ÙĬØ§Ø±Ùĩ":3847,"ÙĩØ©":3848,"ÙĩÙħØ©":3849,"ÙĪØºÙĬØ±":3850,"Ø¬ÙħØ¹":3851,"Ø£ØŃØ¯ÙĩÙħØ§":3852,"ĠÙĤØµØ±":3853,"ĠØ±ÙĤÙĬ":3854,"ĠØ§ÙĦØªÙģ":3855,"ĠÙĪØ§ÙĦØ·":3856,"ĠÙĪØ£Ø¨ÙĬ":3857,"ĠÙĦÙĦØ²":3858,"ĠÙĬØ¹ÙĪØ¯":3859,"ĠØ§ÙĦØ²ÙĩØ±ÙĬ":3860,"Ø¨Ø¹Ø«":3861,"ÙĪØ§ÙĦØ¥":3862,"ĠØ§ÙĦÙħØ¬ÙĦØ³":3863,"ĠØ§ÙĦÙħØ¤ÙĦÙģ":3864,"Ø¬ØªÙĩØ§Ø¯":3865,"Ø§Ø¹Ùĩ":3866,"ĠÙħÙĤØªØ¶Ùī":3867,"ĠÙĬØ¨Ø±Ø£":3868,"Ø¬ÙĬØ¨":3869,"ĠÙĤØ±Ø£":3870,"Ø·ÙĪÙģ":3871,"ÙĩØ§Øª":3872,"ĠÙĦØ·":3873,"ĠØ§ÙĦØ£ÙĬ":3874,"ĠÙĦØ£Ø¨ÙĬ":3875,"ĠÙĬÙĤØ±Ø£":3876,"Ø§Ø²Ø¹":3877,"ÙĪÙĥÙĦÙĩ":3878,"ĠØ£ØŃØ¯ÙĩÙħ":3879,"ĠØªØ¹ÙĦÙĬ":3880,"ĠÙĦØ²ÙĬØ¯":3881,"ĠØ¨ÙĬØªÙĩ":3882,"ĠØªØ£Ø®Ø±":3883,"ĠØ§ÙĥØª":3884,"ĠØ¹Ø¨Ø±":3885,"ĠÙĬØ³ØªØŃØ¨":3886,"Ø¬ÙĬØ²":3887,"ĠØ§ÙĦÙħØ¨":3888,"ĠØ³Ø§":3889,"ĠØ§ÙĦØ¹Ø±Ùģ":3890,"ĠØ¨Ø¹ÙĤØ¯":3891,"ĠØ§ÙĦÙĨØ°Ø±":3892,"ÙĦØªÙĬÙĨ":3893,"Ø±ÙĥØ§":3894,"ĠÙĬØªØ¨Ø¹":3895,"ĠØ§ÙĦÙĥØ±Ø§ÙĩØ©":3896,"ĠØºØ§Ø¨":3897,"ĠØ¨ÙħØ«ÙĦ":3898,"ØªØ§Ø¨Ø©":3899,"ĠØ£ÙĤÙĪÙī":3900,"ĠÙħÙĥØ±ÙĪÙĩ":3901,"Ø§ÙĬØ®":3902,"Ø¨Ø´":3903,"Ø¨Ø¯Ùĩ":3904,"ĠØ¹ÙĤÙĬÙĦ":3905,"ĠÙĬÙĦØª":3906,"ĠÙĬØ¯ÙĬ":3907,"Ø¬ÙħØ©":3908,"ĠØ§ÙĦÙĦÙĬÙĦ":3909,"ĠØ°ÙĪ":3910,"ĠÙĦÙĩØ°Ø§":3911,"ĠÙĪØ§ÙĦØ°ÙĬ":3912,"ĠØ§ÙĦØ¥Ø¹":3913,"ÙĪÙĬØ¬ÙĪØ²":3914,"ÙĬØ§Ø©":3915,"ĠÙĬØŃØ¬":3916,"ĠØºØ±Ùħ":3917,"Ø´Ø±ÙĪØ·":3918,"ĠÙĬØ¯Ø¹":3919,"ĠØ§ÙĦØŃØ±Ø¨ÙĬ":3920,"ĠÙĦÙĦÙĨ":3921,"ĠØ§ÙĦØ§ÙĨØªÙģØ§Ø¹":3922,"ĠØ¹Ø¯ÙĬ":3923,"ĠÙĬÙģÙĬ":3924,"ĠÙĬÙĦØŃÙĤ":3925,"ÙĥÙĦÙĩ":3926,"ÙĥÙħÙĩ":3927,"Ø·Ø¦":3928,"ĠØŃØ¸":3929,"ĠØ£ÙĨÙģÙĤ":3930,"ĠÙĨÙģØ¹":3931,"ĠØ¨ÙĨÙģØ³":3932,"ĠØ§ÙĦØ¹ØµØ±":3933,"ĠØ§ÙĦÙĤÙĪÙħ":3934,"ÙĪÙĬØŃØªÙħÙĦ":3935,"ĠØ²ÙĪØ§ÙĦ":3936,"ĠØ·Ø¹Ø§":3937,"ĠÙĬØªØµÙĪØ±":3938,"ĠØ§ÙĦØ±ÙĤØ¨Ø©":3939,"ĠØ¨ÙħÙĥØ©":3940,"ĠØ¹Ø±ÙģØ§":3941,"ĠØ´Ø¹Ø±":3942,"ÙĥÙģÙĪÙĦ":3943,"ĠØ§ÙĦØ±ÙĪØ§ÙĬØ©":3944,"ÙĩÙĬØ±":3945,"ĠØ§ÙģØª":3946,"ĠÙĪÙĦÙĬÙĩ":3947,"ĠÙħØ¨ÙĨÙĬ":3948,"ĠÙĬØ®ØªÙĦÙģ":3949,"ĠØ§ÙĦÙħÙĪÙĤÙĪÙģ":3950,"Ø·ÙĦØ§ÙĨ":3951,"ĠØ£ÙĪÙĦÙĩ":3952,"ĠÙĨØ¯":3953,"ĠÙĨØ§Ø¦":3954,"ĠØ³Ø¦ÙĦ":3955,"ĠØ´Ø¨Ùĩ":3956,"Ø±ÙĬÙħÙĩ":3957,"ĠØ§ÙĦÙĤØª":3958,"ĠÙĬÙĥÙģØ±":3959,"Ø±ÙĥØ¨":3960,"ĠØ§ÙĦØµÙĪØ±":3961,"ĠÙĪÙĤÙĪØ¹":3962,"ĠØ§ÙĦØ§ØŃØª":3963,"ĠØŃÙĬÙĪØ§ÙĨ":3964,"ĠÙĦÙĤÙĪÙĦ":3965,"ĠÙĦØ¨Ø¹Ø¶":3966,"ĠÙĥØ³Ø¨Ùĩ":3967,"ĠÙĤØ±ÙĬØ´":3968,"ĠØ£ØµØŃØ§Ø¨Ùĩ":3969,"ĠØ§ÙĦÙĤØ³Ùħ":3970,"ĠÙĪØ§ÙĦØ¢Ø®Ø±":3971,"ĠØ§ÙĦØ°ÙħÙĬ":3972,"ĠØ¶ÙħÙĨÙĩ":3973,"ĠØ¨ÙħÙĦÙĥ":3974,"ĠÙĬØ¤Ø¯ÙĬ":3975,"ĠÙģÙĥØ£ÙĨÙĩ":3976,"ĠØµØŃÙĬØŃØ§":3977,"ÙĪÙĬÙĨØ¨ØºÙĬ":3978,"ĠØ¬ÙĨØ³Ùĩ":3979,"ĠÙĦÙĦØ¥ÙħØ§Ùħ":3980,"ĠÙĨØ¸ÙĬØ±":3981,"ĠØªÙĤØ¯ÙĬØ±":3982,"ĠÙħÙĩ":3983,"ĠØ¨ÙĤØ±":3984,"ĠØ¹ÙħÙĨ":3985,"Ø¬ÙĬÙĦ":3986,"ĠÙĤØ±Ø§Ø¡Ø©":3987,"ĠÙĤØ¨ÙĬÙĦ":3988,"ØµÙĦÙĬ":3989,"ĠØ§ÙĦØ£Ø¹Ùħ":3990,"ĠØ°Ùħ":3991,"Ø±Ø§ÙħÙĩ":3992,"ÙĦØ¯Ùĩ":3993,"ĠØ§ÙĦØ¯Ø±Ø§ÙĩÙħ":3994,"Ø¨ØªØ§Ø¹":3995,"ĠÙĪØ¹Ø¨Ø¯":3996,"ÙĪØ§ÙĦØ®":3997,"ÙĪÙĤÙĪÙĦ":3998,"Ø§ØµÙħ":3999,"ÙĨÙģÙĤØ©":4000,"Ø§Ø´Ø±Ø©":4001,"ĠØ¹Ø´Ø±ÙĬÙĨ":4002,"ĠÙĪØ¹Ø´Ø±ÙĪÙĨ":4003,"ĠÙĬØ¹ÙĤÙĪØ¨":4004,"Ø¨Ø±ÙĬ":4005,"ĠÙħÙĤØµ":4006,"Ø³Ø¨Ùĩ":4007,"Ø°ÙĬÙĨ":4008,"ÙĦÙĬÙĦØ©":4009,"ĠØªØ±Ø¬":4010,"ÙĪØ§ÙģÙĤ":4011,"ĠØ§ÙĦÙĤÙĪØ¯":4012,"Ø¹ØªÙħØ¯":4013,"Ø¨ØªÙĩØ§":4014,"ĠÙĪØªØ¹Ø§ÙĦÙī":4015,"ĠÙĬÙģÙĩÙħ":4016,"ÙĨØ¨ÙĬØ©":4017,"ĠØ£Ø®Ø±Ø¬Ùĩ":4018,"ĠÙħÙĤØ¯Ø§Ø±":4019,"ĠØ§ÙĦØµØŃØ§Ø¨Ø©":4020,"ĠÙĪØ³Øª":4021,"ĠÙģØº":4022,"ĠÙĬÙģØª":4023,"ĠÙĬØ¨Ø§Ø¹":4024,"ØŃÙĥÙħ":4025,"ĠÙĤØ³ÙħØ©":4026,"ĠÙĨØ§Ø³":4027,"ĠØ§ÙĦØ£ÙĤÙĦ":4028,"ĠØ¬Ø¯Ùĩ":4029,"ĠØ¥ÙĨÙĬ":4030,"ĠØºØ±":4031,"ÙĦØ¨Ø©":4032,"ĠØ£ÙħÙĬØ©":4033,"ĠÙĦÙĥÙħ":4034,"ĠÙģØ§ÙĦÙĪ":4035,"ĠÙħÙĦÙĥØ§":4036,"Ø·Ø¹Ø§Ùħ":4037,"ĠÙħØ¹ÙĦÙĪÙħØ©":4038,"ĠØ§ÙĦØ³Ø¨ÙĥÙĬ":4039,"ĠØ³ÙĬØ¯ÙĩØ§":4040,"ĠØ§ÙĦØ¨ØºÙĪÙĬ":4041,"ĠØ§ÙĦØ¹Ø²ÙĬØ²":4042,"ÙĩØ¯Ø©":4043,"ĠÙĪÙĤØ§":4044,"ĠØ¥Ø¬":4045,"ĠÙĨÙĤ":4046,"ĠØ³ÙĤÙĪØ·":4047,"ĠØ¨Ø¹Ø«":4048,"ĠÙĦÙĪØ¬ÙĪØ¯":4049,"ĠØ¶ÙħØ§ÙĨÙĩ":4050,"ÙĪØ³Ø·":4051,"ĠÙħØ§ØªØª":4052,"ĠØ¢Ø®Ø±Ùĩ":4053,"ĠØ¨Ø«ÙĦØ«":4054,"ĠØ¯Ø®ÙĪÙĦÙĩ":4055,"ĠØ¯Ø®ÙĦØª":4056,"ĠØ¨Ø§ÙĦØ¯ÙĬÙĨ":4057,"ĠØ²ÙĬØ§Ø¯ØªÙĩ":4058,"ÙĬØ¶":4059,"Ø±ØªØ¨":4060,"Ø¯Ø§Ùħ":4061,"ĠÙĪØµÙĦ":4062,"ĠÙħÙģØ±":4063,"ĠØ¨ÙĪØ¬Ùĩ":4064,"ĠÙģØ§Ø±":4065,"ĠÙĥØ³Ø¨":4066,"ĠØ§ÙĦÙħÙĪØµÙĬ":4067,"ĠØ§ÙĦÙħØŃÙĬØ·":4068,"Ø«Ø±Ø©":4069,"ĠÙĨØ¨ÙĬ":4070,"ĠØ³ÙĩÙĪ":4071,"ĠØ¨ÙĩØ°Ùĩ":4072,"ĠØ§ÙĦØ¬Ø±ØŃ":4073,"ĠØ£Ø®Ø±":4074,"ĠØ§ÙĦÙģØª":4075,"ĠØ¨Ø£ÙĥØ«Ø±":4076,"ĠÙĪÙĤØªÙĩ":4077,"ĠØ£Ø¬Ø§Ø²":4078,"ĠÙĥØ§ÙĦØ¥":4079,"ĠØ¥Ø³ÙĦØ§ÙħÙĩ":4080,"ĠÙĦÙĦØ£ÙĪÙĦ":4081,"ĠØ§ÙĦÙĥÙģØ§ÙĦØ©":4082,"ĠØªØµØŃÙĬØŃÙĩ":4083,"ĠØ§ÙĦÙħØ·ÙĦÙĪØ¨":4084,"ĠØ®Ø±ÙĪØ¬Ùĩ":4085,"Ø¯Ø¨Ø±":4086,"ĠÙģØ£ÙĨ":4087,"ĠØ§ÙĦÙħÙĪÙĩÙĪØ¨":4088,"ĠØŃØ±Ø¨":4089,"ĠØ§ÙĦÙĦØ®ÙħÙĬ":4090,"ĠØ±ÙĤ":4091,"ĠØ¬Ø¨ÙĬØ±":4092,"Ø¨ÙĬØª":4093,"ĠØ«ÙĪØ¨Ùĩ":4094,"ÙĬØ§ÙĨÙĩ":4095,"ĠØ§ÙĦØ³Ø¬ÙĪØ¯":4096,"ĠÙĪÙĬØ¬Ø¨":4097,"ĠÙĬØªØ²ÙĪØ¬":4098,"ØºÙĬØ±Ø©":4099,"ĠØ¨Ø¯ÙĦÙĩ":4100,"ĠØ¸ÙĨÙĩ":4101,"ØŃÙĬØ§Ø¡":4102,"ĠØ¨ÙħÙĪØªÙĩ":4103,"ĠÙħØ§ÙĦÙĥØ§":4104,"ÙħÙĬÙĬØ²":4105,"ĠØŃØ±Ø¨ÙĬ":4106,"ĠØªÙģØ±ÙĬ":4107,"ĠØ§ÙĦØ¹Ø¨Ø§Ø³":4108,"ĠØ§ÙĦÙħØ¶Ø§Ø±Ø¨":4109,"ĠØªÙģØ³ÙĬØ±":4110,"ÙĬØ¨Ø§":4111,"ÙģØ¹Øª":4112,"Ø¬Ùħ":4113,"ĠÙĤÙĪØ©":4114,"Ø§ÙĨØ¸Ø±":4115,"ĠØ§ÙĦØ£ÙĥÙĦ":4116,"ĠÙħØ¹ÙĬÙĨØ§":4117,"ĠØ§ÙĦÙĤØµØ±":4118,"ĠØ¨Ø§ÙĦØ²":4119,"ĠØ§ÙĦØ¬ÙĨ":4120,"ĠÙĪØ£Ø®":4121,"ĠÙĪØ£ÙĨØ§":4122,"ĠÙĦÙĦØ«":4123,"ÙĪØ±ÙĪÙĬ":4124,"ĠØ±Ø¬ÙĦÙĬÙĨ":4125,"ĠØ¹ÙĦÙĬÙĥÙħ":4126,"ĠÙĤØ§Ø¶":4127,"ĠØ£Ø¬Ø²Ø£Ùĩ":4128,"ĠØ§ÙĦÙħØ£ÙħÙĪÙħ":4129,"ĠØ£ÙħÙĨ":4130,"ĠÙħØ³ØªØŃÙĤ":4131,"ĠØ¨Ø¨ÙĬØ¹":4132,"ĠØ¹Ø¸":4133,"ĠØ¹ÙģØ§ÙĨ":4134,"Ø³ÙĤ":4135,"ĠÙĤÙĬØ§Ø³":4136,"Ø®ÙĦÙĩ":4137,"Ø«Ø§":4138,"ĠÙĦØ§Ø³Øª":4139,"ĠØ´ÙĩØ±Ø§":4140,"ĠÙĬØ¹ÙĬÙĨ":4141,"ÙĪØ§ÙĦØ°ÙĬ":4142,"ĠÙĪØµØ§Ø±":4143,"ĠÙĬØ´ÙħÙĦ":4144,"ĠÙĦØºØ©":4145,"ÙĬÙĤÙĨ":4146,"Ø¹Ø¨":4147,"ĠÙģØ¶Ø©":4148,"Ø³ÙħÙĩ":4149,"ĠÙĬÙģØ³Ø¯":4150,"ĠÙĤÙĬØ§Ùħ":4151,"ĠØ±ÙĤØ¨Ø©":4152,"Ø±Ø§Øª":4153,"ĠØ¨Ø§Ø·":4154,"ĠØ§ÙĦÙĨÙĤØµ":4155,"ĠÙĪØ¹ÙĦÙħ":4156,"Ø§ÙĩØ¨":4157,"ĠÙĬØ³Ø¬Ø¯":4158,"ĠØ¨ÙĬØ¹ÙĩØ§":4159,"ĠÙĦÙĦØ¹Ø¨Ø¯":4160,"Ø¹Ø·Ø§Ø¡":4161,"ĠØ§ÙĦÙħÙĨÙĩØ¬":4162,"ÙĬÙĪÙĨ":4163,"ĠÙĪÙĦØ":4164,"ĠØ£Ø±Ø¯":4165,"Ø£ÙĤÙĪÙĦ":4166,"ĠÙħÙĨÙĥÙħ":4167,"Ø¥ÙĦØ®":4168,"ĠØ³Ø§Ø¨":4169,"ĠØ§ÙĦØ£ÙĤ":4170,"ĠØ°Ø§Øª":4171,"ĠØµÙĪÙħÙĩ":4172,"ĠØ¬Ø±Ùī":4173,"ĠØ§ÙĦØŃØ§ÙģØ¸":4174,"ĠØ¯Ø§Ø±Ùĩ":4175,"ĠÙĪØ§Ø¶ØŃ":4176,"ĠØ²ÙĨØ§":4177,"ĠÙĪØ£Ø±Ø§Ø¯":4178,"ÙĪØ¹Ø©":4179,"ĠØ§ÙĦØ®Ùģ":4180,"ĠÙģØ¥ÙĨÙħØ§":4181,"ÙĪØ§ÙĦØ©":4182,"ĠØ£ØŃÙĥØ§Ùħ":4183,"ĠØ¨ÙħØ§Ø¦Ø©":4184,"ĠÙĬØ®ÙĦÙĪ":4185,"ĠØªØŃØ±ÙĬÙħ":4186,"ĠÙĪØºÙĬØ±ÙĩÙħ":4187,"ĠÙĦØŃÙħ":4188,"ÙĤØ¨Ø¶Ùĩ":4189,"Ø®ØµÙĪØµ":4190,"ĠÙĬØ·Ø£":4191,"ĠØ¹ÙĬÙĨØ§":4192,"ĠØ£Ø±Ø¶Ùĩ":4193,"ĠÙģØ¬Ø§Ø¡":4194,"ĠØ§ÙĦÙħØ·ÙĦØ¨":4195,"ĠÙĪØ¶ÙĪØ¡":4196,"ĠØ£Ø¨Ø±Ø£":4197,"ĠÙħÙĤØ¨":4198,"ÙĦØ§Øª":4199,"ĠØ§ÙĦÙħÙĪØ¶Ø¹":4200,"ĠØ¥ÙħØ§Ùħ":4201,"ĠØ¥Ø«Ø¨Ø§Øª":4202,"ĠØ§ÙĦØ£ÙĤØ±Ø¨":4203,"ĠØ§ÙĦØ¹ÙħØ¯":4204,"ĠØ§ÙĦØŃØ§Ø¬Ø¨":4205,"ĠØ§ÙĦÙĤØ±Ø¶":4206,"ÙħÙĩØ±":4207,"ÙĪØ§ÙĦØ´":4208,"ĠÙģØ£ÙħØ§":4209,"ÙĦØ¹ÙĬ":4210,"Ø§ØŃØ¨Ùĩ":4211,"ÙĪÙĦÙħØ§":4212,"ĠØªØ³ÙĦÙĬÙħ":4213,"ĠØŃØµÙĪÙĦ":4214,"ĠÙĪÙĬÙĨØ¨ØºÙĬ":4215,"ĠØŃÙĨØ·Ø©":4216,"ĠØ§ÙĦØ£ØŃÙĥØ§Ùħ":4217,"ĠØ§ÙĦØ±ÙħÙĦÙĬ":4218,"Ø¢Ø®Ø±":4219,"ĠØ¥ÙĤØ§ÙħØ©":4220,"ĠØ´Ùĩ":4221,"ĠØ§ÙĦØªØµ":4222,"ÙĦØ£ÙĨÙĩÙħ":4223,"ĠØ§ÙĦÙĥÙģØ±":4224,"ĠÙĬÙĨÙĪ":4225,"ĠÙĪØªØŃ":4226,"ĠØ§ÙĦØºØ§ÙĦØ¨":4227,"ĠØ·ÙĦØ¨Ùĩ":4228,"ĠØ§ÙĦÙĪÙĦÙĬØ¯":4229,"ĠØ§ÙĦØ¬Ø²ÙĬØ©":4230,"ĠÙħÙĥØ§Øª":4231,"ĠØ§ÙĦØŃØ³ÙĬÙĨ":4232,"ĠØ§ÙĦÙĥØ¹Ø¨Ø©":4233,"ÙĬÙĥ":4234,"ÙĬÙĦØ¹ÙĬ":4235,"Ø³Ø¯":4236,"ĠÙĬØ®ØªØµ":4237,"ĠÙĥØ¨ÙĬØ±":4238,"ĠØŃØ³Ø¨":4239,"ĠØ§ÙĦØªØ¬Ø§Ø±Ø©":4240,"ĠØ·ÙĦØŃØ©":4241,"ĠÙĦÙĦØ°":4242,"ĠÙĦÙĬÙĦØ§":4243,"ØµØŃÙģ":4244,"ÙģØ§Ø©":4245,"ĠÙĪÙĩØ°Ùĩ":4246,"ĠÙĪÙĨØµ":4247,"ĠÙĬØ³ÙĨ":4248,"ĠÙĦØµØ§ØŃØ¨":4249,"Ø§Ø¹ÙĦ":4250,"ĠÙĪØ¢":4251,"ĠÙģÙĩÙħ":4252,"ÙĥØ§ÙĦ":4253,"ĠØ§ÙĦÙħÙĦØª":4254,"ĠØ§ÙĦÙħÙĥØ±Ùĩ":4255,"ØªÙĩÙĦÙĥ":4256,"ĠØ§ÙĦØ¨Ø°Ø±":4257,"ĠØ²ÙģØ±":4258,"Ø¨Ø§Ø¯Ø±":4259,"ĠØ¨Ø£ÙĨÙĩØ§":4260,"ĠÙĤØ¨ÙĪÙĦÙĩ":4261,"ĠØ¨ÙħØ«ÙĦÙĩ":4262,"ĠÙĪÙħØ§Øª":4263,"ĠØ®ÙħØ³ÙħØ§Ø¦Ø©":4264,"ĠØ§ÙĦÙħØºØ±Ø¨":4265,"ĠØ°ÙĥØ±Ø§":4266,"Ø§ØŃØ¯":4267,"ĠÙĪÙħØ±":4268,"ĠÙģØ§ÙĦ":4269,"ØŃÙĦÙĩ":4270,"ĠØŃÙĤØ§":4271,"ĠØŃØ§Ø¬":4272,"ĠØ¨Ø¹Ø´Ø±Ø©":4273,"ĠØ§ÙĦØŃØ±Ø§Ùħ":4274,"Ø¹ØªØ¯":4275,"ĠØ¨Ø§ÙĦØ°":4276,"ĠØ¨Ø§Ø³Øª":4277,"ĠÙĪØ¬ÙĪØ¨Ùĩ":4278,"ĠÙĦÙĦØ¯":4279,"ĠØ§ÙĦØºÙĦØ©":4280,"ĠÙħØªÙģÙĤ":4281,"ĠØ£Ø®Ø°Øª":4282,"ĠØ¨Ø±Ø¦":4283,"ĠÙħØ±Ø¶Ùĩ":4284,"ĠØ§ÙĦÙĤØ¯Ø±Ø©":4285,"ÙĪØ¶Ø§":4286,"ÙĦÙĪÙģ":4287,"ĠØ£ÙĪØ¬Ùĩ":4288,"ĠØ§ÙĦØ£ÙĪØ¬Ùĩ":4289,"Ø³ØªØ£Ø¬Ø±":4290,"ĠØ§ÙĦØ¹ÙģÙĪ":4291,"ĠØ®ÙĦÙĬÙĦ":4292,"ĠØ§ÙĦØ¨ÙĬÙĩÙĤÙĬ":4293,"ĠØ¨Ø§ÙĦØ¶":4294,"ĠØ§ÙĦÙĨØ§Ø±":4295,"Ø¨Ø§Ùĩ":4296,"ĠÙĪØ£Øµ":4297,"ĠØ£Ø®Ø¨Ø±Ùĩ":4298,"ĠØ¶Ø§ÙħÙĨ":4299,"ĠÙħØªØ¬Ùĩ":4300,"ĠÙħÙĦÙĥÙĩØ§":4301,"ĠØ§ÙĦÙĬÙħÙĨ":4302,"ĠÙĪØ¬Ø¯Øª":4303,"Ø¨Ø³ÙĪØ·":4304,"ĠÙģÙĤØ§ÙĦØª":4305,"ĠÙĪØ§ÙĦØ«Ø§ÙĨÙĬ":4306,"ĠÙħØ±ÙģÙĪØ¹Ø§":4307,"ØªÙħØ¹":4308,"ĠÙħÙĪÙĤ":4309,"ØµØ·":4310,"ĠØ¥Ø´":4311,"Ø´Ùī":4312,"Ø²ÙĬØ¯":4313,"ĠÙĦØ§ÙĨØª":4314,"Ø±ÙĩÙĪÙĨ":4315,"Ø¯ÙĬÙħ":4316,"ØªÙĤØ¶":4317,"ĠÙħØ³Ø§Ø¦ÙĦ":4318,"ĠÙĬØ£Ø°ÙĨ":4319,"ĠØ¨ØŃØ³Ø¨":4320,"ÙĤØ¨ØªÙĩ":4321,"ĠØ¢Ø¯Ùħ":4322,"ĠØ§ÙĦÙĥÙģØ§Ø±":4323,"ĠØ¨Ø§ÙĦÙģØ¹ÙĦ":4324,"ĠØ´ÙĩØ§Ø¨":4325,"ĠÙĨØ¸Ø±Ø§":4326,"ĠÙħÙĬØªØ©":4327,"ĠÙĪØ±Ø«ØªÙĩ":4328,"Ø§Ø¹Ø§":4329,"ÙĪÙĬØ¯":4330,"ÙĦØ¸":4331,"ĠÙĪØ±Ø¨":4332,"ĠØ¨Ø¨Ø¹Ø¶":4333,"ĠØ¹ÙĪÙģ":4334,"ĠÙģÙĬÙĦØ²ÙħÙĩ":4335,"Ø²ÙĦÙĩ":4336,"ĠÙħØ¹ÙĬÙĨØ©":4337,"ĠÙĦØ£ÙĩÙĦ":4338,"ĠØ¨Ø§ÙĤ":4339,"ĠØ§ÙĦØµÙĪØ±Ø©":4340,"ØµØ¯ÙĤÙĩ":4341,"ĠØ§ÙĦØŃÙĬÙĪØ§ÙĨ":4342,"ĠÙĦØ®Ø¨Ø±":4343,"ĠØµØºÙĬØ±Ø©":4344,"ĠØ§ÙĦØªØ³ÙĦÙĬÙħ":4345,"ĠÙħÙĤØ§ÙħÙĩ":4346,"ĠØ£ÙģØ§Ø¯Ùĩ":4347,"ĠØ§ÙĦÙħØ¹Ø§":4348,"ĠØ£ÙĪØ¬Ø¨":4349,"ĠØ³Ø£ÙĦ":4350,"ĠØ§ÙĦØŃØ§ÙĦÙģ":4351,"ĠØ§ÙĦØ´ÙģØ¹Ø©":4352,"ĠÙĬØªØ£":4353,"ĠØ§ÙĦØ°Ø¨ØŃ":4354,"ĠØ¹Ø¨Ø§Ø¯Ø©":4355,"ĠØ§ÙĦØ£Ø³ÙĪØ¯":4356,"ĠÙħØ®Øª":4357,"ĠØ§ÙĦÙħØ§ÙĨØ¹":4358,"ĠØªÙĪÙĤÙģ":4359,"ÙĦÙĪØ©":4360,"ĠØ±Ø¨ÙĬØ¹Ø©":4361,"ĠØµÙĨØ¹":4362,"ĠØ§ÙĦØŃÙĬØ§Ø©":4363,"ĠØ¯ÙĨØ§ÙĨÙĬØ±":4364,"Ø±Ø¬ÙĪØ¹":4365,"ÙĪÙħØ¹":4366,"ĠØ·Ø±Ùģ":4367,"ĠØºØ§ÙĬØ©":4368,"ÙĪØ§ÙĦØµ":4369,"Ø§ØªÙħ":4370,"ĠØ´Ø±Ø·Ø§":4371,"ĠØ¨Ø§ÙĦØ£ÙĪÙĦÙī":4372,"ĠØ§ÙĦØ¸ÙĨ":4373,"ĠØ¹ÙħÙĦØ§":4374,"ĠÙĪØ´Ø±Ø·":4375,"ĠØ§Ø³ØªØŃÙĤØ§ÙĤ":4376,"ĠØ£Ø±Ø¶Ø§":4377,"ĠØ¨Ø«ÙħÙĨ":4378,"ĠØ§ÙĤØªØµØ±":4379,"ĠØ§ÙĦÙĨÙĩÙĬ":4380,"Ø³ÙĨØ§Ø¯":4381,"ĠÙħØ¶":4382,"ĠÙģÙĪØ¬Ø¨":4383,"ÙĥØ¨Ø±":4384,"Ø£ÙħÙĨ":4385,"ĠÙĥÙĦØ¨":4386,"ĠÙĥØ°Ø¨":4387,"ĠØªØ³ÙħØ¹":4388,"Ø§ÙĦØ´":4389,"ĠØ³ÙĥØª":4390,"ĠÙħØ¹Ø±ÙĪÙģ":4391,"ĠØ§ÙĦÙģØ±Ø¬":4392,"ĠØ§ÙĦØ®ÙĦØ¹":4393,"ÙĪØ±Ø¯":4394,"ĠØ£ØŃØ¯Ø«":4395,"ĠØ§ÙĦØ±ÙĤ":4396,"ĠÙĦÙĦÙħÙĪÙĦÙī":4397,"Ø®Ø±Ø¬Ùĩ":4398,"ĠØ£Ø±Ø¨Ø¹ÙĬÙĨ":4399,"ĠØ¨ØµÙģØ©":4400,"ĠÙĨØ¬Ø§Ø³Ø©":4401,"ĠÙħÙĥØ§ÙĨÙĩ":4402,"ĠÙĦÙĦÙħØ³ÙĦÙħÙĬÙĨ":4403,"ÙĬØ¦Ø©":4404,"ÙħØ«":4405,"ÙħØ¯Ùĩ":4406,"ĠÙħØµØ±":4407,"ĠÙĬÙģØ³Ø®":4408,"ĠÙĤØ§Ø±":4409,"ÙĦÙĬØª":4410,"ÙĦÙĬÙĦØ§":4411,"ĠÙĥØ³Ø±":4412,"ĠÙĨÙĬØªÙĩ":4413,"ĠØ³ÙģØ±":4414,"ĠØ§ÙĦÙĤØ°Ùģ":4415,"ĠØ§ÙĦÙģØ±Ø¹":4416,"ÙĤØ·Ø§Ø¹":4417,"ĠÙĬÙĨÙĤØ¶":4418,"ĠØ±Ø¬ÙĪØ¹Ùĩ":4419,"ĠØ¨Ø£ÙħØ±":4420,"ĠØ¹ÙĦÙĬÙĨØ§":4421,"ÙĦØ¹Ø§ÙĨ":4422,"ĠØ¥Ø³ÙĤØ§Ø·":4423,"ĠØŃØ§ÙĦØ§":4424,"ĠÙħÙħÙĦÙĪÙĥ":4425,"Ø±Ø¨ÙĬ":4426,"ÙħÙĥ":4427,"ĠÙħÙĥÙĦÙģ":4428,"ĠÙģÙĪÙĦØ¯":4429,"ĠØ¹ÙĩØ¯":4430,"Ø³Ø§Ø¨":4431,"ØŃÙħÙĦ":4432,"ÙĥØ³Ø±":4433,"ĠÙĤØ¶ÙĬØ©":4434,"ÙĦÙĬØ«":4435,"ĠØªÙĪØ¶Ø£":4436,"ÙĩØ§Ùħ":4437,"ĠØ±ÙĤØ¨ØªÙĩ":4438,"ĠÙĩØ°ÙĬÙĨ":4439,"ĠØ§ÙĦØ£Ø®Øª":4440,"ĠØ§ÙĦØ¹Ø§Ùħ":4441,"ĠØ§ÙĦØŃÙĦÙĤ":4442,"ĠØ§ÙĦØŃØ§ÙĦØ©":4443,"Ø±Ø¨Ùĩ":4444,"Ø±Ø¨Ø¹ÙĬÙĨ":4445,"ÙĪÙĬØ¬Ø¨":4446,"ĠÙĪØ¬Ø¯Ùĩ":4447,"ĠØ§ÙĦØ§ÙĤØª":4448,"ĠØªØ¹ÙħØ¯":4449,"ĠÙĪÙĦØ¯Ø§":4450,"ĠØ£ØµØ¨Øº":4451,"ĠØ§ÙĦÙħØ¹ÙĦÙĤ":4452,"Ø¨Ø§Ø±ØªÙĩ":4453,"ĠÙħØ³ÙĦÙħØ©":4454,"ĠØ£ÙĩÙĦÙĩØ§":4455,"ĠØ§ÙĦØªØ¹ÙĦÙĬÙĤ":4456,"ĠÙĬØ±Ø¯Ùĩ":4457,"ĠÙĤØ±ÙĬØ¨Ø§":4458,"Ø§ÙĦØ¬ÙĪØ§Ø¨":4459,"ĠØ²ÙĬØ§Ø¯":4460,"ÙĬØ§Ø¡":4461,"ĠØ§Ø´ØªØ±ÙĬ":4462,"ĠØ¨Ø±Ø¯":4463,"ĠØ¨ÙĪØ·":4464,"ĠØ¨ÙĦÙĪØº":4465,"ÙĦØ§ØµØ©":4466,"ĠÙĤÙĪÙĦØ§ÙĨ":4467,"ĠØªØºÙĬØ±":4468,"ĠØ§ÙĦÙĦØ¨ÙĨ":4469,"ÙĨØ§ÙĩØ§":4470,"ĠØ°Ø§Ùĥ":4471,"ĠØ«ÙħØ±":4472,"ĠØ®Ø§":4473,"ĠØ§ÙĦØ´ÙĩÙĪØ¯":4474,"ĠØ§ÙĦØ«ÙħØ±Ø©":4475,"ĠØ§ÙĦØ§Ø®Øª":4476,"ĠØ§ÙĦØºØ±ÙĬÙħ":4477,"ÙĪØ§ÙĦØ¯":4478,"ĠÙģØ£Ø®Ø°":4479,"ĠØ¨Ø¥ÙĤØ±Ø§Ø±Ùĩ":4480,"ĠØ¨ÙĤÙĬÙħØªÙĩ":4481,"Ø±Ø§Ø¬ØŃ":4482,"ĠÙĬØ·Ø§ÙĦØ¨":4483,"ÙĬØ§ÙĨØ©":4484,"ĠÙĪÙĬØ±Ø¬Ø¹":4485,"ĠØ§ÙĦÙħÙģÙĦØ³":4486,"ĠÙĤØµØ¯Ùĩ":4487,"ĠØ§ÙĦÙħØ´ØªØ±Ùĥ":4488,"ÙĥÙģÙĬ":4489,"ĠÙģÙĬØµØŃ":4490,"Ø·ÙĦØ¨":4491,"ĠØªÙĨØ§":4492,"ĠØ«ÙĬØ§Ø¨":4493,"ĠØ¯Ø§Ùħ":4494,"ĠØ§ÙĦØªÙĨ":4495,"ĠØ§ÙĦÙĨØ³Ø®":4496,"ĠØ·ÙĦØ§":4497,"ĠØ§ÙĦØ³Ø±":4498,"ĠØ£Ø®ÙĬÙĩ":4499,"ĠÙĪÙĥÙĬÙĦ":4500,"ØªÙĬØ§ÙĨ":4501,"ĠØ¨Ø§ÙĦØŃØ¬":4502,"ĠÙĦØ¬ÙĪØ§Ø²":4503,"ĠØ§Ø¬ØªÙħØ¹":4504,"ĠØ«Ø§ÙĨÙĬØ§":4505,"ĠÙĪÙĦØ£":4506,"ĠØ¨Ø«Ùħ":4507,"ĠÙģØ§Ø´Øª":4508,"ĠØªØ±Ø¯":4509,"ĠØµØ§Ø¹":4510,"Ø¨ÙĬØ¯":4511,"ĠØ¨Ø¹ÙĬØ¨":4512,"ĠØ«ÙĤØ©":4513,"ĠØ§ÙĦÙĦÙĩÙħ":4514,"ÙĪØ§Ø¯":4515,"ĠØ®ÙĬØ±Ø§":4516,"ÙĪØ¬ÙĪØ¨":4517,"ĠØ§ÙĦØªØ´":4518,"ĠØ§ÙĦØ¥Ø±Ø«":4519,"ÙĪÙĬÙĥØ±Ùĩ":4520,"ÙĦØ£ÙĨÙĩÙħØ§":4521,"Ø±ÙħÙĬ":4522,"Ø¹ÙĬØ§ÙĨ":4523,"ĠØ§ÙĦØ·ÙĪØ§Ùģ":4524,"ĠØ£Ø´ÙĩØ¯":4525,"ĠÙĤØ§ÙħØª":4526,"ÙĨØ²ÙĬØ±":4527,"ĠØ§ÙĦØŃÙĨØ·Ø©":4528,"ĠÙģØ²":4529,"ĠÙģØ®Ø±Ø¬":4530,"ÙģÙĦØ©":4531,"ĠÙĬØ¨ÙĬØ¹Ùĩ":4532,"Ø°Ùī":4533,"ĠØ§ÙĦÙħÙĥÙģÙĪÙĦ":4534,"ĠØ§ÙĦØŃØ¨Ø³":4535,"ĠÙĤÙĪÙĦÙĩØ§":4536,"Ø§Ø¦Ùģ":4537,"ĠÙĦÙĦØ¢Ø®Ø±":4538,"ĠÙĬØªØµØ¯ÙĤ":4539,"ÙĪØ±ÙĪØ§Ùĩ":4540,"ĠÙĤØ¯ÙħÙĩ":4541,"ĠØ§ÙĦØ±Ø²":4542,"ØŃÙĬØ¶":4543,"ĠØ§ÙĦÙħØ³ÙĬØ¨":4544,"ĠÙĪØ³ÙĪØ§Ø¡":4545,"ĠØ¨Ø§ÙĦØ¹ÙĤØ¯":4546,"ĠØªÙħÙĦÙĥ":4547,"ÙĤØ¶Øª":4548,"Ø§ÙĦØºØ©":4549,"ĠØ¥ØŃØ±Ø§ÙħÙĩ":4550,"ĠØ§ÙĦØ´Ø±ÙĬÙĥ":4551,"ĠÙĪØ¹Ø¯ÙħÙĩ":4552,"ÙĪÙĪÙĬ":4553,"ÙĪØµØŃ":4554,"ÙĪÙĤØ§":4555,"ĠØ£Ø¸ÙĩØ±":4556,"ĠÙħÙĪØ¬Ø¨":4557,"ĠØ¨Ø±ÙĤ":4558,"ĠÙģÙĬÙĤÙĪÙĦ":4559,"ĠØ§ÙĦÙħÙĥØ§ÙĨ":4560,"ĠØ§ÙĦÙħØ®ØªØ§Ø±":4561,"ĠØªÙĥØ±":4562,"Ø±Ø§Ø¬Ùĩ":4563,"ĠØ¬ÙĦØ³":4564,"ĠÙĪØ§Ø¹Øª":4565,"Ø§Ø¦ÙģØ©":4566,"ÙģÙĬÙĥÙĪÙĨ":4567,"Ø¡ÙĪØ³":4568,"ĠØ·ÙĪØ§Ùģ":4569,"ĠÙĬÙĨÙĪÙĬ":4570,"ĠØ§Ø³ØªØ¦":4571,"ĠØ¨Ø¯Ø§Ø±":4572,"ĠÙĪØŃÙĥÙħ":4573,"ĠÙĦÙĦØ£Ùħ":4574,"ĠØªÙĤØ¹":4575,"ĠØ£Ø®Ø¨Ø±ÙĨÙĬ":4576,"Ø§Ø¤ÙĩØ§":4577,"ĠØ±ÙĩÙĨØ§":4578,"ĠØ§ÙĦÙģØ±ÙĪØ¹":4579,"ÙħÙĨÙĩØ§":4580,"ĠÙģØ§Ø¯":4581,"ĠÙģÙĤÙĬÙĦ":4582,"Ø³ÙĦÙĬÙħ":4583,"ĠÙĬØ±Øª":4584,"ØŃÙĤ":4585,"ĠÙĤØ¶":4586,"ĠØ¥Ø±Ø«":4587,"ĠØ´Ø±ÙĥØ©":4588,"Ø±Ø§Ø³":4589,"ĠØ¨ÙĨÙī":4590,"ĠØ¬Ø¯Ø§":4591,"ÙĪØ§Ø¹":4592,"Ø¹ØªÙĤØª":4593,"ĠØ§ÙĦØ´Ø®Øµ":4594,"ÙĪØ±ØªÙĩ":4595,"ĠÙĪÙĥÙĬØ¹":4596,"ĠÙĬÙĨÙĥØ±":4597,"ĠØ§ÙĦØ¶Ø±Ø¨":4598,"ĠØ§ÙĦØ¢Ø¯ÙħÙĬ":4599,"ĠÙĪÙĥØ§ÙĨØª":4600,"ĠØªØµØ±ÙģÙĩ":4601,"ĠØ¨Ø§ÙĦØ®ÙĬØ§Ø±":4602,"ÙĪØ¡Ø©":4603,"ÙĪØ§ÙĦÙģØ±ÙĤ":4604,"ÙĨØªÙĩ":4605,"ĠÙĬØ¨Ø¹Ø¯":4606,"ĠÙĤØ§Ø¦Ùħ":4607,"ĠØ§ÙĦÙħØ§Ø¦":4608,"ĠÙħÙĨØ§ÙģØ¹":4609,"ĠÙĨØ¯Ø¨":4610,"ĠØµÙĨ":4611,"ĠØ®Ø§Ùģ":4612,"ĠÙħØ¹Ø¯":4613,"Ø±ÙĬÙĥ":4614,"ÙĪØ±Ø«Ùĩ":4615,"ĠÙĪÙħØ«ÙĦ":4616,"ÙĪØ³ÙĪØ§Ø¡":4617,"ÙĪØ³Ø¦ÙĦ":4618,"ĠØ§ÙĦÙħØªØ£Ø®Ø±":4619,"ĠÙĬØ³Ø£ÙĦ":4620,"ĠÙĬØ¤ÙĥÙĦ":4621,"ÙĪØ§Ø¨ÙĨ":4622,"Ø®ØµÙĬØµ":4623,"ĠØ§ÙĦØ¢ÙħØ±":4624,"ĠÙĥØ³Ø§Ø¦Ø±":4625,"ĠØ§ÙĦÙĪØ¬ÙĩÙĬÙĨ":4626,"ĠØ¬ÙħØ¹Ø©":4627,"ÙģØµÙĬÙĦ":4628,"ĠØ§ÙĦÙĨÙĩØ±":4629,"ĠØ§ÙĦØ®ØµÙħ":4630,"ĠÙħÙĤØ§Ø¨ÙĦØ©":4631,"ÙĦØ¥":4632,"ĠÙħØ¨Ø§ØŃ":4633,"ĠÙħØ¨ØªØ¯Ø£":4634,"ĠØ¨Ø®Ø±":4635,"ĠÙĤÙĦÙĬÙĦ":4636,"ĠÙĥØ§ÙĦÙĤ":4637,"ĠÙħÙĨØ°":4638,"Ø§Ø±Ø¹Ø©":4639,"ĠÙĨÙģØ°":4640,"ĠØ´Ø¯":4641,"ÙģØ¹Ø§ÙĦ":4642,"ĠÙĦÙĦØ·":4643,"ĠØºØ²":4644,"ÙĤÙĦÙĨØ§":4645,"ĠØªØ¹ÙĦÙĬÙĤ":4646,"ÙĪØ³ÙĬ":4647,"ĠØ§ÙĦØ·ÙĦØ¨":4648,"ĠÙĪØ§ÙĦØ±":4649,"ĠÙĪØ³ÙĬØ£ØªÙĬ":4650,"ĠÙģÙĥØ°Ø§":4651,"ĠØ¨Ø§ÙĦØ¹ÙĬØ¨":4652,"ĠÙĦÙĨØŃÙĪ":4653,"ĠÙĥÙĦÙĩÙħ":4654,"ĠØ§ÙĦÙħØ´ÙĩÙĪØ¯":4655,"ĠÙĥØ«ÙĬØ±Ø©":4656,"ĠÙĪØ§Ø±Ø«Ùĩ":4657,"ĠØ§ÙĦÙĪÙĤÙĪÙģ":4658,"ĠØ¸Ø§ÙĩØ±Ø§":4659,"Ø¯ÙĦØ©":4660,"ØªØ³ÙĦ":4661,"ĠÙĪØ¨Ø¹Ø¶":4662,"ĠÙģÙĦØ£ÙĨ":4663,"ĠØ¹Ø¶ÙĪ":4664,"ÙģÙħØ§":4665,"ÙģØ§Ø¦Ø¯Ø©":4666,"ĠÙĬØ±Ø¬":4667,"ĠØ§ÙĦÙħÙĪØ¯Ø¹":4668,"ĠØ¥ØªÙĦØ§Ùģ":4669,"ĠØŃÙģØ±":4670,"ĠØ§ÙĦØ£Ø®ÙĬØ±":4671,"ĠØ¨Ø¹Øª":4672,"ĠØ¨Ø¹ØªÙĤ":4673,"ĠÙĦÙĬØª":4674,"ĠØ§ÙĦØ®ÙħØ³Ø©":4675,"ÙĦØ§ÙħØª":4676,"ĠØ¨Ø¯ÙĨÙĩ":4677,"ĠÙħØªØ¹":4678,"ĠÙħØªØ¹Ø¯":4679,"ĠÙģØ¹ÙĦØª":4680,"ĠÙĦØªØ¹":4681,"ĠØ¨Ø·ÙĦØ§ÙĨ":4682,"ĠÙģØ±Øº":4683,"ĠØ¨Ø§ÙĦØ¥Ø¬ÙħØ§Ø¹":4684,"Ø±Ø§Ø¨ØŃØ©":4685,"ĠØŃØ¨Ø³Ùĩ":4686,"ĠØ¹Ø§ÙĦÙħØ§":4687,"Ø¨Ùī":4688,"Ø¯Ø±Ø©":4689,"ĠÙħÙĪØ¬ÙĪØ¯":4690,"ĠØ¨ÙĤØ¯":4691,"ÙģÙģÙĬ":4692,"ĠÙĬÙģØ¹ÙĦÙĩ":4693,"ØŃÙħ":4694,"ØŃØ¨":4695,"Ø°ÙģÙĩ":4696,"ØµÙĦØ©":4697,"ĠØ¥Ø´Ø§Ø±Ø©":4698,"Ø®Ø§ÙĦÙģ":4699,"Ø´ÙĪÙĨ":4700,"ĠØ¬Ø§ÙħØ¹":4701,"ØºØ³ÙĦ":4702,"ĠØ§ÙĦØ¨ÙĬØ§ÙĨ":4703,"ĠØ§ÙĦØªÙĥ":4704,"ĠØ§ÙĦØªØ¯Ø¨ÙĬØ±":4705,"ÙĪÙħÙĨÙĩ":4706,"ÙĤØªØ¶ÙĬ":4707,"ĠØºØµ":4708,"ĠÙĪÙĥÙĦÙĩ":4709,"ĠÙĬÙĨØ²ÙĦ":4710,"ĠØ§ÙĦØ°ÙĩØ¨":4711,"Ø¯Ø§Ùĩ":4712,"ĠØ¨Ø¥Ø³":4713,"ĠÙħØ¤Ø¬":4714,"ĠØŃÙħÙĬØ¯":4715,"ĠØŃÙħÙĦÙĩØ§":4716,"ĠÙĦÙĦÙĪØ±Ø«Ø©":4717,"ĠØ§ÙĦØ±ÙĥÙĪØ¹":4718,"ĠØ¬Ø§ÙĨØ¨":4719,"ÙĬØ¶Ø§":4720,"Ø±ÙĪØ§Ùĩ":4721,"ĠÙħØ¸":4722,"ÙĦØ§Ùĩ":4723,"ÙĥØ±ÙĬ":4724,"ĠØªØ¬Ø¯":4725,"ĠØªØ°ÙĥØ±":4726,"Ø´ÙħÙĦ":4727,"ĠØ§ÙĦØ£Ø±Ø¨Ø¹":4728,"ĠØ§ÙĦØ¹Ùħ":4729,"ĠØ§ÙĦØŃÙħ":4730,"ĠØ«ÙĪØ§Ø¨":4731,"ĠØ®ÙħØ±":4732,"ĠØ¨Ø§ÙĦØ§Ø³Øª":4733,"ÙĪÙĬÙĥÙĪÙĨ":4734,"ÙĦØ²ÙĪÙħ":4735,"Ø³Ø¨Ø¨Ùĩ":4736,"ĠÙħØ§ÙĦÙĥÙĩ":4737,"ĠØ¨ØŃØ§ÙĦ":4738,"ĠÙĬÙĪÙħØ¦Ø°":4739,"ĠØ§ÙĦÙħØŃØ±Ø±":4740,"Ø¶ÙħÙĨÙĩ":4741,"ĠØ¨Ø§ÙĦØ¨ÙĬÙĨØ©":4742,"ĠÙĦÙĦÙĤØ§Ø¶ÙĬ":4743,"ĠÙĪÙĨØŃÙĪÙĩÙħØ§":4744,"ĠÙĤØ±ÙĬÙĨØ©":4745,"ĠÙħÙĬØªØ§":4746,"ÙĪØŃØ©":4747,"Ø¨Ø¨":4748,"ØªÙħØ§Ùħ":4749,"ĠØ§ÙĦÙħÙĩ":4750,"ĠØ¥Ø¹Ø§Ø¯Ø©":4751,"Ø«ÙĦØ©":4752,"ĠØ§ÙĦÙĦÙĤ":4753,"ĠØ´Ø¹ÙĬØ¨":4754,"ĠØ¬Ø±ÙĬØ¬":4755,"ĠØ§ÙĦØªØ±ÙħØ°ÙĬ":4756,"ĠØ§ÙĦØ³ÙĨ":4757,"ĠØ§ÙĦÙĥÙĦØ¨":4758,"Ø®ØªØ§Ø±Ùĩ":4759,"ĠÙĤØ¯Ø±Ùĩ":4760,"ĠØ§ÙĦØ±ÙģØ¹Ø©":4761,"ĠÙĪÙĤØ¨":4762,"ÙĬØ¨ØªÙĩ":4763,"ĠØ§ÙĨÙĤØ¶Ø§Ø¡":4764,"ÙĦØ¹Ø¯Ùħ":4765,"ĠØ¨ØŃØ«":4766,"ĠØ¨ØŃØ«Ùĩ":4767,"ĠÙĪÙĤØªÙĩØ§":4768,"ĠÙĬØ¬Ø²Ø¦Ùĩ":4769,"ĠÙħÙħÙĨÙĪØ¹":4770,"ĠØ£Ø³ÙĦÙħØª":4771,"ĠØ§ÙĦØ£ÙħØ±ÙĬÙĨ":4772,"ĠØ§ÙĦØ®Ø·Ø£":4773,"ĠØ¬Ø§Ø¡Øª":4774,"ĠÙĬØ¹ØªÙĤØ¯":4775,"ĠØªÙĦÙģØª":4776,"ĠÙĦÙĦØ³ÙĬØ¯":4777,"ĠØ£Ø±Ø³ÙĦ":4778,"ĠÙĨÙĩÙī":4779,"ĠØ§ÙĦØ¯Ø¹ÙĪÙī":4780,"ĠÙĬÙħÙĨØ¹Ùĩ":4781,"ÙħØŃ":4782,"ÙħØ¹Ø©":4783,"Ø¨ÙĪØªÙĩ":4784,"Ø¯Ø±Ø§Ùĥ":4785,"ĠÙģØ§ÙĦØŃ":4786,"ĠØ¹Ø§ØµÙħ":4787,"ĠÙĥØ¨Ø±":4788,"ĠÙħÙĨØ¯":4789,"Ø§ÙĨØªÙĩÙī":4790,"ĠØ§ÙĦØ±Ø¶Ø§":4791,"ĠØ§ÙĦØ±Ø¶Ø§Ø¹":4792,"ĠØ£ÙĨÙģØ³":4793,"ĠØ¯ÙĦ":4794,"ĠÙħØ¹ØµÙĬØ©":4795,"ĠÙĪØ§ÙĦØ§Ø³Øª":4796,"ĠØ¨Ø§ÙĤÙĬ":4797,"ĠØ§ÙĦÙĨÙĪÙĪÙĬ":4798,"ĠÙĥÙħØ§ÙĦ":4799,"ĠØ§ÙĦÙĥØ¨ÙĬØ±":4800,"ĠØ§ÙĦÙĥÙħØ§ÙĦ":4801,"ÙĥØ§ØªØ¨Ø©":4802,"ĠÙĬÙĨØ¹ÙĤØ¯":4803,"ÙĪØªÙĤØ¯Ùħ":4804,"ĠÙĤØ¨ÙĦØª":4805,"ĠÙħØ±ØªÙĬÙĨ":4806,"ĠØ£Ø´Ø¯":4807,"ĠÙĤØ§Ø¶ÙĬ":4808,"Ø§Ø´Ùħ":4809,"ĠØ³Ø¨Ø¨Ùĩ":4810,"ĠØ§ÙĦØ±Ø¬Ø§ÙĦ":4811,"ĠÙĨØµÙģÙĩØ§":4812,"ĠØ¨Ø§ÙĦÙĤÙĬÙħØ©":4813,"ĠØ±Ø¨ÙĩØ§":4814,"ĠØ´Ø±Ø¹ÙĬ":4815,"ĠØ§ÙĦØªØ¹ÙĦÙĬÙĦ":4816,"Ø¶Ø§ÙĨØ©":4817,"ĠØ¥Ø¨Ø·":4818,"ĠÙĪØ¶Ø¹Ùĩ":4819,"ÙħÙĨØ§":4820,"ØªØª":4821,"Ø¹ØªÙĩ":4822,"ĠÙĪØ±Ø¬":4823,"ĠÙħÙĪØµ":4824,"ĠÙħÙĬØ±Ø§Ø«":4825,"ĠØ¨ÙĪÙĦØ¯":4826,"ĠÙģÙĪØª":4827,"ĠÙģÙĤØªÙĦÙĩ":4828,"ÙĥÙĨÙī":4829,"Ø°Ø±Ø§":4830,"ØµÙĪÙħ":4831,"Ø®Ø±Ø©":4832,"ĠØŃØ±Ùģ":4833,"Ø²ÙħØ©":4834,"ĠÙĨØ§Ùģ":4835,"ĠØ¹ÙĨÙĬ":4836,"ĠØ§ÙĦØ¹ÙĤÙĦ":4837,"ĠØ§ÙĦÙĪØµÙģ":4838,"Ø¸Ø©":4839,"ĠÙĪØ£ÙĤØ§Ùħ":4840,"ÙĬØ§Ø·":4841,"ÙģØ§Ø³":4842,"ĠÙĪÙĤÙĪØ¹Ùĩ":4843,"ĠÙĦÙĥÙĪÙĨ":4844,"ĠØ§ÙĦÙħØ³Ø§Ø¦ÙĦ":4845,"ĠÙĬØ´Ø¨Ùĩ":4846,"ĠØ¨ÙĤÙĬÙħØ©":4847,"ĠÙĬØºØ³ÙĦ":4848,"ĠØ§ÙĦØ®Ø·Ø¨Ø©":4849,"ĠØ¬Ø§Ø¦Ø²Ø©":4850,"ĠÙģØ§Ø³Ø¯Ø§":4851,"Ø§Ø·Ø¨":4852,"ÙĪÙĦØ¹ÙĦ":4853,"ÙĤØ±Ø©":4854,"ĠÙģØ£ÙĪ":4855,"Ø³Ø±Ø§":4856,"Ø¬ÙĦØ³":4857,"Ø£ÙĨØ§":4858,"Ø§ÙĦØ·":4859,"ĠØ§ÙĦØ¹Ø¨Ø§Ø¨":4860,"ĠØ§ÙĦØ´Ùĥ":4861,"ĠØ§ÙĦØ´ÙģÙĬØ¹":4862,"ĠØ´ÙĬØ¨Ø©":4863,"ĠÙĪÙĥØ³Ø±":4864,"ÙĪØ§ÙĦØ¸Ø§ÙĩØ±":4865,"ĠÙĬØ®Ø§Ùģ":4866,"Ø§ØªØŃØ©":4867,"ĠØ§ÙĦÙĩÙħ":4868,"ĠØ®ÙħØ³ÙĬÙĨ":4869,"ĠÙģØ±Ø§Øº":4870,"ÙĬØ³Ùī":4871,"ĠØ§ÙĨØªÙĤÙĦ":4872,"ĠØ§ÙĦÙĨØ¬Ø§Ø³Ø©":4873,"Ø§ÙħØ©":4874,"ÙĬØ³Ø±":4875,"ÙħØŃÙħØ¯":4876,"ĠÙĬØ¸ÙĨ":4877,"ØŃØ³ÙĨ":4878,"Ø¬Ø±Ùĩ":4879,"ĠØ§ÙĦØ±Ø¨Ø¹":4880,"ĠØ³ÙħÙĬ":4881,"ÙĦÙģØ©":4882,"ĠØ§ÙĦØ¹ÙĪØ¯":4883,"ĠØ§ÙĦØ¹Ø¨Ø§Ø±Ø©":4884,"ĠØ¨Ø¹ÙĬÙĨ":4885,"ĠØ¯Ø¨Ø±":4886,"ĠØ§ÙĦÙĤØ¨Ø±":4887,"ĠÙĦØ£ÙĤÙĦ":4888,"ĠØ§ÙĦØ¨ÙĨØª":4889,"ÙģØ¹ÙĦÙī":4890,"Ø§ÙħØ³":4891,"ÙĪØ¹Ø¨Ø§Ø±Ø©":4892,"ĠØ·Ø±Ø£":4893,"ĠÙĪÙĬØµØŃ":4894,"ĠØ§ÙĦÙģÙĤØ±Ø§Ø¡":4895,"Ø³ÙħØ¹Øª":4896,"ÙĤØ§ÙĤÙĩ":4897,"ÙģØ§Ùĩ":4898,"ĠØ¨Ø£Ø¬Ø±Ø©":4899,"ĠÙĬØ£Øª":4900,"Ø±Ø£Ø³":4901,"Ø²ÙĪØ¬Ø©":4902,"Ø¨Ø§Ø±Ùĥ":4903,"ĠØ£ÙģØ·Ø±":4904,"ĠÙħØ¹Ø§Ø°":4905,"ĠÙĪØ¯ÙĬØ¹Ø©":4906,"ĠÙĪÙĦÙĦÙħ":4907,"ĠÙħØ¹ØªØ¨Ø±":4908,"ĠÙħØŃØªÙħÙĦ":4909,"ĠØ£ØµØŃ":4910,"ĠÙģÙĦÙĩØ§":4911,"ĠÙģØ±Ø¯":4912,"Ø¬Ø¨Ø±":4913,"ĠØ§ÙĦÙħØ§Ø¬":4914,"ĠØ§ÙĦÙħÙĥÙĦÙģ":4915,"ĠØŃÙĪÙĦ":4916,"ĠØ£ÙĨØ¨Ø£":4917,"ÙĦÙĤØ¯":4918,"ĠØ³ÙĩÙĦ":4919,"ĠØ´ÙħØ³":4920,"ĠØ¯Ø±Ø¬":4921,"ĠØ§ÙĦÙĤØ±Ø§Ø¶":4922,"ÙĪÙħØ«ÙĦÙĩ":4923,"Ø¨Ø±Ø¦":4924,"ĠØ§ÙĦØ¬ÙĨØ§Ø¨Ø©":4925,"ĠØ§ÙĦÙģØ³Ø§Ø¯":4926,"ĠØ§ÙĦØµØ±Ùģ":4927,"ĠÙĦØ£ÙĨÙĩÙħ":4928,"ĠÙĦÙĦÙħÙĬØª":4929,"ĠÙĬØ¯Ø±Ùĥ":4930,"ĠÙĦØ¹ÙĦ":4931,"ĠØªØŃØªÙĩ":4932,"ĠØªØŃØ±Ùħ":4933,"ĠÙĪØµÙĬ":4934,"Ø´ÙĬØ§Ø¡":4935,"ĠØ¨ØªØ±Ùĥ":4936,"ĠØ¢Ø¯ÙħÙĬ":4937,"ĠØ§ÙĦÙħØ¬ÙĨÙĬ":4938,"ĠØ§ÙĦÙħØ´Ø±Ùĥ":4939,"ĠÙģØ¬Ø¹ÙĦ":4940,"Ø§ÙĦØ£ÙĪÙĦ":4941,"ĠØŃÙĨØ¨ÙĦ":4942,"ÙĪØ§Ø±Ø«":4943,"ĠÙĪØ§Ø´Øª":4944,"ĠÙħØ±Ø§Ø¯":4945,"ĠØ¨Ø¦Ø±":4946,"ĠÙģÙĪØ¬Ø¯":4947,"Ø³ÙĪØ©":4948,"ØµÙĦØŃØ©":4949,"ĠÙģÙĬØµÙĬØ±":4950,"ÙĦÙĬÙħÙĩ":4951,"ĠØ£ÙĨÙĬ":4952,"ĠÙĨÙģÙĦØ§":4953,"ĠØ³Ø±":4954,"ĠØµÙĦØŃ":4955,"ĠØ¨Ø¹ÙĪØ¶":4956,"ĠØ§ÙĦÙĤÙĪÙĦÙĬÙĨ":4957,"ÙĥØ±ÙħØ©":4958,"ĠÙĬØªØºÙĬØ±":4959,"ĠÙĬØªØ¨ÙĬÙĨ":4960,"ĠÙĬØªÙħÙĥÙĨ":4961,"ĠÙĪÙĥÙĬÙĦÙĩ":4962,"ÙĪØ¨ØªÙĩ":4963,"Ø§Ø¬ÙĬ":4964,"ÙĨØ¹ÙĤØ¯":4965,"ĠØ§ÙĦÙħØ¯ÙĬÙĨ":4966,"ĠÙĨØ³ÙĬ":4967,"ĠØ§ØŃØªÙħØ§ÙĦ":4968,"ĠÙĬÙĨØªÙĤÙĦ":4969,"ĠØ§Ø®ØªÙĦÙģØ§":4970,"ĠÙģÙĦÙĦÙħ":4971,"ĠØ§ÙĦÙħØ§Ø¬Ø´ÙĪÙĨ":4972,"Ø§Ø¬Ø±":4973,"Ø§ÙĤÙĩ":4974,"ÙĬÙĤØ§Øª":4975,"ÙĩÙĨØ§":4976,"ĠØ£Ø«Ø¨Øª":4977,"ĠÙģÙĥÙĦ":4978,"ĠÙģØ§Ø±ÙĤ":4979,"ØµÙĦØ§ØŃ":4980,"ÙħØ§Ø¯":4981,"ĠÙĥØ´":4982,"ĠØ±Ø¤ÙĬØ©":4983,"ĠØ¬Ø§Ùĩ":4984,"ĠØ§ÙĦØŃØ¨":4985,"ĠØ§ÙĦÙĤÙĨ":4986,"ĠÙĬÙĤØ¶Ùī":4987,"ĠØ«ÙħÙĨÙĩØ§":4988,"ÙģØ±Øº":4989,"ĠØºØ§Ø¦Ø¨":4990,"ÙĪÙĩØ°Ùĩ":4991,"ĠØ±Ø¬ÙĦÙĬÙĩ":4992,"ĠØ¨Ø£ÙĤÙĦ":4993,"ĠØªØ¹ÙĬÙĬÙĨ":4994,"ĠÙģØ§ÙĦÙĤ":4995,"ĠØ§ÙĨØ¹":4996,"ĠØ°ÙĥØ±ÙĩØ§":4997,"ĠØŃÙĤÙĩØ§":4998,"ĠØªØ±ÙĥÙĩØ§":4999,"ĠØ§Ø¯Ø¹Ø§Ùĩ":5000,"ĠÙĦØ³ÙĬØ¯Ùĩ":5001,"ĠÙĪØ±ÙĪÙī":5002,"ĠÙħØ±Ø§Ø¯Ùĩ":5003,"ĠØ¨Ø²ÙĬØ§Ø¯Ø©":5004,"ĠØ¹ØµØ¨Ø©":5005,"ĠØ§ÙĦÙĪØ§ØŃØ¯Ø©":5006,"ĠÙĤØ§Ø¦ÙħØ§":5007,"ĠØ§ÙĦÙģØ§Ø³Ø¯":5008,"ĠØ§ÙĦÙģÙĤÙĩØ§Ø¡":5009,"ĠØ§ÙĦÙħØ¤ÙħÙĨÙĬÙĨ":5010,"ĠÙĨØ¯Ø¨Ø§":5011,"ĠØ¥Ø¬ÙħØ§":5012,"Ø§ÙĦØ§":5013,"ÙĪØ¶ÙĬ":5014,"Ø±ÙģØ¹":5015,"ĠØ§ØºØª":5016,"ØªÙĨ":5017,"ÙĤØ±Ø¶":5018,"ĠÙħÙĤØ¯Ùħ":5019,"ĠØ¨Ø±Ùĥ":5020,"Ø¬ÙĨ":5021,"ĠØ§ÙĦÙħÙĬØ±Ø§Ø«":5022,"ĠØ§ÙĦÙħØ±ÙĩÙĪÙĨ":5023,"ĠÙħÙĨÙĥØ±":5024,"Ø®ÙĦØ©":5025,"ĠØªÙĬÙħÙħ":5026,"ĠÙĤÙĪÙĦÙĩÙħØ§":5027,"ĠØ§ÙĦÙĪØ¶Ø¹":5028,"ĠÙĪØ§ÙĦØ¸Ø§ÙĩØ±":5029,"ĠØ§ÙĦØ¥ÙĤ":5030,"ĠØ§ÙĦØ¥ØŃ":5031,"ĠÙĪÙĬØ³":5032,"ĠØ§ÙĦÙģØ±Ø³":5033,"ĠÙħØŃØ¶":5034,"ĠØ§ÙĦÙĥØ§Ùģ":5035,"ĠØ¸ÙĩÙĪØ±":5036,"ĠÙĬØ³Ø§Ø±":5037,"ĠÙĬÙĪÙħÙĬÙĨ":5038,"ĠØ£Ø±Ø¨Ø¹Ø§":5039,"ĠØªØ±ÙĥØªÙĩ":5040,"ĠÙģØ³Ø§Ø¯":5041,"ĠÙģÙĥØ³Ø±":5042,"ĠØ³ØªØ±":5043,"ĠØ§ÙĦØ§Ø³ØªØ¨Ø±Ø§Ø¡":5044,"ĠÙĨÙĥØ§ØŃÙĩØ§":5045,"ĠØ£Ø¨Ø§Ùĩ":5046,"ĠØ±ÙħÙī":5047,"ĠØ®ØµÙĪØµ":5048,"ÙĬÙĦØ§Ø¯":5049,"ĠØ§ÙĦØ§Ø³ØªØŃÙĤØ§ÙĤ":5050,"Ø¹ÙĦÙĬÙĩ":5051,"ĠÙħØ¨Ø§":5052,"ÙģÙĦÙĬØ³":5053,"ĠØ§ÙĦÙħØ¹ØªØ¨Ø±":5054,"ĠØ§ÙĦÙħØ¨Ø³ÙĪØ·":5055,"Ø«ÙĦÙĩØ§":5056,"ĠØªÙĤÙĬ":5057,"ĠØ±ÙĪØŃ":5058,"ĠØ³ÙħØ§Ø¹":5059,"ĠØ§ÙĦØ£Ø°Ø§ÙĨ":5060,"ĠØ´Ø§Ùĩ":5061,"ĠØ´Ø£ÙĨÙĩ":5062,"Ø±Ø§Ø·":5063,"ĠØ¬Ø§Ø±":5064,"ĠØ®ÙģÙĬ":5065,"ĠØ§ÙĦØªÙħ":5066,"ÙĩÙħÙĦØ©":5067,"ĠØ·Ø±":5068,"ÙģØ±ÙĤØ©":5069,"Ø¯ÙĬÙĪÙĨ":5070,"ĠØ§ÙĦØ®Ø±Ø§Ø¬":5071,"ÙĬØªØ§ÙĨ":5072,"ĠÙĨØµÙĩ":5073,"ĠÙĬÙħÙĪØª":5074,"ÙĨÙģØ°":5075,"ĠØ¨Ø§ÙĦÙħÙĦÙĥ":5076,"ĠØ¨Ø§ÙĦÙħØ§ÙĦ":5077,"ĠØ§ÙĦÙħØŃÙĦÙĪÙģ":5078,"ĠØ§ÙĦØ²ÙĪØ¬ÙĬÙĨ":5079,"ĠØ¨ÙĥÙĪÙĨÙĩ":5080,"ĠÙģØ±Ø§Ø´":5081,"ĠØµØ¯Ø±":5082,"ĠØ§ÙĦØŃØ±Ø²":5083,"ĠÙĬØºØ±Ùħ":5084,"ĠØ§ÙĦÙħØ¤Ø¬Ø±":5085,"ĠØ¨Ø§Ø¹ÙĩØ§":5086,"ÙĪØ§ÙĦØŃØ§ØµÙĦ":5087,"ĠØ§ÙĦØ¨Ø¯ÙĨ":5088,"ĠØ¹ÙĬØ¨Ø§":5089,"Ø§Ø¶":5090,"ĠÙĪØ±Ø§Ø¡":5091,"ĠØ£ÙĦÙĤ":5092,"ĠØ£ÙħØ§ÙĨØ©":5093,"ĠÙħØ°Ùĩ":5094,"ĠÙħÙĤØ±":5095,"ĠÙħØ¬ÙĩÙĪÙĦ":5096,"Ø£Ø©":5097,"Ø£Ø®ÙĬØ±":5098,"ÙĦÙĬÙģØ©":5099,"ĠÙĥØºÙĬØ±Ùĩ":5100,"ĠØªØ³Ø§":5101,"Ø¥ÙĨÙħØ§":5102,"ĠØ³ÙĦØ¹Ø©":5103,"ĠØ§ÙĦØ¹ÙĬØ¯":5104,"ĠØ¨Ø¹ÙĬØ¯":5105,"ĠØ§ÙĦØŃÙĤÙĬÙĤØ©":5106,"ÙĪØ§ÙĦÙĥ":5107,"ĠØ§ÙĦØªÙĦÙģ":5108,"ĠÙĪØ§ÙĦØ°":5109,"ĠÙĪÙĦØ§Ø¡":5110,"ĠØ§ÙĦÙĨÙģÙĬ":5111,"ĠØ²ÙĨÙī":5112,"ĠØ£Ø®Øª":5113,"ĠØºÙĨÙħ":5114,"ĠØ§ÙĦØ§ÙĨ":5115,"ĠØ§ÙĦØ·ÙĩØ±":5116,"ÙĨÙģÙĦ":5117,"ĠÙĥØ§ÙĦØ®":5118,"ĠÙĥØ§ÙĦØµ":5119,"ĠÙĪØ³Ø¨Ø¹":5120,"ĠÙĨØµÙģÙĬÙĨ":5121,"ĠØ¨Ø·ÙĦØ§ÙĤ":5122,"ĠØ¨Ø§ÙĦØ¹ØªÙĤ":5123,"ĠÙģØ§ÙĦØ¹":5124,"ĠÙħØ´ÙĥÙĦ":5125,"ĠÙħØ¤ÙĨØ©":5126,"ĠÙĤØ±Ø¨Ø©":5127,"ĠØ§ÙĦÙħØ£ÙħÙĪØ±":5128,"ĠØ§ÙĦÙħØ¶Ø§Ø±Ø¨Ø©":5129,"ĠØ±ÙĤÙĬÙĤØ§":5130,"ÙĤÙĦØ¨":5131,"ĠÙħÙĥ":5132,"ĠØ¨ÙĤØ¨Ø¶":5133,"ĠÙģØ¨Ø§":5134,"ĠÙĬØ²ÙĪØ¬":5135,"ØŃÙĦÙģ":5136,"Ø¬ÙĨÙĪÙĨ":5137,"ÙħØ§Ø±Ø©":5138,"ĠØ¥ØŃØ±Ø§Ùħ":5139,"ĠØ§ÙĦÙĦØŃÙħ":5140,"Ø°Ø§Ø¨":5141,"ĠØ±Ø®Øµ":5142,"ĠØ³Ùĩ":5143,"ĠØµØ±ÙģÙĩ":5144,"ĠØ§ÙĦØ¥ÙĤØ§ÙħØ©":5145,"ĠÙĬÙĥØª":5146,"ĠØ§ÙĦØ³ÙĦÙģ":5147,"ĠÙĦÙĦØ¢":5148,"ĠØ§ÙĦØºÙĨÙĬÙħØ©":5149,"ÙģÙĩØ°Ø§":5150,"ĠÙĥØ§ÙĦØª":5151,"ĠÙĥØ§ÙĦØ¬":5152,"ĠØªØŃÙħÙĦ":5153,"ĠÙĦÙĤØ¯":5154,"ĠØªØ³Ø¹":5155,"ÙģÙĩÙĪÙħÙĩ":5156,"ĠØ§ÙĦØªØŃØ±ÙĬÙħ":5157,"ĠØ§ÙĦØ«Ø§ÙĦØ«Ø©":5158,"Ø£Ø¬Ø±Ùĩ":5159,"ĠØ§ÙĦØ±ÙħÙĬ":5160,"ĠØ§ÙĦÙħÙĤØªÙĪÙĦ":5161,"ĠØªØ¹Ø¯Ø¯":5162,"ĠØ§ÙĦØŃØ§Ø¶Ø±":5163,"ĠÙģÙĪÙĦØ¯Øª":5164,"Ø§ÙĩØ§":5165,"Ø¯Ø±ÙĬ":5166,"ĠØ¹ÙģØ§":5167,"ĠØ¹ÙĥØ³":5168,"ĠÙĬØ±Ø§Ø¯":5169,"ÙħØ§Ùĩ":5170,"ĠÙĥØ®":5171,"ĠØ§ÙĦÙħÙĬÙħ":5172,"ĠØªØ¨Ø±":5173,"ÙĩØ§ÙĦØ©":5174,"Ø´ÙĥÙĦ":5175,"ĠÙħØ§ÙĦÙĬ":5176,"Ø±Ø§ÙĬØ©":5177,"ĠØ®ÙĦØ¹":5178,"ĠØ®ÙĦÙģÙĩ":5179,"ĠØ§ÙĦÙĤØµØ¯":5180,"ĠØ§ÙĦØ¨Ø§ÙĤ":5181,"ĠØ§ÙĦØªØ®":5182,"ĠØ§ÙĦØªØ³ÙħÙĬØ©":5183,"ĠØ§ÙĦØ´Ø¹Ø±":5184,"ĠØ§ÙĦØ³ÙĦØ¹Ø©":5185,"ĠØ§ÙĦÙĥØ±":5186,"ĠÙĪÙĩÙĥØ°Ø§":5187,"ĠØ¹ÙħØ±Ø§ÙĨ":5188,"ĠÙĦÙħØ§ÙĦÙĥ":5189,"ĠØ£Ø¬ÙħØ¹":5190,"ĠØ¬ÙħÙĬØ¹Ùĩ":5191,"ĠØ¥Ø³ÙĦØ§Ùħ":5192,"ĠÙĪØ£ÙĨØª":5193,"ĠØŃØ¯Ø«Ùĩ":5194,"ĠØªØ¨ÙĦØº":5195,"ĠØ¨Ø®ÙħØ³":5196,"ĠØªÙĥÙĦÙħ":5197,"ĠÙĪØ§ÙĦÙģØ±ÙĤ":5198,"Ø£ÙĦØªÙĬÙĨ":5199,"ĠØªØ²ÙĪÙĬØ¬":5200,"ĠØ¨Ø§ÙĦØ·ÙĦØ§ÙĤ":5201,"ĠØ§ÙĦÙħØ±ØªØ¯":5202,"ÙĦØ§ÙħØªÙĨØ§Ø¹":5203,"ĠØ£ÙħØ³":5204,"ĠØ£Ø«ÙĨØ§Ø¡":5205,"ÙģÙĤØ§":5206,"ĠÙĬØ«":5207,"ÙĥØ¯":5208,"Ø¶Ø±Ùĩ":5209,"ĠØªÙħÙĨØ¹":5210,"ÙĩØ§Ø¯ØªÙĩ":5211,"ĠØ§ÙĦÙĦØº":5212,"ĠØ³Ø§ÙģØ±":5213,"ĠØ¬ÙĪØ²":5214,"ĠØ¯ÙĦØ§ÙĦØ©":5215,"ĠØ®ÙĬ":5216,"Ø¨ÙĨØ§Ø¡":5217,"Ø£ÙĨÙģ":5218,"ĠØ·Ø§ÙĦ":5219,"ĠÙĬØ¬Ø±ÙĬ":5220,"ĠÙĬØªØ¬Ùĩ":5221,"ĠÙĬØªØµØ±Ùģ":5222,"ÙģØ§ÙĦÙħ":5223,"ĠÙĪÙĩÙĨØ§":5224,"ĠØ§ÙĦÙħØªÙĪÙĦÙĬ":5225,"ĠØ£Ø´ÙĬØ§Ø¡":5226,"ĠÙģØ³Ø¯":5227,"ÙĪÙĦÙĬØ©":5228,"ĠØ§ÙĦØ£Ø¬ÙĬØ±":5229,"ĠØ§ÙĦØ¬Ø²Ø¡":5230,"ĠØ°Ø¨ØŃÙĩ":5231,"ĠØ§ÙĦØ£Ø¹ÙħØ´":5232,"ÙĩÙĬ":5233,"ĠÙĪÙħØ³":5234,"ĠÙĪÙĦÙĩØ§":5235,"ĠØ£Ø±ÙĬØ¯":5236,"ÙĤÙĬØ±":5237,"ÙģØ±Ùĩ":5238,"ÙģÙĩÙĦ":5239,"ÙħØ§Ø³":5240,"ĠØ§ÙĦØ±Ø¨":5241,"ĠÙĦÙħØ³ÙĦÙħ":5242,"ĠØ§ÙĦØ¹Ø°Ø±":5243,"ĠØ§ÙĦØŃØ§Ø¦Ø·":5244,"Ø±ÙĬÙĥÙĩ":5245,"ÙĪÙĬØŃØ±Ùħ":5246,"ĠÙĬØ¬Ø§Ø¨":5247,"ĠØ§ÙĦØ³Ø¤Ø§ÙĦ":5248,"ĠØ§ÙĦÙģØ§ØªØŃØ©":5249,"ĠÙĬØ¹Ø·ÙĬ":5250,"ĠØ§Ø³ØªÙĬÙģØ§Ø¡":5251,"ĠØ§ÙĦØ²Ø§Ø¦Ø¯":5252,"ĠØ£Ø¨ÙĪÙĩ":5253,"ĠØ¨Ø¯Ø±ÙĩÙħ":5254,"ĠØ§ÙĦØºÙĦØ§Ùħ":5255,"ÙĪØ§ÙĦØ³":5256,"Ø§ÙĩÙĨØ§":5257,"ÙĦØŃØ¯ÙĬØ«":5258,"ØªÙĤØ§ÙĨÙĬ":5259,"ĠÙĬØ®Øµ":5260,"ĠÙħØ·ÙĦÙĤØ©":5261,"ØµØŃØ§Ø¨Ùĩ":5262,"ĠÙĪØ®ÙħØ³Ø©":5263,"ĠØµØ§ØŃØ¨ÙĩØ§":5264,"ĠÙģØ±Ø¶Ùĩ":5265,"ĠÙĥØªØ§Ø¨Ø©":5266,"ĠÙĪÙĦÙĦØ£":5267,"ĠÙĪØ²ÙĨ":5268,"ĠØ¹ØªÙĤØª":5269,"ĠØ£Ø¹Ø·Ùī":5270,"ĠÙĥØ§ÙģØ±Ø§":5271,"ĠØ§ÙĦÙĤØªØ§ÙĦ":5272,"ÙĨØ¨Ùĩ":5273,"ĠÙĪØ±Ø«Ø©":5274,"ĠÙĪÙĦØ¹ÙĦ":5275,"ĠÙħÙĥØ§ØªØ¨":5276,"ĠØ¹Ø³":5277,"ĠØ¹Ø§ÙĤ":5278,"ĠØ¹ÙĬØ³Ùī":5279,"ĠÙĬØ®Øª":5280,"ĠÙĤÙĪØ¯":5281,"ØµÙĦÙī":5282,"ĠÙģÙĬØ³Øª":5283,"ÙĦÙĬÙħÙĬÙĨ":5284,"ĠÙĥØ°Ø¨Ùĩ":5285,"ĠØ§ÙĦÙħÙĪØ¶":5286,"Ø·Ø±Ø©":5287,"ĠØªØ¨Ø±Ø¹":5288,"ÙĦÙĪÙĤ":5289,"ĠØŃÙĦØ§ÙĦ":5290,"ĠÙĦØ¸":5291,"ĠØ±ÙģØ¹Ùĩ":5292,"ĠÙĩØ§Ø´Ùħ":5293,"Ø±Ø§Ø¯Ø©":5294,"ÙĤØ¯ÙĬÙħ":5295,"ĠØ§ÙĦÙĤØ±Ø¨":5296,"ĠÙĪØ§ÙĦÙĩ":5297,"ĠÙĪØ§Ø¯Ø¹Ùī":5298,"Ø§Ø¦ÙĩÙħ":5299,"ĠØ§ÙĦØ¨Ùĩ":5300,"ĠØ§ÙĦØªØ¹ÙĬÙĬÙĨ":5301,"ÙĪÙħØ«ÙĦ":5302,"ĠØºÙĦØ©":5303,"ĠØºÙĦØ·":5304,"ĠØ£ÙħÙĬ":5305,"ĠØ¨Ø¯Ø±":5306,"ĠÙĬØ®ÙĬØ±":5307,"ĠØ§ÙĦÙħÙĨÙĥØ±":5308,"ĠÙģÙĦÙĩØ°Ø§":5309,"ĠØ£ÙĥØ«":5310,"ĠÙħØ±Ø§Øª":5311,"Ø²Ø§ÙĦÙĬ":5312,"ĠØ¬Ø²Ø¡Ø§":5313,"ĠØ¨Ø§Ø¦Ø¹Ùĩ":5314,"Ø·ÙĦØ§ÙĤÙĩ":5315,"ĠØ§Ø³ÙħÙĩ":5316,"ĠÙĨØ³Ø®Ø©":5317,"ĠÙĤØ¶ÙĬØªÙĩ":5318,"ĠØ§ÙĦØ±Ø²Ø§ÙĤ":5319,"Ø§ÙĦÙĩØ§":5320,"ĠÙĪØ¸":5321,"ĠÙĪØ¹ØªÙĤ":5322,"ĠØ¹ÙĥØ±ÙħØ©":5323,"ÙģØ§Ø±Ø©":5324,"ØµØªÙĩ":5325,"ĠÙĥÙģØ§ÙĬØ©":5326,"ĠØ§ÙĦÙħØºÙĬØ±Ø©":5327,"ĠÙħÙĨÙģØ±":5328,"Ø·ÙĤ":5329,"ĠØ±Ø²":5330,"ĠØ±Ø¢":5331,"ĠØ§ÙĦØ£Ø²":5332,"ĠØ§ÙĦØ£Ø´ÙĬØ§Ø¡":5333,"ĠØ´Ø§Ø³":5334,"ĠØ°Ø±":5335,"ĠØ¬ÙĨÙī":5336,"ĠØ®Ø·Ø±":5337,"Ø§Ø¦ØŃØ©":5338,"ĠØ§ÙĦØ¨Ø²":5339,"ĠØ§ÙĦØ¨Ø¦Ø±":5340,"ĠØ§ÙĦØ¥Ø¬ÙħØ§Ø¹":5341,"ĠØ§ÙĦÙĨÙĤÙĦ":5342,"ĠØ§ÙĦØµÙĪØ§Ø¨":5343,"ÙĥØ§ØªÙĩ":5344,"ĠØ§ÙĦØºØ±Ø¶":5345,"ÙĪÙģÙĩ":5346,"ÙĤØµÙĬØ±":5347,"ÙĨÙģÙĤ":5348,"ĠØ«ÙĦØ§Ø«ÙĬÙĨ":5349,"ĠÙĪØµÙĬØªÙĩ":5350,"ĠØ¢ÙĦØ§Ùģ":5351,"ĠØªØ±ÙĥØ©":5352,"ĠØªÙģØµÙĬÙĦ":5353,"ĠÙĬØ¹ØªØ¯":5354,"Ø°ÙĬÙģØ©":5355,"ĠØ³ÙģØ±Ùĩ":5356,"ÙĦÙĦÙĩ":5357,"ÙĬÙĬØ±":5358,"ÙĪØºÙĬØ±Ùĩ":5359,"ÙħØ±Ø§":5360,"ÙħÙĦÙĩØ§":5361,"ÙħØ«ÙĦ":5362,"ĠÙĬÙĪØ±Ø«":5363,"ĠÙĥÙĬ":5364,"ĠØ§ÙĦØ±Ø§Ø¬ØŃ":5365,"ĠØ³ÙĦÙģ":5366,"ĠØ§ÙĦØ£ÙĪÙĦØ§Ø¯":5367,"ĠØ°Ùĩ":5368,"ĠÙĦÙĩÙĨ":5369,"ĠÙĪØ§ØŃØª":5370,"Ø¹ØªÙĩØ§":5371,"ĠÙĬÙĥØªØ¨":5372,"Ø±Ø¶ÙĬ":5373,"ĠÙĬØªÙĪÙĩÙħ":5374,"ĠØ§ÙĦØ®ÙĪÙģ":5375,"ĠØ§ÙĦÙĥØ³Ø¨":5376,"Ø¶ÙĬØªÙĩ":5377,"ÙĪÙĦÙĪÙĨ":5378,"ĠÙĪÙħØŃÙĦ":5379,"ĠØ¨ÙħØ§Ø¡":5380,"ĠØ§ÙĦÙħØªØ§Ø¹":5381,"ĠÙĦØŃØ§Ø¬Ø©":5382,"ĠØ¨ØªØ¹":5383,"ĠØ§Ø¹ØªÙĤØ¯":5384,"ĠØ±ØŃÙħ":5385,"ĠØ¨Ø·ÙĨ":5386,"ĠØ§ÙĦÙħØ³ÙĦÙħÙĪÙĨ":5387,"ĠÙĬÙģØ·Ø±":5388,"ĠØ´ÙĩØ¯Øª":5389,"ĠØ§ÙĦÙĪØ§ÙĪ":5390,"ĠØµØºÙĬØ±Ø§":5391,"ĠØ§Ø´ØªØ±Ø§ÙĩØ§":5392,"ĠØ§ÙĦØªØ£Ø®ÙĬØ±":5393,"ĠÙĦÙĦØ¶Ø±ÙĪØ±Ø©":5394,"ĠØ¥Ø¬ÙħØ§Ø¹Ø§":5395,"ÙĤØ±Ùĩ":5396,"ÙģÙĤÙĩ":5397,"ĠØ§ÙĦÙħØ¶Ùħ":5398,"ĠÙħÙĨØ²ÙĦØ©":5399,"ĠØªÙħØ±":5400,"ĠØªÙĤÙĪÙĦ":5401,"ÙĦÙĪØ¹":5402,"ÙĦÙĤÙĪÙĦÙĩ":5403,"ĠØµØ±ÙĬ":5404,"ĠØ§ÙĦØ¹Ø¬Ø²":5405,"ĠØ§ÙĦÙĪØ¬":5406,"ĠÙĪØ§ÙĦØ¶":5407,"ĠØ§ÙĦØ¥Ø¬Ø§Ø²Ø©":5408,"ĠØ§ÙĦÙĨØµØ§Ø¨":5409,"ĠÙĪØ£ÙĪÙĦÙī":5410,"ĠÙĬØ¬ÙĦØ³":5411,"ÙħØ³Ø§Ùĥ":5412,"ĠØ¶Ø¹Ùģ":5413,"ĠØ§ÙĦØºÙĨÙħ":5414,"Ø´Ø±Ø¹":5415,"ĠÙģØ£Ø±Ø§Ø¯":5416,"ĠÙĪØ§ÙĦÙħØºÙĨÙĬ":5417,"ĠØ§ÙĨÙĤØ·Ø¹":5418,"Ø§ÙĦÙħØ³Ø£ÙĦØ©":5419,"ĠØ§ÙĦÙħØ¹ÙĤÙĪØ¯":5420,"ĠÙĥØ§ÙĦØ´":5421,"ĠØ³Ø¨Ø¨Ø§":5422,"ĠÙĦØŃÙĤÙĩ":5423,"ĠØ¨Ø´Ø¨ÙĩØ©":5424,"ĠØ¥ÙĦÙĬÙĥ":5425,"ĠØ£ÙĪÙĦØ§Ø¯Ùĩ":5426,"Ø¶Ø§Ø±Ø¨Ø©":5427,"ĠØ§ÙĦÙħØ·Ø§ÙĦØ¨Ø©":5428,"ĠØ£ØµØ§Ø¨Ùĩ":5429,"ĠÙħÙĪØ³Ø±Ø§":5430,"ĠÙĦÙĦØµÙĦØ§Ø©":5431,"ĠØ§ÙĦØ´Ø±Ø¹ÙĬ":5432,"ĠØ§ÙĦØ¥Ø®Ø±Ø§Ø¬":5433,"ĠÙĨØ§Ø³ÙĬØ§":5434,"Ø±ÙĪÙī":5435,"ĠØ¨ÙħØ³":5436,"ĠØ¨Ø¢":5437,"ÙģØ±Ø§Ø¯":5438,"ØŃØ±ÙĬÙħ":5439,"ÙĥØ¨":5440,"Ø£ØŃØ¯":5441,"ĠÙĤÙĦØ¨":5442,"ĠÙģÙĬØ±Ø¬Ø¹":5443,"ĠØ§ÙĦÙħÙħÙĦÙĪ":5444,"ĠØ¥ÙħÙĥØ§ÙĨ":5445,"Ø®ÙĪØ©":5446,"ĠØ±Ø³":5447,"ĠØ³Ø¬ÙĪØ¯":5448,"ĠØ³Ø¯Ø³":5449,"ĠØµØ§Ùħ":5450,"ĠÙĦÙĦØ§Ø³Øª":5451,"ĠØ®ÙĦØ§":5452,"ĠÙħØ¹Ø·ÙĪÙģ":5453,"Ø±ÙĬØªÙĩ":5454,"ĠØ§ÙĦÙĨÙĤØ¯":5455,"ÙĪÙĬØµØŃ":5456,"ĠÙĪØ¬Ø¹ÙĦ":5457,"ĠØ§ÙĦÙĥØ°Ø¨":5458,"ĠØ§ÙĦØ¯ÙĨÙĬØ§":5459,"ÙĤØ·ÙĨÙĬ":5460,"ĠØ§ÙĦØ²ÙĬÙĦØ¹ÙĬ":5461,"ĠÙĪØªØ³":5462,"Ø³Ø¨Ø§Ø¨":5463,"ĠÙģØ£ÙħØ±":5464,"ĠØ¨ÙħØŃÙĦ":5465,"ĠÙħØ³Ø§ÙģØ©":5466,"ĠØ£Ø¹Ø¸Ùħ":5467,"ĠØ£ØµØ¨Ø¹":5468,"Ø¬Ø²Ø£":5469,"ÙĪØ§Ø¨Ùĩ":5470,"ĠÙĬØ´Ø±Ø¨":5471,"ĠÙĨØ³Ø§Ø¡":5472,"ĠØ£Ø¯Ø®ÙĦ":5473,"ĠØ¹ÙħÙĬØ±":5474,"ĠØ§ÙĦÙħÙĬØªØ©":5475,"ĠØ§ØŃØªØ±Ø§Ø²":5476,"Ø¨ÙĤØ§Ø¡":5477,"ĠÙĤØ¨Ø¶ÙĩØ§":5478,"ĠØ¹Ø¨ÙĬØ¯Ø©":5479,"ĠÙĬØ¹Ø·Ùī":5480,"ĠÙĦØ§ÙĨØªÙģØ§Ø¡":5481,"Ø¹Ø¨Ø¯":5482,"ĠØ¨Ø±Ø§Ø¡Ø©":5483,"ĠØ¨ÙģØ¹ÙĦÙĩ":5484,"ĠÙģÙģØ¹ÙĦ":5485,"ĠÙĬØ¨ÙĨÙĬ":5486,"ØµÙĨÙģ":5487,"ĠÙģÙĬØŃØ±Ùħ":5488,"ĠØ¥ÙĬØ§":5489,"ĠØ³ÙĦØ§Ùħ":5490,"ØªÙĩÙĨ":5491,"ĠØ¯ÙĬØªÙĩ":5492,"Ø¸Ø±Ùĩ":5493,"ĠØ§ÙĦØªÙģØµÙĬÙĦ":5494,"ĠÙĦÙĪØ§ØŃØ¯":5495,"ĠØ·ÙĪÙĦ":5496,"ĠØ·ÙĩØ§Ø±Ø©":5497,"ĠØ§ÙĦÙģØ¯ÙĬØ©":5498,"ĠÙĬØŃÙģØ¸":5499,"Ø¯ÙĬÙĦ":5500,"ÙħØ§ÙĨÙĬØ©":5501,"Ø§Ø¬Ø¯":5502,"ĠÙĬÙħÙĬÙĨØ§":5503,"ĠØ¨ÙħØŃ":5504,"ĠÙĬØ£ÙħØ±":5505,"ĠØ§ÙĦØ·Ø§ÙĦØ¨":5506,"ĠØ¨Ø§ÙĦÙħÙĪØª":5507,"ĠÙĬØµØ±ØŃ":5508,"ĠÙĦØ²ÙħØªÙĩ":5509,"ĠØ§ÙĦÙĩÙĦØ§Ùĥ":5510,"ĠØ¨ÙĥÙĬØ±":5511,"Ø¶Ø±Ø±":5512,"ĠØ¨Ø´ÙĩØ§Ø¯Ø©":5513,"ĠØªÙĤÙĪÙħ":5514,"ĠØ§ÙĦØ§Ø³ØªØ«ÙĨØ§Ø¡":5515,"Ø£ÙħÙĦÙĩ":5516,"ĠÙĦØµØ§ØŃØ¨Ùĩ":5517,"ĠØ³ÙĤØ·Øª":5518,"ĠÙħØ´ØªØ±":5519,"ĠÙĨØ²Ø¹":5520,"ĠÙĪØ§Ø¬Ø¨Ø§":5521,"ĠØ·Ø¹Ø§ÙħØ§":5522,"Ø§Ø°":5523,"ÙĩÙĦÙĩ":5524,"ÙĪØµÙĦ":5525,"ĠÙħÙĤØ¯Ø±":5526,"ĠÙĬØ°ÙĩØ¨":5527,"ÙĥØ°ÙĦÙĥ":5528,"ĠÙĤØ±Ø±":5529,"ÙĦÙĬÙĦÙĩ":5530,"ĠÙĥØ§ÙħÙĦØ©":5531,"ĠØ§ÙĦÙħÙĤØ¨":5532,"Ø´ÙĩÙĪØ±":5533,"ĠÙĩØ§ÙĩÙĨØ§":5534,"ÙĦÙģØª":5535,"ĠØ§ÙĦØ¹Ø±Ø¶":5536,"ÙĦØ£ÙĨØ§":5537,"ĠÙħØ¹ÙħØ±":5538,"ĠØ§ÙĦÙĤØ§Ø¦ÙĦ":5539,"ĠØ§ÙĦÙĪØ§ÙĦØ¯":5540,"ĠØ§ÙĦÙĥØ±Ø§Ø¡":5541,"ĠØºØ±Ø¶":5542,"ĠØ¨Ø£ØŃØ¯":5543,"ĠØ£ÙħÙĬÙĨ":5544,"ĠÙģØ§ØªÙĩ":5545,"ĠÙĪØ§ÙĦÙħØ¹ÙĨÙī":5546,"ĠÙģØªØ§":5547,"ĠØ§ÙĦÙħØ¹Ø¬ÙħØ©":5548,"ĠÙĬØµØ±Ùģ":5549,"ĠØŃØ±Ø²":5550,"ĠØ¨ÙĤÙĬØ¯":5551,"ĠÙģØ±Ø¶Ø§":5552,"ĠÙħØ¹Ø§ÙĪØ¶Ø©":5553,"ĠÙĤØ¯ÙħÙĨØ§Ùĩ":5554,"ĠØ¨ÙĦØºØª":5555,"ĠØªØ¯Ø¨ÙĬØ±":5556,"ĠØ§ÙĦÙħÙĨØ§Ø³Ø¨":5557,"ĠÙĨØ§ÙĤØµ":5558,"Ø§ØªÙĩ":5559,"Ø±ÙĪÙĤ":5560,"ĠØ§ÙĦØ§Ø«":5561,"Ø¯Ø¯":5562,"ĠÙĪÙģØ§Ø¡":5563,"ĠØ¨Ø¨Ø¯":5564,"ĠØ¨Ø°ÙĥØ±":5565,"ĠÙģÙĪØ¬":5566,"ØŃÙĤÙĤ":5567,"ÙĥØ£ÙĨ":5568,"ÙĨÙĩÙħØ§":5569,"ØµÙĪØµ":5570,"ĠÙĥØµ":5571,"Ø®Ø±Ø§Ø¬":5572,"ĠØŃØ¶ÙĪØ±":5573,"Ø´Ø£":5574,"ĠØ±Ø§ÙģØ¹":5575,"ĠØ±Ø¡ÙĪØ³":5576,"ĠØ³Ø§Ø¹Ø©":5577,"ØºÙģØ±":5578,"ĠØ§ÙĦØ¥Ø³":5579,"ÙĪÙĬÙĤØ§ÙĦ":5580,"ĠÙĬÙĤÙģ":5581,"ĠÙĪØ£Ø®Øª":5582,"ĠÙĪÙĬÙĥØ±Ùĩ":5583,"ĠÙĪÙĥØªØ¨":5584,"ĠÙĬÙĨÙģÙĤ":5585,"ĠÙĬÙĨÙĤØ·Ø¹":5586,"ĠØ±Ø¬ÙĦÙĩ":5587,"ĠÙĦÙĦÙħØ±Ø£Ø©":5588,"ÙĦØŃØ§ÙĤ":5589,"ĠÙħØ³Ø¬":5590,"ÙĥÙĨØª":5591,"ĠØ§ÙĦØ¶ÙħÙĬØ±":5592,"ĠØ¬Ø§Ø²Øª":5593,"ĠØ§ÙĦØ£ÙħÙĪØ±":5594,"ĠØ¯Ø§Ø±Ø§":5595,"ĠÙħØµÙĦØŃØ©":5596,"ĠÙĪÙĬØ±Ø¯":5597,"ĠØ¥Ø²Ø§ÙĦØ©":5598,"ĠØ£ÙĨØ¨Ø£ÙĨØ§":5599,"ÙĪØ¨ÙĬ":5600,"ÙĪØ§Ø¦":5601,"Ø¨ÙĬØ©":5602,"ĠØ¨Ø¶":5603,"ĠØ¨Ø±ÙĬ":5604,"ÙĦØ§Ø¯":5605,"ĠØ§ÙĦÙħÙĤØ§":5606,"ĠØªÙĪÙģÙĬ":5607,"ĠØªØ´ÙĩØ¯":5608,"ĠØŃØ§ÙħÙĦØ§":5609,"ĠØ±Ø¨Ø§":5610,"ĠØ±ÙħÙĬ":5611,"ĠØ§ÙĦØ¹Ø§ÙĤÙĦØ©":5612,"ĠØ§ÙĦØŃÙĪØ§ÙĦØ©":5613,"ĠØ§ÙĦÙĤÙĦØ¨":5614,"ĠØ§ÙĦÙĪØ§ÙĩØ¨":5615,"ØºÙĨÙī":5616,"ĠØ²ÙħØ§ÙĨ":5617,"ĠØ§ÙĦØ´Ø¨ÙĩØ©":5618,"ÙĤØªØµØ±":5619,"ĠØ¨ÙĬÙĨØªÙĩ":5620,"ĠØ£ÙħÙĥÙĨÙĩ":5621,"ĠÙĨØµØ¨":5622,"ĠÙĪÙĤÙģÙĩ":5623,"ĠÙģØ£Ø´Ø¨Ùĩ":5624,"ĠÙģØªÙĥÙĪÙĨ":5625,"ĠØ¨ØŃØ¬Ø©":5626,"Ø±Ø«ØªÙĩ":5627,"ĠÙĥØ§ÙĦØ³":5628,"ĠÙĪØ·Ø¤ÙĩØ§":5629,"ĠÙĦØ¨ÙĨ":5630,"ĠÙĪØ§ÙĦØ¹Ø¨Ø¯":5631,"ĠÙĬØŃØªØ¬":5632,"ĠØŃØ§ØµÙĦ":5633,"ĠØŃÙħÙĦØª":5634,"ĠØªØ²ÙĪØ¬Øª":5635,"ĠØŃØ³ÙĬÙĨ":5636,"ÙĦØ§Ø¦ÙĥØ©":5637,"Ø§ÙħÙĩ":5638,"Ø±Ø¯Ùĩ":5639,"ÙĤÙĦØ©":5640,"ĠÙħÙĤÙĬ":5641,"ĠÙģØªÙĤ":5642,"ĠÙģØ§ÙĦØª":5643,"ÙģØŃ":5644,"ĠÙĬÙĤÙĬØ¯":5645,"ĠÙĬÙĤÙĬÙħ":5646,"ĠÙĬÙĦØ¨Ø³":5647,"ĠÙĤÙĦØ¨Ùĩ":5648,"ÙĨÙĩÙĬ":5649,"ĠÙģÙĬÙĦØ²Ùħ":5650,"Ø·Ùī":5651,"ĠØªØ±Ø¬Ø¹":5652,"Ø°Ø§Ø±":5653,"ĠØ±Ø§Ùĥ":5654,"ĠÙĨØŃ":5655,"ĠØ³ÙĬØ±":5656,"ĠØ³Ø¨ÙĬ":5657,"ĠØ¬Ø±Øª":5658,"ĠØ¯ÙħØ§":5659,"ĠØ®Ø²":5660,"Ø±ÙĬØ§ÙĨ":5661,"ĠØ§ÙĦØªØµØ¯ÙĤ":5662,"ĠÙĪÙĦØ§ÙĬØªÙĩ":5663,"ÙĬØ§ÙĦÙĩ":5664,"ĠØ¨Ø£ØŃØ¯ÙĩÙħØ§":5665,"ĠÙĪÙĤØ¨Ø¶":5666,"ĠØ§ÙĦØ·ÙĩØ§Ø±Ø©":5667,"ĠÙĦØ¹Ø°Ø±":5668,"ĠØ¨Ø¥ÙĤØ±Ø§Ø±":5669,"ĠÙĬØ¤ÙħØ±":5670,"Ø±Ø§Ø¬Ø¹Ùĩ":5671,"ĠØ£Ø³ÙĪØ¯":5672,"Ø±Ø³Ø§ÙĦ":5673,"ĠØ¨Ø§ÙĦÙĤØ¨Ø¶":5674,"ĠØ±Ø¨ÙħØ§":5675,"ĠØ´Ø¹Ø±Ùĩ":5676,"ĠÙĪÙĦÙĬÙĦØ©":5677,"ĠØ£ØªÙĦÙģÙĩ":5678,"Ø¹Ø±ÙĪÙģ":5679,"ĠØ£Ø¬Ø²Ø§Ø¡":5680,"ĠØ§ÙĦØ±ÙĥØ¹Ø©":5681,"ĠØ§ÙĦÙĪÙĦØ§ÙĬØ©":5682,"ĠØµØ§Ø¯ÙĤ":5683,"ĠØ°ÙħÙĬØ§":5684,"Ø§Ø³Øª":5685,"ÙĪØ£ÙĪ":5686,"Ø¨Ø«":5687,"Ø¨ÙĪÙĦ":5688,"ĠÙĪÙĦØ°Ø§":5689,"ĠÙĪØ¸Ø§ÙĩØ±Ùĩ":5690,"ĠÙħÙģØ³":5691,"ĠÙħÙģØª":5692,"ĠÙħÙĤÙĬØ¯":5693,"ÙĦØ§Ø²Ùħ":5694,"Ø·Ø§Ø±":5695,"ÙĦÙĤØ©":5696,"ĠØ§ÙĦØŃØ§ØµÙĦ":5697,"ÙģÙĬÙģ":5698,"ĠÙĦÙĪØ¬ÙĪØ¨":5699,"ĠØ§ÙĦÙĨØ®ÙĦ":5700,"ĠÙĪØ£Ø´":5701,"ĠÙħØŃØ¬ÙĪØ±":5702,"ĠÙĬØŃØ¶Ø±":5703,"ĠØ§ÙĦØ®ÙĬØ±":5704,"ĠØ§ÙĦØ±Ø¯Ø©":5705,"ĠØŃØ¯ÙĪØ«":5706,"ĠØ§ÙĨØ¹ÙĤØ¯":5707,"ĠÙĬØ³Ø§ÙĪÙĬ":5708,"ĠÙĦØ¹Ø¨Ø¯Ùĩ":5709,"ĠØ§ÙĦÙħØŃØ¬ÙĪØ±":5710,"ĠØ¨ÙĬÙĪÙħ":5711,"ĠÙģØ³Ø¯Øª":5712,"ĠÙģÙĦÙĬØ±Ø§Ø¬Ø¹":5713,"ĠÙĪØ£ÙĨÙĥØ±":5714,"ĠØ¬ÙĩØªÙĩ":5715,"ĠÙģØ§Ø³Ø¯Ø©":5716,"ĠÙģØµÙĦÙī":5717,"ĠØ£Ø¹Ø·Ø§Ùĩ":5718,"ĠÙĬÙĤØ¨Ø¶Ùĩ":5719,"Ø§ÙģÙĬ":5720,"ØªÙĨÙĬ":5721,"ĠØ£Ø¶":5722,"ĠØ£Ø±Ùī":5723,"ĠÙħØ¶Øª":5724,"ĠÙħØ¶Ø§Ùģ":5725,"ĠÙħÙĪÙĥÙĦÙĩ":5726,"ĠÙģØ¨Ø§ÙĨ":5727,"ĠØ¹Ø¨Ø§Ø±ØªÙĩ":5728,"Ø£Ø°ÙĨ":5729,"ĠÙĤØ±Ø¶":5730,"Ø°ÙĬØ¨":5731,"ØµÙĦØ§":5732,"ĠØ§ÙĦÙħÙĥØ§ØªØ¨Ø©":5733,"ÙĦÙĥÙħ":5734,"ĠØŃØ°ÙĬÙģØ©":5735,"ĠØ£ÙĨÙĥ":5736,"ĠØ±Ø¶":5737,"ÙĪØ§ÙĩØ§":5738,"ĠÙĦØ£Ø¬":5739,"ĠØ§ÙĦØ¨Øµ":5740,"ÙĪÙħÙĨÙĩÙħ":5741,"ĠØ§ÙĦÙĨÙģÙĦ":5742,"ĠØ§ÙĦØ¬Ø§ÙħØ¹":5743,"ĠØ§ÙĦØ¬ÙĩØ©":5744,"Ø¹Ø§Ø©":5745,"ĠÙħØŃØ¬":5746,"ĠÙħØŃÙħÙĪÙĦ":5747,"ÙĥØ§Ùĩ":5748,"ĠÙĬÙĨØ¹":5749,"ĠØ¨Ø¯ÙĪÙĨÙĩ":5750,"ØµØ¯ÙĤØ©":5751,"ÙĦØ¹ÙĦÙĩ":5752,"ÙĨÙģÙĬØ©":5753,"ĠØ¨ØŃØ¶Ø±Ø©":5754,"ĠØ¨Ø§ÙĦÙħØ¯":5755,"ĠØ§ÙĦÙħØµÙĦØŃØ©":5756,"ĠØ¹Ø´Ø±ÙĪÙĨ":5757,"ĠØ§ÙĦÙħØ³ØªØ¹ÙĬØ±":5758,"ĠÙħØ´ÙĤØ©":5759,"ĠÙĬØºÙĦØ¨":5760,"ĠØ§ÙĦØ±ØŃÙħ":5761,"ĠÙĪØ±ÙĪØ§Ùĩ":5762,"ĠØªØµÙĬØ±":5763,"ĠØ§ÙĦÙħØ·ÙĦÙĤØ©":5764,"Ø¯Ø®Ø§ÙĦ":5765,"ĠØ§ÙĦÙħØªØ£Ø®Ø±ÙĬÙĨ":5766,"ÙĩØ¯Ùĩ":5767,"ÙĪØ§Ø¦Ø¯":5768,"ĠØ£ØªÙħ":5769,"ĠØ£Ø¹Ø§Ø¯":5770,"ĠÙħÙĦØª":5771,"ĠØ¨ÙĨØ§":5772,"ĠØ¨ÙĪØµ":5773,"ĠÙģØ¸Ø§ÙĩØ±":5774,"ĠÙĬÙĦÙĤ":5775,"Ø£Ø®Ø°Ùĩ":5776,"ĠÙĤÙĨ":5777,"ĠÙģÙĬØ¶ÙħÙĨ":5778,"ĠØªØ±Ø¯Ø¯":5779,"ĠØŃØ§ÙħÙĦ":5780,"ĠØŃØ§Ø¦Ø·":5781,"Ø²Ø§Ùħ":5782,"ĠÙĩÙħØ§":5783,"ĠÙħØ§Ø¬Ùĩ":5784,"ĠØ£ÙĬÙĩÙħØ§":5785,"ĠØµÙĬØ¯Ø§":5786,"ÙĪÙĨÙĬ":5787,"ĠØ§ÙĦØ¹Ø´Ø§Ø¡":5788,"ĠØ®Ø§ÙĦØ¹":5789,"ĠØ§ÙĦØ¥Ø¹Ø§Ø¯Ø©":5790,"ĠØ§ÙĦØ¥ÙĥØ±Ø§Ùĩ":5791,"ĠØ§ÙĦÙĨØ§Ø¸Ø±":5792,"ĠØ²Ø¹Ùħ":5793,"ĠØ§ÙĦØ¬ÙħØ§Ø¹":5794,"ĠØ§ÙĦÙģØ±ÙĬØ¶Ø©":5795,"ĠØºÙĨ":5796,"Ø§Ø²ÙĬØ©":5797,"ÙĪØ¨ÙĬÙĨ":5798,"ĠØ¨Ø¯Ø¹":5799,"ĠÙĪØ¥ÙĦÙī":5800,"ĠØ§ÙĦØ§Ø³Ùħ":5801,"Ø§ÙĩØ±Ø©":5802,"ÙĪÙģÙĤ":5803,"ĠÙĪØ§ÙĦÙħØª":5804,"ĠÙĬØ³ÙĬØ±":5805,"Ø¬Ø²Ø¦":5806,"ĠÙĪØ·ÙĦØ¨":5807,"ĠÙĦØ¨ÙĤØ§Ø¡":5808,"ĠØ£ÙĤÙĪØ§ÙĦ":5809,"ĠÙħØ¬Ø§ÙĨØ§":5810,"ĠÙĥÙģØ§Ø±":5811,"ĠØªÙħÙĬÙħ":5812,"ĠÙĤØ±ÙĬØ©":5813,"ĠÙĪØ¹ÙĨØ¯ÙĩÙħØ§":5814,"ĠØ§ÙĦÙģØ±ÙĤØ©":5815,"ĠÙĪØ¨ÙĩØ°Ø§":5816,"ĠØ£Ø¬Ø²Ø£":5817,"ĠÙĬØ¹Ø·ÙĬÙĩ":5818,"ĠØªØ¬Ø²Ø¦":5819,"ĠØ¨Ø¨ÙĦØ¯":5820,"ĠØ§ÙĦÙĪÙĦØ§Ø¯Ø©":5821,"ĠØ§ÙĦØªØ±ØªÙĬØ¨":5822,"Ø§Ø®":5823,"Ø§Ø«":5824,"ÙĬØºØ©":5825,"Ø¯ÙĬØ§":5826,"ĠÙĪÙģØ±":5827,"ĠÙĪÙħØ¯":5828,"ĠÙĪØ±ÙĤ":5829,"ĠØ£Ø±Ø³":5830,"ĠÙħØ´ØªØ±ÙĬ":5831,"ĠØ¨ÙĤØªÙĦ":5832,"ĠÙģÙĦØ³":5833,"ĠÙģØ±Ø§Ø¬Ø¹Ùĩ":5834,"ĠØ¹Ø§ÙĤÙĦØ©":5835,"ÙģØ§ÙĦ":5836,"Ø£ÙĨÙĩØ§":5837,"ĠØ§ÙĦÙħÙĨÙĬ":5838,"ĠØ§ÙĦÙħØ£Ø®ÙĪØ°":5839,"ĠØ§ÙĦÙħØ¨ØªØ§Ø¹":5840,"Ø®ÙĦØ§":5841,"Ø·ØŃ":5842,"ĠØªÙĨØ¹ÙĤØ¯":5843,"ĠØ§ÙĦÙĦØ§Ùħ":5844,"ĠØ§ÙĦØ£Ø¶ØŃÙĬØ©":5845,"ĠØ°Ø±Ø§Ø¹":5846,"ĠÙħØ¹ØªÙĤ":5847,"ĠÙħØ¹ØªØ¨":5848,"ĠØ§ÙĦØªÙĪÙĥÙĬÙĦ":5849,"ĠØ§ÙĦØ¥Ø¹ØªØ§ÙĤ":5850,"ĠØ¨Ø§ÙĦÙĩ":5851,"ĠØ²ÙĬÙĨ":5852,"ĠØ§ÙĦØ¬Ø¹ÙĦ":5853,"ĠØ·Ø¨":5854,"ĠØ§ÙĦØ³ÙħØ§Ø¡":5855,"Ø±ÙĥØ¹":5856,"Ø±ÙģÙĤ":5857,"ĠÙĦÙĦØ°ÙĬ":5858,"ĠØ¶Ø¹":5859,"ĠÙĪÙĦÙħØ§":5860,"Ø¹ÙĬÙĩ":5861,"ĠØ¨ÙħØ§ÙĦÙĩ":5862,"ĠÙĦØ¹Ø¨Ø¯":5863,"ĠØ¨ÙĬÙĨÙĩØ§":5864,"ĠØ§ÙĦÙĬØª":5865,"ĠÙĪØ§ÙĦÙĨØ³":5866,"ĠÙĦØªØ¹Ø°Ø±":5867,"ĠÙĬØ¤ÙħÙĨ":5868,"ĠÙĬØ´Ø¹Ø±":5869,"ĠÙĦØ¨Ø³Ùĩ":5870,"ĠØ§ÙĦÙħÙĨØ°Ø±":5871,"ĠØ±ØŃÙħÙĩÙħØ§":5872,"ĠØ§Ø³ØªØŃØ³Ø§ÙĨ":5873,"ĠØ£ÙĥØ¨Ø±":5874,"ĠØ´ÙĩØ±ÙĬÙĨ":5875,"ĠØ§ÙĦÙĪØ§ÙĤØ¹":5876,"ĠÙħØ¶ÙħÙĪÙĨ":5877,"ĠÙĬØªØ¹Ø±Ø¶":5878,"ĠÙĤÙĬØ§Ø³Ø§":5879,"Ø¯Ø±Ùĥ":5880,"ĠÙĪØ±Ø¬Ø¹":5881,"ĠÙĪÙģØªØŃ":5882,"ĠØ¨ÙĬØ§ÙĨÙĩ":5883,"ĠÙģØ°ÙĥØ±Ùĩ":5884,"ĠÙĤØ§Ø¨":5885,"ØµØ§ÙĨ":5886,"ØµØ§Ø¯":5887,"ĠÙĥØ§ÙħÙĦ":5888,"ĠÙħÙĨÙī":5889,"Ø®ÙĬØ±Ø©":5890,"Ø²ÙĪÙĦ":5891,"ÙĨØ§Ùģ":5892,"ĠØ´ÙĩÙĪØ¯":5893,"ÙĪÙĨØµ":5894,"ĠØ§ÙĦØŃØ§ÙħÙĦ":5895,"ÙĪØ§Ø¬":5896,"ĠØ®ÙĦØ·":5897,"ĠØ§ÙĦØ´Ø±ØŃ":5898,"ĠØ§ÙĦØ¬ÙĦØ¯":5899,"ĠØ·Ø§Ùģ":5900,"ĠÙĪØ¬Ø§Ø²":5901,"ĠÙĬØ¬ØªÙħØ¹":5902,"ĠÙĪÙĬØ£Ø®Ø°":5903,"ÙģØ³Ø§Ø¯":5904,"ÙĤØ±Ø£":5905,"ØŃØªØ§Ø¬":5906,"ĠÙĦÙĦÙħÙĪÙĥÙĦ":5907,"ØªÙĬÙĩ":5908,"ĠÙħØ³Ø§":5909,"ĠØŃÙĤÙĪÙĤ":5910,"ĠÙĬØ¶Ø¹":5911,"ĠØ¨ÙĤØµØ¯":5912,"ĠÙģÙĩØ°Ùĩ":5913,"Ø§ÙĦØ«Ø§ÙĦØ«":5914,"ĠØ§ÙĦØŃØ¬Ø©":5915,"ĠÙĦÙĦØ¹Ø§ÙħÙĦ":5916,"ĠÙĦÙĦØ±Ø¬ÙĦ":5917,"ĠØ§ØŃØªØ§Ø¬":5918,"ĠØ¯Ø§Ø®ÙĦ":5919,"ĠØŃÙĬØ§Ø©":5920,"ĠÙħØ´ØªØ±Ùĥ":5921,"ĠÙĪØ§Ø¬Ø¨Ø©":5922,"ĠÙĥØ§ØªØ¨":5923,"ĠØ¨ØµØŃØ©":5924,"ÙĬØ¬":5925,"Ø¨Ø§Ø±Ùĩ":5926,"Ø¯ÙħÙĩ":5927,"ĠÙĪÙĦØ°ÙĦÙĥ":5928,"ĠÙħØ±Ø¯":5929,"ĠÙħØŃØ¯Ø«":5930,"ĠÙģÙĪÙĤÙĩ":5931,"ĠÙĬÙħØ³":5932,"ĠÙĬØ¨Ø¯Ø£":5933,"Ø¬ÙĬØ±":5934,"Ø¬Ø§Ø¬":5935,"ĠØ§ÙĦÙħÙĦØ§":5936,"ĠØŃÙģ":5937,"ĠØŃØ¨Ø§ÙĨ":5938,"Ø²ÙĪ":5939,"Ø²Ø§ÙĦØ©":5940,"ĠÙĨÙĥØŃ":5941,"ÙĤØ¯ÙħØ©":5942,"ĠÙħØ¹Ø±Ùģ":5943,"ÙģÙĬÙĩØ§":5944,"ĠØ§ÙĦØ¨ÙĤØ±":5945,"ĠØ§ÙĦØªÙĤ":5946,"ĠØ§ÙĦØªØ²Ùħ":5947,"ĠÙĬÙĥÙĦÙģ":5948,"ÙĪÙĬØ³Øª":5949,"ĠØ§ÙĦØ¬ÙĩÙĦ":5950,"ÙĨÙĬÙĩ":5951,"ĠÙĬØŃØ¨":5952,"ĠÙĬØŃØ¨Ø³":5953,"Ø¤Ø¬Ø±":5954,"ĠÙĬØ¹ÙĬØ¯":5955,"Ø¨ØªØ¯Ø§Ø¡":5956,"ĠØ£Ø¨ÙĪÙĬÙĩ":5957,"ĠÙģØ£Ø¹Ø·":5958,"ĠÙħØ³Ùĥ":5959,"ĠØ§ÙĦÙħØªØ¹Ø©":5960,"Ø³ØªØŃÙĤØ§ÙĤ":5961,"ĠÙģØ¹ÙĦÙĩØ§":5962,"ÙħØªØ§Ø¹":5963,"ÙģÙĤÙĪØ¯":5964,"ĠØ§ÙĦØ±Ø¬Ø¹Ø©":5965,"ĠØ¹Ø¯ÙĦØ§":5966,"ĠÙĪØ§ÙĦØ£ØµÙĦ":5967,"ĠØ¹Ø¨Ø±Ø©":5968,"ĠØ¨Ø§ÙĦÙĤØ±":5969,"ĠÙħØ¤ÙħÙĨ":5970,"ĠØªÙħÙĦÙĬÙĥ":5971,"ĠÙĪØ¯ÙģØ¹":5972,"ĠØ±ÙĩÙĨÙĩ":5973,"ĠÙĦØ¯ÙģØ¹":5974,"ĠØ¨Ø¹ÙĬÙĨÙĩØ§":5975,"ĠØ§ÙĦØ´Ø±ÙĪØ·":5976,"ĠØ§ÙĦØ¹Ø§ÙĤØ¯":5977,"ĠÙĨÙģÙĤØªÙĩØ§":5978,"ĠÙĦØ²ÙĪØ¬ØªÙĩ":5979,"ĠÙħØ°ÙĩØ¨Ùĩ":5980,"ĠÙģØªØ§ÙĪÙī":5981,"ĠÙħØ´Ø±":5982,"ĠÙħÙĥØª":5983,"ĠØ¹ÙħÙĩ":5984,"ĠØ¹Ø²ÙĦ":5985,"ÙģÙĪØ¹":5986,"ĠÙĬØ±Ø§Ùĩ":5987,"ĠÙĤØ¨ÙĬ":5988,"ĠÙĥØ±Ø§Ø¡":5989,"ĠØ§ÙĦÙħØµØ±":5990,"Ø·ÙħØ©":5991,"ĠØŃØ§ØµÙĦÙĩ":5992,"Ø²ÙĬØ±":5993,"ĠÙĨØŃÙĨ":5994,"ĠØ¨ÙĨÙĤØµ":5995,"ĠØ®Ùģ":5996,"Ø¸ÙĩØ§Ø±":5997,"ØºØ§Ø±":5998,"ØºØ±Ùħ":5999,"ĠØ§ÙĦØ¨Ø±Ø§Ø¡Ø©":6000,"ĠØ§ÙĦØªØ·ÙĪØ¹":6001,"ÙĤÙĬØª":6002,"ĠØ§ÙĦØ¥Ø¨Ø±Ø§Ø¡":6003,"Ø§ÙħØ³Ø©":6004,"ĠØ²Ø§Ø¦Ø¯":6005,"ĠØ§ÙĦØ¬ÙĪØ²":6006,"ĠÙĪØ£Ø¹":6007,"ÙĪØ¹Ø¨":6008,"ĠØ§ÙĦØ³ÙĩÙĪ":6009,"ĠØºØ³":6010,"ĠØºÙĬØ¨Ø©":6011,"Ø¶ÙĬÙĦØ©":6012,"ÙĤØ§Ø¹":6013,"ĠÙĪØ¹ÙħØ±":6014,"ĠØ§ÙĦØ·Ø±Ùģ":6015,"ĠØ§ÙĦÙħØ¹Ø±ÙĪÙģ":6016,"ĠØ¨Ø§ÙĦØ¹ÙĬÙĨ":6017,"ĠØ£Ø³ÙĩÙħ":6018,"ĠÙĤØ·Ø¹Ùĩ":6019,"Ø¶Ø±Ø¨Ùĩ":6020,"ĠØ§Ø¨ØªØ¯":6021,"ĠÙħØ¹ØªÙħØ¯":6022,"ĠØªØ·ÙĪØ¹":6023,"ĠÙĪÙħØ¹ÙĨÙī":6024,"ĠØ§ÙĦØ¹Ø¨Ø§Ø¯Ø©":6025,"ĠÙħÙĤØ§Ø¨ÙĦ":6026,"ĠÙĪÙĦÙĥÙĨÙĩ":6027,"ĠÙĪØ¨Ø¹Ø¯Ùĩ":6028,"ĠØ³ÙĩÙħØ§ÙĨ":6029,"ĠØ³ÙĩÙĪØ§":6030,"ĠÙĪØ°":6031,"ĠØ£ÙĦØŃÙĤ":6032,"ĠÙģÙĦØ°ÙĦÙĥ":6033,"ĠØ¹Ø´":6034,"ĠÙĬÙħØ±":6035,"ĠÙĬØ°ÙĥØ±Ùĩ":6036,"Ø£ÙħØ±":6037,"ĠÙĤØ§Øª":6038,"ĠÙĤØ§Ø¨ÙĦ":6039,"ĠÙĥÙĦÙħ":6040,"ĠÙĥØ¨ÙĬØ±Ø©":6041,"ĠØ§ÙĦÙħÙĥØª":6042,"ÙĦÙĥÙĦ":6043,"Ø·Ø§Ø¨":6044,"ĠØªØ±Ø«":6045,"ĠÙĩØ§Ø±":6046,"ĠØ´Ø¬Ø±":6047,"ĠØ´Ø¬Ø±Ø©":6048,"Ø§Ø¨Ø¹Ø©":6049,"ÙĪØ§ÙĬØ©":6050,"ĠÙħØ¹Ø³Ø±Ø§":6051,"ĠØ§ÙĦÙĪÙģØ§Ø¡":6052,"ĠØ§ÙĦØ¨ÙĦÙĪØº":6053,"ÙĪÙħØŃÙĦ":6054,"ĠØ§ÙĦØ¬ÙĨÙĬÙĨ":6055,"ĠÙĬØŃØ³ÙĨ":6056,"Ø¯ÙĬÙĨÙĩ":6057,"ÙģØ§Ùģ":6058,"ÙģØ§ØªÙĩ":6059,"ĠØ£ÙħÙĬØ±":6060,"ĠØ§Ø³ØªÙħØ±":6061,"ÙĪØ£Ø®Ø°":6062,"ĠÙĦÙĥÙĪÙĨÙĩØ§":6063,"ĠØ§ÙĨÙĤØ¶Øª":6064,"Ø®ÙĦÙĦ":6065,"ĠÙĦØ¹ÙĦÙĩ":6066,"ĠÙĪÙĦØ¯ØªÙĩ":6067,"ĠØ§ÙĦÙħØµÙĦÙĬ":6068,"Ø§Ø´ÙĬ":6069,"Ø±Ø¹ÙĩØ§":6070,"ĠÙĬØ´ÙĥÙĦ":6071,"ØŃØ±Ø±":6072,"ĠØŃÙĦÙģÙĩ":6073,"ĠÙģØ§ÙĦØ¸Ø§ÙĩØ±":6074,"ĠØªÙĨØ²":6075,"Ø§ÙĥÙĬÙĨ":6076,"ĠØ§ÙĤØªØ¶Ø§Ùĩ":6077,"ĠØ¨Ø§ÙĦØ´Ø±Ø·":6078,"ĠÙħØ·Ø±Ùģ":6079,"ĠØ§ÙĦÙĬØ³Ø±Ùī":6080,"ĠÙĨØµØ§Ø¨Ø§":6081,"ĠØ¨Ø§Ø·ÙĦØ©":6082,"ÙĬÙĩÙħØ§":6083,"ÙĬÙģØ©":6084,"ÙħÙĩØ§":6085,"Ø¨ÙĦØº":6086,"ĠÙģØ¯ÙĬØ©":6087,"ĠÙĬØ¸":6088,"ĠÙĬØ²ÙĦ":6089,"ØµØ§ÙĦ":6090,"ĠØ§ÙĦÙħÙĪØ·":6091,"ĠÙħÙĨØª":6092,"ĠØªØ¹ØªØ¨Ø±":6093,"ÙĦÙĪØ§Øª":6094,"ĠØ§ÙĦÙĦÙĬØ«":6095,"ĠØ±Ø·":6096,"ĠØ±ÙĥÙĨ":6097,"ĠØ±Ø¶Ø§Ùĩ":6098,"ĠÙĨÙĩØ±":6099,"ĠØ³Ø¯":6100,"ĠØ¬Ø³":6101,"ĠØ§ÙĦØ¹Ø·Ùģ":6102,"ĠØ§ÙĦØŃÙģØ¸":6103,"ÙĪØ§ÙĦÙĩÙħ":6104,"ĠØ®Ø¯Ùħ":6105,"Ø¨ÙĨÙī":6106,"ĠØ§ÙĦÙĨÙĪØ¹":6107,"ĠØ§ÙĦØ´Ø§Ø±Ø¹":6108,"ĠØ§ÙĦÙģØ§Ø¹ÙĦ":6109,"ĠØ§ÙĦØµÙģ":6110,"ĠØ§ÙĦØ®Ø§ÙĨÙĬØ©":6111,"ÙĤØ±Ø±":6112,"Ø§Ø²ÙĬ":6113,"ÙĤØ·ÙĪØ¹":6114,"Ø¯Ø§Ø¹":6115,"ÙĪØ£Ø®Ø¨Ø±ÙĨØ§":6116,"Ø§Ø¬Ø²":6117,"ĠØ£Ø¹ÙĨÙĬ":6118,"ĠØ£Ø¹Ø·ÙĬ":6119,"Ø§ØªØ¨":6120,"Ø§ØªÙĬÙĨ":6121,"ĠÙģØ¹ÙĦÙħ":6122,"ĠØ¨Ø§ÙĦÙħØ§Ø¡":6123,"ĠÙĬØµÙĪÙħ":6124,"ĠÙĪØ³Ø·":6125,"ĠÙĦØªØ¹ÙĦÙĤ":6126,"ĠØ¹Ø·ÙĬØ©":6127,"Ø±Ø§Ø¨Ø¹Ø©":6128,"ĠØ§ÙĦØ¬Ø²Ø§Ø¡":6129,"ÙĪØ´Ø±Ø·":6130,"ĠØ¬ÙĨØ§ÙĬØªÙĩ":6131,"ĠÙĨØ§Ø¦Ø¨Ùĩ":6132,"ĠØ¨Ø«ÙħÙĨÙĩ":6133,"Ø§Ø®Ø°":6134,"Ø§Ø¶Ø©":6135,"ÙĬÙħÙĩ":6136,"ÙĪØ¸Ø§ÙĩØ±Ùĩ":6137,"Ø±ÙĤÙĬ":6138,"Ø¯ÙĪÙĨ":6139,"ĠÙĪØ¨ÙĬØ¹":6140,"ĠØ£Ø³Øª":6141,"ĠØ£Ø³Ø±":6142,"ĠÙħØ®ØªØ§Ø±":6143,"ĠÙħÙĪØ±Ø«Ùĩ":6144,"ĠÙĬØ¨Ø±":6145,"ĠÙĬØ¨Ø§ØŃ":6146,"ÙĦÙĩÙħØ§":6147,"ĠÙĥØ¬":6148,"Ø·ÙĦØ¹":6149,"ĠÙĩÙĦØ§ÙĦ":6150,"ĠØ§ÙĦØ£ÙģØ¶ÙĦ":6151,"Ø¸ÙĬÙħ":6152,"ÙģØ¹ÙĦÙĬÙĩ":6153,"ĠØ¨Ø§Ø®Øª":6154,"ÙĪÙĬØ§ÙĨÙĬ":6155,"ÙĪÙĬØ¤Ø®Ø°":6156,"ĠÙĪØ¬Ø²Ùħ":6157,"ĠØ§ÙĦÙģÙĤÙĬÙĩ":6158,"ĠÙĪØ¹ÙĥØ³Ùĩ":6159,"Ø¯Ø§ÙħØ©":6160,"ĠØ§ÙĦØ±Ø¤ÙĬØ©":6161,"ĠØ§ÙĦØ²ÙħØ§ÙĨ":6162,"ĠØ§ÙĦØ§Ø¬ØªÙĩØ§Ø¯":6163,"ĠØªØ¹Ø¨ÙĬØ±":6164,"ØªØ§Ø¨Ø¹":6165,"ĠØªØŃØµÙĦ":6166,"ĠÙĪØµÙĦÙī":6167,"ĠØ§ÙĦÙħØŃØ§ÙĦ":6168,"ÙĪØ§ÙĦÙĨ":6169,"ÙĪØŃÙĬÙĨØ¦Ø°":6170,"ĠØ£Ø¯ÙĨÙī":6171,"ĠØ¹ØªÙĤÙĩØ§":6172,"ĠÙħØ´Ø§ÙĬØ®":6173,"ĠØ§ØŃØªÙĬØ§":6174,"ĠÙģÙĥØ§ÙĨØª":6175,"ĠØ¨Ø«ÙĦØ§Ø«Ø©":6176,"ĠÙĨÙĥØ§ØŃÙĩ":6177,"ĠÙĨÙĩØ§Ø±Ø§":6178,"ĠÙĦØ£Ø¨ÙĪÙĬÙĨ":6179,"ĠØ§Ø±ØªØ¯":6180,"ĠØ¨Ø§ÙĨØª":6181,"ĠÙģØ¯Ø®ÙĦ":6182,"ĠØ¬Ø±ÙĬØ±":6183,"ĠØ£Ø±Ø¯Øª":6184,"ĠØŃØ§Ø¬ØªÙĩ":6185,"ĠØ§ÙĦÙĬÙħÙĨÙī":6186,"ĠØ§ÙĦÙħØ§Ø¦Ø©":6187,"Ø§ÙĩÙĦ":6188,"Ø±ÙĪØ¨":6189,"Ø¹ÙħØ§ÙĦ":6190,"ĠØ£Ø¨Ø¹Ø¯":6191,"ĠÙĬÙĪÙĥÙĦ":6192,"ĠÙĬÙĦØŃÙĤÙĩ":6193,"ÙĥØªØ¨":6194,"ĠÙĤÙĦÙĬÙĦØ§":6195,"ĠÙĥÙĨØ§ÙĬØ©":6196,"ĠØ¥Ø«":6197,"ĠÙħÙĨØ³":6198,"ĠØªØ¸ÙĩØ±":6199,"ĠØ£ÙĨØ²ÙĦ":6200,"ĠØ±Øº":6201,"ĠØ³Ø±Ø§":6202,"ĠØ´Ø±Ùĥ":6203,"ĠØ£ÙĬØ¯ÙĬ":6204,"ĠØ¨ÙĨÙĪ":6205,"ĠØ¨Ø¹Ø±ÙģØ©":6206,"ĠØ®ÙĨØ«Ùī":6207,"Ø§Ø¦ÙĤ":6208,"ĠØ¥ÙĨØ§Ø¡":6209,"ĠØ§ÙĦØªØŃÙĦÙĦ":6210,"Ø§ÙħÙĨØ§":6211,"ĠØ§ÙĦÙĨØ¹":6212,"ĠØ§ÙĦØ´Ø±Ùĥ":6213,"ĠÙĪÙĬÙħÙĥÙĨ":6214,"ĠÙĪÙĬØ¤Ø®Ø°":6215,"ĠØ§ÙĦÙģØ¶":6216,"Ø¤ÙħÙĨ":6217,"ÙĤØ§Ø¯Ùĩ":6218,"ĠÙĬÙĨØ¯Ø¨":6219,"ÙĦØ¨Ø³Ùĩ":6220,"ĠØ£ÙħÙĩØ§":6221,"ĠÙĤØ¯Ø±Ø§":6222,"ĠØ§ÙĦØ±Ø§Ø¡":6223,"ÙĦØ²ÙĪØ¬":6224,"ĠÙĦÙĦÙħØª":6225,"ĠÙģØ£Øª":6226,"ĠÙĪÙĨÙĤÙĦ":6227,"ĠÙģØªØ£ÙħÙĦÙĩ":6228,"ĠØ§ÙĦÙħØ³Ø£ÙĦØªÙĬÙĨ":6229,"ĠÙĤØ§Ø¹Ø¯Ø©":6230,"ĠÙĪØµÙī":6231,"ĠÙĪØ³ÙĤØ·":6232,"ĠØ±Ø£Øª":6233,"ĠØ³ÙħÙī":6234,"ĠÙħØ¯Ø¨Ø±Ø§":6235,"ĠØŃØ§Ø¶Ø±":6236,"ĠØ§Ø¯Ø¹Øª":6237,"ĠÙĪØ§ÙĦØ¨Ø§ÙĤÙĬ":6238,"ĠÙĪØ²Ø§Ø¯":6239,"ĠÙĦÙģØ¸Ùĩ":6240,"ĠØ¨Ø§ÙĦØ´ÙģØ¹Ø©":6241,"ĠØ®ØµÙħÙĩ":6242,"ĠÙħØŃØªØ§Ø¬":6243,"ĠØ§ÙĦØ±Ø§Ø¨Ø¹":6244,"ĠØ§ÙĦÙħÙĨØ§ÙģØ¹":6245,"ĠØµØ¨ÙĬØ§":6246,"ĠÙĬÙģÙĬØ¯Ùĩ":6247,"ÙĪØ¶ÙĬØŃ":6248,"ĠØ®ÙĬØ¨Ø±":6249,"Ø§Ø¹ÙĬ":6250,"Ø±Ø³ÙĦ":6251,"ÙĦØ´":6252,"Ø¨Ø§Ø¡":6253,"Ø¨Ø§Øº":6254,"ĠØ£Ø¸":6255,"ĠÙħØ±ÙĬ":6256,"ĠÙħÙħØªÙĨØ¹":6257,"ĠØ¨Ø¯Ø§":6258,"ĠØ¹ÙĤÙĦÙĩ":6259,"ĠØ¹ÙĤØ¨Ø©":6260,"ĠØ¹ÙĪØ¶Ø§":6261,"ÙĥÙħØ©":6262,"ĠØ¥ÙĨÙĩØ§":6263,"ĠÙħÙĨØ§Ùģ":6264,"Ø·Ø´":6265,"ĠØªÙĬÙħ":6266,"ĠØªÙĤØªØ¶ÙĬ":6267,"ĠØ§ÙĦÙĦØ¹Ø§ÙĨ":6268,"ĠØ´Ø§ÙħÙĦ":6269,"ĠØµÙĨÙģ":6270,"Ø±Ø§ØŃØ©":6271,"ĠØ§ÙĦØ¹Ø±":6272,"ĠØ§ÙĦØŃÙĨÙģÙĬØ©":6273,"ĠØ¯Ø¨Ø±Ùĩ":6274,"ÙĪØ§Ø¹Øª":6275,"ĠØ®Ø§ÙĨ":6276,"ĠØ®Ø¨Ø±Ùĩ":6277,"ĠØ§ÙĦÙĤÙĨÙĬØ©":6278,"ĠÙĦØ£Ø¨ÙĬÙĩ":6279,"ĠØ§ÙĦØªÙĤØ¯ÙĬØ±":6280,"ĠØ§ÙĦØ¥Ø´Ø§Ø±Ø©":6281,"ĠØ§ÙĦØ³ÙĩÙħ":6282,"ĠØ£Ø®Ø·Ø£":6283,"ĠÙĬØ¹Ø±Ø¶":6284,"ĠØºØ§Ø¦":6285,"ĠØ§ÙĦØ¯Ø±ÙĩÙħ":6286,"ĠÙĬÙĨÙĤÙĦ":6287,"ĠÙĬÙĨÙģØ³Ø®":6288,"ÙĪØ²ÙĨ":6289,"ĠØ§ÙĦØ±ÙģØ¹":6290,"ĠØ¹ÙĦÙĬØ§":6291,"ĠÙĪÙĩØ¨Ùĩ":6292,"ĠØ§ÙĦØºØ²Ø§ÙĦÙĬ":6293,"ĠØªØ¹ÙĬ":6294,"ĠØªØ¹Ø±Ø¶":6295,"ĠÙĪÙħÙĨÙĩØ§":6296,"ĠÙħØ³Ø£ÙĦØª":6297,"ĠØ¨ØŃØ¬":6298,"ÙĩØ¯Ùī":6299,"Ø¹ÙĨØ¯":6300,"ĠÙĬØ³ØªÙĦØ²Ùħ":6301,"ĠØ¨ØªØ³":6302,"ÙħØ±Ø£ØªÙĩ":6303,"ĠØ³ÙĬÙħØ§":6304,"ĠÙĬØ²ÙĪÙĦ":6305,"ĠÙĥØªØ§Ø¨ØªÙĩ":6306,"ĠØ§ÙĦØ«ÙĦØ«ÙĬÙĨ":6307,"ĠÙĦØµØŃØ©":6308,"ÙĪØ§ÙĦØ£ØµÙĦ":6309,"ĠØªØ¯Ø®ÙĦ":6310,"Ø³ÙĨØ§Ø¯Ùĩ":6311,"Ø®ÙĬÙĬØ±":6312,"ĠØ§ÙĦØ¬ÙĨØ§Ø²Ø©":6313,"ĠØ§ÙĦÙħÙĦØªÙĤØ·":6314,"ĠØ¨ÙĪØ·Ø¡":6315,"ĠØ§ÙĦÙĬØªÙĬÙħ":6316,"ÙĬØ¯Ø©":6317,"ÙĪØ¯ÙĬ":6318,"ĠÙĪÙĪÙĤØ¹":6319,"ĠÙħØ±Ø¬":6320,"ĠÙħÙģØ¹ÙĪÙĦ":6321,"ĠØ¨Ø§Ø¦Ø¹":6322,"ĠÙģÙĪØ§":6323,"ĠÙģØ³Ø±":6324,"ĠÙģØ§ÙĦØ¨":6325,"ĠÙĬÙģØ³":6326,"Ø¬ÙĬ":6327,"ĠÙĥÙĨØ§":6328,"Ø«Ø§ÙĦ":6329,"Ø·ÙĬØ©":6330,"Ø§Ø±Ùħ":6331,"ĠØ±ÙĬØŃ":6332,"ĠÙĨÙģØ±":6333,"ĠÙĨØ¹ÙĦÙħ":6334,"ĠØ³Ø£ÙĦØª":6335,"ĠØ³Ø±ÙĤØ©":6336,"ĠØ³ÙĨØªÙĬÙĨ":6337,"ĠØ§ÙĦØ£Ø«":6338,"ĠØ§ÙĦØ£ÙĬØ§Ùħ":6339,"ĠØ¨ÙĨØµ":6340,"ĠØ¬ØŃØ¯":6341,"ĠØ§ÙĦØŃØ§Ø¯Ø«":6342,"ĠØ®Ø¯ÙħØ©":6343,"ĠØ§ÙĦØ¨Ø§Ø¡":6344,"ĠØ§ÙĦØªØ±Ùĥ":6345,"ĠØ§ÙĦØªØ´ÙĩØ¯":6346,"ĠØ§ÙĦØªÙħØªØ¹":6347,"ĠØ§ÙĦØªÙĤÙĬÙĬØ¯":6348,"ÙĥØ±ÙĪÙĩ":6349,"ĠØ§ÙĦØ¬Ø§ÙĨ":6350,"ĠÙĪØ£Ø¨":6351,"ĠÙĪØ£ØŃ":6352,"ÙĬØ§Ø¯":6353,"ĠØ§ÙĦØ®ÙĦØ§ØµØ©":6354,"ÙĤØ§Ø©":6355,"ĠØ¨Ø£ÙħØ±Ùĩ":6356,"ĠØ§Ø³ØªØ£Ø¬Ø±Ùĩ":6357,"ĠØ¨Ø¯Ø£":6358,"ĠÙĪØ§ÙĦÙħØ±Ø£Ø©":6359,"ĠØ§ÙĦÙħØ³Ø§ÙģØ±":6360,"ĠØ±Ø¶ÙĬØª":6361,"ØµØ±ÙģÙĩ":6362,"ĠÙħØ¬ÙħÙĪØ¹":6363,"Ø±Ø´Ø§Ø¯":6364,"ĠÙĬÙģÙĪØª":6365,"ĠØ§Ø³ØªØŃÙĤØ§ÙĤÙĩ":6366,"ĠÙĨÙģØ³ÙĬ":6367,"ĠØŃÙĥÙĪÙħØ©":6368,"ĠÙĤØ·Ø¹Øª":6369,"ĠÙĬØ¹ØªÙħØ¯":6370,"ĠØ·ÙĦØ§ÙĤÙĩØ§":6371,"ÙģÙĥØ°ÙĦÙĥ":6372,"ĠØ£Ø«ÙĦØ§Ø«":6373,"ĠØ§ÙĦØ¥Ø®ÙĪØ©":6374,"Ø£ÙĥÙĪÙĦ":6375,"ĠÙħÙĪØ¶Ø¹Ùĩ":6376,"ĠØ´ÙĩØ¯Ø§":6377,"ĠÙĬØªØ£ØªÙī":6378,"ĠØ§ÙĦÙĩÙħØ²Ø©":6379,"ĠÙħÙĨÙģØ±Ø¯Ø§":6380,"ĠØ§ÙĦØ§ÙħØªÙĨØ§Ø¹":6381,"ÙħÙĦØª":6382,"Ø¯ÙĨ":6383,"ĠÙĪÙĤØ¯Ùħ":6384,"ĠØ£Ø¹ØªÙĤØª":6385,"ĠÙħØµØ¯Ø±":6386,"ĠØ¨Ø³Øª":6387,"ĠÙģÙħØ¹":6388,"ĠÙģÙĤÙĪÙĦ":6389,"ĠØ§ÙĦÙħØ®Øª":6390,"ĠÙĦÙĩÙĬØ¹Ø©":6391,"ĠØ§ÙĦØ¹Ø§Ø±ÙĬØ©":6392,"ĠØ§ÙĦØ¹ÙĩØ¯Ø©":6393,"ĠØ§ÙĦØŃÙħØ¯":6394,"ĠØ«ÙħØ±Ø©":6395,"ĠÙĦØ£ÙĥØ«Ø±":6396,"ĠØ§ÙĦØ³Ø±ÙĤØ©":6397,"ĠÙĪÙĬÙĤØ§ÙĦ":6398,"ĠÙĪÙĬÙĤÙĪÙĦ":6399,"ĠÙĪØ¹Ø¨Ø§Ø±Ø©":6400,"ĠØ§Ø³ØªÙĪÙģÙī":6401,"ĠØ§ÙĦØ²ÙĪØ§ÙĦ":6402,"ĠØ§ÙĦØ§Ø®ØªÙĦØ§Ùģ":6403,"ĠÙģØ£ÙĤØ±":6404,"Ø®ÙĦØ§ÙģØ§":6405,"ÙĦØ¹Ùĩ":6406,"ĠØ£ØµÙĦÙĩØ§":6407,"ĠÙĪØŃÙĦÙģ":6408,"ĠÙĪØ§ÙĦØ£ÙĪÙĦ":6409,"ĠØ¨ÙĤÙĬØª":6410,"ÙĪÙĦÙĬØ§":6411,"ĠØ§ÙĦØ£ÙħÙĪØ§ÙĦ":6412,"ÙĪÙĦØ¯Ø©":6413,"ĠØ¨Ø¬ÙĪØ§Ø²":6414,"ĠØªØµÙĪØ±":6415,"ĠØ¹ØªØ¨Ø©":6416,"ĠÙħØ¹ÙĦÙĪÙħØ§":6417,"ÙĪØ§ÙģÙĤÙĩ":6418,"Ø§Ø±ÙĬØ®":6419,"ĠØ¨ÙĦØ¯Ùĩ":6420,"ĠÙĪØ¨ÙĨØª":6421,"ĠÙħØ³Ø¬Ø¯Ø§":6422,"ÙĬØ¬ÙĪØ²":6423,"ÙĪÙĦØ°ÙĦÙĥ":6424,"ĠØ§Ø«":6425,"ÙĦØ¤":6426,"ĠÙħÙĦÙĬ":6427,"ĠÙħØ¬Ø±":6428,"ĠÙħØ£Ø®ÙĪØ°":6429,"ĠØ¨Ø¥ÙĨ":6430,"ĠØ¨Ø¦":6431,"ĠØ¨ÙĨØ§Øª":6432,"ĠØ¨Ø³Ø¨Ø¨Ùĩ":6433,"ĠÙģØ«":6434,"ĠÙģØ·Ø±":6435,"ĠÙĬØºÙĨÙĬ":6436,"ĠÙĬÙħØ³ØŃ":6437,"Ø£Ø¨ÙĪ":6438,"ĠØ§ÙĦÙħÙĪØ¬ÙĪØ¯":6439,"ĠØ§ÙĦÙħØ¯ÙĬÙĪÙĨ":6440,"ĠØ¥Ø·ÙĦØ§ÙĤÙĩ":6441,"ĠØªØ±Ø¶":6442,"Ø§Ø±ÙĤØ©":6443,"ĠÙĨÙĤÙĦØ§":6444,"ĠØ§ÙĦØ£ÙĪÙĦÙĬÙĨ":6445,"Ø±Ø§Ø¹Ø©":6446,"ĠØ§ÙĦØ¹Ø§ÙĦÙħ":6447,"ĠØ§ÙĦÙĤÙĦÙĬÙĦ":6448,"ĠØ§ÙĦÙĤØ±ÙĬØ¨":6449,"ĠØ§ÙĦØªÙħØ±":6450,"ĠÙĦÙĪØ±Ø«ØªÙĩ":6451,"ĠØ§ÙĦØ¬ÙĩØ§Ø¯":6452,"ĠØ§ÙĦØ¬ÙĦÙĪØ³":6453,"ĠØ£Ø®ØªÙĩ":6454,"ĠÙĦÙĬÙĥÙĪÙĨ":6455,"ĠÙħØŃØ°ÙĪÙģ":6456,"Ø¯ÙĬØ¯Ø©":6457,"ĠØ§ÙĦÙĥÙģØ§ÙĬØ©":6458,"ĠÙĪØ¹ÙĦÙĬ":6459,"Ø§Ø²Ùħ":6460,"ĠÙĦØ£ÙĨÙĩÙħØ§":6461,"ĠÙĪØ¥ÙħØ§":6462,"ĠÙĦÙĦÙħÙĪØµÙī":6463,"ÙĪÙĤØ¶ÙĬØ©":6464,"ĠÙĬØ®Ùģ":6465,"ÙģÙĩÙĬ":6466,"ĠØŃÙĤÙĩÙħ":6467,"ĠØ§ÙĦÙħØ¹ØµÙĬØ©":6468,"ĠØ¨Ø§ÙĦÙħØ¹Ø±ÙĪÙģ":6469,"ĠØ§ÙĦÙħÙĨÙĤÙĪÙĦ":6470,"ĠÙħØ¬ÙħØ¹":6471,"Ø¶Ø¹Ùģ":6472,"ĠØ¯ÙģØ¹Ø§":6473,"ĠØ§ÙĦØ£ÙħÙĬØ±":6474,"ØµÙĬØ¨Ùĩ":6475,"ĠÙĦÙĦØ¹ÙĦÙħ":6476,"ĠØ¹ÙħØ§Ø±Ø©":6477,"ĠØ¨Ø§ÙĦÙģØªØŃ":6478,"ĠØ¶Ø±Ø¨Ùĩ":6479,"Ø¹Ø·Ùī":6480,"ĠÙħØŃØªØ±Ø²":6481,"ĠØ§ÙĦØ³Ø§Ø¨ÙĤØ©":6482,"ĠØ§ÙĦØ£Ø´ÙĩØ±":6483,"ĠØ§ÙĦÙħØ®Ø§ÙĦÙģ":6484,"ĠØ§Ø³ØªØ¹ÙħØ§ÙĦ":6485,"ĠÙĨÙĤØ¯Ø§":6486,"ĠØ§Ø¬ØªÙħØ§Ø¹":6487,"ĠØ§ÙĦØ¥Ø´ÙĩØ§Ø¯":6488,"ĠØªØ±Ø¬ÙĬØŃ":6489,"ĠØ¥Ø¨Ø·Ø§ÙĦ":6490,"ĠØ±Ø¢Ùĩ":6491,"ĠØ£ÙģØ³Ø¯":6492,"ĠÙħÙĪÙĤÙĪÙģ":6493,"ĠØ¨Ø³Ø±":6494,"ĠÙģØµØŃ":6495,"ĠÙģÙĪØ±Ø§":6496,"ĠØ¹Ø¶":6497,"Ø£ÙĥÙĦ":6498,"ØµØ§ÙĦØŃ":6499,"ĠÙģÙĬØ£Ø®Ø°":6500,"ÙĦÙĬØªÙĩ":6501,"ĠÙĥÙĦÙħØ©":6502,"ĠØ§ÙĦÙħÙĪ":6503,"Ø¶Ø·":6504,"Ø·ÙĩØ±":6505,"ĠØªÙĪØ¬Ø¯":6506,"ĠÙĨØ°Ø±Ùĩ":6507,"ĠØ´ÙģØ¹Ø©":6508,"ĠØ§ÙĦØ¹Ø§Øµ":6509,"ØºØ±ÙĤ":6510,"ĠØ§ÙĦØ¨ÙĪÙĦ":6511,"ĠØ§ÙĦØªØ±Ø§Ø¨":6512,"ĠØ§ÙĦØªÙĩÙħØ©":6513,"ĠÙĦÙĪÙĦØ§":6514,"ĠØ§ÙĦÙĨÙĪÙħ":6515,"ÙĪÙĬÙħ":6516,"ÙĪÙĬØ³ÙĨ":6517,"ÙĪÙĬØ´ØªØ±Ø·":6518,"ĠØ²Ø§Ø¦Ø¯Ø©":6519,"ĠØ§ÙĦØ¬Ø§Ùĩ":6520,"ĠÙĪØ£Ø±Ø¨Ø¹":6521,"ÙĪØ¹ÙĦÙħ":6522,"ĠØ§ÙĦÙģØ¯Ø§Ø¡":6523,"ĠØ§ÙĦØµØ¨ØŃ":6524,"ĠÙħØŃØµ":6525,"ĠØºØ§ØµØ¨":6526,"ĠØºÙĬØ¨ØªÙĩ":6527,"ÙĪØ£Ø¬ÙĬØ¨":6528,"ĠÙĪÙĤÙģØ§":6529,"ĠØ§ÙĦØ§ÙĥØª":6530,"ĠÙĪØ§ÙĦÙħÙĨ":6531,"ĠØ§ÙĨÙģØ±Ø¯":6532,"ĠØ§ÙĦÙħØªØ¹ÙĦÙĤ":6533,"ĠØ§ÙĦÙħØµØ§ÙĦØŃ":6534,"ĠØŃÙĥÙħÙĩØ§":6535,"ĠØ£ÙĤØ³Ø§Ùħ":6536,"ĠÙħØ¬Ø§Ø²":6537,"ĠÙģØ§ÙĦØ¬":6538,"ĠØ¨Ø§ÙĦØªØ¹":6539,"ĠÙħØ¯Ø¨Ø±":6540,"ĠÙĬØ®Ø±Ø¬Ùĩ":6541,"ĠØ§ØªÙģÙĤ":6542,"ĠØ«Ø¨ØªØª":6543,"ÙĪØ§ÙĦØ£ØµØŃ":6544,"ĠØ¨Ø´Ø±Ø·Ùĩ":6545,"ĠØ¹Ø²ÙĦÙĩ":6546,"ĠØ§ÙĦØ£ØµÙĬÙĦ":6547,"ĠØ§ÙĦØ£ØµØºØ±":6548,"ĠØ§ÙĦØ£ØµØ§Ø¨Ø¹":6549,"ĠÙĨØ¸ÙĬØ±Ùĩ":6550,"ĠØ£ØµØ§Ø¨Ø¹":6551,"ĠØ¨Ø´Ø±Ø§Ø¡":6552,"ĠØ¨ÙĦÙĪØºÙĩ":6553,"ĠÙĩØ§Ø±ÙĪÙĨ":6554,"Ø¯ÙĤØ©":6555,"Ø¹Ø±Ùģ":6556,"ĠÙĪØ§Ø¨":6557,"ĠÙĪØ±Ø³":6558,"ĠÙĪØ¢Ø®Ø±":6559,"ĠØ£ÙĥØ§ÙĨ":6560,"ĠØ¨Ø£ÙĪ":6561,"ÙģØªÙī":6562,"ĠÙĬØ¯Ø§":6563,"ÙĦØ§ÙĪØ©":6564,"ÙĥÙĪÙħ":6565,"Ø°Ø¨Ø§":6566,"ØµØ§Ùģ":6567,"ØµØ§Ø¨Ø©":6568,"ĠØ§ÙĦÙħØ®Ø±Ø¬":6569,"Ø®ÙĪÙĦÙĩ":6570,"ĠØªØ³ÙĦÙħ":6571,"ĠØªØ¹ØªÙĤ":6572,"ĠØªÙĦØ²Ùħ":6573,"ĠØªÙĪÙĩÙħ":6574,"Ø´ÙĤ":6575,"ĠØ³ÙĦÙĬÙħ":6576,"ĠØ¹ÙĦÙĬÙĩÙĨ":6577,"ĠØ§ÙĦØ¹ÙĤ":6578,"ĠØ§ÙĦØŃØ¶Ø§ÙĨØ©":6579,"ĠØ§ÙĦÙĤØ±Ø¨Ø©":6580,"ĠÙĦØ£ÙħØ±":6581,"ĠÙĪÙĬØ£ØªÙĬ":6582,"ĠØ§Ø¨ÙĨØ©":6583,"ĠØ§ÙĦØ®Ø§Øµ":6584,"ĠÙĬØ¹Ùħ":6585,"ĠØºØ¯Ø§":6586,"ÙĪÙĥØ±Ùĩ":6587,"ĠØ¸ÙĦÙħ":6588,"Ø§ÙĩÙĨ":6589,"ĠØ£Ø¹ÙĦÙī":6590,"ĠØ£Ø¬Ø±Ùĩ":6591,"ĠØ§ÙĦÙħØ³Ø§":6592,"ĠÙĬØ³Ø§Ø±Ùĩ":6593,"Ø±Ø£Ùī":6594,"Ø±Ø§Ø¡ØªÙĩ":6595,"ĠØ¢ÙĬØ©":6596,"ĠØ§Ø¹ØªØ±Ùģ":6597,"ĠØ§ÙĦÙħÙĨØ¨Ø±":6598,"ĠØ¨Ø§ÙĦØ¹ÙħØ±Ø©":6599,"ĠÙĨØ³Ø¨Ø©":6600,"ĠÙĬØ¬Ø²Ùĩ":6601,"Ø¶ÙĪØ±Ùĩ":6602,"ĠØ«ÙĦØ«ÙĬ":6603,"ĠØ¹ÙĤØ¯Ùĩ":6604,"ĠÙĪØ¯Ø®ÙĦ":6605,"ĠÙĦÙĦÙĪÙĥÙĬÙĦ":6606,"ĠÙģØŃÙĬÙĨØ¦Ø°":6607,"ĠÙĪØ¬ÙĪØ¨ÙĩØ§":6608,"ĠØ§ÙĦØ´ÙĬØ®Ø§ÙĨ":6609,"ĠØ§ÙĦØ£Ø®ÙĬØ±Ø©":6610,"ĠØ³ÙħØ¹Ùĩ":6611,"ĠØ´ÙĩØ§Ø¯ØªÙĩÙħ":6612,"ĠÙħØ®Ø§ÙĦÙģØ©":6613,"ĠØ§ÙĦØ¯Ø¹Ø§Ø¡":6614,"ĠØ¨Ø¹ØªÙĤÙĩ":6615,"Ø§Ø¯Ùħ":6616,"ÙĬØ§Ø±Ø©":6617,"ÙĬÙĦØ§Ø¡":6618,"ÙĪØ±Ø¨":6619,"ÙĪÙģØ±ÙĤ":6620,"Ø¹Ø«":6621,"ĠÙħØ±Ø§Ø¨ØŃØ©":6622,"ĠÙģØ¨Ø§Ø¹":6623,"ĠØ¹ÙĪØ¯":6624,"ÙĦØ§ÙĥÙĩ":6625,"ÙĥÙģØ±":6626,"ÙĥÙĪÙħØ©":6627,"ĠÙĤØ³":6628,"ĠØ§ÙĦÙħÙĩÙħÙĦØ©":6629,"ĠØ¥Ø¹Ø·Ø§Ø¡":6630,"Ø·ÙĬØ¹":6631,"ĠØªØ¶Ùħ":6632,"ĠØŃØ§Ø¯Ø«":6633,"Ø§ÙĦÙĨ":6634,"ĠØ§ÙĦÙĦØŃ":6635,"ĠØ£ÙĪØ¬":6636,"Ø§Ø±Ø¯":6637,"Ø§Ø±ÙĩØ§":6638,"Ø§Ø±ÙĥÙĩ":6639,"ĠÙĨØª":6640,"ĠÙĦØ§ÙĨ":6641,"ĠØ§ÙĦØ£Ø°ÙĨ":6642,"ĠØ§ÙĦØ£Ø¹ÙĬØ§ÙĨ":6643,"ĠØ´ÙĤ":6644,"ĠØ´ÙģØ¹ØªÙĩ":6645,"ĠØ¬Ø¨ÙĦ":6646,"Ø³ØªØ§ÙĨÙĬ":6647,"ĠØ«Ø¨ÙĪØªÙĩ":6648,"ÙĪØ§Ø®ØªÙĦÙģ":6649,"ĠØ§ÙĦÙĪØªØ±":6650,"ĠØ§ÙĦØ¥Ø¬":6651,"ĠØ§ÙĦØ¥ØªÙĬØ§ÙĨ":6652,"Ø§ÙħØ¯":6653,"ĠØ²ÙĩÙĬØ±":6654,"ĠØ·Ø±ØŃ":6655,"Ø±ÙĥØ§ÙĨ":6656,"ĠÙĪÙĬÙĦØ²ÙħÙĩ":6657,"ĠØ§ÙĦØµÙĦØ§ØŃ":6658,"ĠØ§ÙĦØ®Ø¯ÙħØ©":6659,"ĠÙĬØ¹Ø¬Ø²":6660,"ĠÙĪÙĥÙĦØ§Ùħ":6661,"ÙĥØ§ÙĨÙĩ":6662,"ĠØ±Ø¬Ø¹Øª":6663,"ĠØ§ÙĦØ§ÙĦØª":6664,"ĠÙģØ£ØµØ§Ø¨":6665,"ĠÙģØ§Ø¹ÙĦ":6666,"ĠØ§ÙĨØªÙĩ":6667,"ÙĪÙģÙĬÙĩØ§":6668,"ĠÙĬØ¤Ø°ÙĨ":6669,"Ø¹Ø¯Ùī":6670,"ĠÙģÙĥÙħØ§":6671,"ÙĪÙĦÙĬØ§Ø¡":6672,"ĠØ§ÙĦÙħØ¬ÙĨÙĪÙĨ":6673,"ĠØªØ³ÙĦÙĬÙħÙĩ":6674,"ĠÙģÙĩÙĦÙĥ":6675,"ĠØ§ÙĦØ´ÙĬØ·Ø§ÙĨ":6676,"ÙĦÙĪØ§ÙĪ":6677,"ĠÙĪØ§ÙĦØŃØ§ÙĦ":6678,"ĠÙĥØ«Ø±Ø©":6679,"ĠØ£ØªØª":6680,"ĠØ¨Ø§ÙĦÙĨØ¸Ø±":6681,"ĠØ§ÙĦØ£ØµÙĦÙĬ":6682,"²ÙĪØ¬Ø©":6683,"ÙĪÙĬØªØ¬Ùĩ":6684,"ĠØ§ÙĦØ£Ø¹Ø¶Ø§Ø¡":6685,"ĠØµÙģØªÙĩ":6686,"ĠÙĤØ§Ø¦ÙħØ©":6687,"ĠØ¬Ø±ØŃÙĩ":6688,"ĠØ¥ÙĬØ¬Ø§Ø¨":6689,"ĠØ·ÙĦØ§ÙĤØ§":6690,"ĠØ§Ø³ØªØ¦Ø¬Ø§Ø±":6691,"ÙĬÙĦØ©":6692,"ØªÙĬØ©":6693,"ĠØ£ÙħØ§ÙĨ":6694,"ĠÙħØ±ÙĬØ¶":6695,"ĠØ¹Ø¬ÙĦ":6696,"ØŃÙĬØ©":6697,"ØŃØ§Ø¯":6698,"ĠÙĤÙĪÙĦØ§":6699,"ĠØ§ÙĦÙħÙĪØ¬Ø¨":6700,"ĠØ¥ÙĤ":6701,"ĠØªÙĩÙħØ©":6702,"Ø§ÙĦØ°ÙĬ":6703,"Ø°Ø§Ùĥ":6704,"ĠØ±Ø¤":6705,"ĠØ³Ø£ÙĦÙĩ":6706,"ĠØ§ÙĦØ£Ø¹ÙĦÙī":6707,"ĠØ¬ÙĨÙĬÙĨ":6708,"ĠØ¬ÙĨØ¨":6709,"ĠØ§ÙĦØ¹ÙĩØ¯":6710,"ÙĪØ§ÙĦÙĬ":6711,"ÙħØ±Ø¶":6712,"ÙģÙĬØ²":6713,"ĠØ¥ÙĨÙĥ":6714,"Ø±Ø¬ÙĬØŃ":6715,"Ø±Ø¨ÙĬØ©":6716,"Ø¦ÙĬÙĨ":6717,"ĠÙĪØ¬ÙĪÙĩ":6718,"ĠÙĬØ¬Ø¹ÙĦÙĩ":6719,"ĠÙĪÙĬØ´ØªØ±Ø·":6720,"ĠÙĦÙĬÙĦÙī":6721,"ĠÙĬØªÙĥØ±Ø±":6722,"ĠÙĬØªÙĥÙĦÙħ":6723,"ĠÙĬØªØ±ØªØ¨":6724,"ÙĦØ®Ø¨Ø±":6725,"ÙĦØ¨ÙĬ":6726,"ĠØ¶Ø§ÙħÙĨØ§":6727,"ĠØ£ÙħØªÙĬ":6728,"ĠØ§Ø³ØªØ±":6729,"ĠØ¨Ø¯Ø¹Ø©":6730,"ÙĦØ²Ø§Ùħ":6731,"ĠØ§ÙĦØ§Ø´Øª":6732,"ĠÙĦÙĦÙħØ§ÙĦÙĥ":6733,"ĠÙĦÙĦÙħØ¯Ø¹ÙĬ":6734,"ĠÙģØ£ÙĥÙĦ":6735,"ĠØ£Ø¬ÙĨØ¨ÙĬØ©":6736,"ĠÙĪØ§ÙĦØ£ØµØŃ":6737,"ĠØªØ£Ø®Ø°":6738,"ĠÙģØ§ÙĦØ¥":6739,"ĠØªÙĨÙģØ³Ø®":6740,"ĠØ¹ÙħÙĪÙħ":6741,"ĠÙĬØ·ÙĦØ¹":6742,"ĠÙħØ¤Ø¬ÙĦ":6743,"ĠØ±Ø¬Ø¹ÙĬØ§":6744,"ĠØ¥ÙĦÙĬÙĨØ§":6745,"ĠØ¬Ø¹ÙĦØª":6746,"ĠØ£ÙĩÙĦØ§":6747,"ĠÙĨÙĤØµØ§ÙĨ":6748,"ĠØ§ÙĦÙģØ±Ø§Ø¦Ø¶":6749,"ĠØ´ÙĩØ§Ø¯ØªÙĩÙħØ§":6750,"ĠØ§ÙĦÙĨÙĩØ§Ø±":6751,"ĠØ§ÙĦÙĪÙĤÙĪØ¹":6752,"ĠØ¸Ø§ÙĩØ±Ø©":6753,"ĠØµØ¯Ø§ÙĤÙĩØ§":6754,"ĠØ§ÙĦÙĪØ¬ÙĪÙĩ":6755,"ĠØ¬Ø³Ø¯Ùĩ":6756,"ÙĩØ³ØªØ§ÙĨÙĬ":6757,"ÙĪÙĦÙĬÙĩ":6758,"ÙĪÙĦØ£":6759,"Ø±ÙĪÙĬ":6760,"ØªÙģØ±":6761,"ĠÙĪØ«Ø¨Øª":6762,"ĠÙħÙĪÙĦØ§":6763,"ĠÙħÙģÙĩÙĪÙħÙĩ":6764,"ĠØ¨ÙĪÙĤØª":6765,"ĠØ¹Ø¸Ùħ":6766,"ĠÙĬØ¨Ø¹Ø«":6767,"ĠÙĤÙĨØ§":6768,"ĠÙĤØ§ØªÙĦ":6769,"ÙĨÙĩÙī":6770,"ØµÙħ":6771,"ĠØ§ÙĦÙħØµØŃÙģ":6772,"ĠØ§ÙĦÙħÙĬÙĤØ§Øª":6773,"ĠØ§ÙĦÙħÙĦØ§Ø¦ÙĥØ©":6774,"Ø®Ø³ÙĬ":6775,"ĠØªØ¶ÙħÙĨ":6776,"ĠØŃÙģØµ":6777,"Ø§ÙĦÙĦÙĩÙħ":6778,"ĠØ£ÙĨÙģÙĩ":6779,"ĠÙĦØ¢":6780,"ĠØ§ÙĦØ¹Ø²ÙĦ":6781,"ĠØ¨Ø¹ÙħØ±Ø©":6782,"ÙĪØ§Ùĥ":6783,"ĠØ®ÙĬÙģ":6784,"Ø§Ø¦ÙħØ§":6785,"ĠÙĦÙĪØ§Ø±Ø«":6786,"ÙĬØ¯ÙĩØ§":6787,"Ø¨Ø§ÙĬØ¹":6788,"ĠÙħØŃØ±ÙħØ©":6789,"ĠÙĬØªÙĤØ¯Ùħ":6790,"ĠØ§ÙĦØ®Ø´":6791,"Ø¨ØªÙĬÙĨ":6792,"ĠÙĪÙĥØ£ÙĨÙĩ":6793,"ĠØªØ¹Ø¯Ùī":6794,"ĠÙĬØ³Ø¹":6795,"ÙħÙĬØµ":6796,"ÙĦØ³Ø§ÙĨ":6797,"ĠØ¢ÙĨ":6798,"ĠØ¢ÙĦØ©":6799,"ĠØ¨ÙĬÙĤÙĬÙĨ":6800,"ĠÙģØ³Ø§Ø¯Ùĩ":6801,"ĠØ§ÙĦØ¶Ø±ÙĪØ±Ø©":6802,"ĠÙĪØ§ÙĦØ£Ùħ":6803,"ĠÙĬØ²Ø¯":6804,"ĠØ§ÙĦÙħØ´Ø§ÙĬØ®":6805,"ØµÙĬÙĦÙĩ":6806,"ĠÙĬÙģØµÙĦ":6807,"Ø®Ø¨Ø±ÙĨÙĬ":6808,"ÙĪÙĬÙĨØ§":6809,"ĠØ´Ø±ÙĬØŃ":6810,"ĠÙĦØºÙĪ":6811,"ĠÙĪØŃØ¯ÙĩØ§":6812,"ĠÙħÙĩØ±ÙĩØ§":6813,"ĠÙħÙĥØ±ÙĩØ§":6814,"ĠÙĦÙĦØ®Ø¨Ø±":6815,"ĠØ§ÙĦØ§Ø¹ØªÙĥØ§Ùģ":6816,"ĠÙħÙĥØ§ØªØ¨Ø§":6817,"ĠØ§ÙĦØ§Ø®ØªÙĬØ§Ø±":6818,"ĠØ§ÙĦØ³Ø±Ø®Ø³ÙĬ":6819,"ĠØºØµØ¨Ùĩ":6820,"ĠØ§Ø«ÙĨÙĬ":6821,"ĠÙĪÙĤØ·Ø¹":6822,"ĠØ£Ø³ÙħØ¹":6823,"ĠÙħØ§ÙĨ":6824,"ĠÙħØ®ØµÙĪØµ":6825,"ĠØ¨ØŃØ¯":6826,"ĠØ¨ÙĪØ¬ÙĪØ¨":6827,"ÙģØ±ÙĬ":6828,"Ø¬Ø§":6829,"ĠÙģÙĬØ«Ø¨Øª":6830,"ĠØ¥Ùħ":6831,"ĠÙĨÙģÙĬÙĩ":6832,"ĠÙĨÙĪØ§Ùĩ":6833,"ĠØ³ÙĪØ±Ø©":6834,"ØªÙĩÙĬ":6835,"ØªÙĩØ±":6836,"ÙĦÙģÙĩØ§":6837,"ĠØ¨ÙĨÙĥØ§ØŃ":6838,"ÙĪÙĨØŃÙĪ":6839,"Ø§Ø¨Ø¶":6840,"ĠØ§ÙĦØ¹ÙĤØ§Ø±":6841,"ÙĪØ§ØŃØª":6842,"ĠØ®Ø±Ø§Ø¬":6843,"ĠØ§ÙĦÙĤØ³Ø§ÙħØ©":6844,"ĠØ§ÙĦÙĪØ³Ø·":6845,"Ø¹ØªÙĥ":6846,"ĠØ§ÙĦØ¨ÙĬ":6847,"Ø¨ÙĨÙĬØ©":6848,"ĠØ¨Ø§ÙĤÙĬØ©":6849,"ÙĪÙĬØ¤":6850,"Ø¨Ø§ØªÙĩ":6851,"ĠØ«ÙħÙĨØ§":6852,"ĠÙĪÙĬØŃØ±Ùħ":6853,"ĠÙĪÙĬØ¶ÙħÙĨ":6854,"ĠÙĬØªÙĨØ§ÙĪÙĦ":6855,"ĠØ§ÙĦØ¯ÙĬÙĪÙĨ":6856,"ĠÙĬÙĨØ³Ø¨":6857,"ĠØ±Ø¬Ø§ÙĦ":6858,"ĠØ¶ÙĬØ§":6859,"ĠÙĪØ¥Ø³":6860,"ĠÙĬØ¯Ø±ÙĬ":6861,"ĠØ¨ØŃØµØªÙĩ":6862,"ĠÙģØ¥ÙĨÙĩÙħ":6863,"ÙĤØ¨Ø§ÙĦ":6864,"ĠØ£Ø±Ø¨Ø§Ø¹":6865,"ĠØ±ÙĪØ§ÙĬØªØ§ÙĨ":6866,"ĠØªØ£ÙĪÙĬ":6867,"ĠØ£Ø³ÙģÙĦ":6868,"ĠØ²ÙĬØ¯Ø§":6869,"ĠÙħØ¯Ø¹":6870,"ĠØ¨Ø§Ø¨Ùĩ":6871,"ĠØ²Ø§Ø¯Øª":6872,"ĠÙħØ¹ØªØ¯Ø©":6873,"ĠØ¬ÙĪØ§Ø²Ùĩ":6874,"ĠØ§ÙĦØµØŃÙĬØŃÙĬÙĨ":6875,"ÙħÙĨÙĩÙħ":6876,"ĠØ§ÙĦØ®ØµÙĪÙħØ©":6877,"ĠØ§ÙĦØ¬Ø¯Ø§Ø±":6878,"ĠÙĪØ§ÙĨØ¸Ø±":6879,"ĠØ¹ÙĬÙĬÙĨØ©":6880,"ĠÙĪØ¨ÙĬÙĨÙĩ":6881,"ĠÙĪØµØŃØŃÙĩ":6882,"ĠØ¶Ø±Ø±Ø§":6883,"ĠØ§ÙĦØ¥ÙĨÙģØ§ÙĤ":6884,"ĠÙĪØ«ÙĦØ§Ø«ÙĬÙĨ":6885,"ĠØ§ÙĦØ£ÙĨØµØ§Ø±ÙĬ":6886,"ÙĪØºÙĬØ±ÙĩÙħ":6887,"ĠØ¨Ø±ÙĤØ¨ØªÙĩ":6888,"ĠØ£ÙĨÙģØ³ÙĩÙħ":6889,"ĠØ§ÙĦÙħØ´Ø±ÙĥÙĬÙĨ":6890,"ĠØ§Ø³ØªØŃØ³Ø§ÙĨØ§":6891,"ĠØ£Ø«ÙĦØ§Ø«Ø§":6892,"ÙĦØ¦":6893,"ÙħÙī":6894,"ĠØ¨ÙħÙĩØ±":6895,"ĠÙģØ§Ø¦":6896,"ÙģÙĦÙĬ":6897,"ØŃÙģØ¸":6898,"ÙĥÙĪØª":6899,"ĠÙĤÙĪÙĬ":6900,"ĠÙĤÙĪÙħÙĩ":6901,"Ø°Ø§Ø¡":6902,"ÙĦÙĬÙģÙĩ":6903,"ĠÙĥØ§ÙħÙĦØ§":6904,"ĠØ§ÙĦÙħØ¨Ø§ØŃ":6905,"Ø®Ø¨Ø§Ø±":6906,"Ø´Ùĩ":6907,"ĠÙĨØ¨Ùĩ":6908,"ĠÙĦØ§Ø¨":6909,"ĠØ³Ø§Ø¦":6910,"ĠØ³ÙĥØ±":6911,"ĠØ¨Ø¹Ø¶Ø§":6912,"ĠØ«Ø§ÙĨÙĬØ©":6913,"ÙĪØ§Ø¹ÙĦÙħ":6914,"ĠØ§ÙĦÙĤÙĦØ¹":6915,"ÙģÙĬØ°":6916,"ĠØ§ÙĦØ¨ÙĬÙĨ":6917,"ĠÙĬÙĥÙģÙĬÙĩ":6918,"ĠÙĬÙĤØµØ±":6919,"ĠØ§ÙĦØ¬ÙĪÙĩ":6920,"ĠÙĪØ£ÙħØ±":6921,"ĠÙĪØ£ÙĩÙĦ":6922,"ĠÙĪØ£Ø±Ø¨Ø¹ÙĬÙĨ":6923,"ĠØ§ÙĦØ³Ø§Ø±ÙĤ":6924,"ĠÙħØŃÙĦÙĩØ§":6925,"ÙĤØªÙĬÙĨ":6926,"ĠØ§ÙĦØ®ÙĦÙĤ":6927,"ĠØºØ±ÙĬÙħ":6928,"ĠØºØ±ÙħØ§":6929,"ĠØ§ÙĦØ«ÙĬØ§Ø¨":6930,"ĠØ¹Ø¨Ø¯ÙĬ":6931,"ÙĪØ¶Ø¹Ùĩ":6932,"ĠÙĪØªÙĨ":6933,"ĠÙħØ«Ø§ÙĦ":6934,"ÙĪØ£Ø¨ÙĪ":6935,"ĠØ¨Ø¯ÙĨØ©":6936,"ĠÙģØ£ÙĤØ§Ùħ":6937,"ĠØ§ÙĨØŃ":6938,"ĠØ§ÙĦÙħØªÙĤØ¯ÙħØ©":6939,"ÙĪØ¥ÙħØ§":6940,"ĠÙĬØ¤Ø®Ø±":6941,"ĠØ§ÙĦØ¢ØªÙĬØ©":6942,"ĠØ£Ø³ÙħØ§Ø¡":6943,"ĠØ§ÙĦÙħØ³ØªÙĤØ¨ÙĦ":6944,"ĠØ§ÙĦØ¸ÙĩØ§Ø±":6945,"ĠØ¯ÙģØ¹ÙĩØ§":6946,"ĠØ´Ø¹ÙĬØ±":6947,"ĠØ´Ø¹Ø¨Ø§ÙĨ":6948,"ĠÙĥÙģÙĦ":6949,"ĠÙĥÙģÙī":6950,"ĠÙĪØ§ÙĦØŃÙĥÙħ":6951,"ĠØ§ØªØŃØ¯":6952,"ĠØ§ÙĦØ¬ÙħÙĩÙĪØ±":6953,"ÙĪØ§ÙĦØ£ÙĪÙĦ":6954,"ĠØ§ÙĦÙĪØ§Ø·Ø¦":6955,"ĠÙĦØºØ±Ø¶":6956,"ĠÙĦØ´ÙĬØ¡":6957,"ĠØ¹Ø§ÙħØ©":6958,"ĠØ¨Ø§ÙĦÙĥØ³Ø±":6959,"ĠÙħØ·Ø§ÙĦØ¨":6960,"ĠØ§ÙĦØ±ÙĥÙĨ":6961,"ĠØ±Ø£ÙĬØªÙĩ":6962,"ĠÙĥØ§ÙĦØ¨ÙĬØ¹":6963,"ÙĪØ§ÙĦØ«Ø§ÙĨÙĬ":6964,"ĠÙĪÙĦØ¹ÙĦÙĩ":6965,"ĠØµØ±ÙĬØŃØ§":6966,"ĠØ§ÙĦØ¬Ø§ÙĩÙĦÙĬØ©":6967,"ÙĨÙĥ":6968,"ÙĬÙĤÙĪÙĦ":6969,"ÙĬØ§Ø¨Ø©":6970,"ÙĬØ¬Ø§Ø¨":6971,"ÙĩØ°Ùĩ":6972,"ÙĦØ¢Ø®Ø±":6973,"Ø¨ÙĦØ§":6974,"Ø¯ÙĨÙī":6975,"Ø¹Ø±Ø¶":6976,"ĠÙĪØŃÙĬØ«":6977,"ĠØ£ÙĦØ¨":6978,"ĠØ£Ø³Ø§ÙħØ©":6979,"ĠÙħØ³ØªØŃØ¨":6980,"ĠÙħÙħÙĬØ²":6981,"ĠØ¨Ø±Ø¶Ø§":6982,"ĠÙģÙħÙĩ":6983,"ĠÙģØ±ÙĬØ¶Ø©":6984,"ĠØ¹ÙĦØ§":6985,"ĠØ¹ÙĤÙĦ":6986,"ĠØ¹Ø§ÙħÙĦ":6987,"ĠØ¹Ø±Ø¶Ø§":6988,"ĠÙĬØ°Ø¨ØŃ":6989,"ØŃØ§ÙĦ":6990,"Ø¬Ø±ÙĬ":6991,"Ø¬Ø¯Ø©":6992,"ØµÙĦØŃ":6993,"ĠØ§ÙĦÙħØ®Ø¨Ø±":6994,"Ø´Ø±Ø·":6995,"Ø²ÙħØ§":6996,"ĠÙĨÙģÙĦ":6997,"ĠÙĦÙħØµÙĦØŃØ©":6998,"ĠØ§ÙĦØ£Ùĩ":6999,"ĠØ¬Ø§ÙĦØ³":7000,"ÙĪØ§Ø¹Ø¯":7001,"ĠÙħØ¹ÙĦÙĤ":7002,"ĠÙĦØ£Ø¬ÙĨØ¨ÙĬ":7003,"ĠØ§ÙĦØ¥ÙĨØ§Ø¡":7004,"ÙĪÙĬÙħÙĥÙĨ":7005,"ÙĪÙĬØ³ØªØŃØ¨":7006,"Ø¨ÙĩÙħØ§":7007,"ĠØ§ÙĦØ´Ø§Ùħ":7008,"ĠØ·Ø§Ø¦ÙģØ©":7009,"ĠØ·ÙĦÙĪØ¹":7010,"ĠØ§ÙĦØ³ÙĬØ±":7011,"ĠØ§ÙĦÙģØµ":7012,"ĠØ§ÙĦÙģØ¶Ø©":7013,"ĠÙħØŃÙĦØ§":7014,"ÙĤØªØ¶Ø§Ùĩ":7015,"ĠØ§ÙĦØ®ÙĨØ«Ùī":7016,"ĠÙĬØ¹ÙĤØ¯":7017,"ĠÙĬÙĨØªÙĤØ¶":7018,"ĠØ¨Ø¯ÙĦØ§":7019,"ĠØ§ÙĦØ§Ø¨ØªØ¯Ø§Ø¡":7020,"ĠÙĦÙĦÙħÙĤØ±":7021,"ĠÙĦÙĦÙħØ±ØªÙĩÙĨ":7022,"Ø´Ø±ÙĬÙĨ":7023,"ĠÙĬØ¯Ø®ÙĦÙĩ":7024,"ĠÙĬÙħØ¶ÙĬ":7025,"Ø·ÙĦÙĤÙĩØ§":7026,"ĠÙĬØ®Ø¨Ø±":7027,"ĠÙħØ§ÙĦÙĥÙĩØ§":7028,"Ø¬Ø²Ùĩ":7029,"ĠÙĬØ¹ÙĦÙħÙĩ":7030,"ĠØ¨Ø´ÙĩØ§Ø¯ØªÙĩ":7031,"ĠØ§ÙĦÙħØ³ØªÙĪØ¯Ø¹":7032,"ĠØµØŃØŃÙĩ":7033,"ĠØ¨Ø§ÙĦÙĤØªÙĦ":7034,"ĠÙħØ´Ùī":7035,"ĠÙĬÙĦØ²ÙħÙĩØ§":7036,"ĠÙĦÙĦØªØ¹":7037,"ĠÙĬØ±Ø«Ùĩ":7038,"ĠØ¨Ø§Ø¦ÙĨØ§":7039,"ĠØªØ±ØªØ¨":7040,"ĠØ§ÙĦØ£ÙĬÙħØ§ÙĨ":7041,"ĠØ¬Ø§ÙĩÙĦØ§":7042,"ĠØ²ÙĬÙĨØ¨":7043,"ÙĨØ¯ÙĬ":7044,"ÙĪÙĩØ±":7045,"ĠØ§Ø¹ÙĦÙħ":7046,"Ø¹ÙĨÙĩ":7047,"ĠÙĪØ²ÙĪØ¬":7048,"ÙĤÙĩØ§":7049,"ĠÙħØ§Ø´":7050,"ĠÙħØ´ÙĬ":7051,"ĠÙħØ¨ÙĬØ¹":7052,"ĠØ¨Ø±Ø¬":7053,"ĠÙģÙĤØ§":7054,"ĠØ¹Ùģ":7055,"ÙģØ·Ø±":7056,"ĠÙĬØ²ÙĪØ¬ÙĩØ§":7057,"ÙĥÙĬØ©":7058,"ĠÙĤØªÙĬ":7059,"Ø°ÙĦ":7060,"ĠÙĥÙĦÙħØ§":7061,"ĠØ§ÙĦÙħØ´Ø±":7062,"ĠØªØ±Ø§":7063,"ĠØªÙĨØ¨ÙĬÙĩ":7064,"ĠØªÙĤÙĬÙĬØ¯":7065,"ĠØ§ÙĦÙĦØ°":7066,"ĠØ±Ø·ÙĦ":7067,"ĠØ§ÙĦØ¹Ø¶ÙĪ":7068,"ĠØ§ÙĦØ¹ÙĥØ³":7069,"ÙħÙĨÙĬ":7070,"ĠØ¯ÙģÙĨ":7071,"ÙĪØ§Ø©":7072,"ĠØ§ÙĦÙĤÙĬØ¯":7073,"ĠÙĦØ£ÙĨØ§":7074,"ĠØ§ÙĦØ¥Ø±Ø´Ø§Ø¯":7075,"ĠØ²Ø§ÙĦØª":7076,"ĠØ§ÙĦØ´Ø¬Ø±Ø©":7077,"ĠÙĪØ£ØŃÙħØ¯":7078,"ĠÙĪØ¬Ø¹":7079,"ĠØ§ÙĦØ³Ø¹ÙĬ":7080,"ĠØ§ÙĦÙģÙħ":7081,"ĠÙĬØŃÙħÙĦÙĩ":7082,"ĠÙĬØ¹ÙĤÙĦ":7083,"Ø¯ÙħÙĩØ§":7084,"Ø§Ø²Ø±ÙĬ":7085,"ÙģØ§Ø¯Ø©":7086,"ÙĥØ§Øª":7087,"ÙĥØ§ÙĦÙħ":7088,"ĠØ§ÙĦØ°Ø®ÙĬØ±Ø©":7089,"ĠØ§ÙĦØ²ÙħÙĨ":7090,"ĠØ§ÙĦØºØ¯":7091,"ĠØªØ¹ÙĦÙĬÙĦ":7092,"Ø´Ø±ØŃ":7093,"ĠØ°ÙĥØ±ØªÙĩ":7094,"ĠÙħØ±ÙĪØ§ÙĨ":7095,"ĠØ§ÙĦÙĤØ§Ø¹Ø¯Ø©":7096,"ĠØ¨ÙĬØ¹Ø§":7097,"ĠØ¨Ø§ÙĦØ±":7098,"ĠÙĬØ³ØªÙĪÙģÙĬ":7099,"ĠØ¨ØªÙĦÙĥ":7100,"ĠÙģØ³ÙĤØ·":7101,"ĠØ£ÙĤØ±Øª":7102,"ĠÙĬØ²Ø§Ø¯":7103,"ĠØŃØµÙĦØª":7104,"ĠØ±ÙĥØ¹Øª":7105,"ĠÙĬØ·ÙĩØ±":7106,"ĠÙĪØ«ÙĦØ§Ø«Ø©":7107,"ĠØ¨Ø¬ÙĨØ§ÙĬØ©":7108,"ĠÙĦÙĦÙĨØ§Ø³":7109,"ĠÙĤØ¯ÙħØª":7110,"ĠÙĨÙĤØµÙĩ":7111,"ĠÙĦÙĦØ¨ÙĬØ¹":7112,"ĠØªØ·ÙĪØ¹Ø§":7113,"ĠØ¨Ø°ÙĦ":7114,"ĠØ§ÙĦÙħÙĨÙĩØ§Ø¬":7115,"ĠÙĦØ±Ø¨Ùĩ":7116,"ĠÙħØ®ØªÙĦÙģØ©":7117,"ĠØ§ÙĦØ¹ØµÙħØ©":7118,"ĠÙģØ£ÙĨÙĥØ±":7119,"ĠØ¨Ø¥Ø³ÙĦØ§ÙħÙĩ":7120,"ÙĬÙħØ§":7121,"ÙĪÙĦØ°Ø§":7122,"ĠÙĪØ±Ùĥ":7123,"ĠØ£ÙĬÙĨ":7124,"ĠÙħÙĦØ§":7125,"ĠÙħØ·Ø±":7126,"ĠÙģÙĦØ£ÙĨÙĩ":7127,"ĠØ¹Ø§Ø±":7128,"ĠÙģÙĬØ¹ØªÙĤ":7129,"ÙĦÙĬØ¨":7130,"ĠÙĥÙģÙĬÙĦ":7131,"ĠØ§ÙĦÙħØ¬Ø±":7132,"Ø®Ø§":7133,"ĠØªÙħØª":7134,"ĠØªÙĦÙģÙĩ":7135,"ĠØªØ¤Ø®Ø°":7136,"ĠØªØ³ÙħÙĬØ©":7137,"ĠØªÙħÙĬÙĬØ²":7138,"ĠØŃÙĤÙĬ":7139,"ĠØŃÙĤÙĬÙĤ":7140,"Ø´ÙĤØ©":7141,"Ø§Ø±Øª":7142,"Ø§Ø±Ùī":7143,"ĠÙĨØ§Ø¦Ø¨":7144,"ĠØ¹ÙĨÙĤÙĩ":7145,"ĠÙħØ¹Ø³Ø±":7146,"ÙħÙĩÙħØ§":7147,"ĠÙĦØ£ÙħÙĩ":7148,"ĠØ§ÙĦØ¨Ø·ÙĨ":7149,"ÙĪÙħØ¹ÙĨÙī":7150,"ĠØ¨Ø§ÙĦÙĬ":7151,"ĠØ§ÙĦØ´Ø±Ø¨":7152,"ĠÙĪØ£Ø³":7153,"ĠØ§ÙĦØ³Ùģ":7154,"ĠÙĪÙĬØ¨ÙĤÙī":7155,"ÙħØ¯Ø§":7156,"ĠØ§ÙĦÙĥØ§ÙģÙĬ":7157,"ÙĪØªØ¹":7158,"ĠØ¨Ø£Ø±Ø¶":7159,"ĠØ£ÙħØ±Ø§":7160,"Ø«ÙĨØ§Ø©":7161,"ĠØ§ÙĦØ±Ø³ÙĪÙĦ":7162,"ĠÙĪÙĤØ¶ÙĬØ©":7163,"ĠØªØ¹Ø±ÙĬÙģ":7164,"ĠÙĪÙĨÙĪÙī":7165,"ĠÙĪÙħØªÙī":7166,"ĠØ§ÙĦØ·ÙģÙĦ":7167,"ØŃÙĪØ§ÙĦ":7168,"Ø¬ÙĩÙĬØ²":7169,"ĠÙĥØ§ÙĦØ«":7170,"ĠÙĬØ¶Ø±Ùĩ":7171,"ÙģÙĤÙĦØª":7172,"ÙĪØ·Ø¦ÙĩØ§":7173,"ÙĨØªØ§ÙĨ":7174,"ĠÙĪÙħØ§ÙĦÙĥ":7175,"ÙĤØ¨ÙĦØª":7176,"ĠØ§ÙĦØ±Ø¬ÙĦÙĬÙĨ":7177,"ĠØ®ÙħØ³ÙĪÙĨ":7178,"ĠØ¨Ø´ÙĬØ±":7179,"ÙĨØ¯Ø¨":7180,"ĠÙĦÙĦØŃØ§ÙĦ":7181,"ĠÙĦÙĦÙĪØ§Ø±Ø«":7182,"ĠØ¹ÙħØ§Ø±":7183,"ĠÙĦØ¬ÙħÙĬØ¹":7184,"ĠØ£Ø¬Ø±ØªÙĩ":7185,"ĠÙħØ±Ø§Ø¹Ø§Ø©":7186,"ĠØ§ÙĦØ¯Ø§Ø±ÙĤØ·ÙĨÙĬ":7187,"ĠØ§ÙĦÙĤØ¯ÙĬØ±":7188,"ĠØµÙģÙĪØ§ÙĨ":7189,"ĠØ§ÙĦÙħØŃØªØ§Ø±":7190,"ĠØ§ÙĦØ§Ø«ÙĨÙĬÙĨ":7191,"ĠÙĬÙĨØ¹Ø²ÙĦ":7192,"ÙĨÙĤ":7193,"ÙĨÙĤÙĦ":7194,"ÙĬÙĪØ§ÙĨ":7195,"ĠÙĪÙĪØ§":7196,"ĠÙĪØ¨Ø¯":7197,"ĠÙĪÙģÙĤ":7198,"ĠÙħØ´Ø±ÙĪØ·":7199,"ĠÙħØ¶Ø§Ø±Ø¨Ø©":7200,"ĠØ¨Ø¬Ø²":7201,"ĠØ¨ÙĪØ¶Ø¹":7202,"ĠØ¨ÙĤØ·Ø¹":7203,"ĠÙģØ¸ÙĩØ±":7204,"Ø³ÙĨÙĩ":7205,"ĠÙĬØ¨Ø¹":7206,"ØŃÙī":7207,"ÙĦØ§ÙĨÙĬ":7208,"ÙĥØªØ§Ø¨":7209,"ÙĨÙĩØ¯Ùħ":7210,"ØµÙĬØ¨":7211,"ĠÙĥØ¨ÙĬØ¹":7212,"Ø·ÙĬØ¨":7213,"ĠØªØ³Ùħ":7214,"ĠØªØŃÙĬØ¶":7215,"ĠØŃØ·":7216,"Ø´Ø§":7217,"Ø²Ùĩ":7218,"Ø§Ø±Ø¦":7219,"ÙĨØ§ÙģØ¹":7220,"ĠØ£ÙĬØ³Ø±":7221,"ĠØ¬Ø°":7222,"Ø§Ø¨Ø·":7223,"Ø§Ø¨ØªÙĩ":7224,"ĠØ§ÙĦØ¹ÙĪØ±Ø©":7225,"ĠØ«ÙĨØªÙĬÙĨ":7226,"ÙĪØ§ÙĩØ±":7227,"ÙĪØ¬Ø²Ùħ":7228,"ĠØ§ÙĦØ¥ÙħÙĥØ§ÙĨ":7229,"ĠØ¨Ø§Ø®ØªÙĦØ§Ùģ":7230,"ĠØ²Ø¹":7231,"ĠØ²ÙħÙĨÙĩ":7232,"ĠØ§ÙĦØ´Ø¬Ø±":7233,"ĠÙĬÙĤÙħ":7234,"ĠÙĪØ£ØµØŃØ§Ø¨Ùĩ":7235,"ĠÙģÙĦØ§ÙĨØ©":7236,"ĠÙĬØªØ®Ø°":7237,"ĠÙĬØªØ£Ø®Ø±":7238,"ĠØºØ±Ø³":7239,"ĠØ¶ÙħÙĬØ±":7240,"ĠØ¨Ø£Ùħ":7241,"ĠØ¸ÙĦÙħØ§":7242,"ĠÙģØ§ÙģÙĩÙħ":7243,"ĠØŃÙĬØ¶Ø©":7244,"ĠØ§Ø®ØªØµØ§Øµ":7245,"ĠØ±Ø¯Øª":7246,"ĠØ±ÙĥØ¹":7247,"ĠØ§ÙĦØ£Ø¨ÙĪÙĬÙĨ":7248,"ĠØ¨Ø§ÙĦØ¨ÙĨØ§Ø¡":7249,"ĠØ¨Ø«ÙĦØ§Ø«":7250,"ĠÙħÙĨØ¹ÙĩØ§":7251,"ĠØ£Ø¹ØªÙĤÙĩØ§":7252,"ĠÙĦØ´Ø±ÙĬÙĥÙĩ":7253,"ĠØ§ÙĦÙĬØ¯ÙĬÙĨ":7254,"ĠÙģØ³Ø®Ùĩ":7255,"Ø¬Ø§Ø±ØªÙĩ":7256,"ĠÙĨØ²ÙĦØª":7257,"ĠØ§ÙĦØ£ÙĨÙĪØ§Ø±":7258,"ĠØ§ÙĦÙħØ²Ø§Ø±Ø¹":7259,"ĠØ§ÙĦØ´Ø±ÙĬÙĥÙĬÙĨ":7260,"ĠØ±Ø¶Ø§Ø¹":7261,"ĠØ§ÙĦÙħÙĪØ§Ø²ÙĬØ©":7262,"ĠØ§ÙĦØ§Ø³ØªØŃØ³Ø§ÙĨ":7263,"ĠØ§ÙĦÙħØ«ÙĦÙĬ":7264,"ĠØ§ÙĦØ¥ÙĨÙĥØ§Ø±":7265,"ĠÙħÙĥØ§ØªØ¨Ùĩ":7266,"ĠÙģØ§Ø´ØªØ±Ùī":7267,"ĠØ¥ÙĬØ§ÙĩØ§":7268,"ĠØ¢ÙĨÙģØ§":7269,"ÙĬØ¬Ø¨":7270,"Ø±ÙĩØ§":7271,"Ø±Ø¡":7272,"ĠÙħÙĥØ±Ùĩ":7273,"ĠÙħØ®ØªØµ":7274,"ĠÙģØ°ÙĩØ¨":7275,"ĠÙģØ´ÙĩØ¯":7276,"Ø³Ø·Ø©":7277,"ØŃØªÙĩ":7278,"ĠÙĤØ§Ø¯Ø±":7279,"ĠÙģÙĬÙĤØ§ÙĦ":7280,"ĠÙĥØ¸ÙĩØ±":7281,"ĠØ§ÙĦÙħØ³ØªØŃ":7282,"Ø¥ÙĦÙī":7283,"ĠØŃØ§Ø±Ø«":7284,"ĠØŃØ§Ø´ÙĬØ©":7285,"Ø§ÙĦÙĦÙĩ":7286,"Ø´ÙģØ©":7287,"ĠØ£ÙĨÙĪØ§Ø¹":7288,"Ø²Ø§Ø¹":7289,"Ø§Ø±Ø³":7290,"ĠØ¬ÙħØ§":7291,"ĠØ¬Ø§ÙĪØ²":7292,"ĠØ¨Ø¹Ø°Ø±":7293,"ĠØ®ÙĪÙģØ§":7294,"ĠØ®Ø§ÙĦØµ":7295,"ĠÙĪØ§Øª":7296,"ĠÙĪØ§ÙģÙĤ":7297,"ĠÙĪØ§Ø®ØªÙĦÙģ":7298,"ĠØ§ÙĦÙĪØ²ÙĨ":7299,"ØºÙĦØ¨":7300,"ĠØ§ÙĦØ¨Ø·ÙĦØ§ÙĨ":7301,"ĠØ§ÙĦØªÙĪØ¶ÙĬØŃ":7302,"ĠØ·ÙĦØ¹":7303,"ÙĬØ§Ø·Ø©":7304,"ĠÙħØŃÙħ":7305,"ÙĥØ§ÙĬØ©":7306,"ĠÙĬÙĨØ¯ÙģØ¹":7307,"ÙĪÙĥÙħØ§":7308,"ÙĪØ¨ÙĤÙĬ":7309,"ĠØ¨Ø¯ÙģØ¹":7310,"ĠÙĪØ¥ÙĦÙĬÙĩ":7311,"ĠØªØ¹Ø±Ùģ":7312,"Ø³Ø¨ÙĪÙĤ":7313,"ĠÙĤØ¨Ø±Ùĩ":7314,"Ø·ÙĦÙĤØ©":7315,"ĠØ§ÙĨØªÙĤ":7316,"ĠØŃÙĬØ¶Ø§":7317,"ÙĤØµØ±":7318,"ĠÙĦØ¹ÙħÙĪÙħ":7319,"ĠÙĦØ¹ÙħØ±ÙĪ":7320,"ĠØ§ÙĦÙħØŃÙĤÙĤ":7321,"ÙĨØªÙĤÙĦ":7322,"ĠØŃØ±ÙĬØ©":7323,"ĠØ§ÙĦØ¢Ø®Ø±Ø©":7324,"ĠÙħØ¬ÙĨ":7325,"ĠÙħØ¬Ø§ÙĩØ¯":7326,"ĠØªØ£ÙĪÙĬÙĦ":7327,"ĠÙħØ³ØªØ«ÙĨÙī":7328,"ĠØµØ¯ÙĤØª":7329,"ĠÙĨØŃÙĪÙĩØ§":7330,"ĠÙħØ¯Ø¹ÙĬ":7331,"ĠÙĦÙĦØŃØ§Ø¬Ø©":7332,"ĠØ¬Ø²Ø§Ø¡":7333,"ĠØ¨ÙĬØªØ§":7334,"ĠØ¨Ø§ÙĦÙĪØ·Ø¡":7335,"ĠØ¥Ø®Ø±Ø§Ø¬Ùĩ":7336,"ĠÙģÙĪÙĤØ¹":7337,"ĠØ§ÙĦÙħØ²Ø§Ø±Ø¹Ø©":7338,"ĠØ§Ø¹ØªØ¨Ø§Ø±Ø§":7339,"ĠÙĤØµØ¯Ø§":7340,"ĠØ¬Ø¯ÙĬØ¯":7341,"ĠÙħØ¶ÙħÙĪÙĨØ©":7342,"ĠØªØ£Ø®ÙĬØ±Ùĩ":7343,"ĠÙĦØ²ÙĪØ¬ÙĩØ§":7344,"ĠØ¨ÙĤØ±ÙĬÙĨØ©":7345,"ĠØ§ÙĦÙģØªÙĪÙī":7346,"ĠØ§ÙĦÙĨÙĤØµØ§ÙĨ":7347,"ĠØ¨ÙĤØ¯Ø±Ùĩ":7348,"ĠÙħÙĨØ¯ÙĪØ¨":7349,"ĠØ§ÙĦÙĦØºØ©":7350,"ĠØ§ÙĦÙħÙĤØ¨ÙĪØ¶":7351,"ĠÙħØ±Ø¯ÙĪØ¯":7352,"ĠÙħØ´Ø§ÙĬØ®ÙĨØ§":7353,"ÙĨÙĤÙĦÙĩ":7354,"Ø¨ÙĦØ©":7355,"ĠØ£Ø¹Ø§":7356,"ĠØ£ÙħØ³Ùĥ":7357,"ĠÙħØ¶Ø±":7358,"ĠÙħÙħÙĥÙĨ":7359,"ĠÙħØ£Ø°":7360,"ĠØ¨Ø¸":7361,"ĠØ¨ÙĤØªÙĦÙĩ":7362,"ÙģÙĬØ±":7363,"ÙģØ±Ø¶":7364,"ÙģÙĦØ³":7365,"ĠÙĬØ¨Ø¯":7366,"ĠÙĬÙĦÙĬÙĤ":7367,"ĠÙĬØ®ØªØ§Ø±":7368,"ØŃØ§ÙĨ":7369,"Ø¬ÙĬØ¡":7370,"Ø£ØªÙĤØ§ÙĨÙĬ":7371,"ØµÙĦÙĩØ§":7372,"ĠÙģÙĬØ¹":7373,"ĠÙģÙĬØ¤":7374,"ĠÙģÙĬØ®Ø±Ø¬":7375,"ĠÙģÙĬØ¨Ø·ÙĦ":7376,"ĠÙĥØºÙĬØ±":7377,"ĠÙĥØ§ÙĦÙģ":7378,"ĠØ§ÙĦÙħÙĤØ§Ùħ":7379,"ĠØ§ÙĦÙħØ´Ø±ÙĪØ·":7380,"Ø¶Ø±Ø§":7381,"ÙĦÙĥÙĨÙĩ":7382,"ĠØªÙĤØ·Ø¹":7383,"ĠØªØ¹ØªØ¯":7384,"ĠØªØ®ØµÙĬØµ":7385,"ĠØŃØ¯Ùĩ":7386,"ÙĩØ§ÙĬ":7387,"ÙĦÙĤÙĬ":7388,"ĠØ³Ø§ÙĤ":7389,"ĠØ§ÙĦØ£ÙĥØ¨Ø±":7390,"ÙĪÙĦÙĦÙħ":7391,"ĠØ¯Ùģ":7392,"ØºØµÙĪØ¨":7393,"ÙģØ¹Ø§":7394,"ĠØ§ÙĦÙĨÙĤØ¶":7395,"ÙĦØªÙĥ":7396,"ĠØ§ÙĦØ´ÙĩØ§Ø¨":7397,"ĠØ·ÙĪÙĬ":7398,"ĠØ·Ø±ÙĤ":7399,"ĠØ§ÙĦØ³ÙģÙĬÙĩ":7400,"ĠØ§ÙĦÙģÙĪØ±":7401,"ĠØ§ÙĦÙģÙĤÙĬØ±":7402,"ĠÙħØŃÙĬØ·":7403,"ĠÙĬØªØ¶ÙħÙĨ":7404,"ĠÙĬØªÙĪØ¶Ø£":7405,"ĠØ§ÙĦÙĥØ«ÙĬØ±":7406,"Ø¶ÙĬÙĤ":7407,"ÙĤØ§Ø·Ùĩ":7408,"ĠØ§ÙĦØ«Ø§Ø¨Øª":7409,"ÙĪØªÙĩØ§":7410,"ÙĬÙĨÙĩØ§":7411,"ĠØ§Ø³ØªØ·":7412,"ÙĪØ£Ø·ÙĦÙĤ":7413,"ÙĪØ£Ø´Ø§Ø±":7414,"ĠÙĪÙĤÙĦ":7415,"ĠÙģØ§Ø·ÙħØ©":7416,"ĠØ£Ø¬ÙĦÙĩ":7417,"Ø§ØŃØ©":7418,"Ø±Ø£Ø³Ùĩ":7419,"ĠØ§ÙĦÙħØ¹Ø³Ø±":7420,"ÙĪØµÙģ":7421,"ĠØ¨Ø¥Ø³ÙĨØ§Ø¯":7422,"ĠÙĪØŃÙĤ":7423,"ÙĦØºÙĪ":7424,"ĠØ¹Ø¯ÙĪ":7425,"ĠØ¯ÙĬÙĨØ§Ø±Ø§":7426,"ĠØ§ÙĦØ¶Ø§ÙħÙĨ":7427,"ĠÙĨØ³ÙĪØ©":7428,"ĠÙĤØ·Ø¹ÙĩØ§":7429,"ĠÙĪØ´ÙĩØ¯":7430,"ĠØ¹Ø¨Ø§Ø¯":7431,"ĠÙĦÙĦØŃÙĥÙħ":7432,"ĠÙĪÙĦÙĬØ³Øª":7433,"ĠØŃÙħØ²Ø©":7434,"ĠØ¯Ø¹ÙĪØ©":7435,"ĠØŃÙĥÙĬÙħ":7436,"ĠØ´Ø®ØµØ§":7437,"ĠÙħØ´ØªØ±ÙĥØ§":7438,"ÙĤØ±Ø§Ø¡Ø©":7439,"ĠØ¹ÙĤØ¨Ùĩ":7440,"ĠØ§ÙĦØ¨Ø¯Ø§Ø¦Ø¹":7441,"ĠÙĦÙĦØºØ§ØµØ¨":7442,"ĠÙĥØ§ÙĦÙĨ":7443,"ĠØ£Ø¹ÙħÙī":7444,"ĠØ§ÙĦØ£ÙĤÙĪØ§ÙĦ":7445,"ĠÙĦÙĦØ°ÙĥØ±":7446,"ĠØªÙĥØ±Ø§Ø±":7447,"ĠÙħØ¤Ø¬ÙĦØ§":7448,"ÙĨØ¹Ø©":7449,"ÙĪÙĤÙĬØ¯":7450,"ĠØ§Ø¬":7451,"ĠØ§ÙĦÙĬÙĩ":7452,"Ø¨ÙħØ§":7453,"Ø¨ÙĤÙĬ":7454,"Ø¯ÙĦÙģØ©":7455,"Ø¹ÙĬØ©":7456,"ÙĤØ¶Ùĩ":7457,"ĠØ¹ÙĪØ±Ø©":7458,"ĠØ¹ÙģÙĪ":7459,"ÙģÙĩØ§":7460,"ÙģÙĤØª":7461,"Ø³Ø§Ø±":7462,"ĠÙĬÙĪÙĤÙģ":7463,"ØŃØ¬":7464,"ÙĦØ§Ø¹ÙĨ":7465,"ÙĥÙĪØ±":7466,"Ø¬ÙħÙĪØ¹":7467,"ØµÙĪØ¨Ø©":7468,"ĠÙģÙĬØ¡":7469,"ĠÙģÙĬØ¹ØªØ¨Ø±":7470,"ĠÙĥÙĩ":7471,"ĠÙĥØ¨":7472,"ĠÙĥØ¯":7473,"ĠØ§ÙĦÙħÙħÙĬØ²":7474,"ĠØ¥Ø¨Ø§ØŃØ©":7475,"Ø®ÙĦÙĩØ§":7476,"Ø«Ø§Ø±":7477,"Ø·Ø§ÙĦØ¨":7478,"ĠØªÙĬÙĤÙĨ":7479,"ĠØŃØ§Ø¦":7480,"ĠØŃØ²Ùħ":7481,"ĠØŃØ³Ø§ÙĨ":7482,"Ø±Ø§Ø¶ÙĬ":7483,"ĠØ§ÙĦØ¹ÙĦØ§ÙħØ©":7484,"ĠØ§ÙĦØ¹ÙħÙĪÙħ":7485,"ĠØ«Ø¹":7486,"ĠØ¯Ø¹Ø§":7487,"ÙĪØ§ÙĦØ§":7488,"ĠÙħØ¹Ø±":7489,"ĠÙĪØ§ÙĦÙĬ":7490,"ĠÙĦÙĪÙĤ":7491,"ĠØ§ÙĦØ¥Ø¬Ø²Ø§Ø¡":7492,"ÙĪÙĬØ£ØªÙĬ":7493,"ĠØ§ÙĦØ´Ø¹":7494,"ĠØ§ÙĦØ´Ø§Ø©":7495,"ÙĪØ¹Ø¨Ø¯":7496,"ĠÙĬØ¹ÙĦÙī":7497,"ÙĤØ§Ùĩ":7498,"ĠØ§ÙĦØ¯Ø§ÙģØ¹":7499,"Ø¶Ø§Ø©":7500,"ÙĪØ¨Ø¹Ø¯":7501,"ĠØ§Ø³ØªØ®":7502,"ĠØ¹ÙĨØ¯Ùĥ":7503,"ĠÙĪÙĩØ¨Øª":7504,"ĠÙĬØ¯ÙģØ¹Ùĩ":7505,"ĠÙĬÙħØ´ÙĬ":7506,"ĠØ¥ÙĦÙĬÙĩÙħØ§":7507,"ĠØ°ÙĥØ±Øª":7508,"ĠØ°ÙĥØ±ÙĨØ§Ùĩ":7509,"ĠØ£Ø¹Ø¶Ø§Ø¡":7510,"ĠØ¨ØºÙĬØ±ÙĩØ§":7511,"ĠÙĦØ²ÙĪØ§ÙĦ":7512,"ĠÙĪÙģÙĬÙħØ§":7513,"ĠÙĪØ§ÙĦØ£ÙĪÙĦÙī":7514,"ĠØ¨Ø·ÙĦØ¨":7515,"ĠÙħØ¬ÙĨÙĪÙĨ":7516,"ĠÙĪØ§ÙĦØ¹ÙħØ±Ø©":7517,"ĠØ§ÙĦØŃØ¬Ø§Ø¬":7518,"ĠØªØ¨ÙĤÙī":7519,"ĠÙĦÙĦÙĪÙĦØ¯":7520,"ĠÙĨÙģØ³Ùĥ":7521,"ĠÙĦÙģÙĪØ§Øª":7522,"ĠÙĬØ£Ø®Ø°ÙĩØ§":7523,"ĠÙĥØ§ÙĦÙĥ":7524,"Ø¶Ø§Ø±Ø¨":7525,"ĠÙĬÙĤØªØ¶ÙĬÙĩ":7526,"ĠØ¹Ø§Ø¯ØªÙĩ":7527,"ĠÙĬÙĨØ§ÙģÙĬÙĩ":7528,"ĠØ§Ø³ØªØ¹ÙħØ§ÙĦÙĩ":7529,"ĠØ´Ø±Ø¨Ùĩ":7530,"ÙģÙĦÙĩØ°Ø§":7531,"ĠÙħØ³ØªØŃÙĤØ§":7532,"ĠØ§ÙĦÙĨØµÙĬØ¨":7533,"ĠÙĦØ«Ø¨ÙĪØª":7534,"ĠØ§ÙĦØªØ²Ø§Ùħ":7535,"ĠÙĦÙĦØ«Ø§ÙĨÙĬ":7536,"ĠØ§ÙĦØ§ÙĤØªØ¯Ø§Ø¡":7537,"ĠØ§Ø´ØªØ±ÙĬØª":7538,"ĠØ§ÙĦØ¨Ø²Ø§Ø²ÙĬØ©":7539,"ĠØ§ÙĦÙħÙħÙĦÙĪÙĥ":7540,"ĠÙĪØ±Ø³ÙĪÙĦÙĩ":7541,"ĠØ£ÙĦØ¨ØªØ©":7542,"Ø§ÙĬØªÙĩ":7543,"ÙĨØ¬Ø³":7544,"ÙĬÙĤØ§ÙĦ":7545,"Ø±ÙĪØ¹":7546,"ÙħØªÙĩØ§":7547,"Ø¨ÙĪØ³":7548,"ĠÙĪØ³Ùħ":7549,"ĠÙĪÙģØ±ÙĤ":7550,"ĠØ£ÙĦÙħ":7551,"ÙĤØ¨Ùĩ":7552,"ÙĤØ¹Ø©":7553,"ÙĤØ§ÙĦØª":7554,"ĠÙħØ®ÙĬØ±":7555,"ĠØ¨Ø¨Ø§":7556,"ĠÙģÙĤÙĬ":7557,"ĠØ¹ÙĬØ§Ø¶":7558,"ĠØ¹ÙĬØ§ÙĦÙĩ":7559,"ÙģÙĤÙĪÙĦÙĩ":7560,"Ø³ÙĥØ±":7561,"ĠÙĤØµØ©":7562,"ĠÙĤØ±Ø§Ø¨Ø©":7563,"ØµØ¨Ø¹":7564,"ĠØ§ÙĦÙħØ§Ø±":7565,"ĠØ§ÙĦÙħÙģØ§":7566,"ĠØ§ÙĦÙħÙĪÙģÙĤ":7567,"ĠØ¥ÙĤØ§Ùħ":7568,"ĠØªØ±Øª":7569,"ĠØªØªÙħ":7570,"ĠØªÙĥØ±Ø±":7571,"ĠØŃÙĦØ§":7572,"ĠØŃØ¯Ø©":7573,"Ø²Ø§Ø¯":7574,"ĠØ±Ø¨ÙĬ":7575,"ĠØ³ÙĪØ§Ùĩ":7576,"ĠØ³Ø¤Ø§ÙĦ":7577,"ĠØµÙĬØ§Ùħ":7578,"ĠØ®ÙħØ±Ø§":7579,"ĠØ§ÙĦÙĤØ¯Ùħ":7580,"ĠÙĪØ§ÙħØ±Ø£":7581,"Ø¸ÙĬØ±Ùĩ":7582,"ĠØ§ÙĦØ¨Ø§Ø¬ÙĬ":7583,"ĠØ§ÙĦØªÙĨØ¨ÙĬÙĩ":7584,"ĠØ§ÙĦØªÙĪØ¨Ø©":7585,"ĠØ§ÙĦØ¥Ø¨Ø§ØŃØ©":7586,"ÙĪÙĬØ¶":7587,"ĠØ²ÙĥØ§ØªÙĩ":7588,"ĠØ§ÙĦØ¬Ø¨Ø±":7589,"ĠÙĪØ£ÙĤØ±":7590,"ĠÙĪØ£Ø¬ÙĬØ¨":7591,"ĠØ§ÙĦØ³Ùħ":7592,"ĠØ§ÙĦØ³Ø¨Ø¹":7593,"ĠØ§ÙĦØ®Ø±ÙĤÙĬ":7594,"ĠØ§ÙĦÙĥØªØ¨":7595,"ĠØ§ÙĦØ±ÙĪÙĬØ§ÙĨÙĬ":7596,"ĠÙĦÙĦÙħÙĥØ§ØªØ¨":7597,"ĠÙĦÙĦÙħÙģØ¹ÙĪÙĦ":7598,"ĠÙĬØ¯ÙĩØ§":7599,"ĠÙģØ£ÙĤÙĦ":7600,"ĠØ§ÙĦÙħØªØ¨Ø§Ø¯Ø±":7601,"ĠÙĬØ£ÙħØ±Ùĩ":7602,"ØªØ¨ÙĬØ©":7603,"ĠØ§ÙĦÙĤØ§Ø·Ø¹":7604,"ĠÙĥØ§ÙĦØ¯":7605,"ĠÙĥØ§ÙĦØ²":7606,"ĠÙĬØ¶Ùħ":7607,"ĠØªØŃØµÙĬÙĦ":7608,"ĠÙĪØ³ÙĥÙĪÙĨ":7609,"ĠÙĦØŃØ§Ø¬":7610,"ĠØ¢Ø¬Ø±":7611,"ØŃØ±Ø§Ø²":7612,"ĠØ¹Ø±ÙģØª":7613,"ĠØ³ÙħÙĬØª":7614,"ĠÙĤØ¯Ø±ØªÙĩ":7615,"ĠØ±ÙĥØ¹Ø§Øª":7616,"ØµÙĬØºØ©":7617,"ĠÙĪØ§ÙĦØŃØ§ØµÙĦ":7618,"ĠØ§ÙĦÙħØ¤Ø°ÙĨ":7619,"ĠØ¬Ø²ÙħØ§":7620,"ĠØ§ÙĦÙħØ¹ØªØ§Ø¯":7621,"ĠÙĪØ±Ø¯Ùĩ":7622,"ĠÙĪØ±ÙĪÙĬ":7623,"ĠÙĨÙĤØµØª":7624,"ÙĪØ«ÙĤ":7625,"ĠØ§ÙĦÙĤØ±ÙĬØ©":7626,"ĠØ§ÙĦÙĤØ±Ø¹Ø©":7627,"ĠØ¨Ø§ÙĦØ´Ø±Ø§Ø¡":7628,"ĠØ¨ÙĦØºÙĩ":7629,"ĠÙĬÙĨØªØ¸Ø±":7630,"ĠÙħØ·Ø§ÙĦØ¨Ø©":7631,"ĠÙħÙĪØªÙĬ":7632,"ÙĪØ±Ø§Øª":7633,"ĠÙħÙĪØ§ÙģÙĤ":7634,"ĠÙĪÙĦÙĥÙĦ":7635,"ĠÙĥØ±Ø¯ÙĬ":7636,"ĠÙĪÙĤÙĬÙħØ©":7637,"ØºØªØ³ÙĦ":7638,"ĠØ§ÙĦØ¹Ø§ÙħØ©":7639,"ĠÙĪØ®ÙħØ³ÙĬÙĨ":7640,"ĠÙĥØ§ØªØ¨Ùĩ":7641,"ĠÙĬØ®Ø§ÙĦÙģÙĩ":7642,"ĠÙħÙĪÙĤÙĪÙģØ©":7643,"ĠÙģØ§Ø¯Ø¹Ùī":7644,"ĠØ³ÙĬØ±ÙĬÙĨ":7645,"ĠØ§ØŃØªÙĬØ§Ø·Ø§":7646,"Ø§ÙħØ§":7647,"ÙĪÙĤØ¯Ùħ":7648,"ĠØ§Ø´":7649,"Ø¹Ø§Ø±Ø©":7650,"ĠÙħÙĦØŃ":7651,"ĠÙħØ³ÙħÙī":7652,"ĠÙħÙĪÙĦÙĬØ§":7653,"ĠØ¨ØŃÙĬ":7654,"ĠØ¨Ø¨Ø·":7655,"ĠÙģÙĩÙħØ§":7656,"ĠÙģØ®Ø°":7657,"ĠÙĬÙĤÙĬ":7658,"ĠÙĬØ±ÙĥØ¨":7659,"Ø£Ø´Ø¨Ùĩ":7660,"ĠÙĤØ±Ø§":7661,"ĠØ§ÙĦÙħØ·Ø±":7662,"ĠØ§ÙĦÙħÙģÙĩÙĪÙħ":7663,"ĠØ§ÙĦÙħØ¶Ø§Ùģ":7664,"ĠØªÙĥÙħ":7665,"ĠØªÙģØ³Ø¯":7666,"ĠØŃØ¬Ùĩ":7667,"ĠØ§ÙĦÙĦÙĬÙĦØ©":7668,"Ø²ÙĬ":7669,"ĠÙĦØ§Ø¹Øª":7670,"ĠÙĦØ§Ø®ØªÙĦØ§Ùģ":7671,"ĠØ¹ÙĨÙĥ":7672,"ĠØ¬Ø¨Ø±ÙĬ":7673,"Ø¨ÙĬØ§ÙĨ":7674,"ĠØ§ÙĦØŃØ§ÙĪÙĬ":7675,"ĠØ¯ÙħÙĩ":7676,"ĠØ¯ÙĪÙĨÙĩØ§":7677,"ØºÙĬØ¨":7678,"ĠØ§ÙĦØ¨ØŃØ«":7679,"Ø±Ø¨Øª":7680,"ÙĪÙħØªÙī":7681,"ĠØ§ÙĦÙĨØ¶Ø±":7682,"ĠØ²Ø§Ø¦":7683,"ĠØ²ÙĪØ§ÙĦÙĩ":7684,"Ø¨Ø§Ø¯Ø©":7685,"ĠÙĪØ£Ø±Ø¨Ø¹Ø©":7686,"ĠÙĪÙĬØ³ÙĤØ·":7687,"ĠØ§ÙĦØµÙģÙĤØ©":7688,"ĠÙħØŃØ±Ø²":7689,"ĠØ§ÙĦØ®ÙĦØ·":7690,"ĠØºÙĨÙĬÙħØ©":7691,"Ø¶ÙĬÙĦ":7692,"ĠØ§ÙĦØ«ÙħØ±":7693,"ĠØ§ÙĦØ¯Ø§ÙĦ":7694,"ĠÙĬÙĨÙĤØ³Ùħ":7695,"ÙĪÙĥÙĬÙĦÙĩ":7696,"ÙĪØªØµØŃ":7697,"ĠØ£ØŃØ¯ÙĩØ§":7698,"ĠÙħØ«ÙĤÙĦØ§":7699,"Ø§Ø¯Ø³":7700,"ĠØ§ÙĦØºØ±Ø±":7701,"ĠÙĦÙĦÙħÙĨ":7702,"ĠÙĪÙĨÙĤÙĦÙĩ":7703,"ĠÙĤÙĪÙĦÙĨØ§":7704,"ĠØ§ÙĦØ·ÙĬØ¨":7705,"ĠÙĦØ¹ÙħØ±":7706,"ĠØ¹ÙĦÙħØ§":7707,"ĠÙĪØŃØ±Ùħ":7708,"ĠÙĦØŃØµÙĪÙĦ":7709,"ĠÙĬØ³ØªØ¹ÙħÙĦ":7710,"ÙĦØ³Øª":7711,"ĠØ¨ÙĥØ±Ø§":7712,"ĠØ¨ÙĤØ±Ø¨":7713,"Ø³Ø§ÙĪÙĬ":7714,"Ø³Ø§ÙĥÙĬÙĨ":7715,"ĠÙħØ¬ÙĩÙĪ":7716,"ĠØ§ÙĦÙħØ¤Ø¬ÙĦ":7717,"ĠØ§ÙĦØŃØ¯ÙĪØ¯":7718,"ĠÙĤØ¯ÙħÙĨØ§":7719,"ĠØ§ØŃØªÙħÙĦ":7720,"Ø±Ø§Ø¨ØªÙĩ":7721,"ĠÙĪØ§ÙĦØ´Ø§ÙģØ¹ÙĬ":7722,"ĠÙħÙĥØ§ØªØ¨Ø©":7723,"ĠØ¨Ø§Ø¦ÙĨ":7724,"ÙĤØ§Ø¨ÙĦÙĩ":7725,"ĠØ¬ÙĨØ§Ø²Ø©":7726,"ĠØ§Ø³ØªÙĩ":7727,"Ø£ÙĥØ¯":7728,"ĠØ§ÙĦØ¥ÙĬÙĦØ§Ø¡":7729,"ĠÙĨØ¹ÙĬÙħ":7730,"ĠØ£Ø¨Ø±Ø£Ùĩ":7731,"ĠØ§ÙĦØªÙħÙĦÙĬÙĥ":7732,"ĠØ§ÙĦØ¬Ø§ÙĨØ¨ÙĬÙĨ":7733,"ÙĦÙĦÙħ":7734,"Ø±ÙĨ":7735,"Ø±ÙħÙĩ":7736,"Ø¹Ø§Ø¡":7737,"ĠÙĪØ³ÙĨ":7738,"ĠØ£Ø°":7739,"ĠØ¨Ø¶Ø±Ø¨":7740,"ĠØ¨Ø¯ÙĬÙĨÙĩ":7741,"ĠÙģØ³ÙĦÙħ":7742,"ĠØ¹ÙĩØ¯Ø©":7743,"ÙģØ¬":7744,"Ø³ØŃ":7745,"Ø³ØªÙĩ":7746,"ØŃØµÙĦ":7747,"Ø¬ÙĨÙĬ":7748,"Ø£ÙĦØªÙĩ":7749,"ĠÙĤØ¨Ø±":7750,"ĠÙĤÙĩØ±Ø§":7751,"ĠØ§ÙĦÙħÙĪØ³":7752,"Ø¶Ø§Ø±Ùĩ":7753,"Ø¶Ø§Ø¦Ùĩ":7754,"ĠØ¥ÙĨØ§":7755,"ĠØ¥Ø¬Ø§Ø²Ø©":7756,"ĠÙħÙĨØ²ÙĦ":7757,"ĠØªØ¯ÙĦ":7758,"ĠØªØ§Ø¨Ø¹":7759,"ĠØŃØ¶ÙĪØ±Ùĩ":7760,"ÙĬÙĨØ¨ØºÙĬ":7761,"ÙĬØ±ÙĬ":7762,"ĠÙĦØ§Ø´Øª":7763,"Ø±Ø§Ø©":7764,"ĠØ¬Ø¨Ø±":7765,"ĠØ¬Ø§Ø±Ùĩ":7766,"ĠØ§ÙĦØ¹Ø¨Ø±Ø©":7767,"ĠØ¨Ø¹ØªÙĥ":7768,"ĠØ«ÙĨØ§":7769,"ÙģÙĬØ§":7770,"ĠØ§ÙĦØ¨Ø§ÙĦØº":7771,"ĠØ§ÙĦØ¥Ø«Ùħ":7772,"ĠØ§ÙĦØ¥Ø³ÙĨØ§Ø¯":7773,"Ø¨Ø±Ø§ÙĨÙĬ":7774,"ĠÙĬÙĥÙħÙĦ":7775,"ĠØ¨Ø§Ø·ÙĦØ§":7776,"ĠØ²Ø§Ø¯Ùĩ":7777,"ĠÙĬÙĤØ¶":7778,"ĠÙĬÙĤÙĪÙĦÙĪÙĨ":7779,"ĠØ·ÙĬØ¨":7780,"ĠÙĪÙĬØ¹ØªÙĤ":7781,"ĠÙĪÙĬÙĦØ²Ùħ":7782,"ÙģØ³Ø§Ø®":7783,"ÙĦØ¯ÙĩØ§":7784,"ĠØ±Ø¬ÙĦØ§ÙĨ":7785,"ĠØ£ÙħÙĪØ±":7786,"ÙħØ¹ÙĨÙī":7787,"ĠØ¸Ø±Ùģ":7788,"ĠØ¸ÙĩØ±Ùĩ":7789,"ĠØ§ÙĦØºØ±ÙĪØ¨":7790,"ÙĪØ§ÙĦØº":7791,"ĠÙĦÙĦÙħØŃ":7792,"ĠÙģØ£Ø¬Ø§Ø¨":7793,"ĠÙĪÙĨØ³":7794,"ĠØ§ÙĨØµØ±Ùģ":7795,"ĠØ§ÙĦÙħØªØ¹":7796,"ĠÙģØªÙĨØ©":7797,"ĠÙģØ¹ÙĨØ¯":7798,"ĠØ§ÙĦÙħØ¹ÙĦÙĪÙħ":7799,"ĠÙĥØ§ÙĦØº":7800,"ĠØ¨Ø§ÙĦØ±Ø¯":7801,"Ø¨ØºÙĩ":7802,"ĠØ¨ÙĬØ¹Øª":7803,"ĠØ§ÙĦÙħÙĨÙĥ":7804,"ĠØ¨Ø§ÙĦØ£ÙĪÙĦ":7805,"ĠØŃØ¬Ø§Ø¬":7806,"ĠØ±ÙĥØ¨":7807,"ĠØªÙħÙĥÙĨ":7808,"ĠØ¨Ø§ÙĦØ¥Ø³ÙĦØ§Ùħ":7809,"ĠÙĪØ´Ø¨Ùĩ":7810,"ĠØŃØ§Ø¶Øª":7811,"ĠØªØªØ¹ÙĦÙĤ":7812,"ĠÙĦÙĦØŃØ§ÙĥÙħ":7813,"ĠØ§ÙĦØªØ¹Ø±ÙĬÙģ":7814,"ĠÙĪØ§ÙĦÙĤÙĪÙĦ":7815,"ĠÙĤØ±Ø±Ùĩ":7816,"ĠØ§ÙĨØªÙģØ§Ø¡":7817,"ĠØ§ÙĦØ´ÙĬØ®ÙĬÙĨ":7818,"Ø´Ø¯ÙĬØ¯":7819,"ĠÙħØµØ§ÙĦØŃ":7820,"ĠÙĨØ¸Ø±Ùĩ":7821,"ĠØ§ÙĦÙģØ±Ø§Øº":7822,"ĠØŃØ±ÙħØªÙĩ":7823,"ÙĪÙĥØ§ÙĨØª":7824,"ĠÙĨØ²Ø§Ø¹":7825,"ĠØ¹ÙĦÙĤÙĩ":7826,"ĠØ¹ÙĦÙĤÙħØ©":7827,"ĠØªØ¬Ø¹ÙĦ":7828,"ĠØ¨ÙģØ±Ø¶":7829,"ĠØ¨ÙĬÙħÙĬÙĨ":7830,"ØµØ§ÙĬØ§":7831,"ĠÙĪØ´Ø±ØŃÙĩ":7832,"ĠØ¹Ø¸ÙĬÙħ":7833,"ĠØ¥Ø´ÙĥØ§ÙĦ":7834,"ĠØ§ÙĦØ´Ø±ÙĥØ§Ø¡":7835,"ĠØŃØ§Ø±Ø«Ø©":7836,"ĠØ¬Ø¨Ø±ÙĬÙĦ":7837,"Ø±Ø§Ø±":7838,"Ø±ÙĪØ±":7839,"ĠØ§Ø·ÙĦØ¹":7840,"ÙĦØ¦ÙĦØ§":7841,"ÙħØ·ÙĦØ¨":7842,"ØªÙĥÙħ":7843,"ĠÙĪØ¶Ùħ":7844,"ĠÙħØ±ØŃ":7845,"ĠØ¨ÙĪØ¬":7846,"ĠØ¨ÙĪÙĦØ§":7847,"ĠØ¨Ø³ÙĨ":7848,"ĠØ¨Ø±ÙĩÙĨ":7849,"ÙģÙĤÙĬÙĦ":7850,"ÙĦØ§Ø¨":7851,"ÙĦØ§ÙħØ§":7852,"ĠÙģÙĬØ¨ÙĤÙī":7853,"ĠÙĥÙģØ§":7854,"ĠØ§ÙĦÙħÙĨÙģ":7855,"ĠØ§ÙĦÙħÙģØª":7856,"ĠØ§ÙĦÙħØ¬Ø¯":7857,"ĠÙħÙĨÙģØ¹ØªÙĩ":7858,"ĠØªÙĥØ±Ùĩ":7859,"ĠØªÙĪØ¬Ùĩ":7860,"ĠØªØ¨Ø¹Ùĩ":7861,"ĠØªÙĪÙĥÙĬÙĦ":7862,"ĠØŃÙĦØª":7863,"ĠØŃØ§Ø¦ÙĦ":7864,"ĠØ§ÙĦÙĦØ¨":7865,"Ø²Ø§ÙĦ":7866,"ĠØ§ÙĦØ£ÙħØ§ÙĨ":7867,"ĠØ´Ø¬":7868,"ĠØ¨ÙĨØ³":7869,"ĠØ§ÙĦØ¹ÙĤÙĪØ¯":7870,"ĠØ§ÙĦØ¹ØªØ¨ÙĬØ©":7871,"Ø±ÙĬØ¹":7872,"ÙĪØ¬Ø§Ø²":7873,"ĠØ§ÙĦØ¨Øª":7874,"ĠØ§ÙĦØªÙħÙĥÙĨ":7875,"ĠØ§ÙĦØªØ®ÙĬÙĬØ±":7876,"ĠØ¨Ø§ÙĤÙĬÙĩ":7877,"ĠØ¨Ø§ØªÙģØ§ÙĤ":7878,"ĠÙĪØ£Ø·ÙĦÙĤ":7879,"ĠÙĪØ£ÙĥØ«Ø±":7880,"ĠÙĪØ£Ø´Ø§Ø±":7881,"ĠØ§ÙĦØ³ÙĥØ±":7882,"ĠÙĪÙĬØ³ØªØŃØ¨":7883,"ĠÙĬØŃØ³Ø¨":7884,"ÙģØ§Ø¶Ø©":7885,"Ø¶Ø§Ø¹Ø©":7886,"ĠØ£ÙħÙĪØ§ÙĦÙĩÙħ":7887,"ÙĪÙĦÙĪØ¯":7888,"ĠØ¹ÙĨØ¯ÙĩØ§":7889,"ĠÙĪØªÙĥÙĪÙĨ":7890,"ĠÙģØ£Ø®":7891,"ĠÙĪÙĨÙĤØµ":7892,"ĠÙģØ§ØŃØ´":7893,"ĠØ¨ÙħÙĪØ¶Ø¹":7894,"ĠØ¨ØŃÙħÙĦ":7895,"ĠÙģØ¹ÙĦÙĬ":7896,"Ø¨ÙĬÙĨØ§":7897,"ÙħÙĬØ³":7898,"Ø´ÙĬØ®":7899,"ÙĨØ«ÙĬÙĬÙĨ":7900,"ĠÙĬØ¤Ø¬Ø±":7901,"ĠÙĬØ´ÙĤ":7902,"ĠØ§Ø®ØªØµ":7903,"ĠØ¨Ø§ÙĦØ¹ÙħÙĦ":7904,"ØŃØ±Ø²":7905,"ĠØ±Ø¯ØªÙĩ":7906,"ĠØ¨Ø§ÙĦØ£ÙĤÙĦ":7907,"ĠÙĬÙģØ±Ø¶":7908,"ØŃØ§ÙĪÙĬ":7909,"ĠÙĦÙĦØŃØ¬":7910,"ĠÙĦÙĦÙĪÙĦÙĬ":7911,"ĠØ®Ø·Ø¨Ø©":7912,"ĠÙģÙĤÙĬØ±":7913,"ĠØ¨Ø®Ø·":7914,"ĠØ¨Ø®ÙħØ³Ø©":7915,"ĠØªØ·ÙĦÙĬ":7916,"ĠØ¨Ø§ÙĦØ¬ÙĨØ§ÙĬØ©":7917,"ĠÙħØ´ØªØ±ÙĥØ©":7918,"ĠØ¨Ø§ÙĦØ«ÙĦØ«":7919,"ĠÙĪØ±Ø«Ùĩ":7920,"ĠØ£Ø¬ÙĨØ¨ÙĬØ§":7921,"ĠÙĪØ§ÙĨØª":7922,"ĠØ´Ø±Ø¹ÙĬØ©":7923,"ÙĤØ§Ø¨ÙĦØ©":7924,"ĠØ¨Ø§ÙĦØ§ØªÙģØ§ÙĤ":7925,"ĠÙĪÙĤÙĬÙħØªÙĩ":7926,"ĠØŃÙģØ¸Ùĩ":7927,"ĠÙħØ¶ÙħÙĪÙĨØ§":7928,"ĠÙĤÙĬØ§ÙħÙĩ":7929,"ĠØ³Ø¬Ø¯Ø©":7930,"ĠØ§ÙħØªÙĨØ§Ø¹":7931,"ĠØ¨ÙĨÙģØ³ÙĩØ§":7932,"ÙĥØ±ÙĬØ§":7933,"ĠÙĨØ§ÙģØ°":7934,"ĠØ§ÙĦÙĥØ±Ø®ÙĬ":7935,"ĠØ§ÙĦØ¬ÙĪØ²ÙĬ":7936,"Ø§Ø¹Øª":7937,"ÙĨØ¸Ø±":7938,"ĠÙĪØ¨Ø±":7939,"ĠÙĪØ«Ùħ":7940,"ĠØ¨ÙĪØ¬ÙĪØ¯":7941,"ĠÙģÙĤØªÙĦ":7942,"ĠØ¹ØµØ±":7943,"ĠÙĬÙĪÙħÙĩ":7944,"ĠÙĬØ±ÙĥØ¹":7945,"ÙĥÙĪÙĦ":7946,"ĠÙĥØ¥ÙĨ":7947,"ĠØ§ÙĦÙħÙģØ±":7948,"ĠØ¥Ø«Ùħ":7949,"ĠØ¥Ø±Ø§Ø¯Ø©":7950,"ĠÙħÙĨØ²ÙĦÙĩ":7951,"ĠØªØ¨Ø§Ø¹":7952,"ĠØŃÙĪÙĦÙĩ":7953,"ĠØŃÙĬØ©":7954,"ĠØŃØ¯Ø§":7955,"Ø²ÙĪÙĬØ¬":7956,"ÙĦÙĤØ§Ø¡":7957,"Ø§Ø±ÙĨ":7958,"ĠÙĦØ§ÙħØ±Ø£ØªÙĩ":7959,"ĠØ³ÙħØ±Ø©":7960,"ĠØ³ÙĦØ·":7961,"ĠØ´ÙĤØµ":7962,"ĠØµÙģÙĤØ©":7963,"Ø±Ø§ÙĤÙĬ":7964,"Ø±Ø§Ø¨Ø¹":7965,"ÙĪÙĦÙĨØ§":7966,"ĠØ¬ÙĬØ¯":7967,"Ø§Ø¨Ø§Ø©":7968,"ÙĤØ¯Ùĩ":7969,"ĠØ§ÙĦØŃØµ":7970,"ĠØ§ÙĦØŃÙĦØ§ÙĦ":7971,"ÙĪØ¬ÙĬÙĩ":7972,"Ø¸Ø§Ø±":7973,"Ø±Ø¬Ø©":7974,"Ø¦Ø¨":7975,"ĠÙĬÙĤØ±Ø¨":7976,"ĠØ§ÙĦØ¬Ø§Ø±":7977,"ĠÙĬØ¬Ø±":7978,"ĠÙĬØ¬Ø§ÙĪØ²":7979,"ĠÙĪÙĬÙĪÙħ":7980,"ĠÙĬØªÙĨØ§":7981,"ĠØºØ±ÙĬÙħÙĩ":7982,"ĠØ§ÙĦØ«ÙĪØ§Ø¨":7983,"ĠÙĪØ¹ÙĨÙĩ":7984,"ÙĪÙĩÙĨØ§":7985,"ĠÙĬÙĨØµØ±Ùģ":7986,"ĠØ¶Ø¹ÙĬ":7987,"ĠØ§Ø³ØªØ«ÙĨØ§Ø¡":7988,"ÙĪØ£Ø¬Ø§Ø¨":7989,"ĠØªØ¹Ø§Ø±Ø¶":7990,"Ø§ÙĩØ¯Ø©":7991,"ĠØ¹ÙħØ±ØªÙĩ":7992,"ĠØ¨ÙħØ¶ÙĬ":7993,"ÙĪØ³ÙĬØ©":7994,"ĠØ§ÙĨÙģØ³Ø®":7995,"ĠÙģØªØµØŃ":7996,"ĠÙĬØ®Ø·Ø¨":7997,"ĠÙĬØ®ØµÙĩ":7998,"ĠÙħØ±ØªØ¨":7999,"ĠØ§ÙĦÙħØ¹Ø±ÙģØ©":8000,"ĠØªØŃØ±ÙĬÙħÙĩ":8001,"ĠØ§ÙĦÙħØŃÙĬÙĦ":8002,"ĠØ²ÙĪØ¬Ø§":8003,"ĠÙĪØ³Ø§Ø¦Ø±":8004,"ĠÙĬØ³ØªØ£Ø¬Ø±":8005,"ÙĤØ¨ÙĦÙĩ":8006,"Ø°ÙĥÙĪØ±":8007,"ĠØ³ÙĦÙħÙĩ":8008,"ĠØªÙĨØ¬Ø³":8009,"ĠØ«ÙĦØ«ÙĩØ§":8010,"ØŃØ§Ø¯ÙĬØ«":8011,"ĠØ¨Ø±Ø£ÙĬ":8012,"ĠØ§ÙĦØªØ¹Ø¨ÙĬØ±":8013,"ĠØ¨Ø§ÙĦÙĨØµÙģ":8014,"ĠØ¨Ø§ÙĦØ´Ùĥ":8015,"ĠØŃØ±ÙħØª":8016,"ĠÙĪÙģØ§Ø±ÙĤ":8017,"ĠÙĥØ£ØµÙĦÙĩ":8018,"ĠÙĩØ´ÙĬÙħ":8019,"Ø£Ø¬ÙĬØ¨":8020,"ĠØªØ±ØªÙĬØ¨":8021,"ĠØ§ÙĦÙĨØ¬ÙĪÙħ":8022,"ĠÙģÙĬØŃÙĦÙģ":8023,"ĠØŃÙĦÙĤÙĩ":8024,"ĠØ§ÙĦØ¹ØµØ¨Ø©":8025,"ĠÙĬØ³ØªØŃÙĤÙĩ":8026,"ĠØ§ÙĦÙģØªÙĨØ©":8027,"ĠÙħÙĪÙĤÙĪÙģØ§":8028,"ĠØ±Ø®ØµØ©":8029,"ĠÙħØ¹ØªØ¨Ø±Ø©":8030,"ĠØªÙĬÙħÙħÙĩ":8031,"ÙĪÙģØ±":8032,"ÙĪÙĤØ·Ø¹":8033,"ÙĪØŃÙĬØ«":8034,"ÙħÙĥÙĨÙĩ":8035,"Ø¨Ùħ":8036,"ØªØ¨Ø§Ø¹":8037,"Ø¹ÙĪ":8038,"Ø¹ÙĦÙĬ":8039,"ĠÙĪÙĥØ±":8040,"ĠØ£ÙģØ§Ø¯":8041,"ĠÙħØ£Ø°ÙĪÙĨ":8042,"ĠÙģÙĤÙĩ":8043,"ĠÙģÙĪØ§Øª":8044,"ĠØ¹Ø°Ø§Ø¨":8045,"ÙģØ§ÙĦØŃ":8046,"ĠÙĬÙĦÙĬ":8047,"ĠÙĬØ±Ùĩ":8048,"ĠÙĬØªÙĩÙħ":8049,"ĠÙĬÙĪÙĩÙħ":8050,"ÙĦØ§Ø¯Ø©":8051,"ÙĥÙĨÙĩØ§":8052,"ĠÙĤÙĪÙĦÙĬÙĨ":8053,"ĠÙĥØ²":8054,"ĠØ§ÙĦÙħØ¨Ø§":8055,"ĠØ¥Ø¹ØªØ§ÙĤ":8056,"ĠÙħÙĨØ²":8057,"Ø®Ùģ":8058,"Ø®ÙĦØª":8059,"ĠØªÙĪØ¨ØªÙĩ":8060,"ĠØŃÙĪØ²":8061,"ĠÙĨØ§Ø¸Ø±":8062,"ĠÙĩØ¯Ùħ":8063,"ÙĨØ§Ø³Ø¨":8064,"ÙĨØ§Ø¹Ùĩ":8065,"ĠØ´ÙĩÙĪ":8066,"ĠØ´Ø¯Ø©":8067,"ĠØ´ÙĩÙĪØ©":8068,"ĠØµÙĪØª":8069,"Ø±Ø§ÙĩØ§":8070,"Ø³ØªØ§ÙĨ":8071,"ĠØ§ÙĦØ¹ÙĤØ¨Ø©":8072,"ÙĤØ¯Ø§Ùħ":8073,"ĠØ¨Ø¹Ø±Ø¶":8074,"ĠØ«Ø§ÙĨÙĬ":8075,"ĠØ®Ø°":8076,"ĠØ®ÙĬØ§Ø±Ùĩ":8077,"ĠÙħØ¹Ø§ÙħÙĦØ©":8078,"ĠØ§ÙĦÙĤØ¯ÙĬÙħ":8079,"ÙģÙĬØª":8080,"ĠØ§ÙĦÙĪÙĩØ§Ø¨":8081,"ĠØ§ÙĦÙĪØµØ§ÙĬØ§":8082,"Ø¸ÙĪØ±":8083,"ĠØ§ÙĦØ¨Ø¹Ø¯":8084,"ĠØ§ÙĦØªØ¨Ø±Ø¹":8085,"ĠØ§ÙĦØªÙħÙĬÙĬØ²":8086,"ÙģØ¹ÙĦÙĩØ§":8087,"ÙĥØ±Ø§Ø±":8088,"ĠØ§ÙĦÙĨØ¬Ø³":8089,"ĠØ§ÙĦØ¬Ùĩ":8090,"ĠØ§ÙĦØ¬ÙĬØ´":8091,"ÙĪØ¹Ø¯Ùħ":8092,"ĠØ§ÙĦØ³ÙĦØ§ÙħØ©":8093,"ĠÙĪÙĬØ¨Ø·ÙĦ":8094,"ĠØ§Ø¨ÙĨÙĬ":8095,"ĠØ£Ø®ÙĬ":8096,"ÙĤØªØµ":8097,"ĠØ§ÙĦØ®ÙģÙĬÙĨ":8098,"ĠØ§ÙĦØ®Ø¨Ø²":8099,"ĠØ§ÙĦØ®ÙĦÙĪØ©":8100,"ĠÙĪÙĥÙħØ§":8101,"ĠØ£Ø¨ÙĬØ¶":8102,"ĠÙĬÙĨØ²":8103,"ĠÙĬÙĨÙģØ±Ø¯":8104,"ĠÙĬÙĨÙĥØŃ":8105,"ĠØ§Ø³ØªØ¨Ø±Ø§Ø¡":8106,"ĠØ§ÙĦØ±Ø¨ÙĬØ¹":8107,"ĠØ¸Ø§ÙĦÙħ":8108,"ĠÙģØ£Ø³ÙĦÙħ":8109,"ØŃÙĬØªÙĩ":8110,"ĠÙħØªØªØ§Ø¨":8111,"ĠÙĪÙħØ¤":8112,"Ø°Ø±Ø¹":8113,"ÙĤØµÙĬØ±Ùĩ":8114,"ĠÙģØªØ¨ÙĬÙĨ":8115,"ĠØ§ÙĦØ·ØŃØ§ÙĪÙĬ":8116,"ĠÙĬØ®Ø´Ùī":8117,"ĠØ§ÙĦÙħØ¹Ø¯":8118,"ĠØ¨ØªØ±ÙĥÙĩ":8119,"ĠØ¹Ø¯ÙĦÙĬÙĨ":8120,"ĠØ®ÙħØ³Ø§":8121,"ĠØ§Ø¹ØªØ±Ø§Ø¶":8122,"ĠØ¨Ø·ÙĨÙĩØ§":8123,"ĠØ£Ø³Ø¯":8124,"ĠÙħØ³ØªÙĨ":8125,"ĠØªÙĤØ³Ùħ":8126,"ĠØ§ÙĦÙħØ¬Ø§Ø²":8127,"ĠÙģØ±Ø³":8128,"ĠÙĪØ¬Ø¯ÙĩØ§":8129,"ĠØ§ÙĦÙħØ´Ø§Ø±":8130,"ĠÙĬØ·ÙĪÙģ":8131,"ĠØ±Ø¬Ø¹ÙĬØ©":8132,"ĠØ§Ø³ØªØŃØ¨Ø§Ø¨":8133,"ĠÙĦØ³Ø§ÙĨÙĩ":8134,"ĠØ§ÙĦØŃÙĤÙĪÙĤ":8135,"ĠØ§ÙĤØªØµ":8136,"ĠÙĤØ±ÙĨ":8137,"ĠØ§ÙĦØ£ØµÙĪÙĦ":8138,"ĠØªÙĥØ¨ÙĬØ±":8139,"ĠØ§ÙĦØ¹Ø¯Ø§ÙĦØ©":8140,"ĠÙĪÙħØ¹Ùĩ":8141,"ĠÙĪØ§Ø±Ø«Ø§":8142,"ĠØ³ÙĨÙĨ":8143,"ĠÙħÙĪØ³Ø±":8144,"ĠÙħÙĤØ§Ø¨ÙĦÙĩ":8145,"ĠØ£Ø«Ø±Ùĩ":8146,"ĠØ§Ø³ØªÙĩÙĦÙĥ":8147,"ĠØ§ÙĦÙħØŃØªØ§ÙĦ":8148,"ĠÙĦØ¶Ø±ÙĪØ±Ø©":8149,"ÙĪÙĦÙĥÙĨÙĩ":8150,"ĠØ¨ÙĪØ§ØŃØ¯":8151,"ĠÙĤÙĦØ¹Ùĩ":8152,"ĠÙĨÙĤØ¶Ùĩ":8153,"ĠÙĬØ·Ø£ÙĩØ§":8154,"ĠØ´Ø§ÙĩØ¯Ø§":8155,"ĠÙģØ¨Ø§Ø¹Ùĩ":8156,"Ø£ØŃØ¯ÙĩØ§":8157,"ÙĩØ§ÙĬØ£Ø©":8158,"Ø§ÙĬØ±":8159,"Ø§ÙģØ§":8160,"ÙĬÙĪÙħ":8161,"Ø¯ÙĩØ§":8162,"Ø¹Ø¯Ø§":8163,"ĠØ£Ø«ÙĨ":8164,"ĠÙħÙĬÙħ":8165,"ĠØ¨ÙĤØ¨":8166,"ÙģÙħ":8167,"ĠÙĬÙĦÙĬÙĩ":8168,"ĠÙĬØµØ±":8169,"ĠÙĬØ´Ø±Ø¹":8170,"ĠÙģÙĬÙĤØ¹":8171,"ĠÙĥÙģÙĬ":8172,"ĠØ§ÙĦÙħÙĤÙĬØ¯":8173,"ĠØ¥Ø³Ø±":8174,"ĠÙħÙĨÙĤ":8175,"ĠØªÙĤØ§":8176,"ÙĦÙĪØ«":8177,"ĠØŃØ¨ÙĬ":8178,"ĠØŃØ§ØªÙħ":8179,"ĠØŃØ§Ø²Ùħ":8180,"ĠØ£ÙĪÙĦÙĬ":8181,"ĠØ³Ø¹Ø©":8182,"ĠØ³ÙĪØ·":8183,"ĠØ§ÙĦØ£ØŃÙĪØ§ÙĦ":8184,"ĠØ§ÙĦØ£ÙĨØ«ÙĬÙĬÙĨ":8185,"ĠØ°ÙĪÙĬ":8186,"ĠØµÙĦØ©":8187,"Ø±Ø§ÙģÙĩ":8188,"ĠØ§ÙĦØŃØ§Ø¬":8189,"ĠØ§ÙĦØŃÙħØ§Ùħ":8190,"ÙħÙĩÙĦ":8191,"ĠØ¥ÙĨØ´Ø§Ø¡":8192,"ĠØ§ÙĦØªØ¨Ø¹":8193,"ÙĪÙħÙģÙĩÙĪÙħ":8194,"ĠÙĬÙĥØ«Ø±":8195,"ĠØ§ÙĦØ´Ø§ÙģØ¹":8196,"ĠÙĪØ£ÙĤØ±Ùĩ":8197,"ĠÙĪÙĬØ³ÙĦÙħ":8198,"ĠÙĦÙĦØºÙĬØ±":8199,"ĠÙĬØªØ¬Ø²Ø£":8200,"ĠØ§ÙĦØ®Ø¯Ø±ÙĬ":8201,"ĠÙĪÙĥÙĬÙĦØ§":8202,"ĠÙĪØ¹ÙħØ±ÙĪ":8203,"ĠÙĬÙĨÙģØ¹":8204,"ĠØ¨Ø£Ø¬Ø±":8205,"ĠØ£Ø¨ÙĦØº":8206,"ĠØ¨Ø¯Ø±Ø§ÙĩÙħ":8207,"ĠØ§ÙĦØºØ§ÙĬØ©":8208,"ĠØ§ÙĦØºÙĬØ¨Ø©":8209,"ĠØªØ¹Ø¬ÙĬÙĦ":8210,"ĠÙģØ£Ø®Ø±Ø¬":8211,"Ø§ÙĩØ±Ø§":8212,"ØªÙĤÙī":8213,"ĠØ£Ø¬Ø§Ø¨":8214,"ĠØ§ÙĦÙħØ³Ø§ÙģØ©":8215,"ĠØ¨ØŃØ§ÙĦÙĩ":8216,"Ø§ÙĤÙģ":8217,"Ø¬ÙĩØ©":8218,"ÙģÙĩØ°Ùĩ":8219,"ÙĨØ³Ø§Ø¡":8220,"ĠÙĪÙĤØ¯Ø±":8221,"ĠÙĪÙģÙĬÙĩØ§":8222,"ĠØ¨ØªÙĤØ¯ÙĬØ±":8223,"ĠÙĬØ´Ø§Ø¡":8224,"Ø¹ÙħÙĦÙĩ":8225,"ĠØ¨ÙĤØ±Ø©":8226,"ĠØªØ£Ùĥ":8227,"ĠÙĬÙĤØªØµØ±":8228,"ĠÙģÙĤØ·Ø¹":8229,"ÙĪØ§ÙĦÙħØ°ÙĩØ¨":8230,"ĠØŃØµÙĬÙĨ":8231,"ĠØ±ÙĥÙĪØ¹":8232,"ĠØ§ÙĦØ§Ø³ØªÙħØªØ§Ø¹":8233,"ĠØ±Ø¨Ùĥ":8234,"ĠØ«ÙĦØ«ÙħØ§Ø¦Ø©":8235,"ĠÙħØ´ÙĩÙĪØ±":8236,"ĠÙĦÙĦÙĨØ¨ÙĬ":8237,"ĠÙĦÙĦØŃÙħÙĦ":8238,"ĠÙĦØ³Øª":8239,"ĠÙĥØªØ§Ø¨Ùĩ":8240,"ÙĪØ¨ÙĩØ°Ø§":8241,"ĠØ¨Ø³ÙĩÙħ":8242,"ÙĪØ§ÙĦØ£ÙĪØ¬Ùĩ":8243,"ĠÙģØ¬Ø§Ø²":8244,"ĠØªÙĥÙģÙĬ":8245,"ĠØ£ØµØ§Ø¨Ø¹Ùĩ":8246,"ĠØ¥Ø®ÙĪØ©":8247,"ĠØªØ®ÙĦÙģ":8248,"ĠØ£Ø±Ø¨Ø¹ÙĪÙĨ":8249,"ÙĪÙĬØªÙĪØ¬Ùĩ":8250,"ĠØ¨Ø§ÙĦØµÙĦØ§Ø©":8251,"ĠØŃØ³ÙĨØ©":8252,"ĠØ¨Ø°ÙħØªÙĩ":8253,"ĠÙĪØ¶Ø¹Øª":8254,"ĠÙħÙĪØ§ÙģÙĤØ©":8255,"ĠØ±Ø£ÙĬÙĩ":8256,"ĠÙħÙħÙĦÙĪÙĥØ©":8257,"ÙĨØ¬Ø§Ø¡":8258,"ĠÙĪØ®ÙħØ³ÙħØ§Ø¦Ø©":8259,"ĠØ§ÙĦÙĬØ³ÙĬØ±":8260,"ĠÙħÙĪØ¬ÙĪØ¯Ø©":8261,"ÙĪØ§ÙĦØ¬ÙĪØ§Ø¨":8262,"ĠØ§ÙĦÙħØ¨Ø§ÙĦØºØ©":8263,"ĠØ·Ø¹Ø§ÙħÙĩ":8264,"ĠØ§ÙĦØµÙĪØ±ØªÙĬÙĨ":8265,"ĠÙĪØ£ØµÙĦÙĩØ§":8266,"ĠØ¨Ø®Ø±ÙĪØ¬":8267,"ĠØ³ÙĩÙĬÙĦ":8268,"ĠØªØ²ÙĪÙĬØ¬ÙĩØ§":8269,"ĠØ°ÙĩØ¨Ø§":8270,"Ø§ÙĨÙĩØ§":8271,"ÙĪÙĤØ§ÙĦÙĩ":8272,"ĠØ§ØµØ·":8273,"ÙħÙħØ§":8274,"ĠÙĪÙĦØŃ":8275,"ĠØ¹ÙĪÙĨ":8276,"ĠÙĬØ·Ø¹Ùħ":8277,"ÙĦØ§ØªÙĩ":8278,"ØµØ¨Ø©":8279,"ØµØ±ÙĬØŃ":8280,"ĠÙĥÙĤ":8281,"ĠØªÙĨØ§ÙĪÙĦ":8282,"Ø´Ø±Ø¨":8283,"Ø²ÙħÙĩ":8284,"Ø§Ø±Ø¶Ø©":8285,"ĠÙĨØ¨Øª":8286,"ĠØ³ÙĦØ§ÙħÙĩ":8287,"ĠØ§ÙĦØ£ÙĨØ«Ùī":8288,"ĠØ§ÙĦØ£ÙħØ§ÙĨØ©":8289,"ĠØ§ÙĦØ£Ø¯ÙĦØ©":8290,"ĠØ´Ø§Ø¦":8291,"ĠØ´ÙħÙĦ":8292,"ĠØ¨ÙĨØªÙĩ":8293,"ĠØ§ÙĦØ¹ÙĬ":8294,"ĠØ¨Ø¹ÙĦÙħÙĩ":8295,"ĠØ¯Ø§Ø¨ØªÙĩ":8296,"Ø±ÙĬØª":8297,"Ø±ÙĬØ¨Ø©":8298,"ĠØ¨ÙĩÙĨ":8299,"ĠØ§ÙĦØªØª":8300,"ĠØ§ÙĦØªØº":8301,"ĠÙĦÙĪÙĦØ¯Ùĩ":8302,"Ø¨Ø§Ø³":8303,"ĠØ·Ø§":8304,"ĠØ§ÙĦØ³ØªØ±":8305,"ĠÙĪÙĬØ¸ÙĩØ±":8306,"ÙģØ³ÙĬØ±":8307,"ĠØ£Ø®Øµ":8308,"ĠØ§ÙĦØµØ§Ø¯":8309,"ĠÙĬØ¹Ø°Ø±":8310,"ĠÙĬØ¹Ø¯ÙĦ":8311,"ÙĪØ±ÙĪØ«":8312,"ÙĪÙĩÙĨ":8313,"ÙĦØ¨ÙĬØ©":8314,"ĠØ¨Ø£Ø±Ø¨Ø¹Ø©":8315,"ĠØ£ÙħÙĪØ§ÙĦ":8316,"ĠØ§Ø³ØªØ¤Ø¬Ø±":8317,"ÙħØ¹Ùĩ":8318,"ĠÙħØªÙĤ":8319,"ĠÙĪÙħÙģÙĩÙĪÙħ":8320,"ÙĪØ³ÙĬØ£ØªÙĬ":8321,"ĠØ£Ø¬Ø¯":8322,"ĠÙģØ¹ÙĦØ§":8323,"ÙĪÙģÙĬÙĤ":8324,"ĠÙĬØ³ÙĬØ±Ø§":8325,"ĠØ£Ø´Ø±Ùģ":8326,"ÙģÙĩÙħÙĩ":8327,"ĠØ£ØµÙĦÙĬ":8328,"ÙĪØµÙĪÙģ":8329,"Ø§Ø¹Ø¯Ø§":8330,"ĠÙĦØŃÙħÙĩ":8331,"ĠØ§ÙĦÙĩÙĦØ§ÙĦ":8332,"ĠÙģØ³ÙĤ":8333,"ÙĦÙģØ¸Ùĩ":8334,"ĠØ¨ÙĤØ¶Ø§Ø¡":8335,"ĠÙĬÙĤØªÙĦÙĩ":8336,"Ø«ÙĨÙĬÙĨ":8337,"ĠÙģÙĦÙĬØ³Øª":8338,"ĠØ«ÙĦØ«Ø§":8339,"ĠÙĥÙģØ±Ùĩ":8340,"ĠØ¬Ø¹ÙĦÙĩØ§":8341,"ĠØŃØ§ÙĦÙĩØ§":8342,"ĠÙĤØ¯ÙħÙĬÙĩ":8343,"ĠØªØµØŃÙĬØŃ":8344,"ĠØ®Ø·Ø¨":8345,"ĠØ§ÙĨØªÙģÙī":8346,"ĠØ¨Ø§ÙĦÙĥÙĦÙĬØ©":8347,"ĠØ§ÙĦØ¨ØŃØ±ÙĬÙĨ":8348,"ĠØ§ÙĦØ£ÙĦÙģØ§Ø¸":8349,"ĠØ¬Ø¯Ø§Ø±":8350,"ĠÙħØ¨Ø§Ø´Ø±Ø©":8351,"ĠÙĪÙĪÙĦØ¯Ùĩ":8352,"ĠØ³ÙħØ§Ùĩ":8353,"ĠÙĬÙĩÙĦÙĥ":8354,"ĠÙħØ¸ÙĨØ©":8355,"ĠØ¯Ø±Ø¬Ø©":8356,"ĠÙĪØ³Ø¨Ø¹ÙĬÙĨ":8357,"ĠØ§ÙĦØ¨Ø§ÙĤÙĬØ©":8358,"ĠØ§ÙĦØ·Ø±ÙģÙĬÙĨ":8359,"ĠØ®Ø¯ÙħØªÙĩ":8360,"ĠØºØ§Ø¦Ø¨Ø§":8361,"Ø¯Ø±Ø§":8362,"ĠÙħÙħÙĬ":8363,"ĠØ¨ÙħØ¯":8364,"ĠØ¨ÙĥÙĪÙĨ":8365,"ĠÙģØ±Ø¬Ø¹":8366,"ĠÙģÙĦØ°Ø§":8367,"ĠØ¹Ø§Ø´":8368,"ĠØ¹Ø§Ø±ÙĬØ©":8369,"ÙģØ±Ø©":8370,"ĠÙĬØ¹Ø§":8371,"ØµØ±Ø©":8372,"ĠÙģÙĬØŃØªÙħÙĦ":8373,"ĠÙģÙĬØ³ÙĤØ·":8374,"ĠÙĥØ§Ø¨ÙĨ":8375,"ĠØ§ÙĦÙħØ®ØªÙĦÙģ":8376,"ĠØ¥Ø±":8377,"ĠØªØ§Ùħ":8378,"ĠØŃÙĦÙĬ":8379,"ÙĩØ§Ø¬Ø±":8380,"Ø²ÙĬØ©":8381,"ĠÙĩØ¨ØªÙĩ":8382,"ĠØ³Ø§Ø±":8383,"ĠØ´Ø£ÙĨ":8384,"ÙĤØ¯ÙħÙĩ":8385,"ĠØ®Ø¨Ø²":8386,"ĠÙħØ¹ÙĬ":8387,"ĠØ¥ÙĨÙĥØ§Ø±":8388,"ØºÙĦÙĩ":8389,"ĠØ§ÙĦØ¨Ùĥ":8390,"Ø¨ÙĨØª":8391,"ĠÙĪÙĦØ§Ø¤Ùĩ":8392,"ĠÙĪØ£ÙħÙĩ":8393,"ĠØ·Ø§Ø¹Ø©":8394,"ĠÙĪÙĬÙĤ":8395,"ĠÙĪÙĬØ®Ø±Ø¬":8396,"ĠØ£Ø®Ø§Ùĩ":8397,"ĠØ§ÙĦÙģÙĪØ§Øª":8398,"ĠØ§ÙĦØ®Ø²":8399,"ÙĤØ±ÙĬØ±":8400,"ĠØ´ÙĬÙĪØ®":8401,"ÙĪÙĥÙĦØ§Ùħ":8402,"ĠØ¨Ø£ÙĬ":8403,"ÙĪØ²Ø¹":8404,"ĠØ£ØŃÙħØ±":8405,"ĠÙĪØ§ÙĦÙħØ³Øª":8406,"ĠÙĬØ£Ø«Ùħ":8407,"ĠØ£Ø¬Ø¨Ø±":8408,"ÙĩØ¯Ø±":8409,"ĠÙħØŃÙħØ¯Ø§":8410,"ØµØ±Ø§ÙĨÙĬ":8411,"ĠØ¨Ø§ÙĦÙħØ¹ÙĨÙī":8412,"ĠÙĪØµØ±ØŃ":8413,"ĠØ¨ØªØŃ":8414,"ĠØ¢ÙĦ":8415,"ĠØ¢ÙħÙĨ":8416,"ĠÙĬØ´ÙĬØ±":8417,"ĠØ§Ø¹ØªÙħØ¯Ùĩ":8418,"Ø§Ø³ØªÙĩ":8419,"ĠØŃÙĦÙģØª":8420,"ĠØ¨Ø§ÙĦØ£ÙĦÙģ":8421,"ĠÙĪØ§ÙĦØ¹ØªÙĤ":8422,"ĠØ§ÙĦÙħØ§ÙĦÙĬØ©":8423,"ĠÙħØ¤ÙĤØª":8424,"ĠÙĬÙģØ¶ÙĦ":8425,"ĠØªÙħÙĥÙĨÙĩ":8426,"ĠØŃØ¯Ø«ÙĨÙī":8427,"ĠØ¨Ø§ÙĦØ¨ÙĬØª":8428,"ĠÙĦØ¥ÙħÙĥØ§ÙĨ":8429,"ĠÙĬØ±ÙģØ¹Ùĩ":8430,"ĠÙģØŃÙĥÙħ":8431,"ĠØ¨ØµØ±ÙĬ":8432,"ÙģÙĪØ°":8433,"ÙĪØ¹ÙĨØ¯ÙĩÙħØ§":8434,"ĠÙģØµØ§Ø¹Ø¯Ø§":8435,"ĠØ§ÙĦØŃØ³Ø§Ø¨":8436,"ĠØ§ÙĦØ¥Ø®Ø¨Ø§Ø±":8437,"ĠÙĬØ¯Ø¹ÙĬÙĩ":8438,"ĠÙĪÙĬØ¯Ø®ÙĦ":8439,"ĠØºÙĦØ¨Ø©":8440,"ĠØ¥Ø·ÙĦØ§ÙĤÙĩÙħ":8441,"ĠØ²Ø±Ø¹Ø©":8442,"ĠØ§ÙĦØªÙģØ±ÙĬÙĤ":8443,"ĠØ³Ø§Ø¨ÙĤ":8444,"ĠØ§ÙĦØªØµØ±ÙĬØŃ":8445,"ĠÙĥØ¨ÙĬØ±Ø§":8446,"ĠØ£ÙĥØ«Ø±Ùĩ":8447,"ĠØ§Ø«ÙĨØªÙĬÙĨ":8448,"ĠØ¨Ø¦Ø±Ø§":8449,"ĠØ§ÙĦØ§ÙĥØªÙģØ§Ø¡":8450,"ÙħÙħ":8451,"Ø¯ØªÙĩØ§":8452,"Ø¹ÙĬØ§":8453,"ĠÙĪÙģØ§":8454,"ĠØ£Ø¶ØŃÙĬØ©":8455,"ĠÙħÙģØ³Ø¯":8456,"ĠÙģÙĤØ¯Ùħ":8457,"ĠÙģÙĤØ±Ø§Ø¡":8458,"ĠØ¹ÙĪØ¯Ùĩ":8459,"ÙģØ§ÙĦØ£":8460,"ÙģØ§Ø±ÙĤ":8461,"ÙĥÙĬÙģ":8462,"ĠÙĤØ§Øµ":8463,"ØµØª":8464,"ÙĦÙĬØ·":8465,"ĠØ§ÙĦÙħÙĪØ±Ø«":8466,"Ø®Ø©":8467,"Ø·Ø¹Ùĩ":8468,"ĠØªØ§Ø±Ø©":8469,"ĠØªÙĤØµÙĬØ±":8470,"ÙĩØ§Ø±ØªÙĩ":8471,"Ø´Ø¹Ø±":8472,"ĠÙĦØ¤":8473,"Ø²Ø§Ø±":8474,"Ø²Ø§Ø¡":8475,"Ø§Ø±Ø¨Ùĩ":8476,"ĠÙĦÙħØ±Ø¶":8477,"ĠÙĦÙħÙĪÙĦØ§Ùĩ":8478,"ĠÙĩØ¯Ø±":8479,"ĠÙĩØ¯ÙĬØ§":8480,"ĠØ³ÙĥÙĨ":8481,"ĠØ³ØªÙĬÙĨ":8482,"ĠØ³ÙģÙĦ":8483,"ĠØµÙĪØªÙĩ":8484,"Ø§Ø¡Ø©":8485,"ÙĪÙĨØŃÙĪÙĩ":8486,"ĠØ§ÙĦØ¹ÙħØ±":8487,"ĠØ§ÙĦØŃÙģØ±":8488,"ĠØ§ÙĦÙĤÙĬÙħ":8489,"ĠØ§ÙĦÙĤØ·Ø§ÙĨ":8490,"ĠØ§ÙĦÙĤØ§Ø¨Ø¶":8491,"ØºØ±Ø¨":8492,"Ø±Ø¬Ø§ÙĦ":8493,"ĠØ§ÙĦØ¨ØµØ±":8494,"ĠØ§ÙĦØ¥ØªÙħØ§Ùħ":8495,"Ø¨Ø¯Ø¹":8496,"ĠØ§ÙĦØ¬Ø±":8497,"ĠÙĪØ£Ø®Ø±Ø¬":8498,"ĠØ·ÙĪÙĬÙĦ":8499,"ĠØ§ÙĦØ³Ø§":8500,"ĠØ§ÙĦØ³ØªØ©":8501,"ÙģØ³Ø±":8502,"ÙģØ±ÙĤØ§":8503,"ĠØ§ÙĦØµØŃÙĬØŃØ©":8504,"ĠÙĬØ¹Ø²Ø±":8505,"ĠØ§ÙĦÙĥØ³Ø±":8506,"ĠØ§ÙĦØ¯ÙĦÙĬÙĦ":8507,"Ø¨ØªÙĬÙĩ":8508,"ÙģØ§ÙĦÙĤÙĪÙĦ":8509,"ĠÙĬÙĨØ²Ø¹":8510,"ĠØ§ÙĦØ°ÙĥÙĪØ±":8511,"Ø¯Ø§ÙĪØ©":8512,"ĠÙĪÙĤØ³Ùħ":8513,"ĠÙĪÙĤØ¶Ùī":8514,"ĠÙĦÙĥØ«Ø±Ø©":8515,"ĠÙĪØ¥ÙĨÙĩ":8516,"ĠÙĦÙĦÙħÙĦÙĥ":8517,"ĠÙħØªØ§Ø¹":8518,"ĠÙĪÙħØª":8519,"ĠØ§ÙĨÙģØµÙĦ":8520,"ĠÙħØ³ÙĥÙĬÙĨ":8521,"ĠØ§ÙĦÙħØªÙĦÙģ":8522,"ĠØ§ÙĦÙħØªÙĪÙģÙī":8523,"ĠÙģØªØ¯Ø¨Ø±":8524,"ĠØ£Ø¬ÙĬØ±":8525,"ĠÙĬØ³Ø¹Ùī":8526,"ĠØ£ØµØ¨ØŃ":8527,"ĠØ§ÙĦÙħØ¹ÙĦÙħ":8528,"ĠØ¨Ø§ÙĦÙħÙĨ":8529,"ĠÙĪØµÙģÙĩ":8530,"ĠØ¨Ø¥Ø³ÙĦØ§Ùħ":8531,"ÙĪØ·Ø¡":8532,"ĠØ³Ø¨ÙĤÙĩ":8533,"ĠÙĪØ¬ÙĩÙĩØ§":8534,"ĠØ¢Ø¨":8535,"Ø¹ÙħÙī":8536,"ÙģØ¥ÙĨÙĩØ§":8537,"ĠØ§Ø®ØªØ§Ø±Ùĩ":8538,"ÙĪØŃÙĥÙħ":8539,"Ø³Ø§ÙģØ±":8540,"ĠÙĪÙĤØªÙĦ":8541,"ĠØ¬ÙħÙĬØ¹ÙĩØ§":8542,"ĠØ§ÙĦÙħØ³ØªØ£ÙħÙĨ":8543,"ÙĪØ§ÙĦÙħÙĨ":8544,"ĠØªÙĨÙĤØµ":8545,"ĠÙĤÙĦØªÙħ":8546,"ĠÙĪØ§ÙĦØŃØ§ÙĥÙħ":8547,"ĠØªÙħÙĦÙĥÙĩ":8548,"ĠÙĬØºØªØ³ÙĦ":8549,"ĠØ§Ø³ØªØŃÙĤØª":8550,"ĠØªØªØ²ÙĪØ¬":8551,"ĠÙĦÙģØ¸Ø©":8552,"ĠØ¨Ø§ÙĦÙĨÙĬØ©":8553,"ĠØªØµØ¯ÙĬÙĤ":8554,"ĠÙĦØ´Ø®Øµ":8555,"ĠÙĪØ§ÙĦÙĪØµÙĬØ©":8556,"ĠØ¨Ø§ÙĦØ³ÙĪÙĬØ©":8557,"ĠØ§Ø®ØªÙĦÙģØª":8558,"Ø¬ØªÙħØ§Ø¹":8559,"ĠÙģØµØ§ÙĦØŃ":8560,"ĠÙĪØ§ÙĦØ«Ø§ÙĦØ«":8561,"ĠÙĦÙĦÙģÙĤØ±Ø§Ø¡":8562,"ĠÙģØ¨ÙĤÙĬ":8563,"ĠÙĥØ§ÙģØ±Ø©":8564,"ĠÙĦØ¶Ø¹Ùģ":8565,"ĠØ°Ø§ØªÙĩ":8566,"ĠØ§ÙĦØ£ÙĬÙħÙĨ":8567,"ĠÙĬÙĦØªÙģØª":8568,"ĠØ³Ø§Ø¨ÙĤØ§":8569,"ĠÙħÙĪØ¬ÙĪØ¯Ø§":8570,"ĠÙħØŃØ¬ÙĪØ±Ø§":8571,"ĠØ¨Ø§ÙĦÙħØ¯ÙĬÙĨØ©":8572,"ĠØ§ÙĦØ£Ø«Ø±Ùħ":8573,"Ø§Ø³Ùĩ":8574,"Ø§ÙĥÙĩ":8575,"ÙĨØŃÙĪ":8576,"ÙĪØ±ÙĩÙħ":8577,"ÙĪÙĦØ¹ÙĦÙĩ":8578,"ÙĦØ¡":8579,"ÙħÙĦÙĥÙĩ":8580,"Ø¯ÙĦØ§ÙĦ":8581,"ĠØ£Ø±Ùĩ":8582,"ĠÙħÙĪØ·":8583,"ĠØ¨ÙĤØ¨Ø¶Ùĩ":8584,"ØŃÙĩØ§":8585,"ÙĦØ§ÙĨÙĩ":8586,"Ø¬Ø§ÙĪØ²":8587,"ĠÙĤÙĪÙħØ§":8588,"ĠÙĤØ³ÙħÙĩ":8589,"ĠÙģÙĬÙĤØ¯Ùħ":8590,"ÙħØ§ÙĦØ§":8591,"ÙħØ§ÙĪÙĬ":8592,"ĠÙĥØ°":8593,"ĠÙĥÙĤÙĪÙĦ":8594,"ĠÙĥØ£Ùħ":8595,"Ø·Ø§Ø¡":8596,"ĠØªØ¶Ø±Ø¨":8597,"ĠØªØ³ÙħÙī":8598,"ĠØªÙģØ§ÙĪØª":8599,"Ø§ÙĦØ²":8600,"ĠØ£ÙĪØ¶ØŃ":8601,"Ø´ÙĬØ©":8602,"ĠØ±Ø¨Ø¹Ùĩ":8603,"ĠÙĨØ§Ø±":8604,"ĠØ§ÙĦØ£ÙģØ¹Ø§ÙĦ":8605,"ĠØ´ØºÙĦ":8606,"ĠØµÙĬØºØ©":8607,"ĠØ¬ÙħØ±Ø©":8608,"ĠØ¬ÙĪÙģÙĩ":8609,"ĠØ§ÙĦØ¹ØªÙĬÙĤ":8610,"ĠØ¨Ø¹Ø¨Ø¯":8611,"ĠØ®Ø´ÙĬ":8612,"ĠØ§ÙĦÙĤØ±Ø§Ø¨Ø©":8613,"ĠØ§ÙĦÙĤÙĩØ³ØªØ§ÙĨÙĬ":8614,"ÙĪØ¬Ø¨Ùĩ":8615,"ĠØ§ÙĦØ¨ÙĨØ§Øª":8616,"Ø¦Ø¬Ø§Ø±":8617,"ĠØ§ÙĦØ¥Ø¶Ø§ÙģØ©":8618,"ĠØ§ÙĦØ¥ÙħØ³Ø§Ùĥ":8619,"ĠØ¨Ø§Ø·ÙĨ":8620,"ĠØ²ÙĥØ±ÙĬØ§":8621,"ĠÙĬÙĤÙĬÙĨØ§":8622,"ĠØ§ÙĦØ¬ÙĨØ¨":8623,"ÙĬØ§ÙĤ":8624,"ĠÙĬØ¬Ø¯Ùĩ":8625,"ĠØ§ÙĦÙģØ·Ø±Ø©":8626,"ĠØ§ÙĦØµØ¨Øº":8627,"ĠÙĬØªÙĬÙĤÙĨ":8628,"ĠØ§ÙĦØ®ÙĬÙĦ":8629,"ĠÙĬØ¹ÙħØ±":8630,"Ø®Ø±ÙĤ":8631,"ĠÙĪØ¹Ø«ÙħØ§ÙĨ":8632,"Ø±Ø·Ø¨":8633,"Ø¶Ø§Ø¹":8634,"ĠØ¶ÙħØ§":8635,"ĠØ¶Ø¨Ø·":8636,"ĠØ¨Ø£Ø®Ø°":8637,"ĠØ§Ø³ØªØº":8638,"ØŃØªÙĩØ§":8639,"ĠØ¸ÙģØ±":8640,"ĠÙģØ£Ø®Ø¨Ø±":8641,"ĠÙħØªÙħØª":8642,"Ø·ÙĦÙĤØ§":8643,"ĠØ¨ÙħÙĦÙĥÙĩ":8644,"Ø±Ø¯Øª":8645,"ÙĤØµÙī":8646,"ĠØ¨ØŃØ¶Ø±":8647,"Ø³ÙĨØ§ÙĨ":8648,"ĠÙĪÙħÙĨØ¹":8649,"ÙĨØ¨ÙĬØ§Ø¡":8650,"ĠØªØ±ÙĥØª":8651,"ĠÙĪØ¨ÙħØ§":8652,"Ø¶Ø±Ø§Ø±":8653,"ÙĪØŃØ§ØµÙĦÙĩ":8654,"ĠØ¨Ø´ÙĩØ±":8655,"ĠÙĬÙĤØªØµ":8656,"ĠØ£ÙĤØ±Ø¹":8657,"ÙĬØ±Ø§Ø«Ùĩ":8658,"ĠÙĦÙĨÙģØ³":8659,"ĠØ£ÙģØ±Ø§Ø¯":8660,"ĠØ´Ø§Ø¡Øª":8661,"ĠØªÙħÙĦÙĬ":8662,"ĠØ§ØªØŃØ§Ø¯":8663,"ĠÙĪØ§ÙĦØªØ¹":8664,"ĠØ®Ø·Ø§Ø¨":8665,"ĠØ¬ÙħØ¹Ùĩ":8666,"ĠÙĤØ·Ø¹Ø©":8667,"ĠÙĦÙģØ¸Ø§":8668,"ĠÙģØ§Ø³ÙĤ":8669,"ĠØ¹ØªÙĤØ§":8670,"ĠÙħÙĪØªÙĩØ§":8671,"ĠÙģÙĦÙĦØ£":8672,"ĠÙĪØ§ÙĦØ«ÙĦØ«":8673,"Ø¨ÙĩØ§Ùħ":8674,"ĠÙĪØ§ÙĦØµÙĦØ§Ø©":8675,"ĠØ¨Ø§ÙĦØºØ§":8676,"ĠØ§ÙĦØ¬Ø¯ÙĬØ¯":8677,"ĠÙħÙĪØ§Ø¶Ø¹":8678,"ÙĪÙĬØ±Ø¬Ø¹":8679,"ĠØ§ÙĦØ´Ø±Ø¹ÙĬØ©":8680,"ĠÙĦÙĦØºØ±ÙħØ§Ø¡":8681,"ĠØµØŃØªÙĩØ§":8682,"Ø¬ØªÙĩØ§Ø¯Ùĩ":8683,"ĠØµÙĪØ±ØªÙĩ":8684,"ĠØ§ÙĦÙĬØ³Ø§Ø±":8685,"ĠØ±Ø´ÙĬØ¯ÙĬ":8686,"ĠØ·Ø±ÙĬÙĤÙĩ":8687,"ĠØ·Ø±ÙĬÙĤØ©":8688,"ØªÙĬÙĤÙĨ":8689,"ĠØŃØ±Ø¨ÙĬØ§":8690,"ĠÙħØ®ØªØµØ±":8691,"ĠØ§ÙĦÙħÙĩØ°Ø¨":8692,"ĠÙĦØ£Ø¬ÙĦÙĩ":8693,"ĠØ¨Ø¬Ø²Ø¡":8694,"Ø±ÙĪÙĥ":8695,"Ø±ÙĪØ©":8696,"ĠØ§ÙħØ±":8697,"ĠØ£ÙģØ¹ÙĦ":8698,"ĠØ£Ø±Ø£ÙĬØª":8699,"ĠØ¨ÙĪÙĤ":8700,"Ø³Ø§Ø¨Ùĩ":8701,"ĠÙĬÙĪØ¶Ø¹":8702,"ĠÙĬÙĪØ§ÙģÙĤ":8703,"ĠÙĬÙģØ±Øº":8704,"ÙĥÙĨØ§":8705,"Ø¬Ø§Ø³Ø©":8706,"ĠÙĤÙĬØ¯Ùĩ":8707,"ÙĨÙĩØ§Ø±":8708,"ĠØ§ÙĦÙħÙħØ§":8709,"ĠØ§ÙĦÙħØªÙĤ":8710,"ĠØ§ÙĦÙħØµØ¯Ø±":8711,"ĠØ§ÙĦÙħÙģÙĤÙĪØ¯":8712,"ĠØªÙĪØ¬Ø¨":8713,"ĠØªÙħÙĬØ²":8714,"ĠÙĨØ§Ùħ":8715,"ĠÙĦÙħØ¬Ø±Ø¯":8716,"ĠØ³ÙĪÙĤ":8717,"ĠØ§ÙĦØ£ÙĪ":8718,"ĠØ´Ø§Ø±ØŃ":8719,"ĠØ°Ø±Ø§":8720,"ºÙĬØ±Ùĩ":8721,"ĠØ¬ÙĦÙĪ":8722,"ĠØ§ÙĦØŃØ·":8723,"ÙĪØ§ÙĤ":8724,"Ø§Ø¦ÙĬÙĦ":8725,"ĠØ§ÙĦÙĪØ¬ÙĬØ²":8726,"Ø¸ÙĬØ±":8727,"ØºÙħØ§Ø¡":8728,"ĠØ§ÙĦØªÙħÙĦÙĥ":8729,"Ø£ÙĨØ¨Ø£":8730,"ĠØ¨Ø§ÙĦÙĪØ§ÙĪ":8731,"ÙĬØ¹Ùĩ":8732,"ĠØ§ÙĦØ´ÙĤØµ":8733,"ĠØ§ÙĦØ¬Ø±Ø§ØŃ":8734,"Ø±ÙĥÙĪØ¨":8735,"ĠÙĪÙĬØ«Ø¨Øª":8736,"ĠØ§Ø¨ÙĨØªÙĩ":8737,"ĠØ£Ø®ÙĪÙĩ":8738,"ĠØ£Ø®ØªÙĩØ§":8739,"ĠØ§ÙĦÙģØ§Ø¡":8740,"ĠÙĬØªÙĬÙħÙħ":8741,"ĠÙĬØ¹Ø¨Ø±":8742,"ĠØ§ÙĦÙĥØ§ÙħÙĦ":8743,"ĠÙģØ¥ÙĨÙĬ":8744,"ĠØºØ±ÙħØ§Ø¡":8745,"Ø®Ø±ÙĪØ¬":8746,"ĠÙĪÙĥØ±Ùĩ":8747,"ÙĪÙĩØ¨":8748,"ĠØ±Ø¬Ø¹Ø©":8749,"ĠØ¨Ø£Ø¯Ø§Ø¡":8750,"ÙĪØ²ÙĪÙĨ":8751,"ĠÙĪØªØ¹Ø°Ø±":8752,"ĠØ¨Ø¯ÙĨ":8753,"ÙĪØ§ÙĦØ¢Ø®Ø±":8754,"ĠÙĦÙĦÙħØ³Øª":8755,"ĠÙħØªØ§Ø¹Ùĩ":8756,"ĠÙħØªØµÙĦØ§":8757,"ĠÙģØ§ÙĦÙģ":8758,"ĠÙĪÙħØŃÙĦÙĩ":8759,"ÙĪÙģÙĬØ©":8760,"ĠÙħØ³ÙĥÙĨ":8761,"ĠØ§ÙĦÙħØ³Ø§ÙĥÙĬÙĨ":8762,"ĠØ¨ØŃØ§ÙĦÙĩØ§":8763,"ĠÙĦØ¹ÙĨ":8764,"Ø±Ø«Ùĩ":8765,"ĠÙĤØ§Ø·Ø¹":8766,"ĠÙĤØ§ÙĦÙĪÙĩ":8767,"Ø¬Ø¯Ø¯":8768,"Ø§Ø¹ØªÙĩ":8769,"ĠÙĪØŃØ¬":8770,"ĠÙĦØŃÙħØ§":8771,"ĠØ¹Ø¯Ø¯Ø§":8772,"ĠÙĦØ¨ÙĬÙĥ":8773,"ĠÙĪØ§ÙĦØ£Ø®":8774,"ĠØ§ÙĦØ¢Ø¨ÙĤ":8775,"ĠÙħØ¬ØªÙĩØ¯":8776,"ĠØ¨Ø§ÙĦØ¹ÙĦÙħ":8777,"ØŃØ±ÙĬØ±":8778,"ĠÙĬØ¬Ø²ÙĬÙĩ":8779,"ĠÙĪÙĦÙĬÙĩØ§":8780,"ĠØµÙĦØ§ØŃÙĩ":8781,"Ø¨ÙĤÙĬØ©":8782,"ĠÙģØŃÙĥÙħÙĩ":8783,"ĠÙģÙĤØ¨ÙĦ":8784,"ĠØ§ÙĤØªØ¶Ùī":8785,"ĠØªØµÙĪÙĬØ±":8786,"ĠÙĬØ¹ØªÙĤÙĩ":8787,"ĠÙĪØ·Ø¦Øª":8788,"ĠÙħØ±Ø§Ø¯Ø§":8789,"ĠØ§ÙĦÙĤØ¯ÙĪÙħ":8790,"ĠØ¹ÙĬÙĨÙĩØ§":8791,"ĠÙģØ¨ÙĦØº":8792,"ĠØ®ÙĦÙĤÙĩ":8793,"ĠØ¬ÙĪØ§Ø¨Ùĩ":8794,"ĠØ¥Ø²Ø§ÙĦØªÙĩ":8795,"ĠÙħØ±ØªØ¯":8796,"ĠÙĦÙĦØ²ÙĪØ¬Ø©":8797,"ĠÙĪÙĪØ¬ÙĩÙĩ":8798,"ĠÙħØ£ÙħÙĪØ±":8799,"ĠÙĪØ«ÙĦØ§Ø«ÙĪÙĨ":8800,"ĠØ·Ø±ÙĬÙĤØ§":8801,"ĠØªÙģØ±ÙĬØ·":8802,"ÙģØ¹ØªÙĩØ§":8803,"ĠÙĪØ±Ø¨ÙħØ§":8804,"ĠØ·ÙĦØ§ÙĤÙĩ":8805,"ĠØ§ÙĦØªØ´Ø¨ÙĬÙĩ":8806,"ĠÙĤØ¶Ø§Ø¤Ùĩ":8807,"ĠÙħØ¤Ø¬ÙĦØ©":8808,"ĠØ§ØºØªØ³ÙĦ":8809,"ĠÙĪØ§ÙĦÙĨØ³Ø§Ø¦ÙĬ":8810,"ĠØ¨Ø§Ø®ØªÙĬØ§Ø±Ùĩ":8811,"ĠÙħØ±ÙĬØ¶Ø§":8812,"ĠØ¨Ø³Ø±ÙĤØ©":8813,"ĠØ§ÙĦØ¥Ø¬Ø§Ø¨Ø©":8814,"ÙĨØµØ±":8815,"ÙĬØŃØªÙħÙĦ":8816,"ÙĪÙĦØª":8817,"Ø¨Ø°":8818,"ĠÙĪÙĤØ±":8819,"ĠÙĪØ³Ø¨":8820,"ĠÙĪÙĪØ¬Ø¯":8821,"ĠÙĪÙģØ§Ø©":8822,"ĠØ£Ø±Ø·":8823,"ĠØ£ÙģØª":8824,"ĠØ£Ø°Ùī":8825,"ĠÙģÙĪØ¶":8826,"ÙģØ§ÙĦØ©":8827,"Ø³Ø±Ùĩ":8828,"ÙĦØ§ÙĦÙĩ":8829,"ĠÙĤÙĦØ©":8830,"ĠÙĤØ±Ø´":8831,"ĠÙģÙĬØ±Ø¯":8832,"ĠØ§ÙĦÙħØŃØ¯Ø«":8833,"ĠØ§ÙĦÙħØ¨Ø§Ø±Ùĥ":8834,"ĠØ§ÙĦÙħØ§Ø²Ø±ÙĬ":8835,"ĠØ¥ÙĦÙĩ":8836,"Ø®ÙĬÙĩ":8837,"ĠØªÙĦØ¯":8838,"ĠØªØ±Ø§Ø¨":8839,"ĠØªÙħØ§ÙħÙĩ":8840,"ĠØŃÙĦÙĩ":8841,"ĠØŃØ±Ø¬":8842,"ĠØ£ÙĪØ³ÙĤ":8843,"Ø´Ùħ":8844,"Ø´ÙĩØ±":8845,"ÙĪÙĦÙĩÙħØ§":8846,"ĠÙĨØ¹Øª":8847,"ĠÙĦØ§Ø²ÙħØ§":8848,"ĠÙĩÙĩÙĨØ§":8849,"ĠØ³ÙĪØ§":8850,"ĠØ³Ø¤":8851,"ĠÙħØ§ÙĦÙĩØ§":8852,"ĠØ§ÙĦØ£ÙĪÙĦÙĬØ§Ø¡":8853,"ĠØµØº":8854,"ĠÙĦÙĩØ°Ùĩ":8855,"Ø±Ø§ÙħØ©":8856,"ĠØ§ÙĦØ¹Ø¬":8857,"ĠØ§ÙĦØ¹Ø¯Ùħ":8858,"ÙĤØ¯ÙĬÙĨ":8859,"ĠØ¨Ø¹ÙĬØ±":8860,"ØŃØ¯Ø§ÙĩÙħØ§":8861,"ÙĪØ§ÙģÙĩ":8862,"ĠØ®ÙĨØ²ÙĬØ±":8863,"ĠØ¨ÙĩØ²":8864,"ĠÙĪØ§Ø³ØªØŃ":8865,"ÙģÙĬÙħØ§":8866,"Ø¹ØªØ§ÙĤÙĩ":8867,"ĠØ¨Ø§ÙĦØ¢Ø®Ø±":8868,"ĠÙĪØ§ÙĦØ¸":8869,"ĠØ§ÙĦØ¥ÙħØ§ÙħØ©":8870,"ĠØ§ÙĦØ¥Ø·Ø¹Ø§Ùħ":8871,"ĠÙĬÙĥÙģ":8872,"ĠØ²ÙĬØª":8873,"ĠØ§ÙĦØ¬ÙĨÙĪÙĨ":8874,"ĠÙĪØ£ÙĬØ¶Ø§":8875,"ĠÙĪÙĬÙĤØ¹":8876,"ĠÙĬØªØ£ÙħÙĦ":8877,"ĠØ§ÙĦÙĥÙĬÙĦ":8878,"ĠØºØ¯":8879,"ĠÙĬÙĨÙģØ¹Ùĩ":8880,"ĠØ¨Ø£ÙĩÙĦ":8881,"ĠØ¨Ø£ÙħØ§ÙĨ":8882,"Ø¯Ø§Ø©":8883,"ÙģØ¥ÙĨÙħØ§":8884,"ÙĪØ£Ø®Ø±Ø¬":8885,"ĠØ§ÙĦØ§Ø¹ØªØ¨Ø§Ø±":8886,"ĠØªØ¹Ùħ":8887,"ĠÙĦÙĦÙħØ¹":8888,"ĠÙģØ§Ø¹Øª":8889,"ĠÙĪÙħÙĨÙĩÙħ":8890,"ĠØ£ØŃÙĪØ§ÙĦ":8891,"ĠÙĪØ§ÙĦÙħØ¹":8892,"ĠØ§ÙĨÙĤØ·":8893,"ĠØ§ÙĦÙĤØ§Ùģ":8894,"ĠØ£ØµØºØ±":8895,"ĠÙĬØ¶ÙħÙĨÙĩØ§":8896,"ÙĥØ§ÙĨØª":8897,"ĠØ¨Ø§ÙĦÙħØ¹":8898,"ĠÙĤØªØ§ÙĦ":8899,"ĠÙĦØ²ÙĪÙħÙĩ":8900,"ĠÙĬØ´Ø±Ø·":8901,"ĠÙĦØ¨ÙĬØª":8902,"ĠØ¨ÙĥÙĦØ§Ùħ":8903,"ĠÙħØ³ÙĦÙħÙĬÙĨ":8904,"ĠÙħØ³ØªÙĤÙĦ":8905,"ĠØ§ÙĦÙħØ¬ØªÙĩØ¯":8906,"ĠÙģØ±Ø¹Ùĩ":8907,"ĠØ§ÙĦØŃØ±ÙĬØ±":8908,"ĠÙĤØ¯Ø±ÙĩØ§":8909,"Ø«ÙĨÙĬØ©":8910,"ĠØªÙĨÙĤØ¶ÙĬ":8911,"ĠÙĪØ§ÙĦØ¹ÙħÙĦ":8912,"ĠØ¨Ø§ÙĦÙĤÙĪÙĦ":8913,"Ø§ÙĦØ«Ø§ÙĨÙĬØ©":8914,"ĠØ¹Ø·ÙģØ§":8915,"ĠÙĪØ«ÙħØ§ÙĨ":8916,"ĠØ§ØªÙģÙĤØ§":8917,"ĠÙĥØªØ§Ø¨ÙĬØ©":8918,"ĠØŃÙħÙĦØ§":8919,"ĠØ¬Ø²Ø§ÙģØ§":8920,"ĠÙĬÙħÙĦÙĥÙĩØ§":8921,"ĠÙĪØ§ÙĦØ¨ÙĬØ¹":8922,"ĠØªØŃØªÙħÙĦ":8923,"ĠÙĬØ¹Ø±ÙģÙĩ":8924,"ĠØ¹Ø§Ø¯Øª":8925,"ĠØ§ÙĦÙĨØ³Ø§Ø¦ÙĬ":8926,"ĠØªØºÙĦÙĬ":8927,"ĠØªÙĤØ±ÙĬØ±":8928,"ĠØ§ÙĦØ£Ø¹ÙħØ§ÙĦ":8929,"ÙĪÙĬØ±Ø¯":8930,"ĠØ¹Ø§ÙħØ¯Ø§":8931,"Ø§ÙĪÙĬØ§":8932,"ĠÙĥÙĨØªÙħ":8933,"ĠÙĨÙĩÙĬ":8934,"ĠÙħØ±ØªØ¨Ø§":8935,"ĠØ¨ÙĪØ§ØŃØ¯Ø©":8936,"ĠÙĬØ±Ø¶Ùī":8937,"ĠØ§ÙĦÙħØ¹Ø§ÙĪØ¶Ø©":8938,"ØªØªÙħØ©":8939,"ĠØ§ØŃØªØ±Ø§Ø²Ø§":8940,"ĠØ¶Ø¹ÙģÙĩ":8941,"ĠÙħØ´Ø±ÙĪØ¹":8942,"ĠØ£ÙĬØ¯ÙĬÙĩÙħ":8943,"ĠØ§ÙĦÙĨØ¹ÙħØ§ÙĨ":8944,"ĠØ§ÙĦÙģØµÙĪÙĦÙĬÙĨ":8945,"ĠÙħØªÙħØªØ¹Ø§":8946,"Ø§Ø®ÙĦ":8947,"Ø§Ø·ÙĦ":8948,"ÙĪÙĩÙħØ§":8949,"Ø¨Ø§Ø¦Ø±":8950,"Ø¯ÙĤ":8951,"Ø¯ÙĬØ¯":8952,"ØªØ§ÙĦ":8953,"Ø¹ÙĪÙī":8954,"ĠÙĪÙĪØµ":8955,"ĠÙĪÙģØ³Ø®":8956,"ĠÙĪÙħØ³ØŃ":8957,"ĠØ£Ø±ÙĤ":8958,"ĠÙħØ¯ØªÙĩ":8959,"ĠÙħÙģØ±Ø¯":8960,"ĠØ¨ÙĪÙĦ":8961,"ĠØ¨Ø±Ø¬ÙĦ":8962,"ĠØ¨ØµÙĬØºØ©":8963,"ĠØ¹ØµØ¨":8964,"ÙģØ®Ø±Ø¬":8965,"Ø³Ø¹Ùī":8966,"ĠÙĬÙĩÙĪØ¯":8967,"ĠÙĬÙħØ³Ùĥ":8968,"ĠÙĬØµØ¯ÙĤÙĩ":8969,"ÙħØ§ÙĨÙĬ":8970,"ĠÙĥÙħÙĦ":8971,"ĠÙĥØ´Ùģ":8972,"ĠØ§ÙĦÙħÙĨØª":8973,"ĠØ§ÙĦÙħÙĥÙĬ":8974,"Ø¶ÙĦØ©":8975,"ĠØ¥Ø¬ÙħØ§Ø¹":8976,"Ø®ÙĦØµ":8977,"Ø«ÙĦØ«":8978,"ĠØªÙģØ±ÙĤ":8979,"ÙĦÙĪÙĥ":8980,"ÙĦÙĪÙĩØ§":8981,"ĠØŃÙĦÙĪÙĦ":8982,"ĠØ§ÙĦÙĦØ¨Ø³":8983,"ĠØ§ÙĦÙĦØ²ÙĪÙħ":8984,"ĠØ§ÙĦØ±Ø§Ø¨Ø¹Ø©":8985,"Ø´Ø±Ùĩ":8986,"Ø²ÙĪÙħ":8987,"ÙĦÙĤÙī":8988,"ĠÙĨØŃØ±":8989,"ĠÙĦÙħØ³":8990,"ĠÙĩØ¯ÙĬØ©":8991,"ĠØ³ÙĤÙĬ":8992,"ĠØ°ÙĨØ¨":8993,"Ø±Ø§Ø¨ÙĬ":8994,"ĠØ¬Ø§Ùħ":8995,"ĠØ¬ÙĦÙĪØ³":8996,"ĠØ§ÙĦØ¹ÙĤØ±":8997,"ĠØ§ÙĦØŃØ¶ÙĪØ±":8998,"ĠØ«ÙħØ©":8999,"ĠØ®Ø§Ø·":9000,"ĠØ®ÙĦÙĪØ©":9001,"Ø§Ø¦Ø´Ø©":9002,"ØºØ¨":9003,"ĠØ§ÙĦØ¨ÙĥØ±":9004,"ĠØ§ÙĦØ¨Ø§Ø·":9005,"ĠØ§ÙĦØ¨ÙĤØ±Ø©":9006,"ĠØ§ÙĦØªØ¹Ùħ":9007,"ĠÙĦÙĪØ±Ø«Ø©":9008,"ĠØ¨Ø§Ø³Ùħ":9009,"ĠØ§ÙĦØ´Ø§ÙħÙĦ":9010,"ĠÙĪÙĬØ²":9011,"ĠÙĪÙĬÙģØ±ÙĤ":9012,"ÙĨÙĬØªÙĩ":9013,"ĠØ§ÙĦØµÙĬØ§Ùħ":9014,"ĠÙĬØªÙĤÙĬØ¯":9015,"ĠÙĬØªØ¹Ø°Ø±":9016,"Ø¯ÙĬÙĤÙĩ":9017,"ĠØºÙĦØ§Ùħ":9018,"ĠØºØ±Ø¶Ùĩ":9019,"ĠÙĪØ¹Ø±Ùģ":9020,"ÙĥØ§ÙģÙĩ":9021,"ĠØ¨Ø£ÙĪÙĦ":9022,"ĠØ£ÙħÙĬÙĨØ§":9023,"ĠÙħØ«ÙĦÙĬØ§":9024,"ĠØ£Ø¨ÙĤ":9025,"ĠØ¨Ø¯ÙĦÙĩØ§":9026,"Ø§Ø¯ÙĬØ©":9027,"ÙĪØ§ÙĦØ°":9028,"ÙĪÙĤØ¶ÙĬØªÙĩ":9029,"ĠÙħØªÙĤÙĪÙħ":9030,"ĠÙħØªØµÙĦØ©":9031,"ĠØ¨ÙħÙĤØªØ¶Ùī":9032,"ĠÙĪØ§ÙĦÙħØŃ":9033,"ĠÙģØªØ¬Ø¨":9034,"ĠÙģØ¹ÙĦÙĬÙĩØ§":9035,"ÙĪØ¥ÙĦÙī":9036,"ĠØ§ÙĦÙħØ¹ÙĬØ±":9037,"ĠØ¨Ø§ÙĦØ±ÙĤ":9038,"ĠØ¹Ø¯ÙħÙĩØ§":9039,"ĠØ¨ÙĦØ§Ø¯":9040,"ĠØ§ÙĦÙħÙĨØµÙĪØµ":9041,"ĠØ±ØŃÙħØ©":9042,"ÙĪØŃØ§":9043,"ĠÙħØ¬Ø§ÙĪØ²":9044,"ĠØ¨Ø§ÙĦØ¹Ø¨Ø¯":9045,"ĠØ¨Ø¹Ø¯ÙĩÙħØ§":9046,"ĠØ¨Ø§ÙĦØ£Ø±Ø¶":9047,"ĠØ±ØŃÙħÙĩÙħ":9048,"ĠØ§ÙĦÙħØ¬ÙħØ¹":9049,"ĠÙģØ§ÙĦØ°ÙĬ":9050,"ĠØ£ÙĦÙģÙĬÙĨ":9051,"ĠØ¨Ø§ÙĦÙĤØ±Ø¨":9052,"ĠØ¨Ø§ÙĦÙĤØ³ÙħØ©":9053,"ĠØ¨Ø¬ÙĨØ³":9054,"ĠÙĦØ³ØªØ©":9055,"ĠÙĪØ§ÙĦØªØ±ÙħØ°ÙĬ":9056,"ĠØ£ÙĩÙĦÙĬØ©":9057,"ĠØ§ØŃØªØ±Ø²":9058,"ÙģØ¸Ùĩ":9059,"ĠÙĪØ²ÙĨÙĩ":9060,"ĠÙĪØ²ÙĬØ§Ø¯Ø©":9061,"ĠØªÙģØ±ÙĬÙĤ":9062,"ĠÙĪØ§ÙĦÙĪØ¬Ùĩ":9063,"ĠØªØ·ÙĩØ±":9064,"ĠÙĦÙĦØ³ÙĩÙĪ":9065,"ĠØ¥Ø®Ø¨Ø§Ø±":9066,"ĠØ§ÙĦØªØŃÙģØ©":9067,"ĠØ§ÙĦØ£Ø³ÙģÙĦ":9068,"ĠÙģÙĬØªØ¹ÙĬÙĨ":9069,"ĠÙģØ§ÙĦØ£ÙĤØ±Ø¨":9070,"ÙģÙĥÙĬÙģ":9071,"ĠØ¨Ø¯ÙĬÙĨØ§Ø±":9072,"ĠØŃÙĬØ¶ÙĩØ§":9073,"ĠØ§ÙĦØ§ÙĨØªÙĤØ§ÙĦ":9074,"ĠÙħÙħÙĦÙĪÙĥØ§":9075,"ĠØ¬ÙĨØ¨Ø§":9076,"ĠÙĪÙĬØ¯ÙĦ":9077,"ĠÙĪÙĤÙĬØ§Ø³":9078,"ĠÙħØ¨ÙĦØº":9079,"ĠØ§ÙĦØ¹Ø±Ø¨ÙĬØ©":9080,"ĠØ³ÙħØ§Ùĥ":9081,"ĠØ¥Ø®Ø±Ø§Ø¬ÙĩØ§":9082,"ĠØ®Ø´ÙĬØ©":9083,"ĠØ§ÙĦØªØ²ÙĪÙĬØ¬":9084,"ĠÙħÙĩØ¯ÙĬ":9085,"ĠÙĪÙĤØ§ÙĦØ§":9086,"ĠÙĪØ¶ÙĪØ¡Ùĩ":9087,"ĠØ§ÙĦÙĦÙĤØ·Ø©":9088,"ĠØ§ÙĦÙĦÙĤÙĬØ·":9089,"ĠØªØ³Ø§ÙĪÙĬ":9090,"ĠØ¹Ø§ÙĤÙĦØªÙĩ":9091,"ĠÙħØŃØ¯Ø«Ø§":9092,"ĠØŃÙĤÙĬÙĤØªÙĩ":9093,"ĠØ«Ø¹ÙĦØ¨Ø©":9094,"ĠØ²Ø§Ø¦Ø¯Ø§":9095,"ĠØ¥Ø³Ø±Ø§Ø¦ÙĬÙĦ":9096,"ÙĪÙĦÙĤØ¯":9097,"ÙħØ·ÙĦÙĤØ§":9098,"Ø¨Ø§ÙĦ":9099,"Ø¨Ø·Ùĩ":9100,"ØªÙĨØ§":9101,"Ø¹Ø§ÙĨØ©":9102,"ĠÙĪÙĪØ¬Ø¨":9103,"ĠÙĪØ±Ø¨Ø¹":9104,"ĠØ£Ø°Ø±Ø¹":9105,"ÙĤØ¨Ø§":9106,"ÙĤÙĪÙī":9107,"ĠÙħØ£ÙĥÙĪÙĦ":9108,"ĠÙģØ¶Ø±Ø¨":9109,"ĠØ¹ÙĦØ§ÙħØ©":9110,"ĠØ¹ÙĩØ¯Ùĩ":9111,"Ø³ÙħØ§":9112,"Ø³ÙĬÙĨ":9113,"ĠÙĤÙĪØª":9114,"ÙĨÙĩØ±":9115,"ĠÙģÙĬÙĤØ³Ùħ":9116,"ĠØ§ÙĦÙħØ¨Ø¹Ø¶":9117,"ĠÙħÙĨØªÙģ":9118,"Ø®Ùĩ":9119,"ĠØªØ³ØªØŃÙĤ":9120,"ĠØªØ±Ø§Ø¶":9121,"ĠØªÙĬØ³Ø±":9122,"ĠØŃØ§ÙħØ¯":9123,"ÙĬØ±ÙħÙĬ":9124,"ĠÙĨØ§ØŃ":9125,"ĠØ§ÙĦØ£ÙħÙĨ":9126,"ĠØ§ÙĦØ£ÙħÙĬÙĨ":9127,"ĠØ§ÙĦØ£ÙĨØ¨ÙĬØ§Ø¡":9128,"ĠØ°ÙĩØ§":9129,"ĠÙĦØ±Ø¬":9130,"Ø¨ÙĬØ¶":9131,"ÙĤØ¯Ø§Ø±":9132,"ĠØ¨Ø¹ÙħÙĦ":9133,"ÙĪØ§Ø·":9134,"ĠØ®Ø±ÙĤ":9135,"ĠÙħØ¹ÙĩÙħØ§":9136,"Ø±ÙĬØ¹Ø©":9137,"Ø±ÙĩÙħØ§ÙĨ":9138,"Ø§Ø¦ÙħØ©":9139,"ÙĪØ¬Ø¹ÙĦ":9140,"ĠØ§ÙĦÙĪØ§Ø¬":9141,"ĠØ§ÙĦÙĪØµÙĪÙĦ":9142,"Ø±Ø¨Ø§":9143,"ÙĤÙĬØ¨":9144,"ÙĤÙĬÙĤÙĩ":9145,"Ø¦ÙĬ":9146,"ĠØ§ÙĦØ¥ØŃÙĬØ§Ø¡":9147,"Ø¨Ø¯Ø§ÙĦ":9148,"ÙĬØ¯Ø§Ø¹":9149,"ĠØ¨Ø§ÙħØ±Ø£Ø©":9150,"Ø±Ø¶Ø§Ùĩ":9151,"ĠØ§ÙĦØ´Ø±Ø§ØŃ":9152,"ĠØ§ÙĦØ¬ÙĬÙħ":9153,"ĠÙĪØ£Ø®Ø°Ùĩ":9154,"ĠÙĪÙĬØ³ÙĨ":9155,"ĠØ£Ø®Ùģ":9156,"ÙĨÙĬØª":9157,"ĠÙĦÙĬØ«":9158,"ĠØ§ÙĦØµØ§ÙĨØ¹":9159,"ĠÙĬØŃØ¬Ø±":9160,"ĠÙĬØ¹ÙģÙī":9161,"ĠØºØ±Ø±":9162,"ĠØºÙĨÙĬØ§":9163,"ĠÙĪØ¹ÙĦÙĬÙĩØ§":9164,"ÙģØ§Ø°":9165,"ÙĪÙĦØ§Ø¤Ùĩ":9166,"ÙĥØ§ÙħÙĩ":9167,"ĠØ¨ÙĬÙĨÙĨØ§":9168,"ÙĪØªØ±":9169,"Ø¯Ø§Ø³":9170,"ĠØ§ÙĦØ±Ø´":9171,"ĠÙĪØªØ¨Ø¹Ùĩ":9172,"ĠÙĦÙĦÙħØ³ØªØ£Ø¬Ø±":9173,"ĠÙģØ£ÙĨØ§":9174,"ĠÙģØ£Ø¹ØªÙĤ":9175,"ĠÙĪÙħØ«ÙĦÙĩØ§":9176,"ÙĪÙģÙĦ":9177,"Ø±ØŃØ§Ùħ":9178,"ĠØ¨ÙħØª":9179,"ĠÙĪØ§ÙĦÙħØ´ØªØ±ÙĬ":9180,"ĠØ§ÙĨÙģ":9181,"ĠØ§ÙĨØªÙĤØ¶":9182,"ĠØ§ÙĨÙĤØ·Ø§Ø¹":9183,"ĠØ§ÙĦÙħØªÙĥÙĦÙħ":9184,"ĠØ¨ØŃÙĤÙĩ":9185,"ĠØ£ØµÙĪÙĦ":9186,"ĠØ§ÙĦÙħØ¯ÙģÙĪØ¹":9187,"ĠØ¨Ø§ÙĦÙħØ³Ø¬Ø¯":9188,"ĠÙĪØŃÙħÙĦ":9189,"ĠØ³Ø¨Ø¹Ø§":9190,"ĠÙĬØµÙĨØ¹":9191,"ĠÙĬØ¤Ø¯":9192,"ĠÙĨØµÙģØ§ÙĨ":9193,"ĠØªØ£Ø«ÙĬØ±":9194,"ĠØ¨Ø§ÙĦØ¹ÙĥØ³":9195,"ĠÙĬØ²Ø±Ø¹":9196,"ĠÙģØ§ÙĦØµ":9197,"ĠØ¹ÙħØ±Ùĩ":9198,"ĠØ§ÙĦÙħØ´ÙĤØ©":9199,"ĠØ¨Ø§ÙĦÙĤØ¶Ø§Ø¡":9200,"ĠØ£ÙħØ±ÙĩØ§":9201,"ĠØ¯Ø±ÙĩÙħÙĬÙĨ":9202,"ĠÙħØ´Øº":9203,"ĠØ¨Ø§ÙĦØŃÙĤ":9204,"ĠÙĪØ´Ø±Ø¨":9205,"ĠÙĬØºØªÙģØ±":9206,"ĠØ§ØŃØªØ¬":9207,"ĠØ´ÙĩØ¯ÙĪØ§":9208,"ĠØ¨ÙĨØªØ§":9209,"ĠÙģÙĤØ§Ùħ":9210,"ĠÙĪØ¹ÙĨØ¯Ùĩ":9211,"ĠØªÙĤØ¯ÙĬØ±Ùĩ":9212,"ĠØ§ÙĦØ³Ø¨Ø¹Ø©":9213,"ĠÙĪØ§ÙĦØ¯ÙĬÙĨ":9214,"ĠØ§ÙĦÙĨØ³Ùĥ":9215,"ĠÙĪØ¬ÙĪØ¯ÙĩØ§":9216,"ĠØ§ÙĦØªØŃÙĤÙĬÙĤ":9217,"Ø¬ØªÙħØ¹":9218,"ÙĦØ°Ø°":9219,"ĠØ¹ÙĤÙĪØ¨Ø©":9220,"ĠØ§ÙĦØµØºÙĬØ±Ø©":9221,"ĠØ§ÙĦØªØ³ÙĪÙĬØ©":9222,"Ø¨ØªØ¯Ø¦":9223,"ĠÙĥÙĬÙģÙĬØ©":9224,"ĠØŃØ±Ø§ÙħØ§":9225,"ĠÙĪØ¨ÙĬÙĨÙĩØ§":9226,"ĠÙĪÙĬØ¯ÙģØ¹":9227,"ĠÙĥØ«Ø±Øª":9228,"ĠØ£ÙĥØ±ÙĩÙĩ":9229,"ĠÙĦØ±Ø³ÙĪÙĦ":9230,"ĠÙĬÙĤØ¨ÙĦÙĩ":9231,"ĠØ³Ø¬ÙĪØ¯Ùĩ":9232,"ĠØ§ÙĦØ¥Ø´ÙĥØ§ÙĦ":9233,"ĠØªØ¹ÙĦÙĬÙĤÙĩ":9234,"ĠØ¨Ø§ÙĦØ²ÙĨØ§":9235,"ÙĪÙĬØ¯ÙĦ":9236,"ÙħØ«ÙĦØ§":9237,"Ø®Ø§ÙĦÙģØ©":9238,"ĠØªÙĤÙĬÙĬØ¯Ùĩ":9239,"Ø§ÙĦØ«Ø§ÙĦØ«Ø©":9240,"ĠØ§Ø¨ØªØ¯Ø£":9241,"ĠØ±Ø¤ÙĬØªÙĩ":9242,"ĠØºØ±ÙħØ§Ø¦Ùĩ":9243,"ĠÙħØ¬ÙĨÙĪÙĨØ§":9244,"Ø§Ø¶Ø±":9245,"Ø±ÙĬØ±":9246,"Ø±Ø¹Ø©":9247,"ØªØ¯":9248,"ĠÙĪÙĦØ¨":9249,"ĠÙĪØŃØ¯Ø«ÙĨØ§":9250,"ĠÙĪØ§Ø¦ÙĦ":9251,"ĠÙĪÙĦØ²ÙħÙĩ":9252,"ĠÙĪÙģÙī":9253,"ĠÙĪØ°ÙĥØ±Ùĩ":9254,"ĠØ£ÙħØ¯":9255,"ĠØ£ÙģØ¹Ø§ÙĦ":9256,"ĠÙħÙĩÙħ":9257,"ĠØ¨Ø²ÙĪØ¬":9258,"ĠØ¨Ø±Ø£Ø³":9259,"ĠÙģÙĦØª":9260,"ĠÙģÙĤØª":9261,"ĠØ¹ÙĪØ±ØªÙĩ":9262,"ÙģØ¯":9263,"ĠÙĬÙĪØµÙĬ":9264,"ÙĥØ¨ÙĬØ±":9265,"Ø¬Ø§ÙĦ":9266,"Ø£Ø¹":9267,"Ø£ÙĪÙĦ":9268,"ĠÙĤØ§Ø¦ÙĦ":9269,"ĠÙģÙĬØ¯Ø®ÙĦ":9270,"ĠØ¥Øª":9271,"Ø·ÙĦÙĩ":9272,"Ø·Ø¨Ø©":9273,"ĠØªÙģØª":9274,"ĠØªØ¨Ø§Ø±Ùĥ":9275,"ĠØªØ§Ø±ÙĬØ®":9276,"Ø¥ÙħØ§":9277,"ĠØŃØ¨Ø©":9278,"ĠØŃØ§Øµ":9279,"Ø§ÙĨØ¨":9280,"Ø§ÙĨÙĬØ§":9281,"ĠØ£ÙĪØµ":9282,"ĠÙĨØ®":9283,"ĠÙĨØ§Ø¦Ùħ":9284,"ĠØ³ÙģÙĬÙĩ":9285,"ĠØ´ÙĬØ§Ùĩ":9286,"ÙĦÙģØ§":9287,"ĠØµÙĦØ¨":9288,"ÙĪÙĦÙĦØ£":9289,"ĠØ¬Ø±ÙĬ":9290,"ĠØ¬ÙħØ§Ø¹":9291,"ĠØ¬ÙĨÙĪÙĨ":9292,"Ø§Ø¨ÙĤØ©":9293,"ÙħÙĨØ¹Ùĩ":9294,"ĠØ§ÙĦØŃØ§Ø¡":9295,"ĠØ¯Ø±":9296,"ĠØ¯ÙĩÙĨ":9297,"ĠØ®Ø¨":9298,"ĠØ¨ÙĩÙĬÙħØ©":9299,"ĠØ§ÙĦÙĤÙĪØ©":9300,"ĠØ§ÙĦÙĤÙģØ§ÙĦ":9301,"ĠÙĪØ§ÙħØªÙĨØ¹":9302,"ÙģÙĬØ¬ÙĪØ²":9303,"ĠØ§ÙĦØªØ²ÙĪØ¬":9304,"Ø¦ØªÙĩ":9305,"ĠØ§ÙĦØ¥Ùģ":9306,"ĠØ§ÙĦØ¥Ø±Ø³Ø§ÙĦ":9307,"ĠÙĪØ£ØŃØ¯":9308,"ĠÙĪØ¬Ø¹ÙĦÙĩ":9309,"ĠÙĬØ¬ÙĬØ²":9310,"ĠØ§ÙĦØ³ÙĬÙģ":9311,"ĠØ§ÙĦØ³Ø¹Ø§ÙĬØ©":9312,"ĠÙĪÙĬØ¬Ø§Ø¨":9313,"Ø¹Ø§Ø¯ØªÙĩ":9314,"ĠÙĦÙĬØ¹ÙĦÙħ":9315,"ĠÙĬØªØ¨Ø¹Ùĩ":9316,"ĠØ§ÙĦØ®ÙĦÙģ":9317,"ĠÙĬØ¹ÙĬØ´":9318,"ĠØ§ÙĦÙĥØ¨Ø±":9319,"ĠØºÙĬ":9320,"ĠØºØ±ÙĬØ¨":9321,"ĠØºÙĦØ§ÙħØ§":9322,"Ø¶ÙĬÙģ":9323,"ĠÙĪÙĥÙĪÙĨÙĩ":9324,"ĠÙĪÙĥÙĬÙģ":9325,"ĠÙĪØ¹Ø´Ø±Ø©":9326,"Ø§Ø²ÙĦ":9327,"Ø§Ø²Ø¹Ø©":9328,"ĠÙĬÙĨØ¬Ø³":9329,"Ø¶Ø§ØŃ":9330,"ĠØ±Ø¬Ø¨":9331,"ĠØ±Ø¬ØŃÙĩ":9332,"ÙĬÙħÙĬ":9333,"ĠØ§Ø³ØªÙĤØ±":9334,"ĠÙĤØ¯ÙĪÙħÙĩ":9335,"Ø¨Ø¹Ø¶Ùĩ":9336,"ĠØ¨Ø¯Ø®ÙĪÙĦ":9337,"ĠØ§ÙĦØ§ØŃØªÙħØ§ÙĦ":9338,"ĠÙħØªØµÙĦ":9339,"ĠÙħØªØ¹ÙĬÙĨ":9340,"ÙĦØŃØ§ÙĤÙĩ":9341,"ĠÙĦÙħØ§ÙĦÙĥÙĩ":9342,"ĠÙģØªÙĨ":9343,"ĠÙģØªØ¹":9344,"ĠÙĬØ®ÙĦ":9345,"ĠÙħØ±Ø³":9346,"ĠÙĬØ³Ø±":9347,"ĠØ£Ø´Ø±Ùĥ":9348,"ĠÙĦØ¹Ø§ÙĨ":9349,"ĠÙĪØµÙĬØ§":9350,"ÙħØªÙģÙĤ":9351,"Ø¬Ø²Ø¦Ùĩ":9352,"ĠÙĤØªÙĦÙĩØ§":9353,"ĠÙĪÙħØ§ÙĦÙĩ":9354,"ĠÙĦØªØŃ":9355,"ĠØ¢Ø®Ø°":9356,"ĠØ£ÙĤØ¨ÙĦ":9357,"ĠØ¨Ø§ÙĦØ£Ø¬Ø±Ø©":9358,"ÙĨØ¯ÙĬØ©":9359,"Ø±Ø´Ø¯":9360,"ĠØ¨ÙħÙĨÙī":9361,"ĠØ£ÙĩÙĦÙĬ":9362,"ĠØ§ÙĦÙħØ¹ØªØ¯Ø©":9363,"ĠÙĪÙĦÙĨØ§":9364,"ĠÙĪÙĦÙĦØ¢Ø®Ø±":9365,"ÙĬØ³Ø©":9366,"ĠÙĤØ·ÙĨ":9367,"ÙĪØ§ÙĦØ£ÙĪÙĦÙī":9368,"ĠØ¸ÙĩØ±Øª":9369,"ĠÙģÙĤÙĬØ±Ø§":9370,"ĠÙģØ¬Ø¹":9371,"ĠØ¨Ø§ÙĦÙĨØ°Ø±":9372,"ĠÙĪØ§ÙĦÙĪÙĦØ¯":9373,"ĠØªÙĤØ¯ÙĬÙħÙĩ":9374,"ĠÙģØ§ÙĦÙħØ±Ø§Ø¯":9375,"ĠÙħØªØ¹ÙĦÙĤØ©":9376,"ĠÙĪØ§ÙĦØ¯Ùĩ":9377,"ĠÙħØ¹ÙĬÙĨÙĬÙĨ":9378,"ÙĬÙĤØ¸":9379,"ĠØ¨ÙĬØ¯ÙĬÙĩ":9380,"ĠØ«Ø§Ø¨ØªØ©":9381,"ĠÙħÙĥØ§ÙĨÙĩØ§":9382,"ĠØ§Ø¨ÙĨØ§":9383,"ĠØ§Ø³ØªØ¹ÙħÙĦ":9384,"ĠØ§ÙĦÙħØ±ÙĪØ±":9385,"ĠØŃÙģØ¸ÙĩØ§":9386,"ĠØªÙģØ³ÙĬØ±Ùĩ":9387,"ĠØ¨ÙĪØ§Ø³Ø·Ø©":9388,"ÙĪØ§ÙĦØ«Ø§ÙĦØ«":9389,"ĠÙĬØ¯Ø¹ÙĪ":9390,"ĠÙħÙĨØ§ÙģØ¹Ùĩ":9391,"ĠØ´Ø¯ÙĬØ¯":9392,"ĠØ§ÙĦØ¥ÙĤØ§ÙĦØ©":9393,"Ø¯Ø±ÙĬØ³":9394,"ĠØ¨Ø®ÙħØ³ÙħØ§Ø¦Ø©":9395,"ĠØ±Ø²ÙĬÙĨ":9396,"ĠØ®Ø²ÙĬÙħØ©":9397,"ĠØŃÙģØµØ©":9398,"ĠÙĤØ§ØªÙĦÙĩ":9399,"ÙĪØ§Ø¹ØªØ±Ø¶":9400,"ĠÙĪØ§Ø¨ÙĨÙĩ":9401,"ÙĬØ³Øª":9402,"ÙĬÙĤØ©":9403,"ÙĬÙĥØ±Ùĩ":9404,"ÙĩØ¯Ø§":9405,"ĠØ§ÙĦÙĩØ§":9406,"ĠØ§ÙĨÙĩØ¯Ùħ":9407,"ÙħÙĬØ©":9408,"Ø¯Ø«":9409,"Ø¹ÙĨØ©":9410,"ĠÙĪØ¶Ø±Ø¨":9411,"ĠÙĪÙĤÙĬØ¯":9412,"ĠØ¨ÙħÙĨØ¹":9413,"ĠÙģÙĦÙĥ":9414,"ĠÙģØ±Ø·":9415,"ĠÙģØ¶ÙĬÙĦØ©":9416,"ĠØ¹Ø³Ø±":9417,"ĠØ¹Ø°Ø±Ø§":9418,"ÙģØ±ÙĬÙĤ":9419,"Ø³ÙĪÙħ":9420,"ĠÙĬØ¨ÙĬØŃ":9421,"ĠÙĬØ³Ø¨ÙĤ":9422,"ÙĦØ§Ø·":9423,"Ø¬ÙĦØ©":9424,"ÙħØ§Ø©":9425,"ĠØ§ÙĦÙħÙĨØ³":9426,"ĠØ§ÙĦÙħØ¬ÙĩÙĪÙĦ":9427,"Ø¶ÙĦØ§":9428,"Ø«Ø©":9429,"Ø«ÙĦØ§Ø«Ø©":9430,"Ø·ÙĦØª":9431,"Ø²Ø¡":9432,"ĠÙĨØ®ÙĦ":9433,"ĠÙĦÙħØ¹ÙĨÙī":9434,"ÙĨØ§Ø«":9435,"ĠØ³ÙĩØ§":9436,"Ø±Ø§Ø¨Ùĩ":9437,"ĠØ§ÙĦØ¹ÙĨØ§ÙĬØ©":9438,"ĠØ§ÙĦØ¹ÙĨØ¨":9439,"ĠØ§ÙĦØ¹ÙĪØ§Ùħ":9440,"ĠØ§ÙĦØ¹Ø¨ÙĬØ¯":9441,"ĠØ¯ÙĪØ§Ùħ":9442,"ÙĪØ§ÙĨÙĩ":9443,"ÙĪØ§Ø¯Ø±":9444,"Ø¯ÙĩÙĨ":9445,"ĠØ§ÙĦØ¨Ø¶Ø¹":9446,"ĠØ¨Ø§Ø¹Øª":9447,"ĠØ¨Ø§ÙĦÙĬØ¯":9448,"ĠØ§ÙĦÙĨØ®":9449,"ÙĪÙĬØ¹":9450,"ÙĪÙĬÙĦØ²Ùħ":9451,"Ø¨Ø§ÙĤ":9452,"ĠÙĬÙĤØ§Ø¨ÙĦ":9453,"ĠØ§ÙĦØ¬ÙĩØ±":9454,"ĠÙĪØ£Ø¬":9455,"ĠÙĪØ£Ø¬Ø±Ø©":9456,"ĠÙĪØ£Ø®Ø±Ø¬Ùĩ":9457,"ĠØ·Ø§Ø¦":9458,"ĠÙĪÙĬÙħÙĬÙĨ":9459,"ÙģØ³Ø®Øª":9460,"ĠÙĦÙĬØ®Ø±Ø¬":9461,"ĠØ§ÙĦØ®Ø§ÙħØ³":9462,"ĠØ§ÙĦÙĥØ³ÙĪØ©":9463,"ĠØ´ÙĬØ¦ÙĬÙĨ":9464,"ÙĪÙĥØ£ÙĨÙĩ":9465,"ĠØ¹Ø¨Ø¯Ùĥ":9466,"ĠØ¹Ø¨Ø¯ÙĬÙĨ":9467,"ĠØ§Ø³ØªØ«ÙĨÙī":9468,"ĠØ£Ø¨Ø·ÙĦ":9469,"ÙĪØ£Ø±Ø§Ø¯":9470,"ĠÙĪÙĤØ¶ÙĬØªÙĩ":9471,"ĠØ§ÙĦØ§ÙĨÙģ":9472,"ĠÙĦÙĦÙħØ³ØªØŃÙĤ":9473,"ĠÙĬØ¯Ø±":9474,"ĠÙĪÙħØŃ":9475,"ĠÙħØ³ÙĤØ·":9476,"ĠØ§ÙĦÙħØªØ¹Ø§":9477,"ĠØ§ÙĦØ·Ø¨":9478,"ĠØ§ÙĦÙħØ³Ø§Ø¬Ø¯":9479,"Ø§ØŃÙħ":9480,"ÙģØªØ§Ø¡":9481,"ĠÙĤØ§Ø³Ùħ":9482,"ÙĪÙĨÙĩÙħ":9483,"ÙħØªÙĬÙĨ":9484,"ĠÙĦØ²ÙĬØ§Ø¯Ø©":9485,"ĠÙĪØ³Ø¬Ø¯":9486,"ĠÙĬØ³ØªØ±":9487,"ĠÙĬØ³ØªÙĤØ¨ÙĦ":9488,"ĠÙĬØ´Ø§Ø±ÙĥÙĩ":9489,"ĠØ§ÙĦØ²ÙĪØ¬ÙĬØ©":9490,"ÙĪÙħØ§Øª":9491,"ĠÙĦØ¨ÙĬØ§ÙĨ":9492,"ĠØ§Ø¹ØªÙħØ¯":9493,"ĠØ§Ø¹ØªÙĥØ§ÙģÙĩ":9494,"ĠØ§ÙĦÙħÙĨØ²ÙĦ":9495,"Ø®ØµØµ":9496,"ĠØ§Ø®ØªÙĦØ·":9497,"ĠØ¨ÙĤØ§Ø¦Ùĩ":9498,"ĠØ¥Ø³ÙĨØ§":9499,"ĠÙĦÙĦØ£Ø¬ÙĨØ¨ÙĬ":9500,"ĠÙģØ±Ø³Ùĩ":9501,"ĠØ§ÙĦØ´ÙĬÙĪØ®":9502,"ĠØ³ÙĦÙħØª":9503,"ĠØ¹ÙħØ±Ø§":9504,"ĠÙĪØ®Ø§ÙĦÙģ":9505,"ÙĪØ§ÙĨØ¸Ø±":9506,"ĠØ¨Ø¬ÙĬØ±ÙħÙĬ":9507,"ĠØ´Ø±Ø§Ø¤Ùĩ":9508,"ĠØŃØ¯ÙĬØ«Ùĩ":9509,"ĠÙĦØ³Ø§ÙĨ":9510,"ĠÙĦØ³ÙĩÙĪ":9511,"ĠÙĦÙģÙĤØ¯":9512,"ĠØ¨Ø§ÙĦÙĨÙĥØ§ØŃ":9513,"ĠØ§ÙĦØ£ØµÙĦÙĬØ©":9514,"ĠØªÙĥØ¨ÙĬØ±Ø©":9515,"ĠØªØµØ±ÙĬØŃ":9516,"ĠÙħØµØ±ØŃ":9517,"ĠÙĦØ®ÙĪÙģ":9518,"Ø¬Ø¹ÙĦÙĩ":9519,"ĠØªØºØªØ³ÙĦ":9520,"ĠØ£Ø¹Ø·ÙĬØª":9521,"ÙĪØ´Ø¨Ùĩ":9522,"ĠØ¹Ø¬Ø²Ùĩ":9523,"ĠØ¹Ø±Ø¨ÙĬ":9524,"ĠÙĤÙĬØ¯Ø§":9525,"ĠØ¨Ø´Ø±ÙĪØ·":9526,"ĠØ¥ØŃØ¶Ø§Ø±Ùĩ":9527,"ĠØ§ÙĦØ´Ø±ÙĬØ¹Ø©":9528,"ĠÙħØ®Ø§ÙĦÙģØ§":9529,"ĠØ§ÙĦÙħØ±Ø³ÙĦ":9530,"ĠØ§ÙĦØ§Ø¹ØªØ±Ø§Ø¶":9531,"ĠÙħÙģÙĦØ³":9532,"ĠØ´Ø§ÙĩØ¯ÙĬÙĨ":9533,"ĠØ¬ÙĨØ§Ø¨Ø©":9534,"ĠÙĪÙĬØ¤ÙĬØ¯Ùĩ":9535,"Ø¹Ø§Ø±Ùģ":9536,"ĠØ«Ø§ÙĦØ«Ø©":9537,"ĠÙĬØ³ÙħØ¹Ùĩ":9538,"ĠØ³Ø§ÙĤØ·":9539,"ĠØºØ±ÙħÙĩ":9540,"ĠØ¨Ø§ÙĦØ¶ÙħØ§ÙĨ":9541,"ĠÙģØ±Ø§Ø´Ùĩ":9542,"ĠØ±Ø·Ø¨Ø§":9543,"ĠÙĦØ§Ø¨ÙĨÙĩ":9544,"ĠØ§ÙĦØ£ÙĩÙĦÙĬØ©":9545,"ĠØ§ÙĦÙĬÙĩÙĪØ¯":9546,"ĠØ§ÙĦØ´Ø¹Ø¨ÙĬ":9547,"ÙĬØµØŃ":9548,"Ø¨Ø¥":9549,"ØªÙģØ¹":9550,"ĠÙĪÙĪÙĤÙģ":9551,"ĠÙħÙĥÙĬ":9552,"ĠØ¨Ø°ÙĩØ¨":9553,"ĠØ¨Ø¨ÙĬØ¹Ùĩ":9554,"ĠÙģØ±Ø£Ùī":9555,"ĠØ¹ÙĤØ±":9556,"ĠØ¹ÙĦÙĦ":9557,"ĠÙĬÙģØ±":9558,"ØŃØµØ±":9559,"ÙĥÙħÙĨ":9560,"ĠÙĤØµÙĬ":9561,"Ø°Ø±Ø©":9562,"ØµØ¨Ùĩ":9563,"ĠÙģÙĬÙħØªÙĨØ¹":9564,"ĠØ§ÙĦÙħÙĤØ¯Ùħ":9565,"ĠØ§ÙĦÙħÙĤØ¯Ø±":9566,"ĠØ§ÙĦÙħØ±Ø§Ø¨ØŃØ©":9567,"ĠØ¥Ø¶Ø§ÙģØ©":9568,"ĠØªÙĪÙĦÙĬ":9569,"ĠØªÙĪÙĦØ¯":9570,"ĠØªØ®ÙĬØ±":9571,"ĠØŃØ²":9572,"ĠØŃØµØ±":9573,"ĠØŃØ§Ø¦Ø¶":9574,"Ø§ÙĦÙĦØ®ÙħÙĬ":9575,"ÙĩØ§Ø±Ùĩ":9576,"Ø´Ø·":9577,"Ø²ÙĦØª":9578,"ĠØ±Ø¹Ø§ÙĬØ©":9579,"ĠÙĦØ§ÙĨØ¹":9580,"ÙĨØ§Ø¨":9581,"ÙĨØ§ÙĬØªÙĩ":9582,"ĠØ´Ùħ":9583,"ĠØ°ÙĩØ§Ø¨":9584,"ÙĪÙĨÙĤÙĦÙĩ":9585,"Ø¨ÙĬØŃØ©":9586,"ÙĤØ¯Ø©":9587,"ØŃØ¯Ùĩ":9588,"ĠØ¯ÙĬ":9589,"ĠØ¯ÙģØ¹Ø©":9590,"ĠÙħØ¹ØµÙĪÙħ":9591,"ĠØ§ÙĦÙĤØ§Ø¦Ùħ":9592,"ĠÙĪØ§Ø¯":9593,"ØºØ§ÙĦ":9594,"ĠØ§ÙĦØ¨ÙĦØ§Ø¯":9595,"ĠØ§ÙĦØªØ¨Ø±":9596,"ĠØ§ÙĦØªÙĤØ·":9597,"ĠØ§ÙĦØªØªØ§Ø¨Ø¹":9598,"Ø¦ÙĪÙĦ":9599,"ĠØ§ÙĦÙĨÙĪÙĨ":9600,"ĠØ§ÙĦÙĨØ¸Ùħ":9601,"ÙĪÙĬØ¹ØªØ¨Ø±":9602,"ÙĬØ¹Ø§Ø¨":9603,"ĠØ§ÙĦØ¬Ø¹":9604,"ĠØ§ÙĦØ¬Ø³Ø¯":9605,"ĠÙĪØ£ÙĨÙĩØ§":9606,"ĠÙĪØ£Ø¬Ø§Ø¨":9607,"ĠÙĪØ¬Ø§Ø¡":9608,"ÙĬØ§Ø¬":9609,"ĠØ§ÙĦØ³Ø±Ø§Ø¬":9610,"ĠÙĪÙĬØ¬Ø¹ÙĦ":9611,"ĠØ§ÙĦØµØ¨Ø±Ø©":9612,"ĠÙĬØªØ°ÙĥØ±":9613,"ĠØ§ÙĦØ®ÙĦÙĬÙģØ©":9614,"ĠØ§ÙĦØ®Ø§Ø¯Ùħ":9615,"ĠØ§ÙĦØ«ÙĪØ±ÙĬ":9616,"ĠÙĬÙĨØ¨Øª":9617,"ĠØ¨ÙĬÙĨØ§Ùĩ":9618,"ĠØ¶Ø§ÙĤ":9619,"ĠØ¶ÙĬÙĤ":9620,"ĠØ£ÙħÙĪØ§ÙĦÙĩ":9621,"ĠØ£ÙħÙĩØ§Øª":9622,"Ø¯Ø§ÙĩØ§":9623,"Ø¯Ø§Ø®ÙĦ":9624,"ĠÙĪØªØ®":9625,"ĠÙĦÙĦÙħØ§ÙĦ":9626,"ĠÙĦÙĦÙħØµÙĨÙģ":9627,"ÙĪÙĤØ¨ÙĦ":9628,"ĠÙģØ£Ø¹ØªÙĤÙĩ":9629,"ĠÙģØ§Ø¹ÙĦÙĩ":9630,"ĠÙĪÙħÙĦÙĥ":9631,"ĠØ¨ÙħÙĪØ¬Ø¨":9632,"ÙĪØ³Ø©":9633,"ĠÙħØ³Ø§Ùģ":9634,"ĠÙģØªØ±Ùĥ":9635,"ĠØ£Ø¬ÙĪØ¯":9636,"ĠØ§ÙĦÙħØ³Ø±ÙĪÙĤ":9637,"ĠÙħØ±Ø§Ø±Ø§":9638,"Ø§ØªØ±":9639,"ĠÙĬØ³Ø£ÙĦÙĩ":9640,"ĠØ«ÙĦØ§Ø«ÙĪÙĨ":9641,"Ø§ÙĦÙħØ§Ø¯Ø©":9642,"ĠØ¹ÙĦÙħÙĩØ§":9643,"ĠÙĥØ§ÙĦØ·":9644,"ĠØªØŃÙĤÙĬÙĤ":9645,"ĠØªØŃÙĦÙĬÙģÙĩ":9646,"ĠÙĪØµÙĪÙĦ":9647,"ĠÙĪØµÙĬÙĩ":9648,"ÙħØªÙĥ":9649,"ĠÙĤØªÙĦØª":9650,"ĠØ¨ÙĬØ¶":9651,"ĠÙĪØ·Ø¦Ùĩ":9652,"ĠØªÙĤØ¯ÙħØª":9653,"ĠÙĪØ¨Ø·ÙĦ":9654,"ĠØ§ÙĦØ¶ÙĬØ§":9655,"ĠØ£ÙĤÙĦÙĩ":9656,"ĠØªØ£ØªÙĬ":9657,"ĠØ§ÙĦÙħØ³ÙĦÙħØ©":9658,"ĠØ¨Ø¹Ø¯ÙĩÙħ":9659,"ĠÙĨØ³ÙĬØ§ÙĨ":9660,"ĠØ§ÙĦÙħØ³ØªØ«ÙĨÙī":9661,"ĠØ£Ø¯Ø¨":9662,"ĠØ£Ø¯Ø§Ø¦Ùĩ":9663,"ĠØ§ÙĦÙħØ´Ø¨Ùĩ":9664,"ĠØ¬ÙĩÙĦØ§":9665,"ĠØ£ÙħØ§ÙħØ©":9666,"ĠØ¨Ø§ÙĦØ¥Ø°ÙĨ":9667,"ÙĤØ¶ÙĬØ©":9668,"ĠÙĦÙĦÙĪÙĤÙģ":9669,"ĠÙĪØ²ÙĨØ§":9670,"ĠÙĪØ²ÙĬØ¯":9671,"ĠØ¯Ø§Ø±ÙĨØ§":9672,"ĠÙĤØ¨Ø¶Øª":9673,"ĠÙħØ§Ø¦ØªÙĬÙĨ":9674,"ÙĪØ«Ø©":9675,"ĠØ¨ØµÙĦØ§Ø©":9676,"ĠØ§ÙĦØ£ØµØ¨Ø¹":9677,"ĠØ£Ø®Ø±Ø¬Øª":9678,"ĠØ®ØµÙħØ§":9679,"ĠØ§ÙĦÙģØ±Ø§Ø´":9680,"ĠØ£Ø°ÙĨØª":9681,"ÙĥÙģÙĬØ±":9682,"ĠÙĪÙĬØªØ¬Ùĩ":9683,"ĠØ£Ø±Ø¨Ø¹ÙħØ§Ø¦Ø©":9684,"ĠÙĦÙĦØ´Ø§ÙģØ¹ÙĬ":9685,"ĠÙĪØºØ³ÙĦ":9686,"ĠØµØ¯ÙĤØªÙĩ":9687,"ÙģÙĥØ£ÙĨÙĩ":9688,"ĠÙĥØªØ¨Ùĩ":9689,"ĠØ§ÙĦØ´Ø±ÙĪØ¹":9690,"ĠØ±Ø¶Ø§ÙĩØ§":9691,"ĠÙħÙĪØ¶ÙĪØ¹":9692,"ĠÙħØ±ØªØ¯Ø§":9693,"ĠÙģØ·Ø±Ùĩ":9694,"ĠÙĨØ¹ÙħØ©":9695,"ĠÙĬØ·ÙĦÙĤÙĩØ§":9696,"ĠÙħØ¬ÙĦØ³Ùĩ":9697,"ĠØ®Ø´Ø¨Ø©":9698,"ĠØ§Ø®ØªÙĬØ§Ø±Ø§":9699,"ĠØ§ÙĦØŃÙĨÙģÙĬ":9700,"ĠÙħÙĤØµÙĪØ¯Ø§":9701,"ĠÙħÙĪØ¬Ø¨Ø§":9702,"ĠÙĪÙĨØµÙģÙĩ":9703,"ĠØ®Ø§Ø¯Ùħ":9704,"ÙĪÙĤØ§ÙĦØ§":9705,"ĠÙĪØ¨Ø¹Ø¶ÙĩÙħ":9706,"ĠØ§ÙĦØªÙĥØ¨ÙĬØ±":9707,"ĠØ§ÙĦØ³ÙĨÙĨ":9708,"ĠØ±Ø³ÙĪÙĦÙĩ":9709,"ĠØ§ÙĦÙħØ®Ø§ÙĦÙģØ©":9710,"ĠØªØ£ÙĪÙĬÙĦØ§ÙĨ":9711,"ĠØ§Ø¬ØªÙħ":9712,"ĠÙĦÙĪÙĤÙĪØ¹":9713,"ĠØŃÙĦØ§ÙĦØ§":9714,"ÙĪÙĪØ§":9715,"ÙĪØ¸":9716,"ĠØ§Ø«ÙĨØ§":9717,"ÙħØ³Øª":9718,"Ø¨ÙĪØ©":9719,"ĠÙĪÙĦØª":9720,"ĠÙĪÙĦØ²Ùħ":9721,"ĠØ£Ø°Ø§":9722,"ĠØ£Ø³Ø¨ÙĤ":9723,"ÙĤÙĨ":9724,"ÙĤÙħ":9725,"ĠØ¨ÙĤØµ":9726,"ĠØ¨Ø®Ø¨Ø±":9727,"ĠØ¨Ø±Ø¨Ø¹":9728,"ĠØ¨Ø¨Ø¯ÙĦ":9729,"ĠÙģÙĦØ£":9730,"ĠÙģØ¬Ø±":9731,"ĠÙģØ±ØŃ":9732,"ĠØ¹ØªÙĬÙĤ":9733,"ÙĦÙħØ³":9734,"ÙģÙĪØ±":9735,"ÙģØ°ÙĥØ±":9736,"Ø³Ø·Ùĩ":9737,"ĠÙĤØ§Ø¯":9738,"ĠÙĤÙħÙĬ":9739,"ĠÙĤØ¹Ø¯":9740,"ĠÙĤØ³Ø·":9741,"ĠÙĤØ±Ø§Ø¡ØªÙĩ":9742,"ĠÙģÙĬÙĤ":9743,"ĠÙģÙĬÙĥØ±Ùĩ":9744,"ĠÙĥØ²ÙĪØ¬":9745,"ĠØ§ÙĦÙħØ¸":9746,"ĠØ§ÙĦÙħÙģØ³Ø¯":9747,"ĠØ¥Ø¬Ø§Ø²":9748,"ĠØ¥ÙĥØ±Ø§Ùĩ":9749,"ĠØ¥Ø¸ÙĩØ§Ø±":9750,"Ø®Ø¨":9751,"ĠØªÙĩ":9752,"ĠØªØ¬Ø§Ø±Ø©":9753,"ĠØªØºÙĬØ±Ùĩ":9754,"Ø§ÙĨØ¦":9755,"ĠÙĦØ°ÙĬ":9756,"ÙĦÙĤÙĩ":9757,"Ø§Ø±Ø¬Ùĩ":9758,"ĠÙĦØ§Ø²ÙħØ©":9759,"ĠÙĩÙĦØ§":9760,"ĠØ³Ø§Ùĥ":9761,"ĠØ³ÙĦØ·Ø§ÙĨ":9762,"ĠØ³ÙĩØ§Ùħ":9763,"ØªÙĩØ¨":9764,"ĠØ§ÙĦØ£Ø³ÙĨØ§ÙĨ":9765,"ĠØ´ÙģØ¹":9766,"ĠØ¬Ø¯Ø©":9767,"Ø§Ø¨ÙĤ":9768,"ĠØ§ÙĦØ¹ÙĦÙĪ":9769,"ĠØ§ÙĦØ¹Ø±Ø§ÙĤÙĬ":9770,"ĠØ®Ø¨ÙĬØ±":9771,"ĠÙħØ¹Ø¸Ùħ":9772,"ĠÙħØ¹ÙĬØ¨Ø§":9773,"Ø±ÙĩÙĪÙĨØ©":9774,"ĠÙĪØ§ÙħØ±Ø£Ø©":9775,"ÙĪØ¬ÙĩØ§ÙĨ":9776,"ĠÙħÙĨÙĩÙĬ":9777,"ĠØ§ÙĦØ¨Ø¹ÙĬØ±":9778,"ĠØ§ÙĦØªÙģØ§ÙĪØª":9779,"ÙģØ¹ÙĦÙħ":9780,"ÙĤÙĬØ³":9781,"Ø¦ØªÙĬÙĨ":9782,"ĠØ§ÙĦØ¥ØªÙĦØ§Ùģ":9783,"ÙĪÙĬØŃ":9784,"ÙĪÙĬØ¶ÙħÙĨ":9785,"ĠØ²ÙħÙĨØ§":9786,"ĠØ§ÙĦØ´ÙĩÙĪØ©":9787,"ĠØ§ÙĦØ¬ÙĨØ§":9788,"ĠØ§ÙĦØ¬Ø¨ÙĦ":9789,"ĠÙĬØ¬Ø¹":9790,"ĠØ§ÙĦØ³Ø§Ø¹Ø©":9791,"ĠØ§ÙĦØ³ÙĥÙĨÙī":9792,"ĠÙĪÙĬØ®":9793,"ĠÙĪÙĬØ¹ØªØ¨Ø±":9794,"ĠÙĪÙĬØ³Ø¬Ø¯":9795,"ÙģØ±Ø§Ø²":9796,"ĠØ§ÙĦÙģÙĦØ§ÙĨÙĬ":9797,"ĠØ§ÙĦØµØ¨Ø±":9798,"ĠØ§ÙĦØµÙħØ¯":9799,"ĠÙĬØªØ³":9800,"ĠÙĬØªÙģÙĤ":9801,"ĠÙĬØªØ²ÙĪØ¬ÙĩØ§":9802,"ĠÙĬØªØŃÙĦÙĦ":9803,"ĠÙĬØŃØ¬Ø¨":9804,"Ø¯ÙĬØ¨ÙĬØ©":9805,"Ø¤Ø¬ÙĦ":9806,"ĠØ§ÙĦÙĥÙĪÙģØ©":9807,"ÙĩÙħØ§Øª":9808,"ĠØºÙĬØ¨":9809,"Ø®Ø±Ø³":9810,"ĠØ£Ø¨ÙĬÙĩØ§":9811,"ÙĤØ·Ø¹Ùĩ":9812,"Ø®ØªÙĬØ§Ø±":9813,"ĠØ¨Ø£ØµÙĦ":9814,"ÙĪØ¶Ø¦":9815,"ĠØ§Ø³ØªØ¯ÙĦ":9816,"ĠØ§Ø³ØªÙĪÙĦØ¯":9817,"ĠÙĪØªØª":9818,"ĠÙĪØªØµØŃ":9819,"ĠÙĪÙĤØµ":9820,"ĠÙĪÙĤØ§ÙĦØª":9821,"ĠØ¨Ø¯ÙĪ":9822,"ÙĪØ§ÙĦØ·":9823,"Ø´Ø±Ø§Ø¡":9824,"ĠÙħØªØ¨Ø±Ø¹":9825,"ĠÙĬÙħÙĬØ²":9826,"ĠÙĤØ¨ÙĪÙĦÙĩØ§":9827,"Ø·ÙĦÙĤØª":9828,"ĠÙĪØ§ÙĦÙħØ³":9829,"ĠØ§ÙĨØ¯":9830,"ĠØ§ÙĨÙĥØ³Ø±":9831,"ĠÙħØ³ØªÙĩÙĦÙĥ":9832,"ĠÙĬØ£ÙħÙĨ":9833,"ÙĩØ¯Ø§Ø¡":9834,"ĠØŃÙĤÙĩÙħØ§":9835,"ĠØ§ÙĦÙħØ¹Ø§ÙħÙĦØ©":9836,"ĠÙĪØµÙĪÙĦÙĩ":9837,"Ø±Ø¹Ùī":9838,"ĠØ§Ø¹ØªÙĬØ¯":9839,"ĠØ¨Ø´ÙĩÙĪØ©":9840,"Ø³Ø§ÙĦÙĩ":9841,"ĠÙĨØ³Ùĥ":9842,"ĠÙħØ³ØªÙĤØ¨ÙĦ":9843,"ÙĪØ§ÙĦÙħØª":9844,"ĠÙģØ±Ø¯Ùĩ":9845,"ĠÙģØ§ÙĦØ¶":9846,"ĠØªÙĨÙģÙĬØ°":9847,"Ø¶ÙĪØ¦Ùĩ":9848,"ĠØ¨Ø§ÙĦØŃÙĥÙħ":9849,"ĠØ¨Ø§ÙĦØŃØ¬Ø±":9850,"ĠÙĪØ´Ùĥ":9851,"ĠÙĥØªØ§Ø¨ÙĬ":9852,"ĠØ¨Ø³Ø·":9853,"ĠØ§ÙĦØªØ¹Ø²ÙĬØ±":9854,"ĠÙĪØ§ÙĦÙĤÙĬØ§Ø³":9855,"ĠÙĨØ¬Ùħ":9856,"ĠÙĤØ±ÙĬØ¨Ø©":9857,"ĠØµØ±ØŃÙĪØ§":9858,"ĠØ¹Ø§Ø¯ØªÙĩØ§":9859,"ĠÙĪØ§ÙĦØ¬Ø¯":9860,"ĠÙĦÙĦØ³ÙĨØ©":9861,"ĠØ¨Ø§ÙĦØ¬ÙĪØ§Ø²":9862,"ĠØ§Ø®ØªÙĦÙģÙĪØ§":9863,"ĠØ³ÙĨØ§ÙĨ":9864,"ĠÙħØŃØªØ±Ùħ":9865,"ĠÙģÙģÙĬÙĩØ§":9866,"ĠØ¹ÙĤØ§Ø±":9867,"ĠØªØ²ÙĬØ¯":9868,"ĠÙħÙĤØ¯ÙħØ©":9869,"ĠØ§ÙĦÙħØ²ÙĨÙĬ":9870,"ĠØ§ÙĦØ¹Ø¨Ø§Ø¯":9871,"ĠØ¨Ø°ÙĦÙĩ":9872,"ĠØ³Ø¨Ø¹ÙĬÙĨ":9873,"ÙĤØ§Ø¨ÙĦ":9874,"ĠØ¹ÙĪØ¶Ùĩ":9875,"ĠÙĪØ«ÙĦØ«Ø§":9876,"ĠØ£Ø·Ø±Ø§Ùģ":9877,"ĠØ³ÙģÙĬÙĨØ©":9878,"ĠØ§ÙĦØ¥ÙĬÙħØ§ÙĨ":9879,"ĠØ§ÙĦØªØ£ÙĪÙĬÙĦ":9880,"ĠÙĤØµØ§ØµØ§":9881,"ĠØªÙģØ±ÙĬØ¹":9882,"ĠØ¨Ø§ÙĦØ°ÙĥØ±":9883,"ĠÙĪØ£ØµØ¨Øº":9884,"ÙĪØ§ÙĦØµØŃÙĬØŃ":9885,"ĠÙĦØªØ¹Ø¯ÙĬÙĩ":9886,"ĠÙĪÙĤØ¨Ø¶Ùĩ":9887,"ĠØ§ÙĨØ¹ÙĤØ§Ø¯":9888,"ĠØ§ÙĦÙħÙĪØ·ÙĪØ¡Ø©":9889,"ĠÙħØ®ØªØ§Ø±Ø§":9890,"Ø§Ø¶ÙĦ":9891,"ÙĨÙģØ³":9892,"ÙĨØ§ÙĨÙĬ":9893,"ÙĨÙĪØ©":9894,"ÙĪØ±Ùĥ":9895,"ĠØ§Ø¶Ø·Ø±":9896,"ÙħÙĦÙĬÙĥ":9897,"Ø¨Ø³Ùĩ":9898,"ĠÙĪØµØ¯ÙĤ":9899,"ĠÙĪÙĨÙĩØ§ÙĬØ©":9900,"ĠÙĪÙħÙĩØ±":9901,"ĠØ£Ø«Ùħ":9902,"ĠØ£Ø°ÙĨÙĩ":9903,"ĠØ£Ø³Ø¨Ø§Ø¨":9904,"ĠÙħØ¬Ø¨":9905,"ĠÙħØ±Ø§Ùĩ":9906,"ĠÙħÙĪØµÙī":9907,"ĠÙħØ¨Ø·ÙĦ":9908,"ĠÙħÙĥØ«":9909,"ĠØ¨Ø°Ø±":9910,"ĠØ¨Ø§Ø´Ø±":9911,"ĠØ¨Ø®ØµÙĪØµ":9912,"ÙĦØ§Øµ":9913,"ÙĥÙĤÙĪÙĦÙĩ":9914,"ĠÙĤØ¯ÙĬÙħ":9915,"ĠÙģÙĬØ¬Ø¹ÙĦ":9916,"ĠÙĥØº":9917,"ĠØ¥Ø¨Ø±Ø§Ø¡":9918,"ĠØ¥Ø¯Ø®Ø§ÙĦ":9919,"ĠØªÙħØ§":9920,"ĠØªÙĪØ¨Ø©":9921,"ÙĦÙĪÙĦØ©":9922,"ĠØŃØ§ÙĨ":9923,"Ø§ÙĨÙī":9924,"ĠØ£ÙĨØ¸Ø±":9925,"ĠÙĨØ³ÙĦÙħ":9926,"ĠÙĨØ¬Ø¯":9927,"ĠÙĦØ§ÙħØ±Ø£Ø©":9928,"ĠÙĩØ§":9929,"ĠÙĩÙħØ§Ùħ":9930,"ĠÙĩØ§ØªÙĬÙĨ":9931,"ĠØ³ÙĦØ§ÙħØ©":9932,"ĠØ§ÙĦØ£Ø¯Ø¨":9933,"ĠØ´Ø±Ùģ":9934,"ĠØµØ§Ø¦ÙħØ§":9935,"Ø§Ø¨ÙĬ":9936,"ĠØ§ÙĦØ¹ÙĦØ§Ø¡":9937,"ĠØ§ÙĦØ¹Ø³ÙĥØ±":9938,"ĠØ§ÙĦØŃÙĦÙĪ":9939,"ĠØ§ÙĦØŃØµØ±":9940,"ĠØ¯Ø§ÙħØª":9941,"ÙĪØ§ØªÙĩ":9942,"ĠØ§ÙĦØªÙĪÙģÙĬÙĤ":9943,"Ø±Ø¨Øµ":9944,"ĠÙĦÙĪÙĦÙĬ":9945,"ÙĪÙħÙħØ§":9946,"ĠÙĬÙĥØ¨Ø±":9947,"ĠØ§ÙĦÙĨÙĬØ§Ø¨Ø©":9948,"ĠØ§ÙĦØ´Ùĩ":9949,"ĠÙĪØ£Øª":9950,"ĠØ£Ø®Ø§":9951,"ĠØ£Ø®ØµØ±":9952,"ĠÙħØŃØ¨ÙĪØ³":9953,"ĠÙĬØªØ®ÙĬØ±":9954,"Ø°ÙĩØ¨Øª":9955,"ĠØºÙĨÙĬ":9956,"ĠØ±Ø¬ØŃ":9957,"ÙĪÙĥØ©":9958,"ĠØ¨Ø£ÙĥÙĦ":9959,"ĠØ¨Ø£Ø±Ø¨Ø¹":9960,"ĠØ¨Ø£ÙĬØ¯ÙĬ":9961,"ĠØ§ÙĦØ±Ø¹Ø§ÙĬØ©":9962,"ĠÙĪØªØº":9963,"ĠØ¸ÙĩØ§Ø±":9964,"ĠØ§ÙĦØºØ±Ø§Ø³":9965,"ÙĪØ§ÙĦØ²":9966,"ĠØªØ¹Ø±ÙĬ":9967,"ĠØªØ¹ÙĬØ¨":9968,"ÙĪÙĤÙģÙĩ":9969,"ĠÙĪÙĨÙģÙĤØ©":9970,"ĠÙĪÙĨØŃÙĨ":9971,"ĠÙĪÙħØ¬ÙĨÙĪÙĨ":9972,"ĠØ§ÙĨÙģØµ":9973,"ĠÙħØ³Ø§ÙģØ±":9974,"ĠØ§ÙĦØ·Ø¨Ø±ÙĬ":9975,"ĠØ£Ø¬ÙĬØ¨":9976,"ĠÙħØ±ØªØ¨Ø©":9977,"ÙĪÙģÙĬÙħØ§":9978,"ĠÙĬØ³ÙĥÙĨ":9979,"ĠÙĬØ³Ø§ÙģØ±":9980,"ĠØ£ØµØ§ÙĦØ©":9981,"ĠØ§ÙĦÙħØ¹ÙĬÙĨØ©":9982,"ĠØ¨Ø§ÙĦÙħØŃ":9983,"ĠØ¨Ø§ÙĦØ±ÙģØ¹":9984,"ĠÙĪØŃÙĦ":9985,"ĠÙĬØµÙĬØ¨":9986,"ĠÙĪÙħØ§ÙĦ":9987,"ĠÙĦØŃØ±ÙħØ©":9988,"ÙĦØ³Ø§ÙĨÙĩ":9989,"ĠÙĦØ¨ÙĪÙĨ":9990,"ĠÙĦØ¨ÙĨÙĩØ§":9991,"ĠØ¨ÙĥØ±Ø©":9992,"ĠØ§ÙĦÙħÙĨØ¯":9993,"ĠØ§ÙĦÙħÙĨØ°ÙĪØ±":9994,"ĠØ¨ÙĤØ§Ø¤Ùĩ":9995,"Ø³Ø§Ø·ÙĬ":9996,"ĠÙħØ¬ÙĪØ³ÙĬ":9997,"ĠØ£Ø³ÙĩÙĦ":9998,"ĠØ£Ø³Ø¨Ø§Ø¹":9999,"ĠÙħØ³ØªØ£Ø¬Ø±":10000,"ĠØ¨Ø§ÙĦØ£Ø®Ø°":10001,"ĠØ¨Ø§ÙĦØ£Ø¯Ø§Ø¡":10002,"ĠØŃØ¬ØªÙĩ":10003,"ĠØ£Ø¯Ø±ÙĥÙĩ":10004,"ĠØªÙĨÙĥØŃ":10005,"ĠØ·ÙĦÙĤØªÙĬÙĨ":10006,"ĠØ¬ÙĩÙĦÙĩ":10007,"ØºÙĨÙĬØ§Ø¡":10008,"ĠÙħØ¤ÙĨØªÙĩ":10009,"ĠÙĦÙĦØ¹ØªÙĤ":10010,"ĠÙĤÙĦÙĨØ§Ùĩ":10011,"ĠØ£ØªÙĬØª":10012,"ÙĬØ³Ø±Ø©":10013,"ÙĪØ§ÙĦØ£ÙĤØ±Ø¨":10014,"ĠØ§ÙĤØªØ¯Ùī":10015,"ĠØ¨ÙĬØªÙĩØ§":10016,"ĠÙħØµØ¹Ø¨":10017,"ĠØ¹Ø§ÙħÙĩ":10018,"ĠÙħØ·ÙĦÙĪ":10019,"ĠØ¨Ø§ÙĦØ³ÙĬÙģ":10020,"ĠØµØ§ÙĦØŃØ§":10021,"ĠØªØ¹ÙĦÙĤÙĩ":10022,"ĠØªØºÙĬÙĬØ±":10023,"ĠÙĨØ²Ø¹Ùĩ":10024,"ĠØ§ÙĦÙĤØ¯ÙĪØ±ÙĬ":10025,"ĠØ§ÙĦØ£Ø´Ø¨Ø§Ùĩ":10026,"ĠÙħØºØµÙĪØ¨":10027,"ĠØ¨Ø§ÙĦØµØŃØ©":10028,"ĠÙģØ§ÙĦØ£ØµØŃ":10029,"ĠÙĩÙĦÙĥØª":10030,"ĠØ°Ø¨ØŃÙĩØ§":10031,"ĠÙģØ§ØªØª":10032,"ĠØªØ´Ø¨ÙĬÙĩ":10033,"ĠÙĦÙĦØ§Ø¨ÙĨ":10034,"ĠØ§ÙĦØ¥ÙĬØ¬Ø§Ø¨":10035,"ĠÙģØ±Ø¬ÙĩØ§":10036,"ĠØ§ÙĦØ¯Ø¹ÙĪØ©":10037,"ĠØ´Ø§ÙĩØ¯Ø§ÙĨ":10038,"ĠØ¶ÙħÙĨÙĩØ§":10039,"ĠÙħÙĤØªØ¶Ø§Ùĩ":10040,"ĠØ±ÙĤÙĬÙĤÙĩ":10041,"ÙĪØ§ÙĦØ¯ÙĦÙĬÙĦ":10042,"ĠØ«ÙĬØ§Ø¨Ùĩ":10043,"ĠÙħØªØ¹ÙħØ¯Ø§":10044,"ĠØ¨Ø±ÙĬØ¡":10045,"ĠØ£Ø±Ø³ÙĦÙĩ":10046,"ĠÙħØ¹Ø±ÙģØªÙĩ":10047,"ĠÙħØ³Ø£ÙĦØªÙĨØ§":10048,"ÙĪØ§ØŃØªØ±Ø²":10049,"ĠÙħØ·Ø§ÙĦØ¨ØªÙĩ":10050,"ĠÙħØ¬ÙĩÙĪÙĦØ§":10051,"ĠØ§ÙĦÙħÙĪØ³Ø±":10052,"Ø§ÙĬØ§":10053,"ÙĬÙĤÙĩ":10054,"ÙĬÙĦØ²ÙħÙĩ":10055,"ÙĪÙĦØ¨":10056,"ÙĪØ°ÙĥØ±Ùĩ":10057,"Ø¨Ø±Ø§ÙĩÙĬÙħ":10058,"Ø¨Ø§Ø´Ø±Ø©":10059,"ĠÙĪØ±Ø¶ÙĬ":10060,"ĠØ£ØªÙĬ":10061,"ĠØ£Ø«ÙħØ§ÙĨ":10062,"ĠØ£Ø±Ø§Ø¯Ùĩ":10063,"ĠØ£ÙĥÙħÙĦ":10064,"ĠØ¨ÙħØ±":10065,"ĠØ¨Ø§Ø¨ÙĨ":10066,"ĠØ¨Ø¢Ø®Ø±":10067,"ĠÙģÙĦÙĥÙĦ":10068,"ÙģÙĪØª":10069,"ÙģÙĦÙĩØ§":10070,"Ø³Ø§ÙĦØ©":10071,"ĠÙĬÙĪÙĦØ¯":10072,"Ø£Ø¬Ø±Ø©":10073,"ĠÙĤÙģÙĬØ²":10074,"ĠÙĥÙĬÙĦ":10075,"ĠÙĥØ±Ø§Ùĩ":10076,"ĠØ§ÙĦÙħØªÙĬ":10077,"ĠØ§ÙĦÙħÙģØ¹ÙĪÙĦ":10078,"ĠØ§ÙĦÙħØ¨Ø¯Ø¹":10079,"Ø¶ÙĪÙĨ":10080,"ĠØ¥ØªÙħØ§Ùħ":10081,"ĠØ¥Ø¯Ø±Ø§Ùĥ":10082,"ĠÙħÙĨÙĤØ·Ø¹":10083,"Ø®Ø±Ø§":10084,"ĠØªØŃØ¯":10085,"ĠØªØ¹Ø§":10086,"ĠØªØ®ÙĦÙĦ":10087,"Ø§ÙĨØª":10088,"Ø§ÙĨÙħÙĬÙĨ":10089,"ĠØ§ÙĦØ±ÙĬØŃ":10090,"ĠØ§ÙĦÙĦØ§Ø²Ùħ":10091,"ĠØ£ÙĪØ±Ø¯":10092,"Ø´ÙĬØ±":10093,"ĠØ±ÙĪÙĬÙĨØ§":10094,"ĠÙĨÙĤÙĬ":10095,"ĠÙĨØ§ÙĤ":10096,"ĠÙĨØ§Ø¯Ø±":10097,"ÙĨØ§Ùħ":10098,"ĠØ³ÙĨÙĩ":10099,"ĠØ³ÙģÙĩ":10100,"ĠØ´ÙĪØ§ÙĦ":10101,"ĠØ´ÙĤÙĬÙĤ":10102,"ĠØ°Ø¨":10103,"ĠØµØ¯Ø§":10104,"Ø±Ø§Ø¶Ùĩ":10105,"ĠØ¬Ø¨Ùĩ":10106,"ĠØ§ÙĦØ¹ÙħØ§Ø±Ø©":10107,"ĠØ§ÙĦØ¹ÙĦÙĪÙĤ":10108,"Ø¨ÙĬÙĨÙĩ":10109,"Ø¨ÙĬÙĬÙĨ":10110,"ĠØ¯Ø±ÙĩÙħØ§ÙĨ":10111,"ĠØ®ÙĦÙĪ":10112,"ĠÙħØ¹Øµ":10113,"ĠØ§ÙĦÙĤØ·":10114,"ĠÙĪØ§Ø®ØªØ§Ø±":10115,"ĠØ§ÙĦØªØºÙĬØ±":10116,"Ø³ÙĦÙħÙĬÙĨ":10117,"ĠÙĦÙĪØ¬":10118,"Ø¨Ø¯ÙĦÙĬÙĦ":10119,"ĠØ§ÙĦÙĨØ¯Ø¨":10120,"ĠØ²ÙħØ¹Ø©":10121,"Ø¨Ø§Ø¹Ùĩ":10122,"ĠÙĬÙĤØ§ØªÙĦ":10123,"ĠÙĪØ£ÙĦØŃÙĤ":10124,"ĠÙĪÙĬÙĤØ¨ÙĦ":10125,"ĠÙĪÙĬØµÙĬØ±":10126,"ĠÙĦÙĬØ¹":10127,"ĠØ§ÙĦÙģÙĤØ±":10128,"ĠØ§ÙĦØµØ¨Ø§Øº":10129,"ĠÙĬØ¹ÙĨÙī":10130,"ĠØ§ÙĦÙĥÙĨØ²":10131,"ĠØ§ÙĦÙĥØ¨Ø§Ø¦Ø±":10132,"ÙĤØ±Ø¹":10133,"ĠØºØ§ÙĬØªÙĩ":10134,"ĠÙĪÙĥØ³":10135,"ÙħØ³Ø§ÙĥÙĩ":10136,"ĠØ±Ø¬Ø¹Ø§":10137,"ĠØ¶Ø§Ø¹":10138,"ÙĪØ¨Ø¹Ø¶":10139,"ÙĪØªØ±Ùĥ":10140,"ĠØ¹Ø¨Ø¯ÙĪØ³":10141,"ĠØ§Ø³ØªÙĪÙĬØ§":10142,"ĠÙĪØªÙĦÙģ":10143,"ÙĪØ£Ùħ":10144,"ÙĪØ£ÙĬØ¶Ø§":10145,"ĠÙĪÙĤÙģØª":10146,"ĠÙĦÙĥØ§ÙģØ±":10147,"ĠÙĪÙĦÙħÙĨ":10148,"ĠÙĪÙħØ³ÙĦÙħ":10149,"ĠØ¨ÙħÙĤØ§Ø¨ÙĦØ©":10150,"ÙĪØ³ÙĨ":10151,"ĠÙħØ³ÙĨ":10152,"ĠÙĬÙĪÙħÙĩØ§":10153,"ĠØ£ØµÙĦØŃ":10154,"ĠØ¨Ø§ÙĦÙħØª":10155,"ĠÙĪØµØ§ØŃØ¨":10156,"ĠØ§ÙĦÙħØŃØ¨Ø³":10157,"Ø¬Ø²Ùħ":10158,"ĠÙĪØ³Ø¹":10159,"ĠÙĪØ³ÙĥØª":10160,"ÙĦØºØ§Ø¡":10161,"ĠÙĬØ³ØªØ«ÙĨÙī":10162,"ĠØ¨ØªÙħØ§Ùħ":10163,"ĠØ´Ø±Ø·ÙĩØ§":10164,"ĠØ£Ø±Ø¨Ø§Ø¨":10165,"ĠØ¢ÙĥØ¯":10166,"ĠØ¨ÙĬÙĪØª":10167,"ĠÙĦØ¨Ø·ÙĦØ§ÙĨ":10168,"ĠØ¨ÙĥØªØ§Ø¨":10169,"Ø§ÙĦØªÙĩØ§":10170,"ĠØ§Ø¹ØªØ¯":10171,"ĠØ§Ø¹ØªØ±Ø¶":10172,"ĠØ±ÙĪØ§ÙĬØªÙĬÙĨ":10173,"ĠÙĪØ§ÙĦØ£Ø±Ø¶":10174,"ĠÙĪØ§ÙĦØ£ÙĨØ«Ùī":10175,"ĠÙĪÙĤØªØ§":10176,"ÙģÙĦØ§ÙĨ":10177,"ĠØµØŃØŃ":10178,"ĠÙĬØ²ÙĬÙĦ":10179,"ĠØ±ÙĥÙĪØ¨":10180,"ĠØ§ÙĦØ§Ø³ØªØ¹ÙħØ§ÙĦ":10181,"ĠØ£Ø®Ø¨Ø±ÙĨÙī":10182,"ĠØŃØ¯Ø«Øª":10183,"ĠØ¨Ø¬Ø§ÙħØ¹":10184,"ĠØ´Ø±Ø§Ø¦Ùĩ":10185,"ĠØŃØ§Ø¶Ø±Ø§":10186,"ĠÙĪÙĦÙĩÙħ":10187,"ĠÙĪØ±ÙĤØ©":10188,"ĠÙģØŃÙħÙĦ":10189,"ĠØ¬ÙĨØ³ÙĩØ§":10190,"ĠØ¨Ø®ÙĬØ§Ø±":10191,"ĠÙĤØ±ÙĬØ¨Ùĩ":10192,"Ø¨Ø·Ø§ÙĦ":10193,"ĠÙĦØ¯ÙĪÙĨ":10194,"ĠØ¨Ø§ÙĦØ¯Ø®ÙĪÙĦ":10195,"ÙĨØµØ§Ùģ":10196,"ĠØ§ÙĦÙħÙģØ§Ø±ÙĤØ©":10197,"ĠÙĬØ¨ÙĦØºÙĩ":10198,"ĠÙĤØ§Ø¦ÙĦØ§":10199,"ĠØ¬ÙĨÙĪÙĨÙĩ":10200,"ĠÙģÙĬØŃÙħÙĦ":10201,"ĠÙĪØ®ÙħØ³ÙĪÙĨ":10202,"ĠÙĬØ¨ÙĬØ¹ÙĩØ§":10203,"Ø§ÙħØªÙĨØ¹":10204,"ĠÙĪØ´Ø±ØŃ":10205,"ĠØ®Ø´Ø¨":10206,"ĠØªØ§Ø¨Ø¹Ø©":10207,"ÙĩÙĬØ±ÙĬØ©":10208,"ĠÙĦØ¨Ø¹Ø¶ÙĩÙħ":10209,"ĠÙħÙĤØµÙĪØ¯Ø©":10210,"ĠØ£Ø¬Ø§Ø²Ùĩ":10211,"ĠÙģØ¬Ø§Ø¡Øª":10212,"ĠØ§ÙĦØ¨Ø§ÙĤÙĬÙĨ":10213,"ĠØ§ÙĦÙħØ¶ÙħÙĪÙĨ":10214,"ĠØ¨ÙħØ³Ø¬Ø¯":10215,"ĠØ¨Ø¢ÙģØ©":10216,"ĠØ¥Ø«Ø¨Ø§ØªÙĩ":10217,"ĠØ¨ÙĨØµÙģÙĩ":10218,"ÙĦØ¦Ùĥ":10219,"ĠÙħØ£Ø°ÙĪÙĨØ§":10220,"ĠØ§Ø´ØªÙĩØ±":10221,"ĠÙĥÙģØ§ÙĬØªÙĩ":10222,"ĠØ¨ÙĨØ³Ø¨Ø©":10223,"¦ÙĨ":10224,"ÙĦÙĨ":10225,"Ø§ÙĦÙĬ":10226,"ÙĬØŃØ±Ùħ":10227,"ÙĪØŃØ¯Ø«ÙĨØ§":10228,"ĠØ§ÙĦØ§Ùģ":10229,"ÙħØ¹Ø§":10230,"Ø¯Ø¹Ø©":10231,"ØªØ³":10232,"Ø¹Ø±ÙĬ":10233,"Ø¹Ø¨Ø©":10234,"ĠÙĪØ®Øµ":10235,"ĠÙĪØ¶ÙĪØ¦Ùĩ":10236,"ĠÙħØ°":10237,"ĠÙħØ±Ùĥ":10238,"ĠØ¨ÙģØ³Ø®":10239,"ĠØ¨Ø¨ÙĤØ§Ø¡":10240,"ÙģØµØ§Ø±":10241,"Ø³ÙĤØ§Ø·":10242,"ĠÙĬÙĪØ§ÙģÙĤÙĩ":10243,"Ø£Ø«Ùħ":10244,"Ø£Ø®Ø±Ø¬Ùĩ":10245,"ĠÙĤØ¶Ø§Ùĩ":10246,"ĠÙĤØ°ÙģÙĩ":10247,"ĠÙģÙĬØ´ÙħÙĦ":10248,"ĠÙĥØ±Ø¨":10249,"ĠÙĥÙģÙĩ":10250,"ĠØ§ÙĦÙħÙĨÙģÙĤ":10251,"ĠØ§ÙĦÙħÙĥØ±ÙĪÙĩ":10252,"Ø¶Ø¨Ø·":10253,"ĠÙħÙĨØ§Ø³":10254,"ĠØªØ¬Ø±":10255,"ĠØªÙģØ¹ÙĦ":10256,"ĠØªØ®ØªÙĦÙģ":10257,"ĠØªØ®ØªØµ":10258,"ĠØªØ§ÙħØ©":10259,"ĠØŃØ°ÙģÙĩ":10260,"Ø²ÙĤ":10261,"ĠÙĨÙĪÙģÙĦ":10262,"ĠÙĩØ§ÙĨØ¦":10263,"ĠØ³ÙĦØ¹":10264,"ĠØ³ÙĨØ¯":10265,"ĠØ´Ø¨":10266,"ĠØ£ÙĬÙħØ§":10267,"ĠØµØ§Ø¦Ùħ":10268,"ĠØµØ§Ø¹Ø§":10269,"Ø§Ø¡Ùĩ":10270,"ĠØ¬Ø±ÙĬØ§ÙĨ":10271,"ÙĤØ¯Ø§":10272,"ĠØ¨Ø¹ÙĬØ¯Ø©":10273,"ĠØ§ÙĦØŃÙĪØ²":10274,"ĠØ§ÙĦØŃØ§Ø¦Ø¶":10275,"ĠØ«ÙĪØ±":10276,"ÙĩÙĪØ±Ùĩ":10277,"ĠØ¯ÙĪØ±":10278,"ÙĪØ§ÙĦÙĩØ§":10279,"ÙĪØ§ÙĦÙĤÙĪÙĦ":10280,"ĠØ®Ø§Øª":10281,"ĠÙħØ¹Ø´Ø±":10282,"Ø±ÙĬÙĩ":10283,"ĠÙĪØ§Ø¹ÙĦÙħ":10284,"ĠÙĪØ§Ø®ØªØ§Ø±Ùĩ":10285,"ÙģÙĬØ¬Ø¨":10286,"ĠØ§ÙĦÙĪÙģØ§Ø©":10287,"ĠØ§ÙĦÙĪØ¯Ø§Ø¹":10288,"ØºÙĩ":10289,"ĠÙĦØ£ØµÙĦ":10290,"ĠÙĬÙĤØ§Ø¨":10291,"ĠØ§ÙĦØ¬Ø¯Ø©":10292,"ĠØ§ÙĦØ¬ÙĪØ§ÙĩØ±":10293,"ĠÙĪØ£Ø´ÙĩØ¯":10294,"ĠÙĪØ£Ø¹Ø·":10295,"ĠÙĪØ¬ÙĩÙĦ":10296,"ĠÙĪÙĬÙħ":10297,"ĠØ£Ø®ÙĪØ§Øª":10298,"ĠØ§ÙĦØµÙĦÙĪØ§Øª":10299,"ĠÙĬØªØº":10300,"ĠÙĬØŃÙĦÙĤ":10301,"ĠØ§ÙĦØ®Ø¨Ø±Ø©":10302,"ĠØ§ÙĦØ®Ø§ÙħØ³Ø©":10303,"ÙĪØ¯Ø§":10304,"Ø³ÙħØ¹Ùĩ":10305,"ĠÙĪØ¹ÙħØ±Ø©":10306,"ÙĪÙĩÙĥØ°Ø§":10307,"ÙģØ§Ø³Øª":10308,"Ø¬Ø±ØŃ":10309,"ĠÙĬÙĨÙĤÙĦØ¨":10310,"Ø¶Ø§ÙĩØ§":10311,"ÙĪØ¶ØŃ":10312,"ĠØ§ÙĦØºÙĦØ·":10313,"ĠØ§ÙĦØºØ²ÙĪ":10314,"ĠÙĪÙĨØ¯Ø¨":10315,"ĠÙĪÙħÙĤØ§Ø¨ÙĦÙĩ":10316,"ÙĪÙģØ§Ø±ÙĤ":10317,"ĠØ¨ÙħØ¯Ø©":10318,"ĠØ¨ÙħØµØ±":10319,"ĠÙħØ³ØŃÙĩ":10320,"ĠØ£Ø¹Ø³Ø±":10321,"ĠÙģØªÙĦÙģ":10322,"ĠÙģØªØ¹ÙĬÙĨ":10323,"ĠÙģØªØ¨Ø·ÙĦ":10324,"Ø·Ø¹ÙħÙĩ":10325,"ĠÙĪÙĦØ¯ÙĬ":10326,"ĠØ§ÙĦÙħØ¯Ø§Ø±":10327,"ĠØ§ÙĦÙħØŃØ±ÙħØ©":10328,"ÙħØªØ¹Ø©":10329,"ĠØ§ÙĦÙĬØ§Ø¡":10330,"ĠØ§ÙĦÙĬØ£Ø³":10331,"ĠØ¨Ø§ÙĦÙĨØ§Ø³":10332,"Ø¬Ø²Ø©":10333,"ĠÙĪØ³Ø¹Ùĩ":10334,"ÙĤØ¨ÙĦØ©":10335,"ĠØ¨ØªØ³ÙĦÙĬÙħ":10336,"ĠØ¢ÙĦÙĩ":10337,"ĠÙģØ³Ø£ÙĦ":10338,"ĠÙĪØ¨Ø£ÙĨ":10339,"ĠØ§Ø¹ØªÙĤØ§Ø¯":10340,"ĠØ¨ÙĤÙĬÙħØªÙĩØ§":10341,"ĠØ§Ø®ØªÙĬØ§Ø±Ùĩ":10342,"Ø³Ø§Ø·":10343,"ÙĪÙĦÙĬÙĬÙĨ":10344,"Ø¨ØŃØ«":10345,"ĠØŃØ¬Ø±Ùĩ":10346,"ĠÙģØ±ÙĪØ¹":10347,"ĠÙĦÙĨÙĤØµ":10348,"ĠÙģØ§ÙĦØ®":10349,"ĠØ£ÙĦÙģØ§Ø¸":10350,"Ø±Ø³Ø©":10351,"ĠØ£ÙħØ±ÙĬÙĨ":10352,"ĠØ¨Ø§ÙĦØŃØ±Ùħ":10353,"ĠÙĦÙĦØ¹ÙĤØ¯":10354,"ĠØ§ØªØ®Ø°":10355,"ĠØ¨Ø§ÙĦØ¥ÙĤØ±Ø§Ø±":10356,"ĠØ¬Ø²ÙĬØ©":10357,"ĠÙĪØ§ÙĦØ¨ÙĤØ±":10358,"ĠÙĪØ±ÙģØ¹":10359,"ĠÙĪØ²Ø¹Ùħ":10360,"ĠØ§ÙĦÙħØªÙĨØ¬Ø³":10361,"ĠØ£ÙĥÙĦØª":10362,"ĠØ£ÙĥÙĦÙĩØ§":10363,"ĠØªÙģÙĪØª":10364,"ĠØ¨Ø«ÙĪØ¨":10365,"ĠØ¨ÙħØ¹ÙĨØ§Ùĩ":10366,"ĠØ¨ØµØ±Ùĩ":10367,"ĠØ§ÙĨØªØ¸Ø±":10368,"ĠÙħØªØ¹ÙĦÙĤØ§":10369,"Ø§Ø¸Ùħ":10370,"ĠØ£Ø·ÙĦÙĤÙĩ":10371,"ĠØ§ÙĦØ£Ø³ÙĬØ±":10372,"ĠØ§ÙĦØ¨Ø±Ø¡":10373,"ĠØ§ÙĦØ¹Ø¨Ø§Ø¯Ø§Øª":10374,"Ø£Ø¬ÙĬÙĦ":10375,"ĠØ§ÙĦØŃØ§Ø±Ø«ÙĬ":10376,"ĠØ¨Ø§Ø¦ÙĨØ©":10377,"ĠØ§ÙĦÙħØ¬ÙħÙĪØ¹Ø©":10378,"ĠØ§ÙĦÙħÙĪØ§ÙĤ":10379,"ĠØ§ÙĦÙħÙĪØ§ÙģÙĤ":10380,"ĠÙĦÙĦØ§ØŃØª":10381,"ĠÙĦØ±Ø¨ÙĩØ§":10382,"ĠØ§ÙĦÙģØ§Ø³ÙĤ":10383,"ĠØ§ÙĦÙģØ§Ø³Ø¯Ø©":10384,"ĠØ§ÙĦÙħÙĤØ¯Ø§Ø±":10385,"ĠØ§ÙĦØ£ÙĬØ³Ø±":10386,"ĠÙĪØ³ØªÙĬÙĨ":10387,"ĠÙģØ§ÙĦÙĪØ¬Ùĩ":10388,"ĠÙĪÙĤØ§Øµ":10389,"ĠÙĨÙĤÙĦÙĩØ§":10390,"ĠÙħØ¶Ø·":10391,"ĠØµÙĨØ¹Ø©":10392,"ĠØºØ²ÙĪØ©":10393,"ĠØ§ÙĦØ¥ØŃØµØ§ÙĨ":10394,"ĠÙĪØ§ÙĦÙĩØ¨Ø©":10395,"ĠØ§ÙĦØ¨ÙĩØ¬Ø©":10396,"ĠÙģÙĪØ¬ÙĩØ§ÙĨ":10397,"ĠØ¨Ø§ÙĦÙĤØ±Ø¹Ø©":10398,"ĠØ§ÙĦÙħØªØ¹ÙĦÙĤØ©":10399,"ĠÙħØ§Ø´ÙĬØ§":10400,"ĠØ§ÙĦØ³ÙģÙĬÙĨØ©":10401,"ĠØ¯ÙģÙĨÙĩ":10402,"ĠÙħØ¹Ø±ÙĪÙģØ§":10403,"ĠÙĪØ§ÙħØ±Ø£ØªÙĬÙĨ":10404,"ĠØ§ÙħØ±Ø¦":10405,"Ø§ÙģÙĩ":10406,"ÙĬØ¦":10407,"ÙĬÙĥÙĪÙĨ":10408,"Ø±Ø§ÙĨ":10409,"Ø¨ØºÙĬØ±":10410,"ĠÙĪØ°ÙĩØ¨":10411,"ĠÙĪÙħØ±Ø©":10412,"ĠØ£ÙģØ¹":10413,"ĠØ£Ø¨Ø±":10414,"ĠØ£Ø·Ø¹Ùħ":10415,"ÙĤØ±Ø§Ø¶":10416,"ĠÙħÙĪ":10417,"ĠÙħØµØŃÙģ":10418,"ĠØ¨ÙĥÙħ":10419,"ĠÙģØ§Ø¬":10420,"ĠØ¹ØªÙĬ":10421,"ĠØ¹ÙħÙĬ":10422,"ĠØ¹Ø°Ø±Ùĩ":10423,"Ø³ÙĨØ©":10424,"Ø³Ø§Ø±Ùĩ":10425,"ĠÙĬÙĤØ¯":10426,"ĠÙĬØ·ÙĦ":10427,"ĠÙĬØ¨ÙĬØª":10428,"ØŃØ§Ùħ":10429,"ØŃÙĥØ§Ùħ":10430,"ĠÙĤÙħ":10431,"ĠÙĤÙĦÙħ":10432,"ØµØ±Ùĩ":10433,"ĠÙģÙĬØµØ¯ÙĤ":10434,"ĠÙģÙĬØ´ØªØ±Ø·":10435,"ĠÙĥÙĥ":10436,"ĠÙĥÙĨØ§ÙĨ":10437,"ĠØ§ÙĦÙħÙĪØ¬":10438,"ĠØ§ÙĦÙħØ±Ø¯":10439,"ĠØ§ÙĦÙħÙĩÙħØ§Øª":10440,"ĠØ¥Ø¨ÙĦ":10441,"ÙĦÙĪÙĦÙĩ":10442,"ĠØŃÙĪ":10443,"ĠØŃØ±ÙĬ":10444,"ĠØŃÙħØ§Ùħ":10445,"ĠØ§ÙĦØ±Ø¶":10446,"ÙĪÙĦÙĩÙħ":10447,"Ø²ÙĬÙĨ":10448,"ĠØ±ÙĤÙĩ":10449,"ĠÙĨÙħØ§Ø¡":10450,"ĠÙĦÙħÙĦÙĥ":10451,"ĠÙĦÙħØŃÙĦ":10452,"ÙĨØ§Ùĥ":10453,"ĠØ³ÙĬÙģ":10454,"ĠÙħØ§ÙĦÙĬØ©":10455,"ĠØ§ÙĦØ£Ø¬Ø²Ø§Ø¡":10456,"ĠØ§ÙĦØ£ØŃØ§Ø¯ÙĬØ«":10457,"ĠØµÙģØ±":10458,"ĠØµÙĪÙģ":10459,"ĠØ¨ÙĨØ§Ø¦Ùĩ":10460,"ĠØ¬ØŃØ´":10461,"Ø§Ø¨Ø³":10462,"ĠØ§ÙĦØ¹Ø¸Ùħ":10463,"ĠØ§ÙĦØ¹Ø±Ø¨ÙĬ":10464,"ĠØ§ÙĦØŃØ´ÙģØ©":10465,"ĠÙĪØ§ÙģÙĤÙĩ":10466,"Ø§Ø¦Øª":10467,"Ø§Ø¦ØŃ":10468,"Ø§Ø¦ÙĨØ§":10469,"ĠØ§ÙĦÙĪØµ":10470,"ØºÙĬ":10471,"ĠØ§ÙĦØªØ·":10472,"Ø¨Ø±Ø¦ÙĩØ§":10473,"ĠÙĪÙĦØ§Ø¯ØªÙĩ":10474,"ĠØ§ÙĦÙĨÙģ":10475,"ÙĪÙĬØ¸ÙĩØ±":10476,"ÙĪÙĬÙĤØ¨ÙĦ":10477,"ĠØ§ÙĦØ¬ÙĦØ§ÙĦ":10478,"ĠÙĪØ£ØµÙĦ":10479,"ĠØ·Ø§ÙĩØ±Ø§":10480,"ĠØ§ÙĦØ³Ø§Ø¦Ø¨":10481,"ĠÙĪÙĬØ¶Ø±Ø¨":10482,"ĠÙĪÙĬØ²ÙĬØ¯":10483,"ĠÙĪÙĬØºØ±Ùħ":10484,"ÙģØ³ÙĩÙħ":10485,"ĠÙĦÙĬØ±Ø¬Ø¹":10486,"ØµØŃÙĬØŃ":10487,"ĠÙĬØªÙĦÙģ":10488,"ĠÙĬØªÙĬÙħ":10489,"ĠÙĬØªØ¶Ø±Ø±":10490,"ĠØ§ÙĦØ®ÙĨØ²ÙĬØ±":10491,"ĠÙĬØ¹Ø¬":10492,"Ø³ÙħÙĬ":10493,"ĠØ§ÙĦØ«Ø¨ÙĪØª":10494,"ĠØ§ÙĦØ¯ÙĪØ±":10495,"ĠÙĪØ¹Ùħ":10496,"Ø¬Ø±Ø§Ø¡":10497,"ĠØ§ÙĦØ±Ø£ÙĬ":10498,"ÙĪØ£Ø¨ÙĬ":10499,"ĠÙĪÙĤØµØ¯":10500,"ĠØ¸ÙĩØ±Ø§":10501,"ĠØ¸Ø§ÙĨØ§":10502,"ĠØ§ÙĦØºÙĨÙĬ":10503,"ĠÙĬØ¯Ø®":10504,"ĠÙģØ§ØŃØª":10505,"ĠÙĪÙħØ¬":10506,"ĠÙĪÙħÙĤØªØ¶Ùī":10507,"Ø±ØŃÙħ":10508,"ĠÙĪØ§ÙĦÙħÙĥØ§ØªØ¨":10509,"ĠÙħØ³Ùĩ":10510,"ĠØŃÙĬØ§ÙĨ":10511,"ĠÙĬØ£ÙĥÙĦÙĩ":10512,"ĠØ§ÙĦÙħØ³Ùĥ":10513,"ĠØ£Ø¨ÙĪØ§Ø¨":10514,"ĠÙħØ±Ø³ÙĦ":10515,"ÙĪØ¥ÙĨÙĩ":10516,"Ø¬Ø¨Ø§Ø±":10517,"ĠØ§ÙĦÙħØ¹Ø¯Ø©":10518,"ĠÙĪØµØ¨ÙĬ":10519,"ĠÙĬØµÙĦÙī":10520,"ĠÙĪØ³Ø¯Ø³":10521,"ĠÙĦÙĤÙĪÙħ":10522,"Ø§ÙĦØ¨ÙĬØ¹":10523,"ÙĪØ§ÙĦØ±":10524,"ĠÙģØ³ÙĤÙĩ":10525,"ĠÙĪØ¨ØŃØ«":10526,"ĠØ§ÙĦØ¶Ø¹ÙĬÙģ":10527,"ĠØ§ÙĦÙħÙĨÙĬØ©":10528,"ĠÙģÙĥØ£ÙĨ":10529,"ĠØ¨ÙĤÙĦØ¨Ùĩ":10530,"ĠØ¨Ø·ÙĨÙĩ":10531,"ĠØ§ÙĦØ¢Ø®Ø°":10532,"ĠØ§ÙĦØ¢Ø®Ø±ÙĬÙĨ":10533,"ÙĥÙħØ§ÙĦ":10534,"ĠÙĦÙĦØ£ÙħØ±":10535,"ĠØªÙĤÙħ":10536,"ĠØ§ÙĦØ¸Ø±Ùģ":10537,"ĠØŃØµÙĪÙĦÙĩ":10538,"ĠØ§ÙĦØ§Ø³ØªØº":10539,"ĠØ§ÙĦØ§Ø³ØªÙĬÙģØ§Ø¡":10540,"ĠØ§ÙĦØ§Ø³ØªÙĨØ¬Ø§Ø¡":10541,"ĠÙħØ´Ø§Ø¹Ø§":10542,"ĠÙħØ¤ÙĨ":10543,"ĠØªÙħØ±Ø§":10544,"ĠÙĬØ±Ø¯ÙĩØ§":10545,"ĠØ¨Ø±ÙģØ¹":10546,"ĠÙĥØªØ§Ø¨Ø§":10547,"ĠÙĪØ¯Ø±ÙĩÙħ":10548,"ĠØ§ÙĦØ«ÙĦØ«Ø§ÙĨ":10549,"ĠØ£Ø³ÙĦÙħØ§":10550,"ĠØµÙĦØ§ØªÙĩØ§":10551,"ĠÙħØ§Ø¦ØªÙĬ":10552,"ĠØ¯Ø¹ÙĪØªÙĩ":10553,"ĠØŃÙĥÙī":10554,"ĠØªÙģÙĪÙĬØª":10555,"ĠÙĥØ³ÙĪØ©":10556,"ĠÙĦØºØ§":10557,"ĠØªÙĥÙĦÙģ":10558,"ĠÙĥØ§Ø°Ø¨Ø§":10559,"ĠØ¬ÙħØ¹Ø§":10560,"ĠÙĦÙĦØ´Ø§Ø±ØŃ":10561,"ĠØ³ÙħØ¹ØªÙĩ":10562,"ĠØ§ÙĦØ±ÙĥÙĪØ¨":10563,"ÙĨØ²Ø§ÙĦ":10564,"ĠØ§ÙĦÙĤØ¯ÙĪØ©":10565,"ĠØ¨Ø§ÙĦØºØ³ÙĦ":10566,"ĠÙģØ§ÙĦØ£ÙĪÙĦÙī":10567,"ĠØ§Ø±ØªÙģØ¹":10568,"ĠÙĪØ£ÙħØ±Ùĩ":10569,"ĠØŃÙħØ§Ø±":10570,"Ø§ÙĪÙĬÙĩ":10571,"ĠØªØ±ÙģØ¹":10572,"ĠØ±Ø£ÙĬÙĬ":10573,"ĠØ§ÙĦØ±ÙĪØ§ÙĬØ§Øª":10574,"ĠØ§ÙĦØ±ÙĪØ§ÙĬØªÙĬÙĨ":10575,"ĠØ¥Ø¹Ø§Ø±Ø©":10576,"ĠÙĥØ§ÙĦØŃØ±":10577,"ĠÙĨØµØ±Ø§ÙĨÙĬ":10578,"ĠÙĦÙĦØ¶Ø±Ø±":10579,"ĠØ¨ØµØŃØªÙĩ":10580,"ĠØ¶ÙħÙĨØ§":10581,"ĠØ§ÙĥØªØ±Ùī":10582,"ĠÙĬÙĦØªØ²Ùħ":10583,"ĠØŃØ¸Ùĩ":10584,"ĠØ§ÙĦÙĤØªÙĬÙĦ":10585,"ĠÙħÙĤØµÙĪØ¯Ùĩ":10586,"ĠÙĬØ±Ø¬Ùī":10587,"ĠØ§ÙĦØ¥ÙĤÙĨØ§Ø¹":10588,"ĠÙĬÙĥØªÙģÙī":10589,"ĠØ§ÙĦØ±Ø¨Ø§":10590,"ĠØ§ÙĦÙħÙĪØ¶ØŃØ©":10591,"ĠÙĦØ¸ÙĩÙĪØ±":10592,"ĠØ§ÙĦÙħÙĤØ§ØµØ©":10593,"ĠÙħÙģØ³Ø¯Ø©":10594,"ĠÙĪØ£Ø´ÙĩØ¨":10595,"ĠØ§ÙĦØ¨ØµØ±ÙĬ":10596,"ĠØ§ÙĦÙħØ®ØªØµØ±":10597,"ĠØ£ÙĪØ¬Ø¨Ùĩ":10598,"ĠÙģÙĤØ§ÙĦÙĪØ§":10599,"ĠØ·ÙĪÙĬÙĦØ©":10600,"ĠÙģØ£Ø®Ø¨Ø±Ùĩ":10601,"ĠØ§ÙĦØ¹ÙĬÙĪØ¨":10602,"ĠØ§ÙĦØ®Ø²Ø±Ø¬":10603,"ĠÙĨØ§ØŃÙĬØ©":10604,"ÙĦÙĦØ£":10605,"Ø§ÙĪØ±":10606,"Ø§ÙĦÙĩÙħ":10607,"ÙĨØµÙģ":10608,"ÙĬØŃØ§":10609,"ÙĪÙħØ±":10610,"ÙĪÙĪÙĦØ¯":10611,"Ø¨Ø£ÙĨÙĩ":10612,"Ø¯ÙĪ":10613,"Ø¹ÙĪØ§":10614,"Ø¹Ø¯Ùĩ":10615,"ĠÙĪÙĨÙĩ":10616,"ĠÙĪÙĦÙĤ":10617,"ĠÙĪØ¨Øª":10618,"ĠÙĪÙģØ¹ÙĦ":10619,"ĠÙĪØ±Ø¬ÙĦ":10620,"ĠÙĪØ¶ÙħÙĨ":10621,"ĠÙĪÙģØ§ÙĤØ§":10622,"ĠØ£ÙĩÙħ":10623,"ĠØ£Ø³Ø¨":10624,"ĠØ£Ø³ÙĨ":10625,"ĠØ£Ø¦ÙħØ©":10626,"ĠØ£ÙĩØ¯Ùī":10627,"ÙĤÙĪÙģ":10628,"ĠÙħÙĩØ±Ø§":10629,"ĠÙħÙĩØ§ÙĬØ£Ø©":10630,"ĠØ¨ÙģØ±":10631,"ĠØ¨Ø¬ÙĩØ©":10632,"ĠÙģÙģ":10633,"ĠØ¹ÙģÙĬ":10634,"ĠØ¹Ø§Ø¬":10635,"ĠØ¹Ø±ÙĤ":10636,"ÙģØ£ÙĨ":10637,"ÙģÙĦØ°ÙĦÙĥ":10638,"Ø³ÙĪÙģ":10639,"ĠÙĬØ±Ùħ":10640,"ĠÙĬÙĦØº":10641,"ĠÙĬØ±ÙħÙĬ":10642,"ĠÙĤÙĪØªÙĩ":10643,"ÙĦÙĬÙħØ©":10644,"ĠØ§ÙĦÙħÙĤØ·ÙĪØ¹":10645,"ĠØ§ÙĦÙħØ³Ø¨ÙĪÙĤ":10646,"Ø¶Ø¯":10647,"ĠØ¥ØŃÙĬØ§Ø¡":10648,"ĠØ¥Ø¬Ø§Ø±ØªÙĩ":10649,"ĠÙħÙĨÙģØµ":10650,"ĠØªÙħØ³":10651,"ĠØªÙĨØª":10652,"ĠØªÙħØªØ¹":10653,"ĠØªÙĨÙģØ°":10654,"ĠØªÙĪØ¬ÙĬÙĩ":10655,"ÙĦÙĪÙĨÙĩ":10656,"ĠØŃØ¶":10657,"ĠØŃÙħØ¯":10658,"ĠØŃÙĥØ§Ùĩ":10659,"Ø§ÙĦØ¸Ø§ÙĩØ±":10660,"ĠØ±Ø§":10661,"ĠØ±Ø¯ÙĬ":10662,"ĠØ±Ø³Ùħ":10663,"ĠØ±ÙĪØ¶":10664,"ĠØ±Ø§ØŃ":10665,"ĠÙĨØ´":10666,"ĠÙĨØ£Ø®Ø°":10667,"ĠØ³ÙĪØ¡":10668,"ĠØ³Ø·ØŃ":10669,"ĠØ§ÙĦØ£Ùĥ":10670,"ĠØ§ÙĦØ£Ø°Ùī":10671,"ĠØ§ÙĦØ£Ø³Ø¨Ø§Ø¨":10672,"ĠØ§ÙĦØ£Ø±ØŃØ§Ùħ":10673,"ĠØ£ÙĬÙħØ§ÙĨ":10674,"ĠØ°Ø¦Ø¨":10675,"ĠØµØ¨Ø±":10676,"ĠØµÙģØ§Øª":10677,"ĠØµÙĦÙĬØª":10678,"Ø±Ø§ÙĤØ©":10679,"ĠØ§ÙĦØŃØ¶":10680,"ĠØ§ÙĦØŃØ¶Ø±":10681,"ØŃØ¯Ùī":10682,"ÙĪØ§ÙģÙĦ":10683,"ÙĪØ§Ø®ØªØ§Ø±":10684,"ÙĪØ§Ø®ØªØ§Ø±Ùĩ":10685,"ĠÙħØ¹ÙĨØ§ÙĩØ§":10686,"ĠÙħÙĨÙĩØ¬":10687,"ĠÙĦØ£Ø®ÙĬÙĩ":10688,"ĠØ§ÙĦØªØ±Ø¯Ø¯":10689,"ĠÙĪØ§ÙĦØ¢":10690,"ĠÙĪØ§ÙĦØ²ÙĪØ¬Ø©":10691,"ĠØ§ÙĦØ¥Ø«Ø¨Ø§Øª":10692,"ĠØ¨Ø§Øª":10693,"ÙĪÙĬÙĦØ²ÙħÙĩ":10694,"ÙĪÙĬÙģØ±ÙĤ":10695,"ĠØ²Ø§ÙĨ":10696,"ĠØ¨Ø¹Ø¯Ø¯":10697,"ĠÙĪØ£ÙĪÙĦØ§":10698,"ĠØ§ÙĦØ³ÙħØ¹":10699,"Ø±ÙģØ¶":10700,"ĠØ£Ø®ÙħØ§Ø³":10701,"ĠÙĦÙĦØ¸":10702,"ĠØ§ÙĦØµÙĪØª":10703,"ĠÙĬØªÙĪÙĦÙī":10704,"ĠÙĬØªØ¹Ø¯Ùī":10705,"ĠØ§ÙĦÙĥØ§ØªØ¨":10706,"ĠØºØ§Øµ":10707,"ĠØ§ÙĦØ¯ÙĩØ±":10708,"ĠØ§ÙĦØ¯ÙģÙĨ":10709,"ĠØ§ÙĦØ¯Ø§Ø®ÙĦ":10710,"ĠÙĪØ¹ÙħÙĦ":10711,"ÙģØ§Ø¹Ùĩ":10712,"ĠÙĬÙĨØ³":10713,"ÙĬØªØ©":10714,"ĠØ±Ø¬Ø§Ø¡":10715,"ĠØ±Ø¬ÙĪØ¹Ø§":10716,"ĠØ§ÙĦØ°ÙĨØ¨":10717,"Ø®ØªÙĬÙĨ":10718,"ĠØ£ÙħØ±ÙĩÙħ":10719,"ĠØ£ÙħØ«ÙĦØ©":10720,"Ø¯Ø§Ø¯Ùĩ":10721,"ĠØ§ÙĦØ±Øº":10722,"Ø¨Ø¹ÙĩØ§":10723,"ĠÙĪØªØ±":10724,"ĠØ§ÙĦØºÙĨ":10725,"ĠØ§ÙĦØºØ±Ùħ":10726,"ĠØªØ¹Ø¬ÙĬØ²":10727,"ĠÙģØ£ÙħØ±Ùĩ":10728,"ØµØ¯ÙĤØª":10729,"ĠÙģØ§Ø¶Ø±Ø¨":10730,"ĠÙĪÙħÙħØ§":10731,"ĠØ£ØŃØ¶Ø±":10732,"ĠØ£ØŃØ¶Ø±Ùĩ":10733,"Ø±Ø¯Ø¨":10734,"ĠÙĦÙĬØ³ÙĪØ§":10735,"ĠÙĪØ§ÙĦÙħØ¯":10736,"ĠØ°ÙĥØ±ÙĪØ§":10737,"ĠØ°ÙĥØ±ÙĪÙĩ":10738,"ĠØ§ÙĦÙħØªÙĪØ³Ø·":10739,"ĠØ£Ø¹Ø±Ø¶":10740,"ĠØ£Ø¹Ø±Ùģ":10741,"ĠÙħÙĦÙĥÙĩÙħ":10742,"ÙĪÙģÙĬØ§":10743,"ĠÙĬØ³Ø¹Ùĩ":10744,"ĠÙĦØ¹ÙĦØ©":10745,"ĠØ£ØµØ¨":10746,"ÙĪØµØ±ØŃ":10747,"ĠØ¨Ø¥ØŃ":10748,"ĠØ¨Ø¥Ø³ÙĨØ§Ø¯Ùĩ":10749,"ĠÙĪÙħØ§Ø¦Ø©":10750,"ĠÙĦØŃÙĬØªÙĩ":10751,"ĠÙĦØªØ±Ùĥ":10752,"ĠÙĦØªØŃÙĤÙĤ":10753,"ĠØ§Ø´ØªØ¨Ùĩ":10754,"ĠØ§Ø´ØªØºÙĦ":10755,"ĠØ¨ÙĦØ§ÙĦ":10756,"ĠØ§ÙĦÙĩØ¬Ø±Ø©":10757,"ĠÙĬØ´Ø§Ø±Ùĥ":10758,"ĠØ£ÙĤÙģ":10759,"Ø±Ø§Ø¬Ø¹Ø©":10760,"ĠØ¨Ø§ÙĦØ£ÙħØ±":10761,"ĠØ§ÙĦÙħØ¬Ø¨Ø±":10762,"ÙĪØ§ÙĦÙħØ³Øª":10763,"ÙĪØ§ÙĦÙħØ¹ØªÙħØ¯":10764,"ĠÙĦÙĨÙģÙĬ":10765,"ĠØ§ÙĦØ¸ÙĩÙĬØ±ÙĬØ©":10766,"ĠÙģØ§ÙĦØ´":10767,"ĠÙĩÙĬØ¦Ø©":10768,"ÙĦØ§ÙĨÙĬØ©":10769,"ĠÙĬØŃØªØ³Ø¨":10770,"ĠÙĬØŃØªÙħÙĦÙĩ":10771,"ĠÙĬØ·ÙĪÙĦ":10772,"ĠØ±Ø¨Ø·":10773,"ĠØ¹ÙĤØ¯Ø§":10774,"ĠØ¹ÙĤØ¯Ø©":10775,"ĠÙĥÙģØ¡":10776,"ĠÙĪØ«ÙħÙĨ":10777,"Ø£ÙħÙĪÙħ":10778,"ĠØ£Ø±Ø¶Ø¹Øª":10779,"ĠÙĪØ¯ÙĬÙĨ":10780,"ĠÙĦÙĦÙĪØ¬ÙĪØ¨":10781,"ĠØ®Ø·Ùĩ":10782,"ĠÙĨÙĤØµÙĩØ§":10783,"ĠØ§ÙĦØªØ¹Ø¬ÙĬÙĦ":10784,"ĠÙĪØ§ÙĦØ³ÙĨØ©":10785,"ÙĪØ«ÙĦØ«":10786,"ĠÙĦÙĦØªØ¬Ø§Ø±Ø©":10787,"ĠØªÙĥÙĦÙĬÙģ":10788,"ĠÙĦØ¬ÙĩØ©":10789,"ĠØ¨Ø§ÙĦÙĪÙĦØ§Ø¡":10790,"ĠØ¯Ø§Ø®ÙĦØ©":10791,"Ø³ØªØŃØ¨Ø§Ø¨":10792,"ĠØ§ÙĦØ£Ø¬ÙĨØ¨ÙĬØ©":10793,"ĠØ§ÙĦØ£Ø®Ø¨Ø§Ø±":10794,"ĠÙģÙĨÙĤÙĪÙĦ":10795,"ĠØ¨Ø²ÙħÙĨ":10796,"ĠØ¨Ø§ÙĦØ¯ÙģØ¹":10797,"ĠØ§ÙĦØ£Ø´Ø¬Ø§Ø±":10798,"ĠØ§Ø¨ÙĨÙĩØ§":10799,"ĠØ¹ÙĤÙĦØ§":10800,"ĠØªØ¬Ø±ÙĬ":10801,"ĠÙģØ¯ÙģØ¹":10802,"ĠÙĬØªÙħÙĦÙĥ":10803,"ĠØ§ÙĦØµØ¯ÙĤ":10804,"ĠØ§ÙĦØµØ¯ÙĤØ§Øª":10805,"ĠÙģÙħØ§ØªØª":10806,"ĠÙģØ·ÙĦØ¨":10807,"ĠÙħØ³ØªØŃÙĤÙĩ":10808,"ĠØ¨ØµØŃÙĬØŃ":10809,"ĠÙĦØ°Ø©":10810,"ĠÙĬØ´ØªØºÙĦ":10811,"ĠÙģØ¶ÙĦØ§":10812,"ĠØ§ÙĦÙħØ¨Ø§Ø´Ø±Ø©":10813,"ĠÙĨÙģØ¹Ø§":10814,"ĠÙĪØ³ØªÙĪÙĨ":10815,"ĠØ¨Ø¥Ø³ÙĤØ§Ø·":10816,"ĠØ¨Ø§ÙĤÙĬØ§":10817,"ĠÙģØ±Ø§ØºÙĩ":10818,"ĠÙħØ¨Ø§ØŃØ§":10819,"ĠØ£ÙĥØ«Ø±ÙĩÙħ":10820,"ĠØ±Ø§ÙĥØ¨Ø§":10821,"ĠØªØ¹ÙĬÙĬÙĨÙĩ":10822,"ĠÙħÙĦÙĬØ¡":10823,"ĠÙĦÙĪØ§Ø±Ø«Ùĩ":10824,"ĠØ§ÙĦØ¬ÙĪÙĩØ±ÙĬ":10825,"ĠØ¬Ø§ÙĦØ³Ø§":10826,"ÙĥØ§ØªØ¨Ùĩ":10827,"ĠÙħÙĥØ±ÙĩØ©":10828,"ĠØ£Ø¹Ø§Ø¯Ùĩ":10829,"ĠØ¨ØŃÙĬØ¶Ø©":10830,"ĠØ£Ø°ÙĨÙĬÙĩ":10831,"Ø±Øµ":10832,"Ø±Ø§Ø´":10833,"ĠØ§Ø¬ØªÙĩØ§Ø¯Ùĩ":10834,"ĠÙĪØ¯ÙĬ":10835,"ĠÙĪØ§Ø¨Øª":10836,"ĠÙĪÙĦØµ":10837,"ĠØ£ÙĤØ§":10838,"ĠØ£ÙĤØµÙī":10839,"ĠÙħØµØ±Ùģ":10840,"ĠÙħÙĥØ³":10841,"ĠÙħÙĤØ§Øª":10842,"ĠÙħÙĦØ¡":10843,"ĠØ¨Ø±Ø¨":10844,"ĠØ¨Ø¯Ùħ":10845,"ĠØ¨ØµÙģ":10846,"ĠØ¨Ø±Ø£Ø³Ùĩ":10847,"ĠÙģÙĦÙĤ":10848,"ĠÙģØ±Ø§":10849,"ĠÙģØºÙĬØ±":10850,"ĠÙģÙĤØ±":10851,"ĠÙģØ¸ÙĨ":10852,"ĠØ¹ÙĬØ¨Ùĩ":10853,"ÙģÙĬØ©":10854,"ÙģØªÙĬ":10855,"ÙģØ¯ÙĦ":10856,"ĠÙĬØ³Ø¨":10857,"Ø¬ÙĬÙĨ":10858,"Ø£Ø±Ùī":10859,"Ø°ÙĪØ±Ø©":10860,"ĠØ§ÙĦÙħÙĥ":10861,"ĠØ§ÙĦÙħØ±Ùģ":10862,"Ø¶ØŃØ©":10863,"ĠØ¥Ø±Ø§Ø¯":10864,"ĠØ¥Ø¬Ø§Ø¨":10865,"ĠØ¥Ø¹Ø§Ø¯ØªÙĩ":10866,"ĠØªØ´Øª":10867,"ĠØªØ¶Ø¹":10868,"ĠØªØ´ØªØ±Ø·":10869,"ĠØªØ¨Ø±Ø£":10870,"ĠØŃØ´":10871,"ĠØ£ÙĪØ¯":10872,"Ø¥ÙĨÙĬ":10873,"ĠÙĨØ§Ø¯":10874,"ĠÙĦÙħÙĥØ§ÙĨ":10875,"ĠØ³Ø±Ùī":10876,"ĠÙħØ§Ø¶":10877,"ØªÙĩØ¯Ø§":10878,"ĠØµØ¨":10879,"ĠØµØ¨Ø±Ø©":10880,"ĠØµÙĦÙĪØ§Øª":10881,"ĠØ¬Ø¦Øª":10882,"Ø§Ø¨ÙĦØ©":10883,"ĠØ§ÙĦØ¹Ø±Ø§ÙĤ":10884,"ĠØ§ÙĦØŃÙĦÙĬ":10885,"ĠØ§ÙĦØŃÙħØ§Ø±":10886,"ĠØ®Ø¯ÙĬ":10887,"Ø±ÙĬÙħØ©":10888,"ĠÙĪØ§ÙĤØªØµØ±":10889,"ÙĪØ¬Ø¹":10890,"ĠØ§ÙĦÙĪØ¬ÙĪØ¯":10891,"ĠÙĦØ£ÙħØªÙĩ":10892,"ĠØ§ÙĦØªÙĪÙĦÙĬØ©":10893,"ĠØ§ÙĦØªÙĥØ±Ø§Ø±":10894,"ĠØ¨Ø§ÙĦØ²ÙĪØ¬":10895,"ĠØ§ÙĦØ¥ØµØ§Ø¨Ø©":10896,"ÙĪÙħØŃÙĦÙĩ":10897,"ÙĪÙĬÙĤ":10898,"Ø¨Ø§ÙĦÙħ":10899,"Ø¨Ø§ÙĬÙĨ":10900,"ĠØ§ÙĦØ³ÙħÙĥ":10901,"ĠØ§ÙĦØ³Ø§Ø¯Ø³":10902,"ĠÙĪÙĬØªÙħ":10903,"Ø¹Ø§Ùģ":10904,"ĠØ£Ø®ÙĪ":10905,"ĠÙĦÙĬØ´ÙħÙĦ":10906,"ĠØ§ÙĦÙģØ³ÙĤ":10907,"ĠÙĬØ¹Ø¬ÙĦ":10908,"ĠØ´ÙĬØ¨Ø§ÙĨ":10909,"ĠØ§ÙĦØ¯Ø¨Ø±":10910,"ĠØ§ÙĦØ¯ÙĪØ§Ø¨":10911,"ĠØ§ÙĦØ¯Ø±Ø¬Ø©":10912,"ÙĪÙĥÙĬÙģ":10913,"ĠØ£ÙħØª":10914,"ĠØ§ÙĦØ²Ø§ÙĨÙĬ":10915,"ĠØ§ÙĦØ²Ø±Ø§Ø¹Ø©":10916,"ĠÙĪØªÙĤ":10917,"ĠÙĪØªØ§Ø±Ø©":10918,"ÙĪØ£ÙĨØ§":10919,"ĠØ§ÙĦØ§ØµØ·":10920,"ĠÙĦÙĦÙħØ´":10921,"ĠÙģØ£Ø®Ø°Ùĩ":10922,"ĠÙģØ£Ø¨Ùī":10923,"ĠÙĤØ¨Ø¶Ø§":10924,"ÙĦØ¹Øª":10925,"ĠØ§ÙĦØ·Ø¨Ø±Ø§ÙĨÙĬ":10926,"ĠØ£Ø¬ÙĦØ§":10927,"ĠÙĬØ®ÙĦÙģ":10928,"ĠÙģØ¹Ø±Ùģ":10929,"ĠÙĬØ³Ø±ÙĬ":10930,"ĠÙĬØ³ÙĪØº":10931,"ĠØ«ÙĦØ§Ø«ÙħØ§Ø¦Ø©":10932,"Ø´ØªØ±ÙĬÙĩ":10933,"ĠØ§ÙĦÙħØ¹Ø·ÙĪÙģ":10934,"ÙĨØ³ÙĪØ©":10935,"ĠØ§ÙĦÙħØŃÙĥÙĪÙħ":10936,"ĠØ§ÙĦÙĬÙĤÙĬÙĨ":10937,"ĠØ¨Ø§ÙĦÙĨÙģÙĤØ©":10938,"ĠÙĦÙĤØ·Ø©":10939,"ĠÙĬØ³ØªØ·Ø¹":10940,"ÙĪÙħÙĨØ¹":10941,"Ø¹ÙħÙĦØ§":10942,"ĠØ§Ø¹ØªÙħØ§":10943,"ĠØ§Ø¹ØªÙħØ±":10944,"ĠØ§Ø¹ØªÙĥØ§Ùģ":10945,"ĠØ§Ø¹ØªÙĤØ§Ø¯Ùĩ":10946,"ĠØ£Ø³Ø¯Ø§Ø³":10947,"ÙĪØ§ÙĦÙħØ¹ÙĨÙī":10948,"ĠÙģØ§ÙĦØ«":10949,"ĠØ±ÙĥÙĪØ¹Ùĩ":10950,"ĠÙģÙĩÙħÙĩ":10951,"ĠØ£ÙģÙĦØ³":10952,"ĠØªÙĨØ§Ø²Ø¹":10953,"ĠØ³ØªÙĪÙĨ":10954,"ĠÙĪØ§ÙĦØ¹Ø´Ø±ÙĬÙĨ":10955,"ĠØ£ÙĦÙģØ§ÙĨ":10956,"ÙĦÙĪØ§ØŃØ¯":10957,"ĠØ«ÙĦØ«Ø§Ùĩ":10958,"ÙĪØ§ÙĨØ¹":10959,"ĠÙħØ´Ø¯":10960,"ĠÙħØ´Ùĥ":10961,"ĠÙĬÙģØªÙī":10962,"ĠÙħÙĤØ§Ø±":10963,"ĠØ¨Ø¬Ø¹ÙĦ":10964,"ĠØ§Ø³ØªØŃØ¨":10965,"ĠÙĦØ³ÙĬØ¯ÙĩØ§":10966,"ĠØ´Ø±ÙĬÙĥØ§":10967,"ĠØ¯Ø¹Ø§Ø¡":10968,"ĠÙģØŃÙĦÙģ":10969,"Ø§Ø¤ÙĩÙħ":10970,"ĠØ§ÙĦØ®Ø·ÙĬØ¨":10971,"Ø°Ø¨ÙĪØŃ":10972,"ĠØ§ÙĦÙħØ°ÙĥÙĪØ±ÙĬÙĨ":10973,"ĠØ¬Ø§Ø¡Ùĩ":10974,"ĠÙĥØ§ÙĦØ§":10975,"ØªØŃØ§Ø¯":10976,"ØªØŃÙĤÙĤ":10977,"ĠØ¨Ø§ÙĦÙĪÙĦØ¯":10978,"ĠØ¨Ø§ÙĦÙĪØµÙĬØ©":10979,"ĠØ¯ÙĬÙĨÙĩÙħ":10980,"ÙĪØ§ÙģÙĤØ§":10981,"ĠÙĪØ§ÙĦØ¯ÙĦÙĬÙĦ":10982,"ĠØªØ®ÙĦÙĬ":10983,"ĠØ§ÙĦÙĨØ³ÙĬØ§ÙĨ":10984,"ĠÙĪØ§ÙĦØ´Ø±Ø·":10985,"ĠØ¨Ø²ÙĪØ§ÙĦ":10986,"ĠØ¥ØŃØ¯Ø§ÙĩÙĨ":10987,"Ø²Ø§Ø¹Ø©":10988,"ĠØ¹Ø¬Ø²Øª":10989,"ĠØ¹ÙĦÙĤØ©":10990,"ĠÙħÙĤØ¯Ø±Ø©":10991,"ĠØ§ÙĦØ£ØŃØ³ÙĨ":10992,"ĠÙĪÙĬØŃÙĦÙģ":10993,"ĠÙĥØ§ÙĦØ¹Ø¯Ùħ":10994,"ĠÙħÙĪØ¶ØŃØ©":10995,"ĠØ§ÙĦØ¹Ø§ÙĤÙĦ":10996,"ØªØ§ÙĪÙī":10997,"ÙĪÙĪØ¬ÙĩÙĩ":10998,"ĠÙĪØ¨Ø¹Ø¶Ùĩ":10999,"ĠØ£Ø³ÙĤØ·Øª":11000,"ĠØ§ÙĦØªØ²ÙħÙĩ":11001,"ĠÙħÙĤØªØ¶":11002,"ĠØ§ÙħØªÙĨØ§Ø¹Ùĩ":11003,"ĠØ²Ø±Ø¹Ùĩ":11004,"ÙĪØºÙĬØ±ÙĩÙħØ§":11005,"ĠØ§ÙĦØ§ØŃØªØ±Ø§Ø²":11006,"ĠØ¨Ø§Ø·ÙĨØ§":11007,"ĠÙĪÙĦØ£Ø¨ÙĬ":11008,"ĠÙħØªØ¹Ø¯Ø¯Ø©":11009,"ĠØ§ÙĦØªÙĥÙĦÙĬÙģ":11010,"ĠÙģØ£ÙĪÙĦÙī":11011,"ĠÙħØ´ØªØ±ÙĬÙĩ":11012,"ĠÙĤØ¨ÙĬÙĦØ©":11013,"ĠØ¨ÙĨÙĤØµØ§ÙĨ":11014,"ĠÙħØ¬Ø§Ø²Ø§":11015,"ĠØ¥ÙĤØ§ÙħØªÙĩ":11016,"ĠØªÙĥÙħÙĦØ©":11017,"ĠØ´ÙĬÙĪØ®ÙĨØ§":11018,"ĠØ¨ØŃØ¶Ø±ØªÙĩ":11019,"ĠÙħØ±Ø³ÙĦØ§":11020,"ÙĨØ·Ø©":11021,"ÙĬØ¤":11022,"Ø±ÙĪØ§":11023,"Ø±ÙĤØ§":11024,"Ø¨Ø³Ùħ":11025,"ØªÙĪÙģÙĬ":11026,"ØªÙĨØ¨ÙĬ":11027,"ĠÙĪØ±ØŃ":11028,"ĠÙĪÙĪØ¶Ø¹":11029,"ĠÙĪÙģØ¹ÙĦÙĩ":11030,"ĠÙĪØµØ¯ÙĤÙĩ":11031,"ĠØ£Ø¶Ø±":11032,"ĠØ£Ø¯Ø§Ùĩ":11033,"ĠÙħØŃØ¯":11034,"ĠÙħØµÙĦ":11035,"ĠÙħØ³Ø¨":11036,"ĠÙħØµØ¯":11037,"ĠÙħÙĬØ²":11038,"ĠÙħØ±ÙĬÙħ":11039,"ĠÙħØ±Ø¬ØŃ":11040,"ĠÙħØ§Ø´ÙĬØ©":11041,"ĠÙħÙĤØ·ÙĪØ¹":11042,"ĠÙħØ°ÙĥÙĪØ±":11043,"ĠØ¨ÙĦÙī":11044,"ĠØ¨Ø³Ø¨":11045,"ĠØ¨ÙĬØ§Ø¶":11046,"ĠØ¨ÙĪØ²ÙĨ":11047,"ĠØ¨Ø¨Ø¹Ø¶Ùĩ":11048,"ĠÙģØ±Ø¨":11049,"ĠÙģØ¯Ø§Ø¡":11050,"ĠÙģØ¯ÙĦ":11051,"ĠÙģØ§Øº":11052,"ĠÙģÙĦØ¨Ø³":11053,"ĠÙģÙĤØ¨Ø¶":11054,"ĠÙģØ°Ø§Ùĥ":11055,"ĠØ¹Ø§Ø±Ø¶":11056,"ÙģØ¨":11057,"ÙģØµØŃ":11058,"ĠÙĬØ±Ø§":11059,"ĠÙĬÙĩØ¨":11060,"ĠÙĬØµØ¯Ø±":11061,"ÙĥØ±Ø©":11062,"ÙĥÙĬÙħ":11063,"Ø¬ÙĬÙĦÙĩ":11064,"Ø£ÙĪÙĬÙĦ":11065,"ĠÙĤÙĬ":11066,"ĠÙĤÙĦÙĪ":11067,"ØµÙĩØ§":11068,"ØµØ±ØŃ":11069,"ĠÙģÙĬÙħÙĨØ¹":11070,"ĠÙģÙĬØŃØªØ§Ø¬":11071,"ĠÙĥÙĦÙģ":11072,"ĠØ§ÙĦÙħÙĦØŃ":11073,"ĠØ§ÙĦÙħÙĨØ§Ø³":11074,"ĠØ§ÙĦÙħØ¸Ø§ÙĩØ±":11075,"ĠØ§ÙĦÙħØ¶Ø·Ø±":11076,"ĠØ¥Ø¬Ø²Ø§Ø¡":11077,"Ø«ÙĦÙĬØ«":11078,"ĠØªÙĤÙĦ":11079,"ĠØªÙħØ³Ùĥ":11080,"ĠØªÙĪÙĦÙĬØ©":11081,"ĠØªØ¬ÙĩÙĬØ²":11082,"Ø§ÙĨÙħ":11083,"ĠØ§ÙĦÙĦØ³Ø§ÙĨ":11084,"ÙĬØ±ÙĬØ¯":11085,"ĠØ£ÙĪÙĤ":11086,"ĠÙĦØ¸Ø§ÙĩØ±":11087,"ĠØ±Ø§Ø¨Ø¹":11088,"ĠÙĨÙĪØ¨Ø©":11089,"ĠÙĦÙħØ«ÙĦÙĩ":11090,"ĠÙĦÙħÙĪÙĥÙĦÙĩ":11091,"ĠÙĩÙĨØ¯":11092,"ĠÙĩÙĦØ§Ùĥ":11093,"ĠØ³Ø¹Ùī":11094,"ĠØ´ÙĥØ±":11095,"ĠØµÙĪØ§Ø¨Ùĩ":11096,"ĠØ¨ÙĨÙĤØ¯":11097,"ĠØ¨ÙĨØ¬Ø³":11098,"ĠØ§ÙĦØ¹ÙħØ§Ø¯":11099,"ĠØ§ÙĦØ¹Ø°Ø§Ø¨":11100,"ĠØ§ÙĦØŃÙĥÙĪÙħØ©":11101,"ĠØ«Ø¯ÙĬ":11102,"ĠØ«ÙĬØ¨Ø§":11103,"ĠØ¯ÙĬÙĪÙĨ":11104,"ĠØ®Ø±ÙĤØ©":11105,"ĠØ§ÙĦÙĤØ§Ø¯Ø±":11106,"Ø±ÙĩÙĨÙĩ":11107,"ØºÙĨ":11108,"Ø±Ø¬Ùħ":11109,"ĠØ§ÙĦØ¨Ø®":11110,"ĠØ§ÙĦØªØ¯":11111,"ĠØ§ÙĦØªØ¹Ø¯Ø¯":11112,"ĠØ¨Ø§ÙĦØ¸":11113,"Ø¨Ø¯ÙĦÙĩ":11114,"ÙĪÙħÙĬÙĨ":11115,"ÙĪÙħØŃÙħØ¯":11116,"ĠÙĪÙĦØ§Ø¯Ø©":11117,"ĠØ¨Ø§ÙĦÙĬÙħÙĬÙĨ":11118,"ÙĪÙĬØ²":11119,"ĠÙĪØ£ØµÙĦÙĩ":11120,"ĠØ·Ø§ÙĦØª":11121,"ĠÙĪØ¬ÙħØ¹":11122,"ĠÙĪØ¬ÙħØ§Ø¹Ø©":11123,"ÙĬØ§ØªÙĩ":11124,"ÙĬØ§Ø¯ÙĬ":11125,"ĠÙĬØ¬Ø§ÙħØ¹":11126,"ĠØ§ÙĦØ³ÙħÙĨ":11127,"ÙĨÙĬØ³Ø©":11128,"ĠØ§ÙĦÙģØŃÙĦ":11129,"ĠØ§ÙĦØµØ¯Ø±":11130,"ĠØ§ÙĦØµÙĬØºØ©":11131,"Ø¤ÙĨØ©":11132,"ÙĪØ±Ø§Ø¡":11133,"ÙĪØ±ØªÙĩØ§":11134,"ĠØºÙģØ±":11135,"ÙĦØ®Øµ":11136,"ÙĤØ§ÙĬØ©":11137,"Ø¨ØªÙĥ":11138,"ĠØ¶Ø¨Ø·Ùĩ":11139,"ÙĪØ¨Ø±ÙĬ":11140,"ĠØ§ÙĦØ§ØªÙģØ§ÙĤ":11141,"ĠÙĪÙĩÙĨ":11142,"ĠØ§ÙĦØºØ±Ø³":11143,"ØŃÙĬÙī":11144,"ĠÙģØ§ÙĤØª":11145,"ĠÙĪÙħØ³Øª":11146,"ĠØ£ØŃØµØ±":11147,"ÙĦØŃØ§":11148,"ĠÙħØ³Ø§ÙĥÙĬÙĨ":11149,"ĠÙħØ±Ø²":11150,"ÙģØªÙĬÙĨ":11151,"ĠØ§ÙĦÙĤØ§ÙģØ©":11152,"ĠØ¨Ø§ÙĦÙħÙĨØ¹":11153,"Ø§Ø´Ø±Ùĩ":11154,"Ø§Ø´Ø±ØªÙĩ":11155,"ÙĪØ·Ø£":11156,"ĠÙĤØªÙĬÙĦ":11157,"ĠÙĪØŃÙħÙĦÙĩ":11158,"ĠÙĪØŃÙĥÙħÙĩ":11159,"ĠÙĦÙĤÙĬØ§Ùħ":11160,"ĠÙĦØŃÙĥÙħ":11161,"ĠÙĬØ³ØªØ·ÙĬØ¹":11162,"Ø²ÙĪØ¬Øª":11163,"ĠÙĬØ¤Ø§Ø®Ø°":11164,"ĠÙĬØ´Ùĥ":11165,"ĠØ¹Ø¯ÙĦØ§ÙĨ":11166,"ĠØ§Ø¹ØªØ¨Ø§Ø±Ùĩ":11167,"ĠØ§ÙĦØ¶Ùħ":11168,"Ø§Ø³Ø¹":11169,"ĠØ§ÙĦØ¯ÙĬÙĨØ§Ø±":11170,"ÙĪØŃØ§ØµÙĦ":11171,"ÙĪØŃÙĥÙī":11172,"ĠØ§ÙĦØ¢Ø¬Ø±":11173,"ĠØªØ£ÙĥÙĦ":11174,"ĠØ¨Ø§ÙĦØ¹Ø±Ùģ":11175,"ĠÙħØ¹ÙĩÙĨ":11176,"ĠØ£Ø³ÙĬØ±":11177,"ĠÙĨØ³Ø§Ø¦Ùĩ":11178,"ĠØ¨Ø§ÙĦØ£ØµÙĦ":11179,"ĠØ£Ø¯Ø±ÙĬ":11180,"ĠØ£Ø¯Ø®ÙĦÙĩ":11181,"ĠÙģØ±ÙĤØ©":11182,"ĠÙģØ±Ø³Ø§":11183,"ØµØ¨ÙĩØ§":11184,"ĠØªÙĨÙĤØ¶":11185,"ĠØ§ÙĦØ§Ø³ØªÙĤØ¨Ø§ÙĦ":11186,"ĠØ¬ÙĩØªÙĩØ§":11187,"ĠØ¬ÙĩÙĨÙħ":11188,"ĠØªÙħÙĥ":11189,"ĠØªÙħØ«":11190,"ĠØªØªÙħØ©":11191,"ĠØ§ÙĦÙħØ¹ØªØ±Ø¶":11192,"ĠØ¨Ø³ÙĨØ©":11193,"ĠØŃÙĥÙĬ":11194,"ĠØ¬Ø§Ø¦Ø²Ø§":11195,"ĠÙģÙĤØ¶Ùī":11196,"ĠØ¨Ø§ÙĦÙĨØ§Ø±":11197,"ĠÙĪÙĩØ¨ØªÙĩ":11198,"ĠØ§Ø¨ØªØ§Ø¹":11199,"ĠÙĥØ§ÙĦÙĩ":11200,"ĠÙĦØ´Ø¯Ø©":11201,"ĠØ¹Ø§ÙĤÙĦ":11202,"ĠØ¨Ø§ÙĦÙĥÙĦØ§Ùħ":11203,"ĠÙĪØ§Ø³ØªÙħØ±":11204,"ĠØªØ¯ÙģØ¹":11205,"ĠØµØ§ÙĦØŃÙĩ":11206,"ĠÙĦÙĦØ´Ø¨ÙĩØ©":11207,"Ø²Ø§ÙħÙĩ":11208,"ĠØ§ÙĦØ±ÙĥØ¹ØªÙĬÙĨ":11209,"ĠÙĦÙĦØ¬Ø¯":11210,"ĠÙĦÙĦØ¬ÙĩÙĦ":11211,"ĠØ§ÙĦÙħÙĤØ¶ÙĬ":11212,"ĠØ§ÙĦÙħÙĤØ°ÙĪÙģ":11213,"ĠØ§ÙĦØ£Ø´Ø¹Ø±ÙĬ":11214,"ĠÙĬÙĨØ§Ùħ":11215,"ĠÙĬÙĨØ§Ø³Ø¨":11216,"ĠØ§ÙĦÙħÙģØªÙĬ":11217,"ĠÙĬØªØŃØ±Ùĥ":11218,"ĠÙĦÙĦØµØ¨ÙĬ":11219,"ĠØµÙģÙĬØ©":11220,"ĠÙĥØ§ÙĦØ£Ø¬ÙĨØ¨ÙĬ":11221,"ĠØ§ÙĦÙħÙĪØ§Ø¶Ø¹":11222,"ĠÙĬØ´ØªØ±ÙĬÙĩ":11223,"ĠØ§ÙĦÙħØ´ØªØ±Ùī":11224,"ĠÙĪØ¨ÙĨÙī":11225,"ĠØ®Ø§Ø±Ø¬Ø§":11226,"ĠØ£Ø·ÙĬØ¨":11227,"ĠØªØ¹Ø¯ÙĬØ§":11228,"ÙģÙĬÙĨØ¨ØºÙĬ":11229,"ĠØ§ÙĦØ®ÙħØ³ÙĬÙĨ":11230,"ĠÙģØ´ÙħÙĦ":11231,"ĠØ®Ø±ÙĪØ¬ÙĩØ§":11232,"ĠØ¬ÙĦØ¯Ø©":11233,"ĠØ§ÙĦÙħØ«Ø§ÙĦ":11234,"ĠØ´Ø±ÙĪØ·Ùĩ":11235,"ĠÙĬÙĩØ¯ÙĬ":11236,"ĠÙħÙĪØ¬Ø¨Ùĩ":11237,"ĠØ±Ø´Ø¯Ùĩ":11238,"ĠØ³ÙĥÙĨÙī":11239,"ĠØ´Ø¹Ø±ÙĩØ§":11240,"ĠØŃÙĬÙĪØ§ÙĨØ§":11241,"ĠØºØ±ÙĪØ¨":11242,"ĠÙĪØµØ§Ø±Øª":11243,"ĠÙħÙĤØ¨ÙĪÙĦ":11244,"ĠØ¨Ø§ÙĦØ¶Ùħ":11245,"ĠÙĤØ§Ø±ÙĨØ§":11246,"ĠÙģØ§ÙĦØŃÙĥÙħ":11247,"ĠÙħÙĪØµÙĪÙģ":11248,"ĠØ§ÙĦÙĤÙĨÙĪØª":11249,"ĠØ³ÙĩÙħÙĩ":11250,"ĠØ§ÙĦÙħÙĥØªØ±ÙĬ":11251,"ĠØ§ÙĦÙħÙĪØŃØ¯Ø©":11252,"ÙĪØ±Ø¨ÙħØ§":11253,"ĠØªØ¶ÙħÙĬÙĨ":11254,"ĠØ§ÙĦØ¨ÙĬÙĪØ¹":11255,"ĠØ§ÙĦØ¬ÙĪÙĩØ±Ø©":11256,"ĠØ§Ø³ØªØ·Ø§Ø¹":11257,"ĠÙĥÙĨØ§ÙĨØ©":11258,"Ø§ÙĬ":11259,"Ø§ÙĬØ±Ø©":11260,"ÙĨØ¹Øª":11261,"ÙĬÙĤØ§":11262,"ÙĬÙħØ§ÙĨ":11263,"ÙĩØ¯ÙĬ":11264,"ÙĪØ³ÙĦÙħ":11265,"Ø±ÙĪØ¶":11266,"Ø¯Ø§Ø¦Ùĩ":11267,"ĠÙĪØ²ÙĪØ¬Ø©":11268,"ĠØ£ÙģØ±Ø¯":11269,"ĠØ£Ø¶Ø§Ùģ":11270,"ĠØ£ÙĤØ¨Ø¶Ùĩ":11271,"ĠÙħØ£":11272,"ĠÙħØ¯Ø§":11273,"ĠÙħØªÙĩÙħ":11274,"ĠÙħÙĬØ³Ø±Ø©":11275,"ĠØ¨ÙĤØª":11276,"ĠØ¨ØŃØ¯ÙĬØ«":11277,"ĠØ¨ÙħØ±Ø¶":11278,"ĠÙģÙĦØ¹ÙĦ":11279,"ĠÙģØ°Ø¨ØŃ":11280,"ĠÙģÙĪØ·Ø¦ÙĩØ§":11281,"ÙģÙģ":11282,"Ø³Ø£ÙĦ":11283,"Ø³Ø£ÙĦØª":11284,"ĠÙĬØ¨Øª":11285,"ØŃØ·":11286,"ĠÙĤÙħØŃ":11287,"ØµØ¨ØŃ":11288,"ĠÙģÙĬØ¯ÙģØ¹":11289,"ĠÙĥÙĩÙĪ":11290,"ĠØ§ÙĦÙħØ¶":11291,"ĠØ§ÙĦÙħØ±Ø§":11292,"ĠØ§ÙĦÙħÙĪÙĦÙĪØ¯":11293,"ĠØ¥ÙĦØŃØ§ÙĤ":11294,"Ø®Ø·":11295,"Ø®Ø§ÙĨÙĬØ©":11296,"ĠØªØŃØ¯Ø«":11297,"ĠØªØ·Ùĩ":11298,"ĠØªÙģØ³Ø®":11299,"ĠØªÙĪÙĤÙĬ":11300,"ĠØŃÙĥØ§ÙĬØ©":11301,"Ø§ÙĦØ²ÙĪØ¬":11302,"ĠØ£ÙĪØ³":11303,"ĠØ£ÙĪÙĦÙĩØ§":11304,"Ø´ÙĩØ¨":11305,"ĠØ£ÙĨÙĥØ±Ùĩ":11306,"Ø§Ø±ÙĤØ·ÙĨÙĬ":11307,"Ø§Ø±Ø®Ø§ÙĨÙĬØ©":11308,"ĠÙĨØ§Ø´":11309,"ĠÙĨÙģØ§Ùĩ":11310,"ÙĦÙĬÙĩÙħØ§":11311,"ĠÙĦØ§ÙħØª":11312,"ĠØ¹ÙĨÙĪØ©":11313,"ÙĨØ§ÙĩÙħ":11314,"ÙĨØ§ÙĤØ¶":11315,"ĠØ³ÙĪØ¯":11316,"ĠØ³Ø§Ø±ÙĤ":11317,"ĠØ§ÙĦØ£Ø±Ø¨Ø¹ÙĬÙĨ":11318,"ĠØ§ÙĦØ£Ø±ÙĥØ§ÙĨ":11319,"ĠØ´Ø§Ø¨":11320,"ĠØ¬ÙĪÙģ":11321,"ĠØ§ÙĦØ¹Ø·Ø´":11322,"ÙĩÙĪØ§":11323,"ÙĩÙĪØ±Ø©":11324,"ĠØ¯ÙĪØ§Ø¨":11325,"ĠØ¯ÙģØ¹Øª":11326,"ĠØ®Ø§Ø±Ø¬Ùĩ":11327,"ĠÙħØ¹Ø¨Ø¯":11328,"ĠÙħØ¹Ø°ÙĪØ±":11329,"ĠØ§ÙĦÙĤØ±Ø§":11330,"ĠØ§ÙĦÙĤØµØ©":11331,"ĠÙĪØ§ÙĤ":11332,"Ø¸ÙĦØ©":11333,"ĠØ§ÙĦØªÙģØ±ÙĤØ©":11334,"ÙĤÙĬÙħØª":11335,"ĠØ§ÙĦØ¥Ùħ":11336,"ĠØ§ÙĦØ¥ÙģØ§Ø¶Ø©":11337,"Ø§ÙħØŃØ©":11338,"ĠÙģÙĬÙĩÙĨ":11339,"ĠØ§ÙĦÙĨÙģØ§Ø³":11340,"ÙĪÙĬØ¬Ø§Ø¨":11341,"ĠØ²Ùħ":11342,"ĠØ§ÙĦØ´Ø¹ÙĬØ±":11343,"ĠØ§ÙĦØ¬Ø²Ùħ":11344,"ĠÙĪØ£ÙĤ":11345,"ĠÙĪØ£ÙħÙĥÙĨ":11346,"ĠÙĪØ£ØŃÙĥÙħ":11347,"ÙĪØ¹Ø¯":11348,"ĠØ·ÙĪØ§ÙģÙĩ":11349,"ĠÙĪÙĬÙĤØ³Ùħ":11350,"ĠÙĪÙĬÙĥÙģÙĬ":11351,"ÙĨÙĬØ§ÙĨ":11352,"ĠÙĦÙĬÙĨ":11353,"ĠØ§ÙĦÙģØªØ§ÙĪÙī":11354,"ĠØ§ÙĦØµØ¯ÙĬÙĤ":11355,"ĠÙħØŃØ§":11356,"ĠÙħØŃØ§ÙĦ":11357,"ĠÙħØŃØµÙĨ":11358,"ĠÙĬØ¹ÙĬÙĨÙĩ":11359,"ĠØ§ÙĦØ¯ÙĦØ§ÙĦØ©":11360,"ĠÙĬÙĨÙģÙĥ":11361,"ÙĬØªÙĥ":11362,"ÙĪÙĥØªØ¨":11363,"Ø®ØªÙħ":11364,"Ø®ØªØµØ§Øµ":11365,"ĠÙĤØ¯Ø±Ø©":11366,"ÙħØ¹ÙĨØ§Ùĩ":11367,"ĠØ§ÙĦØ±Ø³Ø§ÙĦØ©":11368,"ĠÙĪØªØµØ±Ùģ":11369,"ĠØ£Ø¨ÙĬÙĨ":11370,"ĠØ£Ø¨Ø§ÙĨ":11371,"ÙĪØ£ÙĤØ§Ùħ":11372,"ĠØ§ÙĦØºØ¶Ø¨":11373,"ĠÙĦÙĦÙħØ³Ø§ÙĥÙĬÙĨ":11374,"ÙĪÙĤÙĬØ©":11375,"ĠÙģØ£ÙĦÙĤ":11376,"ĠÙģØ£Ø¬Ø§Ø²":11377,"ĠÙĪÙĨØ¸Ø±":11378,"ĠØ£ØŃØ±Ø²":11379,"ĠØ£ØŃÙĥØ§ÙħÙĩ":11380,"ĠÙĪØ§ÙĦÙħÙĦÙĥ":11381,"ĠÙĪØ§ÙĦÙħØ¹ØªÙħØ¯":11382,"ĠÙħØ³Ø±ÙĪÙĤ":11383,"ĠØ§ÙĦÙħØªÙģÙĤ":11384,"ĠØ§ÙĦÙħØªØ§Ø¨Ø¹Ø©":11385,"ĠÙĬØ³ÙĥØ±":11386,"ĠØ£Ø´ÙĥÙĦ":11387,"ĠØ§ÙĦÙĤØ§Ø°Ùģ":11388,"ĠØ£ØµÙĪÙĦÙĩ":11389,"ĠÙĬØ¶ÙĬØ¹":11390,"ĠÙĤØ§Ø¹Ø¯Ø§":11391,"ĠØªØŃØ¬Ø¨":11392,"ĠØªØŃØµÙĬÙĦÙĩ":11393,"ĠØ¨Ø¥Ø°":11394,"Ø§Ø¹Ø¯Ø©":11395,"ĠÙĪØ§ÙĦØ±Ø¯":11396,"Ø´ÙĬØ¦Ø§":11397,"ĠÙĬØ³ØªÙĤÙĦ":11398,"ĠÙĬØ³ØªØ±Ø¯":11399,"ĠØŃÙĥÙħÙĨØ§":11400,"ĠØ¨ØªØ£Ø®ÙĬØ±":11401,"ĠØ§ÙĦØ±Ø¬Ø¹ÙĬØ©":11402,"ĠÙģØ³ÙĥØª":11403,"ĠÙģØ³Ø£ÙĦÙĩ":11404,"ĠØ¹Ø¯ÙĪØ§ÙĨ":11405,"ĠÙĪØ§ÙĦØ£Ø®Ø±Ùī":11406,"ĠØ£ÙĤØ³Ùħ":11407,"ĠØ¨Ø´Ø§ÙĩØ¯":11408,"ÙĦØ§ÙħÙĩÙħ":11409,"ÙĪØªÙĩÙħ":11410,"ĠØ£Ø³ÙĪØ©":11411,"ĠØ§ÙĦÙħØ¬ÙĪØ³ÙĬ":11412,"ĠØ£ÙģØ¶":11413,"ĠØ§ÙĦØ§Ø³ØªØ¯ÙĦØ§ÙĦ":11414,"ÙĦØ·Ùĩ":11415,"ĠØ§ÙĦÙħØ´ÙĥÙĦ":11416,"ĠÙĪØ®Ø¨Ø±":11417,"ĠÙħØ¤Ø®Ø±":11418,"ĠÙħØ¯ÙĬÙĨ":11419,"ĠÙħØ¯Ø®ÙĦ":11420,"ĠÙħØ¯Ø¹Ùī":11421,"ĠØ§ØªØ¨Ø¹":11422,"ĠØ¨Ø±Ø¯Ùĩ":11423,"ĠØ¨Ø±Ø¯Ø©":11424,"ĠÙĦÙĦØ±Ùĥ":11425,"ĠØ£ÙĪÙĦØ§Ø¯ÙĩÙħ":11426,"ĠÙĪØ§ÙĦØªÙĬ":11427,"ĠÙĪØ§ÙĦØªÙĤØ¯ÙĬØ±":11428,"ĠØ£ÙĩÙĦÙĥ":11429,"ĠØ§ÙĦÙħØ¹ØªØ²ÙĦØ©":11430,"ĠØ¨Ø³Ø¨Ø¹":11431,"ÙĨØ¨ÙĦØ§":11432,"ĠÙĦÙģØ³Ø§Ø¯":11433,"ĠÙģØŃØ³ÙĨ":11434,"ĠØ§ÙĦÙĤØ±ÙĬÙĨØ©":11435,"ĠØ§ÙĦÙħØ§ÙĦÙĥÙĬØ©":11436,"ĠØ¬ÙĨØ³Ø§":11437,"ĠÙĨØ¬Ø§Ø³ØªÙĩ":11438,"ĠØ¨ÙĦØºÙĨÙĬ":11439,"ĠØ¶Ø±Ø¨Ø©":11440,"ĠØ§ÙĦØ¹Ø¯ÙĪÙĬ":11441,"ĠÙĪØ§ÙĦÙģØ¶Ø©":11442,"ĠÙĬÙĨØªÙģÙĬ":11443,"ĠØªØ·ÙĦØ¨":11444,"ĠØªØ¯Ø¨Ø±":11445,"ĠØ¨Ø²ÙĨØ§":11446,"ĠØ¨ÙĬØ¯Ùĥ":11447,"ÙĦØ§ØŃØ¸":11448,"ĠÙĪØ±Ø¯Øª":11449,"ĠÙĤØ³ÙħÙĬÙĨ":11450,"ĠØ¨Ø§ÙĦØµÙģØ©":11451,"ĠØ±Ø§Ø¬Ø¹Ø§":11452,"ĠÙĦÙĦØ®Ø¯ÙħØ©":11453,"ĠÙĪÙĬØ¹ÙĦÙħ":11454,"ĠØ¥ÙĤØ±Ø§Ø±Ø§":11455,"ĠØ£ÙĤØ§ÙħØª":11456,"ĠØ£Ø«ÙĪØ§Ø¨":11457,"ĠØ§ÙĦØ§ÙĨØªØµØ§Ø±":11458,"ĠØ§ÙĦÙħÙĨÙĩÙĬ":11459,"ĠØ§ÙĦÙħÙĤØªØ¶ÙĬ":11460,"ĠÙĨØ³Ø¨ØªÙĩ":11461,"ĠÙĥØ§ÙĦØ¹Ø¨Ø¯":11462,"ĠØªØ¹Ø¯Ø¯Øª":11463,"ĠÙħÙģØ§Ø±ÙĤØ©":11464,"ÙĪÙĦÙĥÙĦ":11465,"ĠÙĪØ¨Ø§ÙĦÙħ":11466,"ĠØ§ÙĦØªØ±ØºÙĬØ¨":11467,"ĠØ±Ø¨ØŃÙĩ":11468,"ĠØ§Ø´ØªØ±ÙĬØªÙĩ":11469,"ĠÙĪØ§Ø¹ØªØ±Ø¶":11470,"ĠØªØ¬Ø¯Ø¯":11471,"ĠØ¯Ø±Ø¬ØªÙĩ":11472,"ĠØ§ÙĦØŃØ¨Ø´Ø©":11473,"ĠØ¨Ø±ÙĥØ¹Ø©":11474,"ĠØ£ÙĦÙĤÙī":11475,"ĠÙĦÙĦØ¢ÙħØ±":11476,"ĠØ§ÙĦÙħÙĪØ¶ÙĪØ¹":11477,"ĠØ§ÙĦØ¨ÙĩÙĬÙħØ©":11478,"ĠÙĪØ§ØŃØªØ±Ø²":11479,"ĠÙĪØªØ³Ø¹ÙĬÙĨ":11480,"ĠÙĤØ§Ø¨Ø¶Ø§":11481,"ĠÙĪØ£Ø±Ø¨Ø¹ÙĪÙĨ":11482,"ĠØ§ÙĦÙħØ³Ø§ÙĤØ§Ø©":11483,"ĠÙħØ§ÙĨØ¹Ø§":11484,"ĠÙħØ¹ÙĦÙĤØ§":11485,"ĠÙĥØºÙĬØ±ÙĩØ§":11486,"ĠÙĤØ±Ø§Ø¶Ø§":11487,"ĠØ¶Ø¹ÙĬÙģØ©":11488,"ĠØ§ÙĦÙħØ¹Ø¯ÙĪÙħ":11489,"ĠØ§ÙĦØ´Ø§ÙģØ¹ÙĬØ©":11490,"ĠØ§ÙĦÙħÙħØ§Ø«ÙĦØ©":11491,"ĠØ§ÙĦÙĪØ§Ø¬Ø¨Ø©":11492,"ĠØ¬Ø¨ÙĩØªÙĩ":11493,"ĠÙħØ±Ø²ÙĪÙĤ":11494,"Ø§Ø®ØªØ§Ø±Ùĩ":11495,"ÙĬØº":11496,"ÙĬÙģÙĩ":11497,"ÙĩÙĦÙĬ":11498,"ÙħØºÙĨÙĬ":11499,"Ø¨ÙĦÙī":11500,"Ø¯Ø§Ø±":11501,"ØªØ§ÙĤ":11502,"ĠÙĪØ¹Ø§":11503,"ĠÙĪØ¸ÙĩØ±":11504,"ĠÙĪØ¨Ø§Ø¹":11505,"ĠÙĪØ¹Ø§Ø¯":11506,"ĠÙĪØ´ÙĬØ®":11507,"ĠØ£Ø±Ø§Ùĩ":11508,"ÙĤÙĦØ§ÙĦ":11509,"ĠÙħØ®Ø±":11510,"ĠÙħÙħØª":11511,"ĠÙħÙĬØ±Ø§Ø«Ùĩ":11512,"ĠØ¨ÙĦØŃ":11513,"ĠØ¨ØªÙĤ":11514,"ĠÙģÙĨØ³":11515,"ĠÙģØ¢":11516,"ĠÙģÙĦØ²ÙħÙĩ":11517,"ĠÙģØ·ÙĦÙĤÙĩØ§":11518,"ĠØ¹ÙĦÙĪ":11519,"ÙģÙĦØª":11520,"ÙģØ§Ø±Ùĩ":11521,"Ø³ÙĬØ±":11522,"Ø³ÙĬÙħ":11523,"ĠÙĬÙĩÙĪ":11524,"ĠÙĬØºÙĬØ±":11525,"ĠÙĬÙĪØ¬Ùĩ":11526,"ÙĦØ§Ø¹":11527,"Ø¬Ø§Ø±Ùĩ":11528,"Ø£ÙĩØ§":11529,"Ø£Ø®Ø¨Ø±":11530,"ĠÙĤØ±Ø¶Ø§":11531,"ĠÙĤÙĦÙĬÙĦØ©":11532,"ØµÙĪÙĦÙĩ":11533,"ĠÙģÙĬØ¦Ø§":11534,"ĠÙģÙĬØªÙħ":11535,"ĠÙĥØ±Ùħ":11536,"ĠÙĥØ±Ø±":11537,"ĠØ§ÙĦÙħÙĤØµ":11538,"ĠØ§ÙĦÙħØ¹ÙĬØ¨":11539,"ĠØ§ÙĦÙħØ§Ø´ÙĬØ©":11540,"Ø¶Ø¹Ø©":11541,"Ø¶Ø¹Ùĩ":11542,"ĠØªÙģÙĬØ¯":11543,"ĠØŃØ±Ø«":11544,"Ø§Ø±Ùģ":11545,"ĠØ±ÙĬØ¹":11546,"ĠØ±Ø§Ø¦ØŃØ©":11547,"ĠÙĨØ³ÙĦ":11548,"ĠÙĨÙģØ§Ø³":11549,"ĠÙĦÙħÙĪÙĦÙī":11550,"ĠÙĦÙħÙĦÙĥÙĩ":11551,"ĠØ³Ø§Ø¬":11552,"ĠØ³ÙĪØ§ÙĩØ§":11553,"ĠØ§ÙĦØ£Øº":11554,"ĠØ§ÙĦØ£ÙĪØ²":11555,"ĠØ§ÙĦØ£ÙĨÙģ":11556,"ĠØ´Ø±Ø§":11557,"ĠØ´ÙĤÙĩ":11558,"ĠØ´Ø¯ÙĬØ¯Ø©":11559,"ĠØµÙĬØ±":11560,"ĠØ¨ÙĨØªÙĩØ§":11561,"ĠØ¬ÙĦ":11562,"ĠØ¬ÙĩØ§ÙĦØ©":11563,"ĠØ§ÙĦØ¹ÙĨØª":11564,"ÙħÙĨÙī":11565,"ĠØ§ÙĦØŃÙĤÙĬ":11566,"ĠØ§ÙĦØŃØ¨ÙĦ":11567,"ĠØ¯ÙĦÙĬÙĦØ§":11568,"ĠØ®ÙģÙĬÙĩ":11569,"ĠÙħØ¹Ùĥ":11570,"ĠÙħØ¹Ø·":11571,"ĠØ§ÙĦÙĤØ¨ÙĦ":11572,"ĠØ§ÙĦÙĤØ¶Ø§Ø©":11573,"Ø§Ø¦Ø±Ùĩ":11574,"ĠØ§ÙĦÙĪØ±ÙĤ":11575,"ØºØ§ÙĬØ©":11576,"ĠØ§ÙĦØ¨ÙĤØ§Ø¡":11577,"ĠØ§ÙĦØªØŃØ±Ø²":11578,"ĠØ§ÙĦØªÙĦØ¨ÙĬØ©":11579,"ÙĤÙĬØ§":11580,"ĠÙĦÙĪØ·":11581,"ĠÙĦÙĪØ¬Ø¨":11582,"ĠØ§ÙĦØ¥ÙĤØ¯Ø§Ùħ":11583,"Ø¨Ø¯ÙĬ":11584,"Ø§ÙħÙĦÙĩ":11585,"ĠØ§ÙĦÙĨØ²Ø§Ø¹":11586,"ÙĪÙĬÙĥÙģÙĬ":11587,"ĠØ²ÙħØ§ÙĨÙĩ":11588,"ĠØ²ÙĬÙĦØ¹ÙĬ":11589,"ĠØ§ÙĦØ´ÙĬÙĨ":11590,"ĠØ§ÙĦØ¬Ø§Ø¦Ø²":11591,"ĠØ§ÙĦØ¬Ø¨ÙĬØ±Ø©":11592,"ĠÙĪØ£ÙĤÙĦ":11593,"ĠØ·ÙĪÙĦØ§":11594,"ĠØ·ÙĩÙĪØ±":11595,"ÙĬØ§Ùĥ":11596,"ĠØ§ÙĦØ³Øª":11597,"ĠÙĪÙĬÙĤØ¯Ùħ":11598,"ĠÙĪÙĬÙħÙĨØ¹":11599,"ĠÙĦÙĬÙĦ":11600,"ĠÙĦÙĬØ£Ø®Ø°":11601,"ĠØ§ÙĦÙģÙĬØ¡":11602,"ĠØ§ÙĦØµØ§ÙĦØŃ":11603,"ĠØ§ÙĦØµØ§Ø¦Ùħ":11604,"ĠÙħØŃØ§Ø±":11605,"ĠÙħØŃØ¶Ø©":11606,"ĠØ§ÙĦØ®ÙĬØ·":11607,"Ø£ÙĪÙĦØ§":11608,"ĠØºØ±ÙĬ":11609,"ÙĦØ®ÙĬØµ":11610,"ĠÙĪÙĥØ£ÙĨ":11611,"ĠÙĪØ¹ÙĬÙĨ":11612,"ÙĪÙĩÙħÙĩ":11613,"ÙĤØ·ÙĪØ¹Ø©":11614,"ÙĦØ¨ÙĪØ³":11615,"ÙĪÙĥÙĪÙĨÙĩ":11616,"ĠØ§Ø³ØªØ´":11617,"ĠØŃØ¯ÙĪØ¯":11618,"ĠÙĪØªØ¬Ø¨":11619,"ĠÙĪØªØ±ÙĥÙĩ":11620,"ĠÙĪØªÙħØ§ÙħÙĩ":11621,"ĠÙĨØµØ¨Ùĩ":11622,"ĠØ¨Ø¯Ø±Ø§":11623,"ØŃØªÙĬÙĨ":11624,"ĠØ§ÙĦØºØ§ÙĨÙħÙĬÙĨ":11625,"Ø´Ø±ÙĪÙĨ":11626,"ÙĪÙĤØ³Ùħ":11627,"ĠÙħØªÙĪØ§":11628,"ĠÙħØªØ¨Ø±":11629,"ĠÙħØªÙĤØ¯Ùħ":11630,"ĠÙģØ§Ø®ØªÙĦÙģ":11631,"ĠÙĪÙħØ¹Ø§":11632,"ĠÙĪÙħØ¶Ùī":11633,"ÙħØ§ÙħØªÙĩ":11634,"ĠØ¨ÙħÙĥØ§ÙĨ":11635,"ĠÙĪØ§ÙĦÙħØ¬ÙĨÙĪÙĨ":11636,"ĠØ§ÙĦÙħØªØµØ¯ÙĤ":11637,"ÙĦØ¹Ø¨":11638,"ĠØ§ÙĦØ·ÙĩÙĪØ±":11639,"ĠØ£Ø¬Ø±Ø§":11640,"Ø³ØªØŃÙĤÙĩ":11641,"ÙĪØ¥ÙĦÙĬÙĩ":11642,"ĠØŃÙĤÙĥ":11643,"ĠØªØŃØ±ÙĬ":11644,"ĠØªØŃÙĦÙĦ":11645,"ĠØ¨Ø§ÙĦÙħØ³Øª":11646,"ĠÙĪØµÙģØ©":11647,"Ø§Ø¹ÙĦÙħ":11648,"ĠÙĬØµØ¨":11649,"ĠØ²ÙĪØ¬ØªÙĥ":11650,"ĠÙĦØªÙħØ§Ùħ":11651,"ĠÙĦØªØ¨ÙĬÙĨ":11652,"ĠØ¨ØªÙħØ§ÙħÙĩ":11653,"ĠØ´Ø±Ø·Øª":11654,"ĠØ¨ÙĬØ¶Ø§Ø¡":11655,"ĠØ§ÙĦÙĩÙĪØ§Ø¡":11656,"ĠÙģØ³Ø®Øª":11657,"ĠÙģØ³ÙĥÙĪÙĨ":11658,"ĠÙĬØ¨Ø§Ø´Ø±":11659,"ĠÙĪØ§ÙĦØ£ÙĤØ±Ø¨":11660,"ĠØ§ÙĦØ¢ÙĦØ©":11661,"ĠÙħØ¬ØªÙĩØ¯Ø§":11662,"Ø±ØªØ¯":11663,"ĠØ¬ÙħÙĬØ¹ÙĩÙħ":11664,"ĠØ¹Ø±ÙģØ§Øª":11665,"Ø¶ÙħØ¶":11666,"Ø¶ÙħÙĬÙĨ":11667,"ĠØ¨Ø§ÙĦØ£Ùħ":11668,"ĠØªÙĤØ¶ÙĬ":11669,"ĠØ±ÙĥØ¨ØªÙĬÙĩ":11670,"ĠØ³ÙĦÙħØ§ÙĨ":11671,"ĠØªÙĨÙĤØ³Ùħ":11672,"ĠØ§ÙĦØ§Ø³ØªØ¦Ø¬Ø§Ø±":11673,"ĠÙĬØ·Ø±Ø£":11674,"ĠØ£ÙħØ±ÙĨØ§":11675,"ĠØ§ÙĦÙħØ§Ø¶ÙĬ":11676,"ÙĪØ§ÙĨØ©":11677,"ĠØ¹Ø·Ø´":11678,"ĠÙĬØ®Ø±Ø¬ÙĩØ§":11679,"ĠØ§ØªØ³Ø¹":11680,"ĠØ¨Ø§ÙĦØ¥ÙĨ":11681,"ĠÙħÙĤØ±Ø§":11682,"ĠÙĦÙĦØ±Ø§ÙĩÙĨ":11683,"ĠØŃØ¯ÙĬØ«Ø§":11684,"ĠÙĦØ³ÙĨØ©":11685,"ĠÙĪØ§ÙĦØªØŃ":11686,"ĠÙĥÙĪÙĨÙĩÙħØ§":11687,"ĠØ£ÙĩÙĦÙĬØªÙĩ":11688,"ĠØ§ÙĦÙħØ¹ØªÙĥÙģ":11689,"ĠØµÙĦØ§ÙĩØ§":11690,"ĠÙĦØ¥ÙĤØ±Ø§Ø±Ùĩ":11691,"ĠÙĦØ¥ÙĨØ³Ø§ÙĨ":11692,"Ø¨ÙĤØ§Ø¦Ùĩ":11693,"ĠØ§ÙĦØªØ¹Ø±Ø¶":11694,"ĠØŃÙĥÙħØ©":11695,"ĠØ¬ÙħØ¹ÙĩÙħØ§":11696,"ĠØ¬Ø¹ÙĦÙĨØ§":11697,"Ø¶ØŃÙī":11698,"ĠØªØŃØªÙĩØ§":11699,"ĠÙĤØ±Ø¹Ø©":11700,"ĠÙĨØ¬Ø³Ø§":11701,"ĠØ¨Ø§ÙĦØ´Ø¨ÙĩØ©":11702,"ĠØ¨Ø§ÙĦÙģØ³Ø®":11703,"ĠÙĪØ§ÙĦØ¥Ø¬Ø§Ø±Ø©":11704,"ĠØªØµØ§Ø¯":11705,"ĠØ¶Ø±Ø¨Øª":11706,"ĠÙħØ¹ØªØ¯":11707,"Ø§ÙĦØ¹Ø¨Ø¯":11708,"ĠÙģØ³Ø®Ø§":11709,"ĠÙĪØ¶Ø¹ÙĩØ§":11710,"ĠÙĪØ¶Ø¹ØªÙĩ":11711,"ĠØªØ®Ø±ÙĬØ¬":11712,"ĠÙĪØ§ÙĦØ´Ø±Ø§Ø¡":11713,"Ø¨Ø·ÙĦØª":11714,"ĠÙĪØ§ÙĦØ«ÙħÙĨ":11715,"ĠÙģÙħØªÙī":11716,"ĠÙģÙĪÙĤÙĩØ§":11717,"ÙĪØ§ÙĦØŃÙĥÙħ":11718,"ĠØ§ÙĦÙħÙĤØ±ÙĬ":11719,"ĠÙĪØ§ÙĦØµØŃÙĬØŃ":11720,"ĠÙĤØ³ÙħØªÙĩ":11721,"ĠØ¨ØºØ¨ÙĨ":11722,"ĠØ¨Ø§ÙĦØµÙĪÙħ":11723,"ĠØ§Ø³ØªØ¹Ø§Ø±":11724,"ĠØ³ÙĦÙĬÙħØ§":11725,"ĠØ¥ØŃØ¶Ø§Ø±":11726,"ĠÙģØ§ÙĨØ¯ÙģØ¹":11727,"ĠØªØ¹ÙĬÙĨØª":11728,"ĠØ¥ÙĨØ³Ø§ÙĨØ§":11729,"ĠØ³ÙģØ±Ø§":11730,"ĠØ§ÙĦÙħØŃØªØ±Ùħ":11731,"ĠØ§ÙĦÙħØŃØªØ§Ø¬":11732,"ÙĨØ¬ÙĬ":11733,"ĠØ¬ÙĨØ§ØŃ":11734,"ĠÙĤØ¶ÙĬØª":11735,"ĠÙħÙĤØ§ØªÙĦ":11736,"ĠÙħØ³ØªØŃÙĤØ©":11737,"ĠÙĦØ°ÙĥØ±":11738,"ĠÙĦØ°ÙħÙĬ":11739,"ĠÙĪÙĬØ¤ÙĬØ¯":11740,"ĠØªØ¤ÙĥÙĦ":11741,"ĠÙĪØ¨ÙĤÙĬØª":11742,"ĠÙĬØªØ¨Ø¹ÙĩØ§":11743,"ĠØ§ÙĦØ§ØŃØªÙĬØ§Ø·":11744,"ĠØ³ÙĤÙĪØ·Ùĩ":11745,"ĠØ§ÙĦØªØµØ¯ÙĬÙĤ":11746,"ÙĦØ¸Ø©":11747,"ĠØ§ÙĦØ§ÙĤØªØµØ§Ø±":11748,"ĠÙĬØ·Ø§ÙĦØ¨Ùĩ":11749,"ĠØªÙĨØ§ÙĪÙĦÙĩ":11750,"ĠÙĪØ§Ø¹ØªÙħØ¯Ùĩ":11751,"ĠÙĬØ±ØªÙģØ¹":11752,"ĠØ¥ØªÙĦØ§ÙģÙĩ":11753,"ĠÙĪÙĦÙĦØ£Ùħ":11754,"ĠÙħÙĥØ§ØªØ¨ØªÙĩ":11755,"ĠØ§ÙĦÙħØ¶ÙħØ¶Ø©":11756,"ĠÙĨØ§ÙĤØµØ§":11757,"ĠØ§ÙĦØ¥Ø³ÙĤØ§Ø·":11758,"ĠÙħÙĤÙĬØ¯Ø©":11759,"ĠØ¨Ø¯Ø¹ÙĪÙī":11760,"ĠÙģØ£Ø¹Ø·Ø§Ùĩ":11761,"ĠÙģØ§ÙĦØ¨ÙĬØ¹":11762,"ĠØ¥ÙĨÙĥØ§Ø±Ùĩ":11763,"ĠÙĤØªÙĬØ¨Ø©":11764,"ĠØ§ÙĦÙħØ´Ø±ÙĤ":11765,"ĠØ±ÙĥØ¹ØªØ§ÙĨ":11766,"ĠØ§ÙĦÙħØ¬Ø±ÙĪØŃ":11767,"ĠØ§ÙĦÙħÙĨÙĥÙĪØŃØ©":11768,"ĠØ¨Ø±Ø£ÙĬÙĩ":11769,"ĠØ£Ø«ÙĨØ§Ø¦Ùĩ":11770,"ĠÙĥÙģÙĬÙĦØ§":11771,"ĠØ£ÙĪÙĦÙĬØ§Ø¡":11772,"ĠØªØ£ÙĥÙĬØ¯":11773,"ĠÙħÙħÙĬØ²Ø§":11774,"ĠÙĦØ¤ÙĬ":11775,"ĠØ£Ø±Ø·Ø§ÙĦ":11776,"ĠØªØºÙĦÙĬØ¨Ø§":11777,"ĠØ§ÙĦÙħÙĨØ¯ÙĪØ¨":11778,"ĠÙĬÙĤØ§Ø¨ÙĦÙĩ":11779,"ĠØ³Ø§Ø¬Ø¯Ø§":11780,"Ø§Ø³Ùħ":11781,"ÙĩÙĦÙĥ":11782,"ÙĪØ¢":11783,"ÙĪØŃØ¯Ø«ÙĨÙĬ":11784,"ĠØ§Ø¬ØªÙĩØ§Ø¯":11785,"Ø¯Ø±Ø¬":11786,"ØªØ±Ùĥ":11787,"ØªØ¨Ø¹":11788,"Ø¹Ø¬":11789,"Ø¹ÙģØ±":11790,"ĠÙĪÙĦØ¨Ø³":11791,"ĠÙĪÙĦØ¨ÙĨ":11792,"ĠØ£Ø°Ø§ÙĨ":11793,"ĠØ£ÙģÙĩÙħÙĩ":11794,"ĠÙħØµØŃ":11795,"ĠÙħØ°ÙĬ":11796,"ĠØ¨ÙģØª":11797,"ĠØ¨Ø¶Ø¹":11798,"ĠØ¨Ø·Ø¹Ø§Ùħ":11799,"ĠÙģÙħØ±":11800,"ĠÙģÙĥØ±Ùĩ":11801,"ÙģÙĥØ°Ø§":11802,"ÙĥØ´Ùģ":11803,"Ø£ÙĪÙĬ":11804,"Ø£ØŃÙħØ¯":11805,"Ø£Ø®Ø¨Ø±ÙĨÙĬ":11806,"ĠÙĤØ±Ø§Ø¨ØªÙĩ":11807,"ØµÙģÙĩ":11808,"ØµØ§ÙĦÙĩ":11809,"ĠÙģÙĬÙĤØ¨ÙĦ":11810,"ÙĦÙĬØ¸":11811,"ĠÙĥÙĬØ³":11812,"ĠØ§ÙĦÙħØ±Ø©":11813,"ĠØ§ÙĦÙħÙģØµÙĦ":11814,"ĠØ§ÙĦÙħÙħØªÙĨØ¹":11815,"ĠØ§ÙĦÙħØ£ÙĥÙĪÙĦ":11816,"ĠØ¥ÙĬØµ":11817,"Ø«ÙĦØ§Ø«":11818,"Ø·Ø§ÙĦ":11819,"ĠØªÙĦÙĤ":11820,"ĠØªÙģØ±":11821,"ĠØªØ±Ø¬ØŃ":11822,"ĠØªÙĪÙĥÙĬÙĦÙĩ":11823,"Ø§ÙĦØ°":11824,"ĠØ§ÙĦÙĦÙĪØ«":11825,"ÙĬØ±Ø§ÙĨ":11826,"ĠØ£ÙĪÙĤØ¹":11827,"ĠØ£ÙĪØ¯Ø¹":11828,"Ø§Ø±Ø¯Ø©":11829,"ĠØ±Ø¯Ø§Ø¡":11830,"ĠØ±ÙħØ§Ùĩ":11831,"ĠÙĨØ¸Ùħ":11832,"ĠÙĨÙĪØ¹Ùĩ":11833,"ĠÙĨØ¨Ø´":11834,"ĠÙĨØ°Ø±Ø§":11835,"ĠÙĨØ´Ø£":11836,"ĠÙĨÙģÙĪØ°":11837,"ĠÙĦØ§Ø¹ÙĨ":11838,"ĠÙĦÙħØŃ":11839,"ĠØ³Ø±ÙĬØ©":11840,"ÙĦÙģÙĦØ§ÙĨ":11841,"ĠØµØ¨Øº":11842,"Ø§Ø¨ØŃ":11843,"ĠØ§ÙĦØ¹Ø¸ÙĬÙħ":11844,"ÙħÙĨØ©":11845,"ÙħÙĨÙĪØ¹":11846,"ĠØ¨Ø¹ÙĦÙħ":11847,"ĠØ¨Ø¹ÙĬØ±Ø§":11848,"ĠØ§ÙĦØŃÙĥÙħØ©":11849,"ĠØ§ÙĦØŃØ¯ÙĬØ¨ÙĬØ©":11850,"ÙĩÙĪØ±ÙĬ":11851,"ĠØ¯ÙĦØ³":11852,"ĠØ¯ÙĪØ§Ø¡":11853,"ĠØ¯Ø¨Øº":11854,"ĠÙħØ¹Ø§Ø±Ø¶":11855,"ĠØ¨ÙĩØ±Ø§Ùħ":11856,
[...]
